{
  "version": "1.0",
  "truncation": null,
  "padding": null,
  "added_tokens": [
    {
      "id": 0,
      "content": "<|endoftext|>",
      "single_word": false,
      "lstrip": false,
      "rstrip": false,
      "normalized": false,
      "special": true
    },
    {
      "id": 1,
      "content": "<|padding|>",
      "single_word": false,
      "lstrip": false,
      "rstrip": false,
      "normalized": false,
      "special": true
    }
  ],
  "normalizer": {
    "type": "NFKC"
  },
  "pre_tokenizer": {
    "type": "ByteLevel",
    "add_prefix_space": false,
    "trim_offsets": true,
    "use_regex": true
  },
  "post_processor": null,
  "decoder": {
    "type": "ByteLevel",
    "add_prefix_space": true,
    "trim_offsets": true,
    "use_regex": true
  },
  "model": {
    "type": "BPE",
    "dropout": null,
    "unk_token": null,
    "continuing_subword_prefix": null,
    "end_of_word_suffix": null,
    "fuse_unk": false,
    "byte_fallback": false,
    "ignore_merges": false,
    "vocab": {
      "<|endoftext|>": 0,
      "<|padding|>": 1,
      "!": 2,
      "\"": 3,
      "#": 4,
      "$": 5,
      "%": 6,
      "&": 7,
      "'": 8,
      "(": 9,
      ")": 10,
      "*": 11,
      "+": 12,
      ",": 13,
      "-": 14,
      ".": 15,
      "/": 16,
      "0": 17,
      "1": 18,
      "2": 19,
      "3": 20,
      "4": 21,
      "5": 22,
      "6": 23,
      "7": 24,
      "8": 25,
      "9": 26,
      ":": 27,
      ";": 28,
      "<": 29,
      "=": 30,
      ">": 31,
      "?": 32,
      "@": 33,
      "A": 34,
      "B": 35,
      "C": 36,
      "D": 37,
      "E": 38,
      "F": 39,
      "G": 40,
      "H": 41,
      "I": 42,
      "J": 43,
      "K": 44,
      "L": 45,
      "M": 46,
      "N": 47,
      "O": 48,
      "P": 49,
      "Q": 50,
      "R": 51,
      "S": 52,
      "T": 53,
      "U": 54,
      "V": 55,
      "W": 56,
      "X": 57,
      "Y": 58,
      "Z": 59,
      "[": 60,
      "\\": 61,
      "]": 62,
      "^": 63,
      "_": 64,
      "`": 65,
      "a": 66,
      "b": 67,
      "c": 68,
      "d": 69,
      "e": 70,
      "f": 71,
      "g": 72,
      "h": 73,
      "i": 74,
      "j": 75,
      "k": 76,
      "l": 77,
      "m": 78,
      "n": 79,
      "o": 80,
      "p": 81,
      "q": 82,
      "r": 83,
      "s": 84,
      "t": 85,
      "u": 86,
      "v": 87,
      "w": 88,
      "x": 89,
      "y": 90,
      "z": 91,
      "{": 92,
      "}": 93,
      "~": 94,
      "¡": 95,
      "¢": 96,
      "£": 97,
      "¤": 98,
      "¥": 99,
      "¦": 100,
      "§": 101,
      "¨": 102,
      "©": 103,
      "ª": 104,
      "«": 105,
      "¬": 106,
      "®": 107,
      "¯": 108,
      "°": 109,
      "±": 110,
      "²": 111,
      "³": 112,
      "´": 113,
      "µ": 114,
      "¶": 115,
      "·": 116,
      "¸": 117,
      "¹": 118,
      "º": 119,
      "»": 120,
      "¼": 121,
      "½": 122,
      "¾": 123,
      "¿": 124,
      "Â": 125,
      "Ã": 126,
      "Ä": 127,
      "Å": 128,
      "Æ": 129,
      "Ç": 130,
      "È": 131,
      "É": 132,
      "Ê": 133,
      "Ë": 134,
      "Ì": 135,
      "Í": 136,
      "Î": 137,
      "Ï": 138,
      "Ð": 139,
      "Ñ": 140,
      "Ò": 141,
      "Ó": 142,
      "Ô": 143,
      "Õ": 144,
      "Ö": 145,
      "×": 146,
      "Ø": 147,
      "Ù": 148,
      "Ú": 149,
      "Û": 150,
      "Ü": 151,
      "Ý": 152,
      "ß": 153,
      "à": 154,
      "á": 155,
      "â": 156,
      "ã": 157,
      "ä": 158,
      "å": 159,
      "æ": 160,
      "ç": 161,
      "è": 162,
      "é": 163,
      "ê": 164,
      "ë": 165,
      "ì": 166,
      "í": 167,
      "î": 168,
      "ï": 169,
      "ð": 170,
      "ñ": 171,
      "ò": 172,
      "ó": 173,
      "ô": 174,
      "Ġ": 175,
      "ġ": 176,
      "Ģ": 177,
      "ģ": 178,
      "Ĥ": 179,
      "ĥ": 180,
      "Ħ": 181,
      "ħ": 182,
      "Ĩ": 183,
      "ĩ": 184,
      "Ī": 185,
      "ī": 186,
      "Ĭ": 187,
      "ĭ": 188,
      "Į": 189,
      "į": 190,
      "İ": 191,
      "ı": 192,
      "Ĳ": 193,
      "ĳ": 194,
      "Ĵ": 195,
      "ĵ": 196,
      "Ķ": 197,
      "ķ": 198,
      "ĸ": 199,
      "Ĺ": 200,
      "ĺ": 201,
      "Ļ": 202,
      "ļ": 203,
      "Ľ": 204,
      "ľ": 205,
      "Ŀ": 206,
      "ŀ": 207,
      "Ł": 208,
      "ł": 209,
      "Ń": 210,
      "ä¸": 211,
      "çļ": 212,
      "çļĦ": 213,
      "äº": 214,
      "ãĢ": 215,
      "ä»": 216,
      "åħ": 217,
      "æľ": 218,
      "åı": 219,
      "å®": 220,
      "åĪ": 221,
      "ãĢĤ": 222,
      "ä½": 223,
      "è¿": 224,
      "åĽ": 225,
      "åĲ": 226,
      "ä¼": 227,
      "è®": 228,
      "æĪ": 229,
      "åĬ": 230,
      "åľ": 231,
      "åĴ": 232,
      "åĴĮ": 233,
      "ç»": 234,
      "å¤": 235,
      "åĽ½": 236,
      "ä¼ļ": 237,
      "æĸ": 238,
      "æĺ": 239,
      "å¹": 240,
      "åľ¨": 241,
      "è¯": 242,
      "å°": 243,
      "ä¹": 244,
      "æĪĳ": 245,
      "ä¸Ģ": 246,
      "è¡": 247,
      "åĳ": 248,
      "æĿ": 249,
      "åĨ": 250,
      "æĺ¯": 251,
      "ãĢģ": 252,
      "çĶ": 253,
      "æľī": 254,
      "æī": 255,
      "äºº": 256,
      "æĹ": 257,
      "åį": 258,
      "äºĨ": 259,
      "éĩ": 260,
      "åº": 261,
      "ä¸į": 262,
      "è®®": 263,
      "æĶ": 264,
      "æ³": 265,
      "è¿Ļ": 266,
      "å¯": 267,
      "æŃ": 268,
      "è¡Į": 269,
      "å·": 270,
      "åĩ": 271,
      "å¾": 272,
      "ä½ł": 273,
      "éĹ": 274,
      "ä¸º": 275,
      "æĬ": 276,
      "ä»¥": 277,
      "é¢": 278,
      "çĽ": 279,
      "åĳĺ": 280,
      "éĻ": 281,
      "ç¬": 282,
      "è§": 283,
      "å±": 284,
      "å¹´": 285,
      "å¼": 286,
      "ä¿": 287,
      "å¥": 288,
      "ç¬¬": 289,
      "è´": 290,
      "éĢ": 291,
      "ä½ľ": 292,
      "¦ģ": 293,
      "ä»¬": 294,
      "çº": 295,
      "ä»ĸ": 296,
      "æ³ķ": 297,
      "ç§": 298,
      "éĿ": 299,
      "00": 300,
      "æĢ": 301,
      "åĮ": 302,
      "æĭ": 303,
      "è¦ģ": 304,
      "æł": 305,
      "èµ": 306,
      "èĢ": 307,
      "æı": 308,
      "å¸": 309,
      "ĥ½": 310,
      "æķ": 311,
      "åĲĪ": 312,
      "åıĳ": 313,
      "ä¸ª": 314,
      "æĸ¹": 315,
      "å¯¹": 316,
      "åħ³": 317,
      "å®ļ": 318,
      "èģ": 319,
      "æŀ": 320,
      "çī": 321,
      "ä¸Ń": 322,
      "åħ¶": 323,
      "äºİ": 324,
      "æĮ": 325,
      "å®¶": 326,
      "äºĭ": 327,
      "çĲ": 328,
      "æıĲ": 329,
      "é¡": 330,
      "ä¾": 331,
      "åĪ°": 332,
      "æ´": 333,
      "å§": 334,
      "åŁ": 335,
      "æīĢ": 336,
      "å¤§": 337,
      "200": 338,
      "æ¬": 339,
      "âĢ": 340,
      "åŃ": 341,
      "èģĶ": 342,
      "åĩº": 343,
      "å¿": 344,
      "å½": 345,
      "å¦": 346,
      "çİ": 347,
      "ç«": 348,
      "è¿Ľ": 349,
      "æ°": 350,
      "èĥ½": 351,
      "èĩ": 352,
      "æ²": 353,
      "åľ°": 354,
      "åı¯": 355,
      "çĲĨ": 356,
      "æĶ¿": 357,
      "ä¸»": 358,
      "æĥ": 359,
      "æİ": 360,
      "æĦ": 361,
      "åĨ³": 362,
      "åĬ¨": 363,
      "åıĬ": 364,
      "è°": 365,
      "å§Ķ": 366,
      "æ¡": 367,
      "çĶ¨": 368,
      "éģ": 369,
      "æĪĲ": 370,
      "æĿ¥": 371,
      "å·¥": 372,
      "çĶŁ": 373,
      "ä¸Ĭ": 374,
      "ç»Ħ": 375,
      "çº¦": 376,
      "æĹ¥": 377,
      "æĿĥ": 378,
      "..": 379,
      "åĬł": 380,
      "éĹ®": 381,
      "åĪ©": 382,
      "åĽ½å®¶": 383,
      "ä¸İ": 384,
      "å§Ķåĳĺ": 385,
      "é¢ĺ": 386,
      "åħ¨": 387,
      "ä¼ļè®®": 388,
      "å§Ķåĳĺä¼ļ": 389,
      "åİ": 390,
      "æµ": 391,
      "éĺ": 392,
      "çŃ": 393,
      "å±ķ": 394,
      "çī¹": 395,
      "å¹¶": 396,
      "è¿ĩ": 397,
      "ç½": 398,
      "æľĪ": 399,
      "åħ¬": 400,
      "éĥ": 401,
      "æĪĳä»¬": 402,
      "åĬĽ": 403,
      "ç»ı": 404,
      "åĵ": 405,
      "éĥ¨": 406,
      "æĹ¶": 407,
      "æ¯": 408,
      "äºĽ": 409,
      "éĻħ": 410,
      "èģĶåĲĪ": 411,
      "è¡¨": 412,
      "æĬ¥": 413,
      "æ¡Ī": 414,
      "éĿ¢": 415,
      "è¾": 416,
      "Ł¥": 417,
      "éĹ®é¢ĺ": 418,
      "åĳĬ": 419,
      "ç®": 420,
      "å°±": 421,
      "æľº": 422,
      "ä¿Ŀ": 423,
      "éĩį": 424,
      "åĲĦ": 425,
      "ç¤": 426,
      "åºĶ": 427,
      "é¡¹": 428,
      "ãĢĬ": 429,
      "ãĢĭ": 430,
      "ä¸ĭ": 431,
      "å¾Ĺ": 432,
      "æį": 433,
      "åĪĨ": 434,
      "åĪ¶": 435,
      "æ°ĳ": 436,
      "åĬ¡": 437,
      "æĢ§": 438,
      "åĽ½éĻħ": 439,
      "å®ŀ": 440,
      "éĤ": 441,
      "å»": 442,
      "å°Ĩ": 443,
      "æĸ¯": 444,
      "çľ": 445,
      "å®ī": 446,
      "åĢ": 447,
      "çĽ®": 448,
      "ç¨": 449,
      "å·¥ä½ľ": 450,
      "åĲĮ": 451,
      "åī": 452,
      "åģ": 453,
      "åĪ«": 454,
      "æĦı": 455,
      "å¤ļ": 456,
      "èģĶåĲĪåĽ½": 457,
      "çķ": 458,
      "æĿ¡": 459,
      "èĢĮ": 460,
      "çİ°": 461,
      "èµĦ": 462,
      "éķ": 463,
      "è¯¥": 464,
      "æĬ¥åĳĬ": 465,
      "ä»»": 466,
      "ç¼": 467,
      "å»º": 468,
      "éĿŀ": 469,
      "å¼Ģ": 470,
      "éĹ´": 471,
      "æĪĸ": 472,
      "åĬ©": 473,
      "ç¡": 474,
      "åıĳå±ķ": 475,
      "ä¹Ī": 476,
      "éĢļ": 477,
      "äºļ": 478,
      "æ±": 479,
      "å¢": 480,
      "æľŁ": 481,
      "éķ¿": 482,
      "åĨħ": 483,
      "åĲİ": 484,
      "æĸĩ": 485,
      "æľ¬": 486,
      "ä¹¦": 487,
      "è¯´": 488,
      "å¥³": 489,
      "æĮģ": 490,
      "å¥½": 491,
      "è¿ĺ": 492,
      "å¦Ĥ": 493,
      "ç§į": 494,
      "ä¹ĭ": 495,
      "å½ĵ": 496,
      "åĮº": 497,
      "ç»ĩ": 498,
      "ä¾Ľ": 499,
      "ç»Ħç»ĩ": 500,
      "æģ": 501,
      "æĥħ": 502,
      "éĤ£": 503,
      "ç«ĭ": 504,
      "ç¨ĭ": 505,
      "å¹³": 506,
      "æŃ¤": 507,
      "èĩª": 508,
      "19": 509,
      "åŁº": 510,
      "æ²¡": 511,
      "ä¸Ģä¸ª": 512,
      "ä»¶": 513,
      "åĿ": 514,
      "è§Ħ": 515,
      "ç¾": 516,
      "åĽł": 517,
      "ä½ĵ": 518,
      "ä»£": 519,
      "ä¹Ł": 520,
      "æľĢ": 521,
      "ä½¿": 522,
      "åįı": 523,
      "éģĵ": 524,
      "å¤Ħ": 525,
      "å¤ĸ": 526,
      "æĺİ": 527,
      "æŃ£": 528,
      "åıĸ": 529,
      "ç¤¾": 530,
      "è®¡": 531,
      "æĭī": 532,
      "æĽ": 533,
      "èĢħ": 534,
      "ç³": 535,
      "åīį": 536,
      "åħ³äºİ": 537,
      "ç¡®": 538,
      "åºľ": 539,
      "æ¬¡": 540,
      "æĶ¿åºľ": 541,
      "éĩĮ": 542,
      "è®¤": 543,
      "æŀĦ": 544,
      "æį®": 545,
      "ä¿¡": 546,
      "è°ĥ": 547,
      "åĨµ": 548,
      "æıĲä¾Ľ": 549,
      "åıĹ": 550,
      "åı·": 551,
      "æĶ¯": 552,
      "éĩĳ": 553,
      "æĸ¹éĿ¢": 554,
      "æ®": 555,
      "ç®¡": 556,
      "è½": 557,
      "ä½Ĩ": 558,
      "éļ": 559,
      "å®¡": 560,
      "ç³»": 561,
      "éľ": 562,
      "æĸ½": 563,
      "æŀľ": 564,
      "æĸ°": 565,
      "çĶ±": 566,
      "æ´»": 567,
      "ä»¥åıĬ": 568,
      "åķ": 569,
      "åĽ¢": 570,
      "å¼º": 571,
      "åħ±": 572,
      "åĮħ": 573,
      "ä¹ī": 574,
      "âĢľ": 575,
      "ä¸ļ": 576,
      "äº¤": 577,
      "å·²": 578,
      "éĥ½": 579,
      "çĤ": 580,
      "è¿ĻäºĽ": 581,
      "ç©": 582,
      "åĨ³è®®": 583,
      "ç»Ń": 584,
      "ç¤¾ä¼ļ": 585,
      "å°Ķ": 586,
      "å®ĥ": 587,
      "ç¾İ": 588,
      "åħĪ": 589,
      "æī§": 590,
      "å¿ħ": 591,
      "åĲĳ": 592,
      "é«": 593,
      "è®¾": 594,
      "åŁŁ": 595,
      "åĮĸ": 596,
      "é«ĺ": 597,
      "çĦ": 598,
      "ä»Ģ": 599,
      "åħ¶ä»ĸ": 600,
      "ä»ĸä»¬": 601,
      "é¢Ĩ": 602,
      "éľĢ": 603,
      "è¡ĮåĬ¨": 604,
      "è§£": 605,
      "çŁ¥": 606,
      "âĢĿ": 607,
      "è¯·": 608,
      "åº¦": 609,
      "è¢": 610,
      "éĽ": 611,
      "ä»£è¡¨": 612,
      "ç§ĺ": 613,
      "çī¹åĪ«": 614,
      "èį": 615,
      "æĥħåĨµ": 616,
      "éĢļè¿ĩ": 617,
      "æ±Ĥ": 618,
      "æī§è¡Į": 619,
      "åŃĲ": 620,
      "åİ»": 621,
      "æķ°": 622,
      "å·´": 623,
      "çĦ¶": 624,
      "æŁ¥": 625,
      "å®īåħ¨": 626,
      "æĭ¬": 627,
      "æĮĩ": 628,
      "åħ¥": 629,
      "å°ı": 630,
      "è¨": 631,
      "è®º": 632,
      "åįģ": 633,
      "é©": 634,
      "åĦ": 635,
      "çĿ": 636,
      "åĮħæĭ¬": 637,
      "æľīåħ³": 638,
      "æľºæŀĦ": 639,
      "æł·": 640,
      "åĦ¿": 641,
      "çŃī": 642,
      "è¿Ľè¡Į": 643,
      "ç»Ł": 644,
      "è§ģ": 645,
      "çĽ¸": 646,
      "æĸ¹æ¡Ī": 647,
      "ç§ĺä¹¦": 648,
      "éĩĩ": 649,
      "...": 650,
      "æĽ´": 651,
      "è£": 652,
      "ä»İ": 653,
      "æµİ": 654,
      "æłĩ": 655,
      "ä»Ģä¹Ī": 656,
      "ç´": 657,
      "æĥ³": 658,
      "èµ·": 659,
      "å¾Ī": 660,
      "è¢«": 661,
      "åĬŀ": 662,
      "åĩĨ": 663,
      "æ¯Ķ": 664,
      "æ´²": 665,
      "ç»ĵ": 666,
      "äº§": 667,
      "è¨Ģ": 668,
      "åħĭ": 669,
      "çľĭ": 670,
      "æ²¡æľī": 671,
      "èī": 672,
      "æł¹": 673,
      "åģļ": 674,
      "æīĢæľī": 675,
      "¥¿": 676,
      "è·": 677,
      "åħ¬çº¦": 678,
      "æ¶": 679,
      "å¥¹": 680,
      "åŃ¦": 681,
      "å¦ĩ": 682,
      "äººæĿĥ": 683,
      "èĤ": 684,
      "åĪĻ": 685,
      "10": 686,
      "èĩ³": 687,
      "çĬ": 688,
      "çĤ¹": 689,
      "ç±": 690,
      "å¿ĥ": 691,
      "è¥¿": 692,
      "ç»ıæµİ": 693,
      "æķĻ": 694,
      "è¶": 695,
      "åĪĹ": 696,
      "è¾¾": 697,
      "åĪĴ": 698,
      "é¢Ħ": 699,
      "åĲĹ": 700,
      "çĲĨäºĭ": 701,
      "æ®µ": 702,
      "æ³¨": 703,
      "ä¸ĵ": 704,
      "å¼ı": 705,
      "ä½ķ": 706,
      "ç»Ļ": 707,
      "12": 708,
      "æº": 709,
      "åĲį": 710,
      "å¦ĩå¥³": 711,
      "éĺ¿": 712,
      "æ¸": 713,
      "çķĮ": 714,
      "å¤§ä¼ļ": 715,
      "çĲĨäºĭä¼ļ": 716,
      "æĪĺ": 717,
      "çĪ": 718,
      "199": 719,
      "ä¸¾": 720,
      "æĻ": 721,
      "ä¸¤": 722,
      "åĲĪä½ľ": 723,
      "æ´»åĬ¨": 724,
      "ĠæĪĳ": 725,
      "åıĤ": 726,
      "ä¸ĸ": 727,
      "æ¬¾": 728,
      "å»ºè®®": 729,
      "æĬ¤": 730,
      "å¸¸": 731,
      "çī©": 732,
      "äºĮ": 733,
      "ä¸ī": 734,
      "å¾ĭ": 735,
      "ç¼Ķ": 736,
      "æºĲ": 737,
      "å°¼": 738,
      "çľŁ": 739,
      "æĹł": 740,
      "æķĪ": 741,
      "å£": 742,
      "æİª": 743,
      "ç«¥": 744,
      "çł": 745,
      "èİ": 746,
      "å¢ĥ": 747,
      "éľĢè¦ģ": 748,
      "é¡¹çĽ®": 749,
      "åıį": 750,
      "è¿Ļä¸Ģ": 751,
      "èĲ": 752,
      "å±Ĭ": 753,
      "ç¼Ķçº¦": 754,
      "å¢ŀ": 755,
      "äººåĳĺ": 756,
      "é¡»": 757,
      "åĽŀ": 758,
      "è§Ħå®ļ": 759,
      "ç»´": 760,
      "åıª": 761,
      "æ²»": 762,
      "åĨ³å®ļ": 763,
      "èĭ": 764,
      "å¤©": 765,
      "ä¿ĥ": 766,
      "æĢ»": 767,
      "èĻ": 768,
      "æĶ¹": 769,
      "åı¯èĥ½": 770,
      "å¸Ń": 771,
      "æł¹æį®": 772,
      "åĴĮå¹³": 773,
      "çĿĢ": 774,
      "åı¯ä»¥": 775,
      "an": 776,
      "æŃ¦": 777,
      "åħ°": 778,
      "çº§": 779,
      "éĩĩåıĸ": 780,
      "éĹ¨": 781,
      "éĻ¤": 782,
      "åİŁ": 783,
      "é©¬": 784,
      "åĪĩ": 785,
      "å¡": 786,
      "æĬĢ": 787,
      "åĮºåŁŁ": 788,
      "âĢĶ": 789,
      "è´£": 790,
      "åĸ": 791,
      "åĦ¿ç«¥": 792,
      "æıĲåĩº": 793,
      "æľ¯": 794,
      "ç§ĳ": 795,
      "å¿ħé¡»": 796,
      "ä¸»ä¹ī": 797,
      "å°ĳ": 798,
      "er": 799,
      "è¯ģ": 800,
      "æİ¥": 801,
      "on": 802,
      "in": 803,
      "æł¸": 804,
      "æ»": 805,
      "çŁ¥éģĵ": 806,
      "åĲ§": 807,
      "è®¡åĪĴ": 808,
      "çĸ": 809,
      "è¿Ĳ": 810,
      "åķĨ": 811,
      "èĪ": 812,
      "åħ·": 813,
      "åľŁ": 814,
      "æĿĥåĪ©": 815,
      "ä¼Ĭ": 816,
      "çŃĸ": 817,
      "æİªæĸ½": 818,
      "ç§ĺä¹¦éķ¿": 819,
      "æŃ¢": 820,
      "åħĪçĶŁ": 821,
      "åı¸": 822,
      "æĶ¶": 823,
      "Ġt": 824,
      "åĭ": 825,
      "èįī": 826,
      "ä¸ĸçķĮ": 827,
      "ç®Ĺ": 828,
      "ä½į": 829,
      "çĹ": 830,
      "å±Ģ": 831,
      "ç¤º": 832,
      "ç»§": 833,
      "å®³": 834,
      "åĻ": 835,
      "å¸ĥ": 836,
      "æ³ķå¾ĭ": 837,
      "Ġä½ł": 838,
      "11": 839,
      "è´¹": 840,
      "è§Ĩ": 841,
      "çĬ¯": 842,
      "éĩįè¦ģ": 843,
      "ç±»": 844,
      "æĪĲåĳĺ": 845,
      "åĨĽ": 846,
      "æĬĬ": 847,
      "åı·åĨ³è®®": 848,
      "æĶ¯æĮģ": 849,
      "è®¸": 850,
      "æľª": 851,
      "åĬª": 852,
      "åı£": 853,
      "æĬĢæľ¯": 854,
      "æľį": 855,
      "ç®¡çĲĨ": 856,
      "è®©": 857,
      "åħĥ": 858,
      "æŃ¥": 859,
      "æī¿": 860,
      "ç½ª": 861,
      "ç»§ç»Ń": 862,
      "å¯¼": 863,
      "æı´": 864,
      "éĢĤ": 865,
      "è®¤ä¸º": 866,
      ")ãĢĤ": 867,
      "éħ": 868,
      "é¦": 869,
      "è¯ī": 870,
      "å½±": 871,
      "çĻ": 872,
      "éĢī": 873,
      "éļ¾": 874,
      "ä¸»å¸Ń": 875,
      "åĬªåĬĽ": 876,
      "éĩı": 877,
      "é£": 878,
      "çħ": 879,
      "çģ": 880,
      "ä¸įæĺ¯": 881,
      "åĻ¨": 882,
      "ä¸Ķ": 883,
      "å±Ĭä¼ļè®®": 884,
      "æĺĵ": 885,
      "çĽĳ": 886,
      "å¤ĩ": 887,
      "å¦Ĥæŀľ": 888,
      "ä¾ĭ": 889,
      "ä¿ĿæĬ¤": 890,
      "ç½²": 891,
      "ç¥": 892,
      "è¦ģæ±Ĥ": 893,
      "ç¦": 894,
      "éĶ": 895,
      "éĴ": 896,
      "åºŃ": 897,
      "ä»»ä½ķ": 898,
      "åĵį": 899,
      "æıĲäº¤": 900,
      "Â·": 901,
      "æ¬§": 902,
      "è¯Ŀ": 903,
      "æĦŁ": 904,
      "äºĶ": 905,
      "æ³¨æĦı": 906,
      "æīĵ": 907,
      "çĲĥ": 908,
      "è¯Ħ": 909,
      "åĬłå¼º": 910,
      "æģ¯": 911,
      "åŁºéĩĳ": 912,
      "èģĮ": 913,
      "æ´¾": 914,
      "çļĦäºº": 915,
      "çħ§": 916,
      "çª": 917,
      "éĺ²": 918,
      "ä¿ĥè¿Ľ": 919,
      "èįīæ¡Ī": 920,
      "ç½Ĺ": 921,
      "æĶ¿çŃĸ": 922,
      "åĴĮåĽ½": 923,
      "è®°": 924,
      "è¡Įä¸º": 925,
      "é¢Ŀ": 926,
      "æµ·": 927,
      "è¯Ĩ": 928,
      "å½±åĵį": 929,
      "èĤ²": 930,
      "æĸĻ": 931,
      "çº³": 932,
      "or": 933,
      "èµĦæºĲ": 934,
      "çļĦä¸Ģ": 935,
      "åĿ¦": 936,
      "å¨": 937,
      "èĢĥ": 938,
      "ä¸ľ": 939,
      "çİ¯": 940,
      "ç³»ç»Ł": 941,
      "åĨį": 942,
      "æŁ": 943,
      "15": 944,
      "ç¼Ķçº¦åĽ½": 945,
      "è®¨": 946,
      "èĥ": 947,
      "å¾·": 948,
      "èĦ": 949,
      "åħ±åĴĮåĽ½": 950,
      "è¿Ļä¸ª": 951,
      "çĭ": 952,
      "ä¾¿": 953,
      "çłĶ": 954,
      "æīĭ": 955,
      "å¹²": 956,
      "åįĹ": 957,
      "ar": 958,
      "éĢł": 959,
      "é»": 960,
      "åıĺ": 961,
      "æı´åĬ©": 962,
      "æ¶Ī": 963,
      "20": 964,
      "å¤į": 965,
      "å·²ç»ı": 966,
      "çĽ®æłĩ": 967,
      "åĢĳ": 968,
      "éĽĨ": 969,
      "åĽłä¸º": 970,
      "æ£": 971,
      "å¯Ł": 972,
      "çĹħ": 973,
      "åĵģ": 974,
      "éĺŁ": 975,
      "æĶ¾": 976,
      "at": 977,
      "åľº": 978,
      "åĽĽ": 979,
      "ç¡®ä¿Ŀ": 980,
      "Ġåľ¨": 981,
      "å®ĺ": 982,
      "èİ·": 983,
      "æĪĳçļĦ": 984,
      "æł¼": 985,
      "éĻ¢": 986,
      "çĽŁ": 987,
      "èĮ": 988,
      "åĩı": 989,
      "æļ": 990,
      "en": 991,
      "ä»Ĭ": 992,
      "æĸĩä»¶": 993,
      "è®¢": 994,
      "è¿Ļç§į": 995,
      "è´¸": 996,
      "å¡ŀ": 997,
      "éĻĦ": 998,
      "å®Į": 999,
      "èĩ´": 1000,
      "æĹı": 1001,
      "ç¾İåħĥ": 1002,
      "å®£": 1003,
      "æŃ¦åĻ¨": 1004,
      "çªģ": 1005,
      "å»ºç«ĭ": 1006,
      "å¤±": 1007,
      "åĵ¥": 1008,
      "åį³": 1009,
      "çĽ´": 1010,
      "æĸ¯åĿ¦": 1011,
      "å¤Ł": 1012,
      "çķ¥": 1013,
      "çİ¯å¢ĥ": 1014,
      "åįķ": 1015,
      "å£«": 1016,
      "æģĲ": 1017,
      "æľįåĬ¡": 1018,
      "çİ°åľ¨": 1019,
      "çļĦæĬ¥åĳĬ": 1020,
      "éĻĲ": 1021,
      "èĥ½åĬĽ": 1022,
      "é¦ĸ": 1023,
      "ä½ľä¸º": 1024,
      "å®¡è®®": 1025,
      "éª": 1026,
      "åħħ": 1027,
      "æ¯ı": 1028,
      "åĪ¤": 1029,
      "ç´¢": 1030,
      "éĥ¨åĪĨ": 1031,
      "ä¸¾è¡Į": 1032,
      "è¿°": 1033,
      "çĶµ": 1034,
      "è´¢": 1035,
      "åĲĦåĽ½": 1036,
      "æµģ": 1037,
      "éĿŀæ´²": 1038,
      "ä¿¡æģ¯": 1039,
      "æĢİ": 1040,
      "æľĽ": 1041,
      "åĭĴ": 1042,
      "ou": 1043,
      "æķĻèĤ²": 1044,
      "çĵ": 1045,
      "ä»½": 1046,
      "åŃĺ": 1047,
      "ç¼ĸ": 1048,
      "åįıè°ĥ": 1049,
      "ä½ľåĩº": 1050,
      "èº": 1051,
      "æŃ»": 1052,
      "he": 1053,
      "èĻĳ": 1054,
      "13": 1055,
      "çĶ³": 1056,
      "è°¢": 1057,
      "al": 1058,
      "è£ģ": 1059,
      "å®īåħ¨çĲĨäºĭä¼ļ": 1060,
      "åħ¨çĲĥ": 1061,
      "åºı": 1062,
      "çĽĬ": 1063,
      "åĪĳ": 1064,
      "ç©¶": 1065,
      "æĶ¿æ²»": 1066,
      "èĬ": 1067,
      "æ°´": 1068,
      "æĮī": 1069,
      "å°½": 1070,
      "åĢĻ": 1071,
      "è§£åĨ³": 1072,
      "åĽłæŃ¤": 1073,
      "æĭħ": 1074,
      "å¤ª": 1075,
      "å®¡æŁ¥": 1076,
      "ä½łçļĦ": 1077,
      "å®ŀçİ°": 1078,
      "èŃ": 1079,
      "è½¬": 1080,
      "èĢĥèĻĳ": 1081,
      "ä¹ĭéĹ´": 1082,
      "åıĳè¨Ģ": 1083,
      "è¾¹": 1084,
      "è¿Ļæĺ¯": 1085,
      "å¸Į": 1086,
      "ä¸»è¦ģ": 1087,
      "è®Ń": 1088,
      "å²": 1089,
      "éĥ¨éĹ¨": 1090,
      "èī²": 1091,
      "ä½¿çĶ¨": 1092,
      "è¿Ļæł·": 1093,
      "ç¬¬äºĮ": 1094,
      "è°Ī": 1095,
      "æ¬¢": 1096,
      "æŀģ": 1097,
      "ç©º": 1098,
      "åıĤä¸İ": 1099,
      "äºī": 1100,
      "äººæ°ĳ": 1101,
      "äºĭåĬ¡": 1102,
      "å¿«": 1103,
      "2001": 1104,
      "14": 1105,
      "èĮĥ": 1106,
      "ä¸ĢäºĽ": 1107,
      "èº«": 1108,
      "æľīæķĪ": 1109,
      "åķĬ": 1110,
      "çļĦå·¥ä½ľ": 1111,
      "è´¨": 1112,
      "ä¼Ļ": 1113,
      "æĳ": 1114,
      "å¾ĹåĪ°": 1115,
      "åħ³ç³»": 1116,
      "çłĶç©¶": 1117,
      "åĨ²": 1118,
      "çļĦæĺ¯": 1119,
      "æ·": 1120,
      "ä¼ł": 1121,
      "2005": 1122,
      "ç¦»": 1123,
      "åĩł": 1124,
      "åľ°åĮº": 1125,
      "ä¼°": 1126,
      "è¿ĳ": 1127,
      "è®¨è®º": 1128,
      "å¨ģ": 1129,
      "2002": 1130,
      "æİĴ": 1131,
      "æĬķ": 1132,
      "è§Ĥ": 1133,
      "ä»·": 1134,
      "è´Ł": 1135,
      "æĪĺçķ¥": 1136,
      "é¢ĨåŁŁ": 1137,
      "å°ıç»Ħ": 1138,
      "èŃ¦": 1139,
      "åĲ¦": 1140,
      "æľŁéĹ´": 1141,
      "çı": 1142,
      "ç²": 1143,
      "éº": 1144,
      "è®®ç¨ĭ": 1145,
      "çķĻ": 1146,
      "2000": 1147,
      "èµ°": 1148,
      "å½¢": 1149,
      "),": 1150,
      "æ³¨æĦıåĪ°": 1151,
      "å¸Ĥ": 1152,
      "ä½łä»¬": 1153,
      "åĩ»": 1154,
      "ä¸¥": 1155,
      "æķ´": 1156,
      "æŀ¶": 1157,
      "æĮģç»Ń": 1158,
      "Ġ-": 1159,
      "ä»£è¡¨åĽ¢": 1160,
      "è±": 1161,
      "å§ĭ": 1162,
      "åħ¶ä¸Ń": 1163,
      "æģĲæĢ": 1164,
      "èĳ": 1165,
      "çī¹åĪ«æĺ¯": 1166,
      "æĴ": 1167,
      "åľ¨è¿Ļ": 1168,
      "äººçļĦ": 1169,
      "ä½ľçĶ¨": 1170,
      "å·±": 1171,
      "ä½ı": 1172,
      "åħŃ": 1173,
      "çİĩ": 1174,
      "es": 1175,
      "è¡¨ç¤º": 1176,
      "2004": 1177,
      "è£ħ": 1178,
      "ä½Ĩæĺ¯": 1179,
      "æĮĩåĩº": 1180,
      "æģĲæĢĸ": 1181,
      "æĸ¹éĿ¢çļĦ": 1182,
      "å¼Ģå±ķ": 1183,
      "16": 1184,
      "é¢Ħç®Ĺ": 1185,
      "åĨ²çªģ": 1186,
      "å°±æĺ¯": 1187,
      "è¯Ń": 1188,
      "åį±": 1189,
      "2003": 1190,
      "ä¸´": 1191,
      "èĩªå·±": 1192,
      "éĵ": 1193,
      "å¢ŀåĬł": 1194,
      "è¡¥": 1195,
      "è¯º": 1196,
      "ç¢": 1197,
      "å®ŀæĸ½": 1198,
      "18": 1199,
      "ä¸įèĥ½": 1200,
      "æĦ¿": 1201,
      "è´¸æĺĵ": 1202,
      "åĳ½": 1203,
      "å®¹": 1204,
      "èī¾": 1205,
      "çĪ±": 1206,
      "âĢĶâĢĶ": 1207,
      "æĿ¡çº¦": 1208,
      "30": 1209,
      "ç¨ĭåºı": 1210,
      "2006": 1211,
      "åĬ¿": 1212,
      "ç¬¬ä¸Ģ": 1213,
      "æĢİä¹Ī": 1214,
      "å¸®": 1215,
      "ä»į": 1216,
      "åĥ": 1217,
      "å¿ħè¦ģ": 1218,
      "å¸¦": 1219,
      "å®ĥä»¬": 1220,
      "æ¸ħ": 1221,
      "æĦıè§ģ": 1222,
      "èİ·å¾Ĺ": 1223,
      "çĵ¦": 1224,
      "åĲ¬": 1225,
      "æļ´": 1226,
      "å¾ħ": 1227,
      "æµĭ": 1228,
      "åıĳå±ķä¸Ń": 1229,
      "17": 1230,
      "æ³ķéĻ¢": 1231,
      "ä»¤": 1232,
      "ä»ĺ": 1233,
      "çĥ": 1234,
      "ä¿®": 1235,
      "çĬ¯ç½ª": 1236,
      "ä¸ĢæŃ¥": 1237,
      "æ¬§æ´²": 1238,
      "çĽ¸åħ³": 1239,
      "åı¦": 1240,
      "it": 1241,
      "éĻ©": 1242,
      "is": 1243,
      "å¼ºè°ĥ": 1244,
      "å°¼äºļ": 1245,
      "èĥ½å¤Ł": 1246,
      "çļĦéĹ®é¢ĺ": 1247,
      "ä¾Ŀ": 1248,
      "èµĦæĸĻ": 1249,
      "åºĶè¯¥": 1250,
      "åıĸå¾Ĺ": 1251,
      "èĢģ": 1252,
      "çī¹æ´¾": 1253,
      "æī¾": 1254,
      "æŃ£åľ¨": 1255,
      "æĶ¯åĬ©": 1256,
      "æ°Ķ": 1257,
      "ä¼¯": 1258,
      "ç§ĺä¹¦å¤Ħ": 1259,
      "ä»»åĬ¡": 1260,
      "ä»¥ä¾¿": 1261,
      "å¤ĦçĲĨ": 1262,
      "ä¸ŃçļĦ": 1263,
      "æ¯Ĵ": 1264,
      "ç«ł": 1265,
      "å½ķ": 1266,
      "ä¸ĩ": 1267,
      "æ¨": 1268,
      "çļĦæĥħåĨµ": 1269,
      "è¿Ľç¨ĭ": 1270,
      "èµŀ": 1271,
      "èĢĮä¸Ķ": 1272,
      "çī¹æ´¾åĽ¢": 1273,
      "åİŁåĪĻ": 1274,
      "è¶³": 1275,
      "ç¡®å®ļ": 1276,
      "æ¶ī": 1277,
      "ç¡Ģ": 1278,
      "åŁºç¡Ģ": 1279,
      "æĻ®": 1280,
      "åıĤåĬł": 1281,
      "åĽ´": 1282,
      "25": 1283,
      "è¿Ľä¸ĢæŃ¥": 1284,
      "ç¾İåĽ½": 1285,
      "ç§»": 1286,
      "åıĪ": 1287,
      "è·¯": 1288,
      "çļĦåĽ½å®¶": 1289,
      "æīį": 1290,
      "é¡¾": 1291,
      "åģ¥": 1292,
      "ä¼´": 1293,
      "æŃ§": 1294,
      "åıĳå±ķä¸ŃåĽ½å®¶": 1295,
      "çŁ": 1296,
      "å¸ĮæľĽ": 1297,
      "æİ¨": 1298,
      "å®¤": 1299,
      "åį«": 1300,
      "å¼Ģå§ĭ": 1301,
      "äºĪ": 1302,
      "éĹ®é¢ĺçļĦ": 1303,
      "è´£ä»»": 1304,
      "æī©": 1305,
      "åŁ¹": 1306,
      "åĬŀæ³ķ": 1307,
      "æĹ¥ç¬¬": 1308,
      "çĽ®åīį": 1309,
      "æĹ¶éĹ´": 1310,
      "æİ§": 1311,
      "åıĬåħ¶": 1312,
      "åįł": 1313,
      "åĥı": 1314,
      "ç½ĳ": 1315,
      "åĨľ": 1316,
      "é¼": 1317,
      "æ°ĳä¸»": 1318,
      "ç¦ģ": 1319,
      "åĪ©äºļ": 1320,
      "åį¡": 1321,
      "åħ±åĲĮ": 1322,
      "ä¸Ģé¡¹": 1323,
      "çĶ·": 1324,
      "è°ĥæŁ¥": 1325,
      "è´«": 1326,
      "è¡ĮæĶ¿": 1327,
      "ä¸Ńå¿ĥ": 1328,
      "çĭ¬": 1329,
      "åį°": 1330,
      "èģĶçĽŁ": 1331,
      "2007": 1332,
      "åĪļ": 1333,
      "åĴĮåħ¶ä»ĸ": 1334,
      "æŀĹ": 1335,
      "è¯¢": 1336,
      "è·Ł": 1337,
      "åıĳçĶŁ": 1338,
      "æĭŁ": 1339,
      "çıŃ": 1340,
      "åĳ¢": 1341,
      "ä¸ĵå®¶": 1342,
      "ĠA": 1343,
      "æıĲé«ĺ": 1344,
      "åŃ©": 1345,
      "åħħåĪĨ": 1346,
      "æŁĲ": 1347,
      "çļĦåĲĦ": 1348,
      "ç¬¬ä¸ī": 1349,
      "æŃ§è§Ĩ": 1350,
      "è¿İ": 1351,
      "å·¥ä½ľç»Ħ": 1352,
      "è±¡": 1353,
      "æľºåĪ¶": 1354,
      "å·´åĭĴ": 1355,
      "è¯´æĺİ": 1356,
      "å·´åĭĴæĸ¯åĿ¦": 1357,
      "æĸ¹å¼ı": 1358,
      "çĶ±äºİ": 1359,
      "èŀ": 1360,
      "æļ´åĬĽ": 1361,
      "æĤ": 1362,
      "Ĩæŀ¶": 1363,
      "åĲĮæĹ¶": 1364,
      "è½½": 1365,
      "ĠI": 1366,
      "åĵª": 1367,
      "å¤´": 1368,
      "éĻĦä»¶": 1369,
      "ä¼Ļä¼´": 1370,
      "æ»ĭ": 1371,
      "23": 1372,
      "æī¹": 1373,
      "åŁ¹è®Ń": 1374,
      "åĪ©çĶ¨": 1375,
      "Ġs": 1376,
      "æĿĢ": 1377,
      "åĴ¨": 1378,
      "æľºä¼ļ": 1379,
      "æĭ¿": 1380,
      "èª": 1381,
      "è®¸å¤ļ": 1382,
      "æ¡Ĩæŀ¶": 1383,
      "å¤«": 1384,
      "é²": 1385,
      "é¼ĵ": 1386,
      "èŀį": 1387,
      "å¯Į": 1388,
      "æ¬¡ä¼ļè®®": 1389,
      "éĥ¨éĺŁ": 1390,
      "ä¼ĺ": 1391,
      "æ»ĭçĹħ": 1392,
      "å®īçĲĨ": 1393,
      "å¦Ī": 1394,
      "æģĲæĢĸä¸»ä¹ī": 1395,
      "åĪ¶å®ļ": 1396,
      "èĩªçĶ±": 1397,
      "è½¦": 1398,
      "ä»¥èī²": 1399,
      "ä»¥èī²åĪĹ": 1400,
      "èĲ¥": 1401,
      "å£°": 1402,
      "èī¾æ»ĭçĹħ": 1403,
      "ä¼ļåĳĺ": 1404,
      "åĵĪ": 1405,
      "åĬŀäºĭ": 1406,
      "å¼ķ": 1407,
      "æłĩåĩĨ": 1408,
      "åĪ¶åº¦": 1409,
      "Ġw": 1410,
      "èĭ±": 1411,
      "ä¼Ĺ": 1412,
      "æ¬¢è¿İ": 1413,
      "å®¶åºŃ": 1414,
      "å±ŀ": 1415,
      "ç¬¬äºĶ": 1416,
      "èĳĹ": 1417,
      "åĨ³è®®èįīæ¡Ī": 1418,
      "re": 1419,
      "åı¸æ³ķ": 1420,
      "æĸĩåĮĸ": 1421,
      "åħį": 1422,
      "Ġthe": 1423,
      "åħ¨éĿ¢": 1424,
      "äººåı£": 1425,
      "çĮ": 1426,
      "å®īçĲĨä¼ļ": 1427,
      "ä¾µ": 1428,
      "éĿ©": 1429,
      "22": 1430,
      "åĬŀäºĭå¤Ħ": 1431,
      "ç»´æĮģ": 1432,
      "ä¼ļåĳĺåĽ½": 1433,
      "å¹³çŃī": 1434,
      "ä¸ºäºĨ": 1435,
      "åĽ¾": 1436,
      "åħ·ä½ĵ": 1437,
      "ç§°": 1438,
      "è¯Ħä¼°": 1439,
      "åĺ": 1440,
      "éĢĤå½ĵ": 1441,
      "è¶Ĭ": 1442,
      "èĮĥåĽ´": 1443,
      "åĩıå°ĳ": 1444,
      "....": 1445,
      "åĸĦ": 1446,
      "æĸ°çļĦ": 1447,
      "åŃĹ": 1448,
      "éĺ¿æĭī": 1449,
      "åĹ": 1450,
      "å®ª": 1451,
      "åľ°æĸ¹": 1452,
      "éļ¾æ°ĳ": 1453,
      "2008": 1454,
      "å±ħ": 1455,
      "åĬ±": 1456,
      "åŀ": 1457,
      "åįıå®ļ": 1458,
      "ç§¯": 1459,
      "åı¯æĮģç»Ń": 1460,
      "å¹¿": 1461,
      "è®®å®ļ": 1462,
      "ä¸įä¼ļ": 1463,
      "æĺŁ": 1464,
      "ä»ħ": 1465,
      "ä½İ": 1466,
      "æķ°æį®": 1467,
      "å»ºè®¾": 1468,
      "ç¾¤": 1469,
      "æľĢåĲİ": 1470,
      "çĶ¨äºİ": 1471,
      "æ¶ĪéĻ¤": 1472,
      "åĢ¼": 1473,
      "æŃ£å¼ı": 1474,
      "æī¿è¯º": 1475,
      "ç¼Ķçº¦æĸ¹": 1476,
      "ä¹īåĬ¡": 1477,
      "åĶ": 1478,
      "çĬ¶": 1479,
      "çŃ¹": 1480,
      "ä¿Ħ": 1481,
      "å°¤": 1482,
      "åĢº": 1483,
      "æĮīçħ§": 1484,
      "æĿ¡ä»¶": 1485,
      "æĺ¯åĲ¦": 1486,
      "é«ĺçº§": 1487,
      "Ġ(": 1488,
      "çŃ¾": 1489,
      "çĳ": 1490,
      "åºĶå½ĵ": 1491,
      "äººéģĵ": 1492,
      "ç´§": 1493,
      "24": 1494,
      "çĶŁæ´»": 1495,
      "è¿Ľå±ķ": 1496,
      "åĴ¨è¯¢": 1497,
      "å¼Ģåıĳ": 1498,
      "æķĳ": 1499,
      "èµĶ": 1500,
      "ion": 1501,
      "æĿŁ": 1502,
      "åŁºæľ¬": 1503,
      "æ»¡": 1504,
      "ä¸¥éĩį": 1505,
      "å¾Ģ": 1506,
      "éªĮ": 1507,
      "èĬĤ": 1508,
      "è®®å®ļä¹¦": 1509,
      "éĽ·": 1510,
      "åĲģ": 1511,
      "æĺ¾": 1512,
      "æįĲ": 1513,
      "èĪ¬": 1514,
      "åŃĺåľ¨": 1515,
      "ĠS": 1516,
      "ä»ĸçļĦ": 1517,
      "26": 1518,
      "æ¼": 1519,
      "éĢłæĪĲ": 1520,
      "éĺ¿æĭīä¼¯": 1521,
      "æīĺ": 1522,
      "ç¼º": 1523,
      "as": 1524,
      "ä¸įåĲĮ": 1525,
      "å·¥ä½ľäººåĳĺ": 1526,
      "å¯Ĩ": 1527,
      "æĸ¹æ³ķ": 1528,
      "éļľ": 1529,
      "åħ¬åı¸": 1530,
      "Ġd": 1531,
      "è®¤è¯Ĩ": 1532,
      "é¼ĵåĬ±": 1533,
      "äº«": 1534,
      "æĪ¿": 1535,
      "èĦĳ": 1536,
      "è®¾ç«ĭ": 1537,
      "ĠæĪĳä»¬": 1538,
      "æİ¥åıĹ": 1539,
      "éħį": 1540,
      "çīĻ": 1541,
      "åĽ°": 1542,
      "é¢ĨåľŁ": 1543,
      "åĮ»": 1544,
      "è¿Ŀ": 1545,
      "å®Ī": 1546,
      "åĬ³": 1547,
      "å°¤åħ¶": 1548,
      "æĪĲä¸º": 1549,
      "28": 1550,
      "è§ĦåĪĻ": 1551,
      "27": 1552,
      "ic": 1553,
      "è´Łè´£": 1554,
      "èĲ¨": 1555,
      "ä¼Ĭæĸ¯": 1556,
      "è§ī": 1557,
      "åįıåĬ©": 1558,
      "åįĥ": 1559,
      "Ġo": 1560,
      "ç»ĵæŀľ": 1561,
      "æĭīåħĭ": 1562,
      "æ´ĭ": 1563,
      "å¯¹äºİ": 1564,
      "äº²": 1565,
      "æ£Ģ": 1566,
      "ä¸ªäºº": 1567,
      "æĹ¥èĩ³": 1568,
      "å®£è¨Ģ": 1569,
      "çļĦäºĭ": 1570,
      "åĪ°äºĨ": 1571,
      "æŃ¤å¤ĸ": 1572,
      "ãĢĭ,": 1573,
      "åĽ½éĻħç¤¾ä¼ļ": 1574,
      "èµĦéĩĳ": 1575,
      "åĳ¼": 1576,
      "ä¼Ĭæĸ¯åħ°": 1577,
      "éĤ£äºĽ": 1578,
      "åģļæ³ķ": 1579,
      "åıªæĺ¯": 1580,
      "çĻ½": 1581,
      "è´¹çĶ¨": 1582,
      "21": 1583,
      "æĹ¶åĢĻ": 1584,
      "æĬķèµĦ": 1585,
      "äºĴ": 1586,
      "å©": 1587,
      "èį¯": 1588,
      "ç»Ŀ": 1589,
      "åħ·æľī": 1590,
      "åĪĽ": 1591,
      "ing": 1592,
      "ç§ģ": 1593,
      "ĠC": 1594,
      "è´§": 1595,
      "29": 1596,
      "æĮĳ": 1597,
      "el": 1598,
      "ed": 1599,
      "å¹¶ä¸Ķ": 1600,
      "è¯ķ": 1601,
      "è¿ª": 1602,
      "æįŁ": 1603,
      "å¦Ĥä½ķ": 1604,
      "éĶĻ": 1605,
      ");": 1606,
      "æ³ķåºŃ": 1607,
      "æ¨¡": 1608,
      "ä¸¹": 1609,
      "éĢĻ": 1610,
      "é£Ł": 1611,
      "æ´Ľ": 1612,
      "éĿŀå¸¸": 1613,
      "æĶ¹éĿ©": 1614,
      "åľ°ä½į": 1615,
      "æĪĳä¸į": 1616,
      "æ¦": 1617,
      "éģµ": 1618,
      "å½¢å¼ı": 1619,
      "ç´ł": 1620,
      "æķ£": 1621,
      "éĿŀæĶ¿åºľ": 1622,
      "ä¼Ĭæĭīåħĭ": 1623,
      "æŃ¦è£ħ": 1624,
      "ç»Ī": 1625,
      "çĿ£": 1626,
      "1999": 1627,
      "äººéģĵä¸»ä¹ī": 1628,
      "äº§çĶŁ": 1629,
      "æĸŃ": 1630,
      "ä»ĭ": 1631,
      "åĬŁ": 1632,
      "å®īæİĴ": 1633,
      "éĩįçĶ³": 1634,
      "åŀĭ": 1635,
      "é¢Ħéĺ²": 1636,
      "ç±³": 1637,
      "éĵ¶": 1638,
      "ä¹ĭéĹ´çļĦ": 1639,
      "æ³¢": 1640,
      "å¸®åĬ©": 1641,
      "å¤§çļĦ": 1642,
      "æĭ©": 1643,
      ")ãĢģ": 1644,
      "éĥ¨éķ¿": 1645,
      "åģľ": 1646,
      "éĴĪ": 1647,
      "éļı": 1648,
      "Ġp": 1649,
      "æ¯Ķäºļ": 1650,
      "ä¸Ģç§į": 1651,
      "å¥½çļĦ": 1652,
      "Ġc": 1653,
      "å²Ľ": 1654,
      "éŁ": 1655,
      "å±¥": 1656,
      "åıĹåĪ°": 1657,
      "åĿĩ": 1658,
      "åŁĥ": 1659,
      "ç§įæĹı": 1660,
      "é©»": 1661,
      "çĽĳæµĭ": 1662,
      "åĲī": 1663,
      "è°ģ": 1664,
      "æħ": 1665,
      "è°ĪåĪ¤": 1666,
      "åĪĿ": 1667,
      "åĨĻ": 1668,
      "ä¸¤ä¸ª": 1669,
      "ç§¯æŀģ": 1670,
      "æĮ¥": 1671,
      "åĲĦç§į": 1672,
      "æıĲåĩºçļĦ": 1673,
      "Ġå§Ķåĳĺä¼ļ": 1674,
      "Ġä¸į": 1675,
      "åįĪ": 1676,
      "ä¹ĭåīį": 1677,
      "èħ": 1678,
      "dd": 1679,
      "Ġm": 1680,
      "åĽ½å®¶çļĦ": 1681,
      "æ¶īåıĬ": 1682,
      "ä¼¤": 1683,
      "èĴ": 1684,
      "é»İ": 1685,
      "è¿ĺæľī": 1686,
      "æ·±": 1687,
      "èĲ½": 1688,
      "åħ´": 1689,
      "åĽ½åĨħ": 1690,
      "åº·": 1691,
      "çł´": 1692,
      "åĿļ": 1693,
      "Ġa": 1694,
      "é£İ": 1695,
      "ä¸ĢåĪĩ": 1696,
      "éĿŀæĶ¿åºľç»Ħç»ĩ": 1697,
      "Ġä»ĸ": 1698,
      "ä¹ł": 1699,
      "ç¥ŀ": 1700,
      "and": 1701,
      "å®ŀéĻħ": 1702,
      "èĭı": 1703,
      "om": 1704,
      "åģ¿": 1705,
      "åĳĬè¯ī": 1706,
      "çĳŀ": 1707,
      "æĢ§åĪ«": 1708,
      "æĢģ": 1709,
      "åĮĹ": 1710,
      "æĹ©": 1711,
      "ä¸ĥ": 1712,
      "åĳ¨": 1713,
      "å®Ĺ": 1714,
      "å½ĵå±Ģ": 1715,
      "åĽ½çļĦ": 1716,
      "åįıåķĨ": 1717,
      "éĵ¶è¡Į": 1718,
      "ç»į": 1719,
      "ä¹ħ": 1720,
      "å±Ĥ": 1721,
      "å¸Ī": 1722,
      "åħ»": 1723,
      "æĢ¥": 1724,
      "æľīåħ³çļĦ": 1725,
      "è®²": 1726,
      "å°Ĭ": 1727,
      "ä¹ĭåĲİ": 1728,
      "31": 1729,
      "åĸľ": 1730,
      "æ¦Ĥ": 1731,
      "åł": 1732,
      "æī¹åĩĨ": 1733,
      "åı¤": 1734,
      "ç¨³": 1735,
      "il": 1736,
      "éĴ±": 1737,
      "åħ¬åħ±": 1738,
      "60": 1739,
      "å±¥è¡Į": 1740,
      "ç½®": 1741,
      "å¹´çļĦ": 1742,
      "æ²Ļ": 1743,
      "ä¸ĢèĪ¬": 1744,
      "ä¸Ģæ¬¡": 1745,
      "æĿ¥çļĦ": 1746,
      "å°½ç®¡": 1747,
      "å§Ķåĳĺä¼ļçļĦ": 1748,
      "çĭ¬ç«ĭ": 1749,
      "è¿ľ": 1750,
      "çĶŁäº§": 1751,
      "éĢŁ": 1752,
      "ä¼ĺåħĪ": 1753,
      "åıĮ": 1754,
      "çĸ¾": 1755,
      "æĮĳæĪĺ": 1756,
      "ä¾ĭå¦Ĥ": 1757,
      "è®°å½ķ": 1758,
      "é²ģ": 1759,
      "ä¸ĬçļĦ": 1760,
      "Ġæĺ¯": 1761,
      "ä¹Į": 1762,
      "éĤ¦": 1763,
      "éĢīä¸¾": 1764,
      "50": 1765,
      "æĬ¥åĳĬåĳĺ": 1766,
      "ĠM": 1767,
      "ç¥¨": 1768,
      "ä¸´æĹ¶": 1769,
      "ä¸Ģèµ·": 1770,
      "å¿µ": 1771,
      "æĢ§çļĦ": 1772,
      "æĪĲæŀľ": 1773,
      "æīĢä»¥": 1774,
      "å®ĮæĪĲ": 1775,
      "çİĭ": 1776,
      "æĻļ": 1777,
      "æľĢè¿ĳ": 1778,
      "è®®ç¨ĭé¡¹çĽ®": 1779,
      "åıĭ": 1780,
      "æĲ": 1781,
      "éĻį": 1782,
      "éĩĬ": 1783,
      "å¡Ķ": 1784,
      "èŃ¦å¯Ł": 1785,
      "è¾ĥ": 1786,
      "Ġof": 1787,
      "ä¸¾è¡ĮçļĦ": 1788,
      "æīĵåĩ»": 1789,
      "000": 1790,
      "åŁİ": 1791,
      "é»ĳ": 1792,
      "åĤ": 1793,
      "è®¾æĸ½": 1794,
      "Ġf": 1795,
      "ha": 1796,
      "åİħ": 1797,
      "ç»ĵæĿŁ": 1798,
      "æİ§åĪ¶": 1799,
      "Add": 1800,
      "ç»Ĩ": 1801,
      "åĪ©çĽĬ": 1802,
      "çĪ¸": 1803,
      "æ£®": 1804,
      "éĿŀæ³ķ": 1805,
      "ç«ĭæ³ķ": 1806,
      "éĽĨåĽ¢": 1807,
      "é¢Ĩå¯¼": 1808,
      "éĩĳèŀį": 1809,
      "å¥¥": 1810,
      "55": 1811,
      "ä¸ĢçĽ´": 1812,
      "çģ«": 1813,
      "åĨĽäºĭ": 1814,
      "ä¸¤å¹´": 1815,
      "éģŃ": 1816,
      "ä»ĸåĢĳ": 1817,
      "è´¢æĶ¿": 1818,
      "çĽĳçĿ£": 1819,
      "åĪĳäºĭ": 1820,
      "é¦ĸèĦĳ": 1821,
      "åĳ¼åĲģ": 1822,
      "çĻ»": 1823,
      "å¸Ĥåľº": 1824,
      "åħ³æ³¨": 1825,
      "ä»įçĦ¶": 1826,
      "äºĭé¡¹": 1827,
      "æĢĿ": 1828,
      "ä¼ģ": 1829,
      "åı«": 1830,
      "Ġy": 1831,
      "çļĦæĿĥåĪ©": 1832,
      "Ġb": 1833,
      "ç¬¬åįģ": 1834,
      "æŀĲ": 1835,
      "ç²¾": 1836,
      "åħ³åĪĩ": 1837,
      "ç®Ģ": 1838,
      "æĺ¯åľ¨": 1839,
      "åħ«": 1840,
      "åį°åº¦": 1841,
      "çļĦåĽ½éĻħ": 1842,
      "ç¦ģæŃ¢": 1843,
      "ä¸Ģèĩ´": 1844,
      "è§ĦåĪĴ": 1845,
      "ç¬¬åĽĽ": 1846,
      "åį«çĶŁ": 1847,
      "ä¼¼": 1848,
      "çľŁä¸»": 1849,
      "éĺ²æŃ¢": 1850,
      "çŃĶ": 1851,
      "æĪĳä»¬çļĦ": 1852,
      "åºķ": 1853,
      "çĬ¶åĨµ": 1854,
      "æĽ´å¤ļ": 1855,
      "åľ¨åħ¶": 1856,
      "åĪĨæŀĲ": 1857,
      "ä¼ļè®®çļĦ": 1858,
      "è½»": 1859,
      "èĥģ": 1860,
      "et": 1861,
      "ä»¥ä¸ĭ": 1862,
      "ç¬¬åħŃ": 1863,
      "æ®ĭ": 1864,
      "è¿ĩåİ»": 1865,
      "è¡¨æĺİ": 1866,
      "åľŁèĳĹ": 1867,
      "ä»Ĭå¤©": 1868,
      "ç½Ĺæĸ¯": 1869,
      "ç©ºéĹ´": 1870,
      "æĪĳæĥ³": 1871,
      "ç©·": 1872,
      "å·®": 1873,
      "ä¸ºä»Ģä¹Ī": 1874,
      "è¿«": 1875,
      "åĲĮæĦı": 1876,
      "åıĺåĮĸ": 1877,
      "40": 1878,
      "ç¨³å®ļ": 1879,
      "çº¿": 1880,
      "è£ģåĨĽ": 1881,
      "ä¸įè¦ģ": 1882,
      "åİĨ": 1883,
      "èĢĥèĻĳåĪ°": 1884,
      "åĢ¡": 1885,
      "çģ¾": 1886,
      "åį¢": 1887,
      "æĹłæ³ķ": 1888,
      "çĽ®çļĦ": 1889,
      "åĩĨå¤ĩ": 1890,
      "æĳ©": 1891,
      "èģĶéĤ¦": 1892,
      "çĽ´æİ¥": 1893,
      "åĬŀåħ¬": 1894,
      "è´©": 1895,
      "å¸Ŀ": 1896,
      "èģĶç³»": 1897,
      "åľ¨è¿Ļæĸ¹éĿ¢": 1898,
      "):": 1899,
      "åıĳè¾¾": 1900,
      "æĪ·": 1901,
      "ä¸ĵåĳĺ": 1902,
      "éĻĲåĪ¶": 1903,
      "éĺ¶": 1904,
      "çľŁçļĦ": 1905,
      "è§Ħå®ļçļĦ": 1906,
      "éĢģ": 1907,
      "åıªæľī": 1908,
      "å¯¹è¯Ŀ": 1909,
      "å¢ŀéķ¿": 1910,
      "ä¸ŃåĽ½": 1911,
      "è´Ŀ": 1912,
      "æł¡": 1913,
      "ä»¥æĿ¥": 1914,
      "å¥³å£«": 1915,
      "æĪĳè¦ģ": 1916,
      "åĿĽ": 1917,
      "ä¿Ŀè¯ģ": 1918,
      "æĪĲåĳĺåĽ½": 1919,
      "éĹ»": 1920,
      "è¶ħ": 1921,
      "æ³Ľ": 1922,
      "å¨ģèĥģ": 1923,
      "èĭ¥": 1924,
      "å±ĢåĬ¿": 1925,
      "äºĨè§£": 1926,
      "åĨħçļĦ": 1927,
      "æĪĲåĬŁ": 1928,
      "Ġyou": 1929,
      "âĢĿãĢĤ": 1930,
      "æķ¦": 1931,
      "æĹ¨": 1932,
      "åıĳæĮ¥": 1933,
      "ä»ĭç»į": 1934,
      "åħ¬æ°ĳ": 1935,
      "ç»´æĮģåĴĮå¹³": 1936,
      "ç»¼": 1937,
      "åģ¥åº·": 1938,
      "è¿Ļé¡¹": 1939,
      "åĿı": 1940,
      "æĽ¾": 1941,
      "æī§è¡ĮæĥħåĨµ": 1942,
      "æĶ¶åħ¥": 1943,
      "ä¹İ": 1944,
      "ä¿Ħç½Ĺæĸ¯": 1945,
      "ĠP": 1946,
      "Ġto": 1947,
      "ç¬¦": 1948,
      "ä¸Ģæł·": 1949,
      "57": 1950,
      "ç¬¬äºĶåįģ": 1951,
      "ç»ıè´¹": 1952,
      "è®ºåĿĽ": 1953,
      "éģĩ": 1954,
      "ç¢į": 1955,
      "çİ°æľī": 1956,
      "åıĹå®³": 1957,
      "æĦŁè°¢": 1958,
      "åĵ¦": 1959,
      "ç»ľ": 1960,
      "è¿ĺæĺ¯": 1961,
      "åºĵ": 1962,
      "èµ·æĿ¥": 1963,
      "éĩįæĸ°": 1964,
      "èĻ½": 1965,
      "ä¸ĵéĹ¨": 1966,
      "ç»Ħç»ĩçļĦ": 1967,
      "çī¹åĪ«æĬ¥åĳĬåĳĺ": 1968,
      "è¿ĩç¨ĭ": 1969,
      "å®Įåħ¨": 1970,
      "ä¹Ŀ": 1971,
      "è´Ń": 1972,
      "æī¿è®¤": 1973,
      "é£ŀ": 1974,
      "å«": 1975,
      "éĤ£ä¹Ī": 1976,
      "æŁĲäºĽ": 1977,
      "ĠT": 1978,
      "å¤ĸäº¤": 1979,
      "çļĦè§Ħå®ļ": 1980,
      "çŁ¥è¯Ĩ": 1981,
      "å»¶": 1982,
      "æĿ¡æ¬¾": 1983,
      "ä¹°": 1984,
      "ç§ĳåŃ¦": 1985,
      "è¿Ŀåıį": 1986,
      "æ¡Īä»¶": 1987,
      "ä¿Ŀéļľ": 1988,
      "ç¤¾åĮº": 1989,
      "198": 1990,
      "æİĪ": 1991,
      "æĪĳæĺ¯": 1992,
      "åĲĦé¡¹": 1993,
      "è¥¿äºļ": 1994,
      "éģµå®Ī": 1995,
      "åĽŀé¡¾": 1996,
      "ĠB": 1997,
      "ç¦ı": 1998,
      "æĶ¹åĸĦ": 1999,
      "æĺİç¡®": 2000,
      "èģĶåĲĪåĽ½ç³»ç»Ł": 2001,
      "åĴĮåĽ½éĻħ": 2002,
      "åĬŀåħ¬å®¤": 2003,
      "åįıè®®": 2004,
      "åī¯": 2005,
      "çļĦä¸Ģä¸ª": 2006,
      "æ¯į": 2007,
      "åĩºçİ°": 2008,
      "çĸĹ": 2009,
      "le": 2010,
      "éĢļè¿ĩçļĦ": 2011,
      "ent": 2012,
      "è¿ĻéĩĮ": 2013,
      "çºª": 2014,
      "ä¸Ģä»½": 2015,
      "è¯·æ±Ĥ": 2016,
      "éĴĪå¯¹": 2017,
      "56": 2018,
      "åĪ¶è®¢": 2019,
      "ä¼Ļä¼´åħ³ç³»": 2020,
      "éģį": 2021,
      "ãĢĭ(": 2022,
      "ä»ĸä»¬çļĦ": 2023,
      "58": 2024,
      "æĢ»ç»Ł": 2025,
      "åı¯æĮģç»Ńåıĳå±ķ": 2026,
      "ä¸ļåĬ¡": 2027,
      "çľĭåĪ°": 2028,
      "ç»¼åĲĪ": 2029,
      "éĥ½æĺ¯": 2030,
      "äººä»¬": 2031,
      "æĮĩå¯¼": 2032,
      "çĮ®": 2033,
      "åĬłåħ¥": 2034,
      "Ġth": 2035,
      "ä¼ģä¸ļ": 2036,
      "è¿Ķ": 2037,
      "æ¯ģ": 2038,
      "è¾©": 2039,
      "åĲĥ": 2040,
      "ä½łåĢĳ": 2041,
      "çļĦéĩįè¦ģ": 2042,
      "è¾ĵ": 2043,
      "59": 2044,
      "å¹¿æ³Ľ": 2045,
      "éº¼": 2046,
      "çļĦæīĢæľī": 2047,
      "Ġè¯·": 2048,
      "éĿĴ": 2049,
      "æł¸æŃ¦åĻ¨": 2050,
      "æĺŁæľŁ": 2051,
      "us": 2052,
      "åİŁåĽł": 2053,
      "è¿Ļä¹Ī": 2054,
      "åįĸ": 2055,
      "åĢĭ": 2056,
      "é¥": 2057,
      "èĻ½çĦ¶": 2058,
      "åŃ©åŃĲ": 2059,
      "æĿ¡ç¬¬": 2060,
      "ä¿ĿçķĻ": 2061,
      "åĨħå®¹": 2062,
      "æĸĩä¹¦": 2063,
      "un": 2064,
      "åľ£": 2065,
      "åıįå¯¹": 2066,
      "ä¹Łæĺ¯": 2067,
      "äººç±»": 2068,
      "æĿĳ": 2069,
      "ç²®": 2070,
      "å¼¹": 2071,
      "è§Ĥå¯Ł": 2072,
      "ç½ļ": 2073,
      "ä¾Ĩ": 2074,
      "å©ļ": 2075,
      "çº³åħ¥": 2076,
      "æĸ°éĹ»": 2077,
      "èĤ¯": 2078,
      "å§Ĩ": 2079,
      "åįĥå¹´": 2080,
      "éģĹ": 2081,
      "çĸĳ": 2082,
      "ç«Ļ": 2083,
      "å°Ĭéĩį": 2084,
      ")(": 2085,
      "ä¼¦": 2086,
      "æ±Ĺ": 2087,
      "æ¢": 2088,
      "éĺ¶æ®µ": 2089,
      "éĶ®": 2090,
      "æľīäºº": 2091,
      "æıĲä¾ĽçļĦ": 2092,
      "èĢħçļĦ": 2093,
      "ç¬¦åĲĪ": 2094,
      "å¼ł": 2095,
      "çĪ¶": 2096,
      "æ±ĩ": 2097,
      "éĩĩçĶ¨": 2098,
      "æķ´ä¸ª": 2099,
      "å¼±": 2100,
      "ä¸ľè¥¿": 2101,
      "éĢĤçĶ¨": 2102,
      "am": 2103,
      "ec": 2104,
      "æĿĲ": 2105,
      "æ¥": 2106,
      "os": 2107,
      "åĸľæ¬¢": 2108,
      "çļĦåĬªåĬĽ": 2109,
      "æįĲåĬ©": 2110,
      "æĹħ": 2111,
      "éĩĩåıĸçļĦ": 2112,
      "æģ¢": 2113,
      "æī©å¤§": 2114,
      "è®¿": 2115,
      "éĶĢ": 2116,
      "çļĦå½±åĵį": 2117,
      "åı¬": 2118,
      "èı": 2119,
      "ç»ĦæĪĲ": 2120,
      "æģ¢å¤į": 2121,
      "ç¿": 2122,
      "æĪĸèĢħ": 2123,
      "éĨ": 2124,
      "æĪĳåĽ½": 2125,
      "åĪļæŀľ": 2126,
      "åŁºéĩĳä¼ļ": 2127,
      "åĩĨåĪĻ": 2128,
      "åĽłç´ł": 2129,
      "éģ¿": 2130,
      "ä¸¤å¹´æľŁ": 2131,
      "è´¢åĬ¡": 2132,
      "çĦ¶èĢĮ": 2133,
      "å®¡è®¡": 2134,
      "éķ¿æľŁ": 2135,
      "æ°ĳæĹı": 2136,
      "åħ³éĶ®": 2137,
      "æīĢéľĢ": 2138,
      "å°¤åħ¶æĺ¯": 2139,
      "ä¸Ĭè¿°": 2140,
      "ä¸ĭåĪĹ": 2141,
      "åģĩ": 2142,
      "å®ĹæķĻ": 2143,
      "çĽ¸ä¿¡": 2144,
      "åĢ¡è®®": 2145,
      "ac": 2146,
      "çº²": 2147,
      "ä¸Ģçº§": 2148,
      "éĺ¿å¯Į": 2149,
      "å²ģ": 2150,
      "çĻ¾": 2151,
      "è¯Ħä»·": 2152,
      "æıĲä¾ĽäºĨ": 2153,
      "ol": 2154,
      "ç»ıéªĮ": 2155,
      "å¥½äºĨ": 2156,
      "éĺ¿å¯Įæ±Ĺ": 2157,
      "æ¸¡": 2158,
      "éĢīæĭ©": 2159,
      "çļĦæ´»åĬ¨": 2160,
      "èĥĮ": 2161,
      "æĭľ": 2162,
      "äº¿": 2163,
      "ç»ĵè®º": 2164,
      "å°ļ": 2165,
      "èªª": 2166,
      "æİ¨åĬ¨": 2167,
      "ç´¢èµĶ": 2168,
      "æ²ĥ": 2169,
      "å·¥ä½ľçļĦ": 2170,
      "ä¾µçĬ¯": 2171,
      "ĠD": 2172,
      "Ġåħ³äºİ": 2173,
      "ç«ŀ": 2174,
      "ww": 2175,
      "ç¨ĭåº¦": 2176,
      "å¤ļæķ°": 2177,
      "é¦ĸèĦĳä¼ļè®®": 2178,
      "æĻ®éģį": 2179,
      "ä½łæĺ¯": 2180,
      "åįłé¢Ĩ": 2181,
      "åĨħéĥ¨": 2182,
      "å¥½åĲ§": 2183,
      "ä¿Ŀåģ¥": 2184,
      "ĠR": 2185,
      "çŁ³": 2186,
      "æĭ¥": 2187,
      "äº¡": 2188,
      "åĴĮå¹³ä¸İ": 2189,
      "æ¾": 2190,
      "2009": 2191,
      "Ġand": 2192,
      "å¯»": 2193,
      "çĦ¶åĲİ": 2194,
      "è¯Ńåıĳè¨Ģ": 2195,
      "62": 2196,
      "ht": 2197,
      "æ³ķå®ĺ": 2198,
      "æıĲäº¤äºº": 2199,
      "è¾¾æĪĲ": 2200,
      "63": 2201,
      "ä¹ĭä¸Ģ": 2202,
      "å°±ä¸ļ": 2203,
      "åį±æľº": 2204,
      "è§£éĩĬ": 2205,
      "åĲĪåĲĮ": 2206,
      "ä¸Ģä¸ĭ": 2207,
      "è´¡": 2208,
      "åħ¨åĽ½": 2209,
      "ä¹Ĳ": 2210,
      "ä¸įåı¯": 2211,
      "é¾": 2212,
      "åĪ°çļĦ": 2213,
      "éĢĲ": 2214,
      "åĴĮç¤¾ä¼ļ": 2215,
      "åĴĮç¬¬": 2216,
      "ç»Łè®¡": 2217,
      "æĹ¥æľ¬": 2218,
      "ç®¡åĪ¶": 2219,
      "Ġä½Ĩ": 2220,
      "Ġin": 2221,
      "æĩ": 2222,
      "è§īå¾Ĺ": 2223,
      "æľĹ": 2224,
      "åıĳè¾¾åĽ½å®¶": 2225,
      "éĤ£ä¸ª": 2226,
      "æĴŃ": 2227,
      "éĿ¢ä¸´": 2228,
      "å®ļçļĦ": 2229,
      "im": 2230,
      "ation": 2231,
      "ç¾¤ä½ĵ": 2232,
      "1998": 2233,
      "æī©æķ£": 2234,
      "Ġ3": 2235,
      "æĿĥåĬĽ": 2236,
      "éĢĢ": 2237,
      "å®¢": 2238,
      "åį´": 2239,
      "ä»İèĢĮ": 2240,
      "ç»ĵæŀĦ": 2241,
      "è´¡çĮ®": 2242,
      "è¦": 2243,
      "å¯¼èĩ´": 2244,
      "ç¡®è®¤": 2245,
      "èī¾æ»ĭçĹħæ¯Ĵ": 2246,
      "Ġl": 2247,
      "äºĭå®ŀ": 2248,
      "ç»ıå¸¸": 2249,
      "åĳĺé¢Ŀ": 2250,
      "æľĭ": 2251,
      "æµ·æ´ĭ": 2252,
      "ot": 2253,
      "åĬ©äºİ": 2254,
      "æ´»åĬ¨çļĦ": 2255,
      "è¿ĲåĬ¨": 2256,
      "ĠH": 2257,
      "éĢļçŁ¥": 2258,
      "ay": 2259,
      "è¿ŀ": 2260,
      "Ġ000": 2261,
      "å¾ģ": 2262,
      "åį±éĻ©": 2263,
      "æľºæŀĦçļĦ": 2264,
      "éĽĩ": 2265,
      "æľĭåıĭ": 2266,
      "å£°æĺİ": 2267,
      "æį¢": 2268,
      "èĩªçĦ¶": 2269,
      "Ġå¯¹": 2270,
      "åĢºåĬ¡": 2271,
      "åĲĮæł·": 2272,
      "å¹´åº¦": 2273,
      "è®¡åĪĴç½²": 2274,
      "åįĬ": 2275,
      "å®ªæ³ķ": 2276,
      "æĹ¥åľ¨": 2277,
      "æīĭæ®µ": 2278,
      "åįĩ": 2279,
      "å®ļæľŁ": 2280,
      "åı²": 2281,
      "åľŁåľ°": 2282,
      "é£İéĻ©": 2283,
      "èĩªå·±çļĦ": 2284,
      "Ġg": 2285,
      "æģ©": 2286,
      "ä»¤äºº": 2287,
      "çļĦæĥħåĨµä¸ĭ": 2288,
      "åıĳçİ°": 2289,
      "ä¿ĿæĮģ": 2290,
      "è¯¦": 2291,
      "æŁĵ": 2292,
      "è´«ç©·": 2293,
      "ig": 2294,
      "çŃ¾ç½²": 2295,
      "æĦŁåĪ°": 2296,
      "çļĦç¬¬": 2297,
      "éī": 2298,
      "éĢı": 2299,
      "æĻ¯": 2300,
      "è§Ĵ": 2301,
      "ç»ĻäºĪ": 2302,
      "èİ±": 2303,
      "è°¢è°¢": 2304,
      "æĪĳåĢĳ": 2305,
      "éĩįè¦ģçļĦ": 2306,
      "Ġè¿Ļ": 2307,
      "åħ¸": 2308,
      "åĪĹåħ¥": 2309,
      "æģ¶": 2310,
      "54": 2311,
      "çīĪ": 2312,
      "çļĦåĲĦé¡¹": 2313,
      "åħģ": 2314,
      "éī´": 2315,
      "æ¸¸": 2316,
      "CN": 2317,
      "é¢ĺä¸º": 2318,
      "æĽ´åĬł": 2319,
      "çļĦæľĢ": 2320,
      "çĲĨçĶ±": 2321,
      "61": 2322,
      "éľĢæ±Ĥ": 2323,
      "çº½": 2324,
      "33": 2325,
      "æĥħåĨµä¸ĭ": 2326,
      "æĭ¥æľī": 2327,
      "è¯¥åĽ½": 2328,
      "èĢ³": 2329,
      "âĢĿ,": 2330,
      "å¾Īå¤ļ": 2331,
      "å®ªç«ł": 2332,
      "æľīåĬ©äºİ": 2333,
      "ç¾İæ´²": 2334,
      "å½ĵåľ°": 2335,
      "éº¦": 2336,
      "80": 2337,
      "ev": 2338,
      "æ½": 2339,
      "æĹ¨åľ¨": 2340,
      "æİ¢": 2341,
      "å¥ĩ": 2342,
      "çĤº": 2343,
      "ä¸Ģå®ļ": 2344,
      "è´¥": 2345,
      "æĿ¥èĩª": 2346,
      "é¡µ": 2347,
      "Ġç¬¬": 2348,
      "ĠN": 2349,
      "ĠW": 2350,
      "åħµ": 2351,
      "fs": 2352,
      "çļĦä¿¡": 2353,
      "èĸ": 2354,
      "Ġn": 2355,
      "æıĲè®®": 2356,
      "çļĦæ³ķå¾ĭ": 2357,
      "ç¨İ": 2358,
      "ä¸įæĸŃ": 2359,
      "éĩįå¤§": 2360,
      "Ġh": 2361,
      "æ³ķåĽ½": 2362,
      "æ²¹": 2363,
      "æīĢè¿°": 2364,
      "éĩįçĤ¹": 2365,
      "çĶµè¯Ŀ": 2366,
      "çļĦèĥ½åĬĽ": 2367,
      "çīĩ": 2368,
      "ad": 2369,
      "å¦ĤæŃ¤": 2370,
      "èī¯": 2371,
      "å¤ļè¾¹": 2372,
      "èµĦäº§": 2373,
      "ç¼ĸåĨĻ": 2374,
      "å¤ĸåĽ½": 2375,
      "èĪ¹": 2376,
      "æīĢä½ľ": 2377,
      "èĽ": 2378,
      "æıĲæ¡Ī": 2379,
      "èĴĻ": 2380,
      "çĻ»è®°": 2381,
      "æĶ¹è¿Ľ": 2382,
      "ĠL": 2383,
      "çĶŁçī©": 2384,
      "ä¹ı": 2385,
      "è¡¡": 2386,
      "çģŃ": 2387,
      "åħģè®¸": 2388,
      "çļĦå»ºè®®": 2389,
      "çİ°è±¡": 2390,
      "å½ĵçĦ¶": 2391,
      "ä»·åĢ¼": 2392,
      "çĽ¸äºĴ": 2393,
      "è¿Ĳè¾ĵ": 2394,
      "è¡ĮåĬ¨è®¡åĪĴ": 2395,
      "id": 2396,
      "ä¸įè¿ĩ": 2397,
      "ç´§æĢ¥": 2398,
      "æĿĲæĸĻ": 2399,
      "è·¨": 2400,
      "åĪĨéħį": 2401,
      "åŁİå¸Ĥ": 2402,
      "ow": 2403,
      "ä¸ĩç¾İåħĥ": 2404,
      "ç»ĻæĪĳ": 2405,
      "è¯ģæĺİ": 2406,
      "49": 2407,
      "åı°": 2408,
      "è§Ħæ¨¡": 2409,
      "æĿ¥äºĨ": 2410,
      "å®ŀä½ĵ": 2411,
      "ç£": 2412,
      "åĲ«": 2413,
      "äºĭä»¶": 2414,
      "è®¤è¯ĨåĪ°": 2415,
      "çİ©": 2416,
      "éĢĶ": 2417,
      "åª": 2418,
      "åıĬç¤¾ä¼ļ": 2419,
      "åĨľä¸ļ": 2420,
      "é¡¿": 2421,
      "æ®ĭçĸ¾": 2422,
      "çİĭåĽ½": 2423,
      "è¸": 2424,
      "å±±": 2425,
      "åĽ½éĻħæ³ķ": 2426,
      "èĭıä¸¹": 2427,
      "åĲİç»Ń": 2428,
      "åı·åĨ³å®ļ": 2429,
      "éļĨ": 2430,
      "ä»¥åīį": 2431,
      "æľīäºĽ": 2432,
      "åŃ¦æł¡": 2433,
      "ç²®é£Ł": 2434,
      "ä¸įçŁ¥éģĵ": 2435,
      "ä½Ļ": 2436,
      "æ°ĶåĢĻ": 2437,
      "æ¼Ķ": 2438,
      "37": 2439,
      "ĠE": 2440,
      "åĲ¸": 2441,
      "æĺ¯çļĦ": 2442,
      "èµĶåģ¿": 2443,
      "48": 2444,
      "ĠéĤ£": 2445,
      "åĩºåı£": 2446,
      "ç«¯": 2447,
      "å°Ĩåľ¨": 2448,
      "è¿Ľè¡ĮçļĦ": 2449,
      "èĤ¡": 2450,
      "åħī": 2451,
      "æ¯Ľ": 2452,
      "æĵ": 2453,
      "éĩĮäºļ": 2454,
      "æ¬§æ´²èģĶçĽŁ": 2455,
      "å®ŀè´¨": 2456,
      "æĪĺäºī": 2457,
      "è¿Ľè¡ĮäºĨ": 2458,
      "æĺł": 2459,
      "åºĶå¯¹": 2460,
      "æķ¦ä¿ĥ": 2461,
      "éĿł": 2462,
      "è´¢äº§": 2463,
      ",ãĢĬ": 2464,
      "æīĢè½½": 2465,
      "å¸¸é©»": 2466,
      "åĬłæĭ¿": 2467,
      "æŀĦæĪĲ": 2468,
      "æ¬¡ä¼ļè®®ä¸Ĭ": 2469,
      "è´©è¿Ĳ": 2470,
      "åĲĦæĸ¹": 2471,
      ";(": 2472,
      "çĶµåŃĲ": 2473,
      "æĸĹ": 2474,
      "æķħ": 2475,
      "å¹¶åľ¨": 2476,
      "æľĥ": 2477,
      "ä¸ªæľĪ": 2478,
      "ä¸ºæŃ¤": 2479,
      "èµı": 2480,
      "æ°ĳéĹ´": 2481,
      "çº½çº¦": 2482,
      "å¿į": 2483,
      "æŀª": 2484,
      "è¡ĮåĬ¨çº²": 2485,
      "å®£å¸ĥ": 2486,
      "åĨįæ¬¡": 2487,
      "ç»ıæµİåıĬç¤¾ä¼ļ": 2488,
      "è®©æĪĳ": 2489,
      "çļĦä¸»è¦ģ": 2490,
      "çĶļ": 2491,
      "ur": 2492,
      "éĤĢ": 2493,
      "éģ£": 2494,
      "34": 2495,
      "éĺ»": 2496,
      "åģļåĩº": 2497,
      "åĬłä»¥": 2498,
      "éħ·": 2499,
      "æĽ¼": 2500,
      "Ġå°±": 2501,
      "æ²Ĵ": 2502,
      "è¿½": 2503,
      "éĢļè¿ĩäºĨ": 2504,
      "çĶ³è¯·": 2505,
      "æĮĩæłĩ": 2506,
      "åıįæĺł": 2507,
      "çļĦæĸ¹å¼ı": 2508,
      "æľ¬åĽ½": 2509,
      "ç½ĳç»ľ": 2510,
      "%ãĢĤ": 2511,
      "å«©": 2512,
      "æįķ": 2513,
      "åıĳå±ķçĽ®æłĩ": 2514,
      "èĪª": 2515,
      "ç¦»å¼Ģ": 2516,
      "æĿ¥è¯´": 2517,
      "çľģ": 2518,
      "æĺ¯ä¸Ģä¸ª": 2519,
      "é«ĺçº§ä¸ĵåĳĺ": 2520,
      "åĬłæĭ¿å¤§": 2521,
      "å®£ä¼ł": 2522,
      "ç»ĥ": 2523,
      "åĺ¿": 2524,
      "çļĦæĹ¶åĢĻ": 2525,
      "äº«æľī": 2526,
      "ve": 2527,
      "æ°ĳä¸»åħ±åĴĮåĽ½": 2528,
      "ä»ĬåĲİ": 2529,
      "ĠãĢĬ": 2530,
      "æľĢä¸į": 2531,
      "åĴĮåıĳå±ķ": 2532,
      "çĤ¸": 2533,
      "å°Ħ": 2534,
      "åĪĽéĢł": 2535,
      "ç¼ºä¹ı": 2536,
      "æĭŁè®¢": 2537,
      "åĹİ": 2538,
      "ä¼°è®¡": 2539,
      "47": 2540,
      "35": 2541,
      "45": 2542,
      "åħļ": 2543,
      "ä¸įå¾Ĺ": 2544,
      "åħ¨ä½ĵ": 2545,
      "å·´å«©": 2546,
      "é»İå·´å«©": 2547,
      "æĸ¹æ¡ĪçļĦ": 2548,
      "67": 2549,
      "æĶ¹åıĺ": 2550,
      "èĲ½å®ŀ": 2551,
      "ä¸ģ": 2552,
      "ä¸ĭçļĦ": 2553,
      "ĠG": 2554,
      "é©¬éĩĮ": 2555,
      "'s": 2556,
      "è®¿éĹ®": 2557,
      "ç»´äºļ": 2558,
      "è¯ģæį®": 2559,
      "æİĪæĿĥ": 2560,
      "å±ŀäºİ": 2561,
      "åĦ¿ç«¥åŁºéĩĳä¼ļ": 2562,
      "å¾·åĽ½": 2563,
      "ç¬¬äºĮåįģ": 2564,
      "åĲĦåĽ½æĶ¿åºľ": 2565,
      "çĽĸ": 2566,
      "æĬ±": 2567,
      "æ®ĸ": 2568,
      "ç»ıæµİåıĬç¤¾ä¼ļçĲĨäºĭä¼ļ": 2569,
      "å¹¶ä¸į": 2570,
      "å¢ĥåĨħ": 2571,
      "æŃ»äº¡": 2572,
      "âĢ¢": 2573,
      "ä¸ĵä¸ļ": 2574,
      "39": 2575,
      "Ġå¥¹": 2576,
      "FF": 2577,
      "è®®ä¼ļ": 2578,
      "ä½łçŁ¥éģĵ": 2579,
      "èĭ¥å¹²": 2580,
      "çµ": 2581,
      "èĥ½æºĲ": 2582,
      "åī¥": 2583,
      "æī¾åĪ°": 2584,
      "å®ŀè¡Į": 2585,
      "å¹³æ°ĳ": 2586,
      "âĢķ": 2587,
      "æĹ¥åĨħ": 2588,
      "ä¸ĭåįĪ": 2589,
      "å¯¹å¦ĩå¥³": 2590,
      "åĽº": 2591,
      "è¿Ľåħ¥": 2592,
      "éĤ£éĩĮ": 2593,
      "ç©Ĩ": 2594,
      "ç´¢æ²ĥ": 2595,
      "æĽ¿": 2596,
      "å·¥åħ·": 2597,
      "è¡¥åħħ": 2598,
      "æĪĲç«ĭ": 2599,
      "æĿ¥æºĲ": 2600,
      "ç§ĳç´¢æ²ĥ": 2601,
      "è´«åĽ°": 2602,
      "åįļ": 2603,
      "çľ¼": 2604,
      "åĳ³": 2605,
      "åĨĮ": 2606,
      "äºĨä¸Ģä¸ª": 2607,
      "ç¬ĳ": 2608,
      "æĶ¿åºľéĹ´": 2609,
      "ç²¾ç¥ŀ": 2610,
      "åıĸå¾ĹçļĦ": 2611,
      "åı¬å¼Ģ": 2612,
      "æĢ»éĥ¨": 2613,
      "çŁŃ": 2614,
      "å¿ħè¦ģçļĦ": 2615,
      "ç»Ħç»ĩåĴĮ": 2616,
      "éº»": 2617,
      "æ°¸": 2618,
      "å¼Ģåıĳè®¡åĪĴç½²": 2619,
      "å¯ĨåĪĩ": 2620,
      "éĿŀæŃ£å¼ı": 2621,
      "Ġæľī": 2622,
      "æĿĤ": 2623,
      "å®ĺåĳĺ": 2624,
      "èı²": 2625,
      "ç«ŀäºī": 2626,
      "è°¨": 2627,
      "å¥³åŃ©": 2628,
      "éĤ£æł·": 2629,
      "åı¤å·´": 2630,
      "åįģå¹´": 2631,
      "ä¸ĢåĲį": 2632,
      "æī¿æĭħ": 2633,
      "åıĻ": 2634,
      "åıĳè¡¨": 2635,
      "å¼ĥ": 2636,
      "çŃ¹å¤ĩ": 2637,
      "ä¸įä»ħ": 2638,
      "ç¬¬åħŃåįģ": 2639,
      "èĦ±": 2640,
      "éĻĨ": 2641,
      "éĺ¿å°Ķ": 2642,
      "å°ĳæķ°": 2643,
      "æĶ¯ä»ĺ": 2644,
      "æĹ¥åĨħçĵ¦": 2645,
      "å¢¨": 2646,
      "ter": 2647,
      "è¥¿çıŃ": 2648,
      "è¥¿çıŃçīĻ": 2649,
      "ä¼ĬæľĹ": 2650,
      "æ··": 2651,
      "ãĢĤâĢĿ": 2652,
      "èĬ±": 2653,
      "æĭĺ": 2654,
      "197": 2655,
      "åįıä¼ļ": 2656,
      "éª¤": 2657,
      "ä¸İä¼ļ": 2658,
      "åĽ°éļ¾": 2659,
      "æĪĳçŁ¥éģĵ": 2660,
      "ä¸»ç®¡": 2661,
      "ä¿®æŃ£": 2662,
      "çļĦä»»ä½ķ": 2663,
      "æĿ¡ä¾ĭ": 2664,
      "æįŁå¤±": 2665,
      "è¡¨åĨ³": 2666,
      "æ¿": 2667,
      "å¿ĺ": 2668,
      "æĭħä»»": 2669,
      "æĦıæĢĿ": 2670,
      "åľ¨è¿ĻéĩĮ": 2671,
      "åİĦ": 2672,
      "åİĭ": 2673,
      "ç¼ĸåĪ¶": 2674,
      "ä¹Łè®¸": 2675,
      "èį·": 2676,
      "å¿Ĺ": 2677,
      "çł´åĿı": 2678,
      "åºŁ": 2679,
      "æĴ¤": 2680,
      "ç§»æ°ĳ": 2681,
      "æĤ¨": 2682,
      "èİ«": 2683,
      "1997": 2684,
      "éĤĢè¯·": 2685,
      "44": 2686,
      "ç§ģèĲ¥": 2687,
      "çļĦåĨ³å®ļ": 2688,
      "éŁ³": 2689,
      "åħ¬å¹³": 2690,
      "å°ļæľª": 2691,
      "å¹¸": 2692,
      "è¯į": 2693,
      "åı¦ä¸Ģ": 2694,
      "æŃ¥éª¤": 2695,
      "ir": 2696,
      "éĹŃ": 2697,
      "å¤§åŃ¦": 2698,
      "ut": 2699,
      "åĢŁ": 2700,
      "ä½łåľ¨": 2701,
      "ç½ªè¡Į": 2702,
      "æ°´å¹³": 2703,
      "ç»Łä¸Ģ": 2704,
      "çĪĨ": 2705,
      "è´¸åıĳ": 2706,
      "å¤§ä¼ļç¬¬": 2707,
      "æ£®æŀĹ": 2708,
      "ĠèģĶåĲĪåĽ½": 2709,
      "æ±¶": 2710,
      "æĪĳä¼ļ": 2711,
      "ç»´æĮģåĴĮå¹³è¡ĮåĬ¨": 2712,
      "çľŁæŃ£": 2713,
      "æµģç¦»": 2714,
      "åĨľæĿĳ": 2715,
      "åıĹå®³èĢħ": 2716,
      "38": 2717,
      "åĴĮæĬĢæľ¯": 2718,
      "II": 2719,
      "ĠF": 2720,
      "å¤±æīĢ": 2721,
      "æ¯Ĵåĵģ": 2722,
      "è¿Ł": 2723,
      "åħ¬å¼Ģ": 2724,
      "æĿ¥æĸĩ": 2725,
      "ä¸¾åĬŀ": 2726,
      "è¾©è®º": 2727,
      "çľĭçľĭ": 2728,
      "å®Ŀ": 2729,
      "è¯¸": 2730,
      "æĴĴ": 2731,
      "å¸Ŀæ±¶": 2732,
      "æĺĤ": 2733,
      "çĵľ": 2734,
      "åĤ¨": 2735,
      "ä¼łç»Ł": 2736,
      "æĢ§åĴĮ": 2737,
      "åīĬ": 2738,
      "æµģç¦»å¤±æīĢ": 2739,
      "äº¤æĺĵ": 2740,
      "çļĦåħ¶ä»ĸ": 2741,
      "äº¤æµģ": 2742,
      "é¦ĸåħĪ": 2743,
      "è¯¾": 2744,
      "åĨ³çŃĸ": 2745,
      "åŁºäºİ": 2746,
      "å½Ĵ": 2747,
      "è°ĥæķ´": 2748,
      "èģĮèĥ½": 2749,
      "çĥŃ": 2750,
      "åĴ¨è¯¢å§Ķåĳĺä¼ļ": 2751,
      "å¾ĭå¸Ī": 2752,
      "æİī": 2753,
      "éĻ¤äºĨ": 2754,
      "æĶ¶åĪ°": 2755,
      "èº«ä»½": 2756,
      "éĩĩè´Ń": 2757,
      "æľ¬æĬ¥åĳĬ": 2758,
      "æ°ĳéĹ´ç¤¾ä¼ļ": 2759,
      "çļĦçĽ®æłĩ": 2760,
      "ç±į": 2761,
      "çļĦä½ľçĶ¨": 2762,
      "å¤§å®¶": 2763,
      "ãĢĭãĢĤ": 2764,
      "èµŀèµı": 2765,
      "çļĦè¯Ŀ": 2766,
      "ä½łè¯´": 2767,
      "èĩªæĦ¿": 2768,
      "æ»¡è¶³": 2769,
      "æ£ĢæŁ¥": 2770,
      "äºĨä¸Ģ": 2771,
      "çĶ³è¯ī": 2772,
      "æĻº": 2773,
      "ä¿®è®¢": 2774,
      "èĢĮè¨Ģ": 2775,
      "åĬ³åĬ¨": 2776,
      "ä½ĵåĪ¶": 2777,
      "è©": 2778,
      "åı¦å¤ĸ": 2779,
      "åĶ®": 2780,
      "å¤§éĩı": 2781,
      "éĩĩåıĸè¡ĮåĬ¨": 2782,
      "å¥¹ä»¬": 2783,
      "ä»¥èĭ±": 2784,
      "æĭŁè®®": 2785,
      "éĢıæĺİ": 2786,
      "32": 2787,
      "è¿ĩæ¸¡": 2788,
      "éħĴ": 2789,
      "çļĦç»ıæµİ": 2790,
      "éī´äºİ": 2791,
      "å¢¨è¥¿": 2792,
      "æľªæĿ¥": 2793,
      "æ¬§çĽŁ": 2794,
      "ä¼ĳ": 2795,
      "å·¥ä¸ļ": 2796,
      "è½¬è®©": 2797,
      "è´·": 2798,
      "å¢¨è¥¿åĵ¥": 2799,
      "ä¸įèµ·": 2800,
      "è¡ĮåĬ¨çº²é¢Ĩ": 2801,
      "æĪĳè¯´": 2802,
      "æŃ¦è£ħåĨ²çªģ": 2803,
      "é¾Ħ": 2804,
      "çļĦåŁºç¡Ģ": 2805,
      "ä½³": 2806,
      "èģĶåĲĪçİĭåĽ½": 2807,
      "Ġæł¹æį®": 2808,
      "æĬĹ": 2809,
      "äº¿ç¾İåħĥ": 2810,
      "åķĨä¸ļ": 2811,
      "æļĤ": 2812,
      "Ġ1": 2813,
      "Ġ4": 2814,
      "å¾Ļ": 2815,
      "æĪĳåľ¨": 2816,
      "æ®Ĭ": 2817,
      "ç»©": 2818,
      "éģ¿åħį": 2819,
      "å¦ĩå¥³åĴĮ": 2820,
      "åľ°æ³¨æĦıåĪ°": 2821,
      "æ¿Ģ": 2822,
      "æĹ¢": 2823,
      "åĿĲ": 2824,
      "æĢķ": 2825,
      "æĭĴ": 2826,
      "åįģåĪĨ": 2827,
      "æĹº": 2828,
      "æ¡ĳ": 2829,
      "ä¹Łä¸į": 2830,
      "å¾Īå¥½": 2831,
      "æĭħä¿Ŀ": 2832,
      "36": 2833,
      "å¸ģ": 2834,
      "ä»¥èĭ±è¯Ńåıĳè¨Ģ": 2835,
      "è¯¯": 2836,
      "ä¸įæī©æķ£": 2837,
      "æ¡Īæĸĩ": 2838,
      "æ¾³": 2839,
      "è®¾å¤ĩ": 2840,
      "è§ĤçĤ¹": 2841,
      "æĶ»": 2842,
      "ä¸ľå¸Ŀæ±¶": 2843,
      "éĿĴå¹´": 2844,
      "åĲĪæ³ķ": 2845,
      "æľĢé«ĺ": 2846,
      "ç»Ļä½ł": 2847,
      "æĢĢ": 2848,
      "åĨ·": 2849,
      "ä¾ĽåºĶ": 2850,
      "åªĴ": 2851,
      "æľīæķĪçļĦ": 2852,
      "åħ¶ä¸ŃåĮħæĭ¬": 2853,
      "äºĪä»¥": 2854,
      "æĦ¿æĦı": 2855,
      "èĮĥåĽ´åĨħ": 2856,
      "çŃĶå¤į": 2857,
      "åĩºçīĪ": 2858,
      "åĮĸåŃ¦": 2859,
      "çļĦåĲĦç§į": 2860,
      "å·¨": 2861,
      "è§Ĥå¯Łåĳĺ": 2862,
      "æįŁå®³": 2863,
      "è¾¾åĪ°": 2864,
      "è¾ĸ": 2865,
      "äººæĿĥå§Ķåĳĺä¼ļ": 2866,
      "ç»´æĬ¤": 2867,
      "äººæķ°": 2868,
      "ä¸ĵé¢ĺ": 2869,
      "æľºæŀĦåĴĮ": 2870,
      "è¿Ļç±»": 2871,
      "åĹ¯": 2872,
      "çī¹æ®Ĭ": 2873,
      "Ġ...": 2874,
      "æ½ľ": 2875,
      "äº§åĵģ": 2876,
      "æł¸å¿ĥ": 2877,
      "ä¼ĹåĽ½": 2878,
      "Ġon": 2879,
      "éĢļä¿¡": 2880,
      "51": 2881,
      "åĪļæŀľæ°ĳä¸»åħ±åĴĮåĽ½": 2882,
      "å¤§å¤ļæķ°": 2883,
      "äºļæ´²": 2884,
      "èĭ¦": 2885,
      "åĬĽçļĦ": 2886,
      "ä»»åĳ½": 2887,
      "çĶļèĩ³": 2888,
      "æŃ¤ç§į": 2889,
      "äº¬": 2890,
      "ä»İäºĭ": 2891,
      "æĦıä¹ī": 2892,
      "åĮ»çĸĹ": 2893,
      "å¼Ł": 2894,
      "ä¸¤æĢ§": 2895,
      "ç¥Ŀ": 2896,
      "å°ıç»Ħå§Ķåĳĺä¼ļ": 2897,
      "æĶ¯åĩº": 2898,
      "é«ĺåħ´": 2899,
      "éĥ¨ç½²": 2900,
      "åħ¬æŃ£": 2901,
      "ç«ĭåį³": 2902,
      "æŃī": 2903,
      "èĩ³å°ĳ": 2904,
      "ç§»å¾Ļ": 2905,
      "46": 2906,
      "æĺİçĻ½": 2907,
      "ä¾Ŀçħ§": 2908,
      "ä½łä¸į": 2909,
      "åĴĮå¹³ä¸İå®īåħ¨": 2910,
      "Ġ7": 2911,
      "èµĽ": 2912,
      "éħ·åĪĳ": 2913,
      "è¸ª": 2914,
      "è¿ħ": 2915,
      "åĴĮä¿ĿæĬ¤": 2916,
      "åĳĢ": 2917,
      "å·´è¥¿": 2918,
      "è¶ĭ": 2919,
      "äººåĴĮ": 2920,
      "è¶ħè¿ĩ": 2921,
      "è¶£": 2922,
      "è´¦": 2923,
      "æľīæĿĥ": 2924,
      "æĥ©": 2925,
      "éĸ": 2926,
      "æıĲåĩºäºĨ": 2927,
      "ä¼łæĴŃ": 2928,
      "Ġ5": 2929,
      "èĢ¶": 2930,
      "å¯»æ±Ĥ": 2931,
      "æĹºè¾¾": 2932,
      "è´¨éĩı": 2933,
      "çļĦä¸į": 2934,
      "æī¬": 2935,
      "å¤ļæł·": 2936,
      "åħ¹": 2937,
      "åį¢æĹºè¾¾": 2938,
      "æ¯ıä¸ª": 2939,
      "äºĨåĲĹ": 2940,
      "ç®¡è¾ĸ": 2941,
      "æĶ¿çŃĸåĴĮ": 2942,
      "è¡Įä½¿": 2943,
      "å·¥ç¨ĭ": 2944,
      "çģµ": 2945,
      "æĿ°": 2946,
      "çĲĨè§£": 2947,
      "ä»Ģéº¼": 2948,
      "ord": 2949,
      "æīįèĥ½": 2950,
      "è¯¦ç»Ĩ": 2951,
      "èĽĭ": 2952,
      "éģŃåıĹ": 2953,
      "åĩºå¸Ń": 2954,
      "%,": 2955,
      "è¿ħéĢŁ": 2956,
      "æĪª": 2957,
      "çļĦåıĳå±ķ": 2958,
      "å¼Ĥ": 2959,
      "æĢ§è´¨": 2960,
      "å¥½åĲĹ": 2961,
      "å¨ģçī¹": 2962,
      "æł¸åĩĨ": 2963,
      "çĭ±": 2964,
      "çĽ®çļĦæĺ¯": 2965,
      "ä¸İä¼ļèĢħ": 2966,
      "è´´": 2967,
      "ä½łè¦ģ": 2968,
      "èį¯çī©": 2969,
      "èħĲ": 2970,
      "ä¸»ä»»": 2971,
      "æĹ¦": 2972,
      "è®¼": 2973,
      "ĠåĴĮ": 2974,
      "ç§ĳå¨ģçī¹": 2975,
      "å§Ĳ": 2976,
      "æľĢä¸įåıĳè¾¾åĽ½å®¶": 2977,
      "ä½łæĥ³": 2978,
      "ä¸īä¸ª": 2979,
      "æ¥ļ": 2980,
      "èĴĤ": 2981,
      "èģĮä¸ļ": 2982,
      "1996": 2983,
      "è¯īè®¼": 2984,
      "æľĿ": 2985,
      "éĩįè§Ĩ": 2986,
      "æ´Ĺ": 2987,
      "æ£Ģå¯Ł": 2988,
      "ç¤¾ä¼ļåĴĮ": 2989,
      "å®¡åĪ¤": 2990,
      "åİĨåı²": 2991,
      "éĢĤå½ĵçļĦ": 2992,
      "æĺ¾ç¤º": 2993,
      "ch": 2994,
      "ä¸įåĪ°": 2995,
      "çļĦä¸»": 2996,
      "å¦Ĥä¸ĭ": 2997,
      "éŃ": 2998,
      "çļĦè¡Įä¸º": 2999,
      "åĬ³å·¥": 3000,
      "ä½ıæĪ¿": 3001,
      "çģ¾å®³": 3002,
      "åıįåºĶ": 3003,
      "æĶ¶éĽĨ": 3004,
      "æīĢæ¶ī": 3005,
      "53": 3006,
      "ĠO": 3007,
      "çĶŁæķĪ": 3008,
      "æĭĺçķĻ": 3009,
      "åĲįåįķ": 3010,
      "çĶ·å¥³": 3011,
      "æľīåĪ©": 3012,
      "ro": 3013,
      "çĹĽ": 3014,
      "å¥Ĺ": 3015,
      "å¾Ħ": 3016,
      "éĺģ": 3017,
      "ĠJ": 3018,
      "èĥ½åĬĽå»ºè®¾": 3019,
      "åľ°çĤ¹": 3020,
      "è¿ĩç¨ĭä¸Ń": 3021,
      "æľºåħ³": 3022,
      "åī§": 3023,
      "ä¸ĢçĤ¹": 3024,
      "æ²¡äºĭ": 3025,
      "åĶ¯": 3026,
      "æĬ¥åĳĬçļĦ": 3027,
      "Ġå¦Ĥæŀľ": 3028,
      "è§¦": 3029,
      "åĬłåĭĴ": 3030,
      "æķ°éĩı": 3031,
      "éĢĤçĶ¨äºİ": 3032,
      "å¡ŀå°Ķ": 3033,
      "ç§ĺä¹¦éķ¿åħ³äºİ": 3034,
      "æĨ": 3035,
      "Ġä»ĸä»¬": 3036,
      "__": 3037,
      "åĽ¢ä½ĵ": 3038,
      "åĺĽ": 3039,
      "åįĥå¹´åıĳå±ķçĽ®æłĩ": 3040,
      "æ¸ħæ¥ļ": 3041,
      "çļĦä»»åĬ¡": 3042,
      "æĬ¥åĳĬä¸Ń": 3043,
      "å·ŀ": 3044,
      "åĽ½æ°ĳ": 3045,
      "æľīå¿ħè¦ģ": 3046,
      "org": 3047,
      "è¡Ģ": 3048,
      "å¦Īå¦Ī": 3049,
      "ul": 3050,
      "èĵ": 3051,
      "éĤ£æĺ¯": 3052,
      "çĥĪ": 3053,
      "æĳĬ": 3054,
      "å°į": 3055,
      "æıĲåĪ°": 3056,
      "42": 3057,
      "å½ĵäºĭ": 3058,
      "ä¹±": 3059,
      "çļĦä¿¡æģ¯": 3060,
      ",âĢľ": 3061,
      "å¤§åĪ©": 3062,
      "æŃ¤ç±»": 3063,
      "é¡¾éĹ®": 3064,
      "ä¸ĬåįĪ": 3065,
      "è®¡ç®Ĺ": 3066,
      "è°ĭ": 3067,
      "æ¸ħåįķ": 3068,
      "åįİ": 3069,
      "çĶŁåĳ½": 3070,
      "ä¼ļè®®ä¸Ĭ": 3071,
      "è¿Ĳä½ľ": 3072,
      "æ³°": 3073,
      "æł¹æľ¬": 3074,
      "1995": 3075,
      "åľŁèĢ³": 3076,
      "å®ŀè´¨æĢ§": 3077,
      "åľŁèĢ³åħ¶": 3078,
      "èĪŀ": 3079,
      "è´§å¸ģ": 3080,
      "æ¾³å¤§": 3081,
      "è®Ńç»ĥ": 3082,
      "æ¾³å¤§åĪ©äºļ": 3083,
      "äººåĬĽ": 3084,
      "90": 3085,
      "äººæĿĥäºĭåĬ¡": 3086,
      "æ°ĶåĢĻåıĺåĮĸ": 3087,
      "åĬłåĭĴæ¯Ķ": 3088,
      "æľĢç»Ī": 3089,
      "åıĻåĪ©äºļ": 3090,
      "åĬĽéĩı": 3091,
      "å°Ĩåħ¶": 3092,
      "æĦıå¤§åĪ©": 3093,
      "æ¦Ĥå¿µ": 3094,
      "è´¸åıĳä¼ļè®®": 3095,
      "æĬµ": 3096,
      "å°Ķåħ°": 3097,
      "æ¯«": 3098,
      "åĲĪçĲĨ": 3099,
      "èµĦåĬ©": 3100,
      "çĪ±å°Ķåħ°": 3101,
      "èĸª": 3102,
      "ä¿Ħç½Ĺæĸ¯èģĶéĤ¦": 3103,
      "åĲ¯": 3104,
      "åįĹéĿŀ": 3105,
      "åľŃ": 3106,
      "å¡ŀæĭī": 3107,
      "Ġ6": 3108,
      "åģľæŃ¢": 3109,
      "åķ¦": 3110,
      "all": 3111,
      "æĥ¯": 3112,
      "å§Ķä¼ļ": 3113,
      "è®²ä¹ł": 3114,
      "é±": 3115,
      "å¯¹åħ¶": 3116,
      "åĨħäºļ": 3117,
      "èµ«": 3118,
      "åĪ»": 3119,
      "éļľç¢į": 3120,
      "ç½Ĺé©¬": 3121,
      "åĩłåĨħäºļ": 3122,
      "æĸ¯æ´Ľ": 3123,
      "åĦ¿ç«¥æĿĥåĪ©": 3124,
      "åį·": 3125,
      "åĲİç»Ńè¡ĮåĬ¨": 3126,
      "ç£ĭ": 3127,
      "ab": 3128,
      "åĽ½éĻħåħ¬çº¦": 3129,
      "ç«ĭåľº": 3130,
      "æīĵç®Ĺ": 3131,
      "åĸĿ": 3132,
      "è¿Ļæł·åģļ": 3133,
      "çļĦéĩįè¦ģæĢ§": 3134,
      "ä¾Ŀæį®": 3135,
      "èĩ´åĬĽ": 3136,
      "å¤º": 3137,
      "å·´åŁº": 3138,
      "éĢłæĪĲçļĦ": 3139,
      "ç£ĭåķĨ": 3140,
      "çļĦèµĦæĸĻ": 3141,
      "æĺ¯ä¸ª": 3142,
      "æ¯ıå¹´": 3143,
      "å±ħæ°ĳ": 3144,
      "æįĲæ¬¾": 3145,
      "æľ¬èº«": 3146,
      "åİŁåŃĲ": 3147,
      "å·´åŁºæĸ¯åĿ¦": 3148,
      "ç§ģèĲ¥éĥ¨éĹ¨": 3149,
      "æĭĴç»Ŀ": 3150,
      "å¹²äºĭ": 3151,
      "åĴĮèģĶåĲĪåĽ½": 3152,
      "ç©¿": 3153,
      "æĭ¨": 3154,
      "é±¼": 3155,
      "è¿Ļä¸ĢçĤ¹": 3156,
      "èĢĮä¸įæĺ¯": 3157,
      "çĪ¸çĪ¸": 3158,
      "èĹ": 3159,
      "43": 3160,
      "CC": 3161,
      "ĠK": 3162,
      "æĢª": 3163,
      "å¥¹çļĦ": 3164,
      "æķĪçİĩ": 3165,
      "èħĲè´¥": 3166,
      "æĻĤ": 3167,
      "Ġ8": 3168,
      "é¢ĦæľŁ": 3169,
      "è¿Ļæł·çļĦ": 3170,
      "æ¹": 3171,
      "41": 3172,
      "è´§çī©": 3173,
      "åŁºç¡Ģè®¾æĸ½": 3174,
      "é¸": 3175,
      "å®ļä¹ī": 3176,
      "å°¼è¥¿äºļ": 3177,
      "ç±»ä¼¼": 3178,
      "åĶ¯ä¸Ģ": 3179,
      "çŃ¹èµĦ": 3180,
      "åĲİæŀľ": 3181,
      "ĠY": 3182,
      "æĭīå¤«": 3183,
      "73": 3184,
      "å»·": 3185,
      "èµ·è¯ī": 3186,
      "52": 3187,
      "æĽ´å¥½": 3188,
      "çļĦä¸Ģéĥ¨åĪĨ": 3189,
      "å¼ķèµ·": 3190,
      "é©¬æĭī": 3191,
      "ah": 3192,
      "ä¸Ĭè¯ī": 3193,
      "ä¿ĿéĻ©": 3194,
      "æĬ±æŃī": 3195,
      "åħ¶å®ĥ": 3196,
      "ä¹ĭå¤ĸ": 3197,
      "ak": 3198,
      "çī¹åĪ«ä»£è¡¨": 3199,
      "æ±¡": 3200,
      "åªĴä½ĵ": 3201,
      "è®²ä¹łçıŃ": 3202,
      "oc": 3203,
      "ä¸ĸçºª": 3204,
      "å°¼æĹ¥": 3205,
      "æĪĳæľī": 3206,
      "åĩºçļĦ": 3207,
      "èĩ³åħ³": 3208,
      "åıĮæĸ¹": 3209,
      "æľīåı¯èĥ½": 3210,
      "çļĦè¡ĮåĬ¨": 3211,
      "åĪ¶è£ģ": 3212,
      "åĪĨåŃĲ": 3213,
      "ç³»åĪĹ": 3214,
      "ä»»æĭ©": 3215,
      "äººæĿĥåĴĮ": 3216,
      "æĿ¥è¶Ĭ": 3217,
      "ä¼ĺåħĪäºĭé¡¹": 3218,
      "åħĭæĸ¯åĿ¦": 3219,
      "é«ĺçº§åĪ«": 3220,
      "é¢Ĩå¯¼äºº": 3221,
      "ä¸¤æĢ§å¹³çŃī": 3222,
      "ç´¢é©¬éĩĮ": 3223,
      "åĩºæĿ¥": 3224,
      "æĮĩæİ§": 3225,
      "å¢ŀå¼º": 3226,
      "ãĥ": 3227,
      "å¤®": 3228,
      "em": 3229,
      "éĩįå»º": 3230,
      "çļĦæī§è¡ĮæĥħåĨµ": 3231,
      "éĢļæĬ¥": 3232,
      "åıĮè¾¹": 3233,
      "è¶ĬæĿ¥è¶Ĭ": 3234,
      "ä»¥ç¡®ä¿Ŀ": 3235,
      "å¥³æĢ§": 3236,
      "ä¸½": 3237,
      "åĬłæĭī": 3238,
      "å¾ħéģĩ": 3239,
      "å®¾": 3240,
      "åħ¨éĥ¨": 3241,
      "åıªè¦ģ": 3242,
      "è¢Ń": 3243,
      "éĨĴ": 3244,
      "åľ¨åĵª": 3245,
      "ä¸įè¶³": 3246,
      "å¤įæĿĤ": 3247,
      "åĽ½å®¶åĴĮ": 3248,
      "çĩ": 3249,
      "å¾®": 3250,
      "åĭ¤": 3251,
      "çļĦä¸ĢäºĽ": 3252,
      "um": 3253,
      "éĴŁ": 3254,
      "æĦıåĳ³": 3255,
      "é¦Ĩ": 3256,
      "æ¯Ķä¾ĭ": 3257,
      "æ¸©": 3258,
      "Ġ9": 3259,
      "åĪ©æĺĤ": 3260,
      "æĪĳä¹Ł": 3261,
      "éģİ": 3262,
      "åĪĨåıĳ": 3263,
      "had": 3264,
      "ä»»æĭ©è®®å®ļä¹¦": 3265,
      "è¶³å¤Ł": 3266,
      "æĸ¹æ¡ĪåĴĮ": 3267,
      "æķ°åŃĹ": 3268,
      "Ġè¿ĺ": 3269,
      "åıĬæĹ¶": 3270,
      "å¤§è§Ħæ¨¡": 3271,
      "è¶ĭåĬ¿": 3272,
      "åł¡": 3273,
      "ä¸Ńä¸ľ": 3274,
      "çŀ": 3275,
      "åħ¬ä¼Ĺ": 3276,
      "åĢĴ": 3277,
      "æĦıè¯Ĩ": 3278,
      "ç¼Ķçº¦æĸ¹ä¼ļè®®": 3279,
      "70": 3280,
      "çĨ": 3281,
      "æĭĽ": 3282,
      "åľ°åĮºçļĦ": 3283,
      "å¡ŀæĭīåĪ©æĺĤ": 3284,
      "åľ¨è¯¥": 3285,
      "çº¢": 3286,
      "çķ¶": 3287,
      "æıĲäº¤çļĦ": 3288,
      "åŁĥåıĬ": 3289,
      "åħĦ": 3290,
      "å¿ĥçĲĨ": 3291,
      "åįķä½į": 3292,
      "å°±ä¼ļ": 3293,
      "åĲģè¯·": 3294,
      "Ġä¸º": 3295,
      "çļĦè¦ģæ±Ĥ": 3296,
      "ä»¥ä¸º": 3297,
      "èĤ¯å®ļ": 3298,
      "éħĮ": 3299,
      "æĹłè®º": 3300,
      "æľīä¸Ģ": 3301,
      "1990": 3302,
      "ä¿®æĶ¹": 3303,
      "åİŁåŃĲèĥ½": 3304,
      "CO": 3305,
      "æ´¥": 3306,
      "é¢ĨåŁŁçļĦ": 3307,
      "ä¼¼ä¹İ": 3308,
      "èĩ´åĬĽäºİ": 3309,
      "ä¸ªåĽ½å®¶": 3310,
      "Ġit": 3311,
      "åŃ¦çĶŁ": 3312,
      "èį·åħ°": 3313,
      "åľ°éĽ·": 3314,
      "å®¡è®®äºĨ": 3315,
      "77": 3316,
      "æĹ¥æľŁ": 3317,
      "æĮģä¹ħ": 3318,
      "å¦ĪçļĦ": 3319,
      "è¯»": 3320,
      "èĻĲ": 3321,
      "è¡Įä¸ºçļĦ": 3322,
      "æĬ¼": 3323,
      "ä»¥åĲİ": 3324,
      "èģĮè´£": 3325,
      "æĭħå¿ĥ": 3326,
      "ä¸ĵå®¶ç»Ħ": 3327,
      "æľīéĻĲ": 3328,
      "ç¤¼": 3329,
      "ç¦ıåĪ©": 3330,
      "çļĦæĸ°": 3331,
      "ç¼ĵ": 3332,
      "å¦ĩå¥³çļĦ": 3333,
      "åĪĨåĪ«": 3334,
      "........": 3335,
      "å½»": 3336,
      "åĸĢ": 3337,
      "èµ°äºĨ": 3338,
      "äº«åıĹ": 3339,
      "ä½łæľī": 3340,
      "å§Ķåĳĺä¼ļåľ¨": 3341,
      "è§Ĩä¸º": 3342,
      "åħ¨çĲĥåĮĸ": 3343,
      "éļıåĲİ": 3344,
      "éĢļå¸¸": 3345,
      "é©±": 3346,
      "æŃ£å¦Ĥ": 3347,
      "åĩºäºĨ": 3348,
      "ere": 3349,
      "æ¤": 3350,
      "æĪĲæľ¬": 3351,
      "è¿ĩæĿ¥": 3352,
      "æĸ¯æĭīå¤«": 3353,
      "åĨ³è®®èįīæ¡ĪA": 3354,
      "od": 3355,
      "é¡º": 3356,
      "å¦¨": 3357,
      "ç§įæĹıæŃ§è§Ĩ": 3358,
      "éĢĥ": 3359,
      "æĦıåĳ³çĿĢ": 3360,
      "op": 3361,
      "è®¯": 3362,
      "åĪĩå®ŀ": 3363,
      "ä»²": 3364,
      "æĽ´å¤ļçļĦ": 3365,
      "èģĺ": 3366,
      "åĪ©åĿļ": 3367,
      "ä¸İåıĳå±ķ": 3368,
      "è·ĳ": 3369,
      "è·Ŀ": 3370,
      "fn": 3371,
      "éĤĦ": 3372,
      "åĦ¿ç«¥çļĦ": 3373,
      "æĶ»åĩ»": 3374,
      "åľ¨æŃ¤": 3375,
      "ç¾İåĪ©åĿļ": 3376,
      "é£ŀæľº": 3377,
      "hat": 3378,
      "åľ¨åĨħçļĦ": 3379,
      "åĩºåİ»": 3380,
      "ie": 3381,
      "ä»²è£ģ": 3382,
      "é¬": 3383,
      "æľīæīĢ": 3384,
      "åĽ½éĻħç»Ħç»ĩ": 3385,
      "å¢ŀè¿Ľ": 3386,
      "æıĲåıĬ": 3387,
      "æħ¢": 3388,
      "Ġfor": 3389,
      "åįĹæĸ¯æĭīå¤«": 3390,
      "åĪ¤åĨ³": 3391,
      "ç¾İåĪ©åĿļåĲĪ": 3392,
      "å½¢å¼ıçļĦ": 3393,
      "åĲĳå¤§ä¼ļ": 3394,
      "çŃīçŃī": 3395,
      "å¤ªå¹³": 3396,
      "æ»¡æĦı": 3397,
      "1994": 3398,
      "å¤§ä½¿": 3399,
      "ä¼¤å®³": 3400,
      "ä»ĩ": 3401,
      "æĿĥçļĦ": 3402,
      "Ġè¯¥": 3403,
      "ãĢĭãĢģ": 3404,
      "å»ºè®¾åĴĮå¹³": 3405,
      "fsc": 3406,
      "çĿ¡": 3407,
      "åľ¨åĽ½å®¶": 3408,
      "å½ĵæĹ¶": 3409,
      "å´": 3410,
      "åĴĮæī§è¡Į": 3411,
      "æĲŀ": 3412,
      "æĪĳå°±": 3413,
      "åį°åº¦å°¼è¥¿äºļ": 3414,
      "å®īåħ¨çĲĨäºĭä¼ļç¬¬": 3415,
      "å¼Ĺ": 3416,
      "æĹ¥çĽĬ": 3417,
      "ç¬¬ä¸Ģæ¬¡": 3418,
      "ãĢĮ": 3419,
      "ä»¥ä¸Ĭ": 3420,
      "æĪĳè¿ĺ": 3421,
      "æ¯ķ": 3422,
      "åģļçļĦ": 3423,
      "çļĦä»£è¡¨": 3424,
      "å°ģ": 3425,
      "çļĦé¡¹çĽ®": 3426,
      "ç¶": 3427,
      "èµĸ": 3428,
      "ä¸ĭæĿ¥": 3429,
      "è¥¿åħ°": 3430,
      "å¤ªå¹³æ´ĭ": 3431,
      "100": 3432,
      "çļĦå®īåħ¨": 3433,
      "äºĭè§ĦåĪĻ": 3434,
      "åį³ä½¿": 3435,
      "æĬķç¥¨": 3436,
      "æĹ¥æĺŁæľŁ": 3437,
      "çļĦä¸Ģé¡¹": 3438,
      "è´µ": 3439,
      "è®¾è®¡": 3440,
      "çļĦåİŁåĪĻ": 3441,
      "www": 3442,
      "åĪ¶æŃ¢": 3443,
      "æĺİæĺ¾": 3444,
      "tr": 3445,
      "ä»ĸæĺ¯": 3446,
      "ç¼´": 3447,
      "é¤": 3448,
      "çļĦæİªæĸ½": 3449,
      "ä½ľäºĨ": 3450,
      "åĩłä¹İ": 3451,
      "ä¿¡æģ¯åĴĮ": 3452,
      "æ¨£": 3453,
      "è¡¨çİ°": 3454,
      "îĹ": 3455,
      "æĸ°è¥¿åħ°": 3456,
      "åħĭåħ°": 3457,
      "è£Ķ": 3458,
      "çĳŀå£«": 3459,
      "æĹ¥çļĦ": 3460,
      "æĬĢæľ¯æı´åĬ©": 3461,
      "å®ĺæĸ¹": 3462,
      "çĽ¸å½ĵ": 3463,
      "åľŁèĳĹäººæ°ĳ": 3464,
      "èĥĮæĻ¯": 3465,
      "çļ®": 3466,
      "çļĦåĲĪä½ľ": 3467,
      "çļĦæľºä¼ļ": 3468,
      "çī¹è®¾": 3469,
      "ä¾¿åĪ©": 3470,
      "ç§įæĹıä¸»ä¹ī": 3471,
      "æīĢä½ľçļĦ": 3472,
      "ç¢º": 3473,
      "ãĢį": 3474,
      "åľ¨èģĶåĲĪåĽ½": 3475,
      "åĮ»çĶŁ": 3476,
      "Ġ2": 3477,
      "ä»·æł¼": 3478,
      "ag": 3479,
      "çļĦæĶ¿æ²»": 3480,
      "éľ²": 3481,
      "ç»´ä¹Ł": 3482,
      "æĺ¯ä»Ģä¹Ī": 3483,
      "åĽ¢ç»ĵ": 3484,
      "îĵ": 3485,
      "Ġä½Ĩæĺ¯": 3486,
      "èµŀæī¬": 3487,
      "ç»´ä¹Łçº³": 3488,
      "ä¸»æĮģ": 3489,
      "å°ıæĹ¶": 3490,
      "æĪĳå¾Ī": 3491,
      "æķ°é¢Ŀ": 3492,
      "åĩłä¸ª": 3493,
      "åĲĦçº§": 3494,
      "åı·æĸĩä»¶": 3495,
      "çĪ±çļĦ": 3496,
      "ç¾İåĪ©åĿļåĲĪä¼ĹåĽ½": 3497,
      "ç¹": 3498,
      "åĽ½éĻħåĲĪä½ľ": 3499,
      "æĭīä¸ģ": 3500,
      "æ¨¡å¼ı": 3501,
      "å¸¸é©»èģĶåĲĪåĽ½": 3502,
      "å®¹å¿į": 3503,
      "æĥł": 3504,
      "é¢ģ": 3505,
      "çłĶè®¨": 3506,
      "çī©è´¨": 3507,
      "æ¯Ķè¾ĥ": 3508,
      "åĵ¥ä¼¦": 3509,
      "é²ľ": 3510,
      "éĿĻ": 3511,
      "æľīæķĪåľ°": 3512,
      "Ġ\"": 3513,
      "æĥħæĬ¥": 3514,
      "åĽŀæĿ¥": 3515,
      "æīĢåĪĹ": 3516,
      "art": 3517,
      "è¡£": 3518,
      "åº§": 3519,
      "æĮª": 3520,
      "èĦĨ": 3521,
      "ä¸ĭéĻį": 3522,
      "è¯·ç§ĺä¹¦éķ¿": 3523,
      "æ¸Ķ": 3524,
      "äººåı£åŁºéĩĳ": 3525,
      "æ®ĸæ°ĳ": 3526,
      "å¾ª": 3527,
      "éĺģä¸ĭ": 3528,
      "å§Ķåĳĺä¼ļä¸»å¸Ń": 3529,
      "ä¸Ĭæĸĩ": 3530,
      "åºĶåľ¨": 3531,
      "åĽŃ": 3532,
      "çī¹åĪ«ä¼ļè®®": 3533,
      "éŁ©": 3534,
      "èģĶåĲĪåĽ½å®ªç«ł": 3535,
      "å¸ĥéļĨ": 3536,
      "åĲĦèĩª": 3537,
      "æĦŁè§ī": 3538,
      "ç¼©": 3539,
      "æĨ¾": 3540,
      "åĵ¥ä¼¦æ¯Ķäºļ": 3541,
      "è¯Ħè®º": 3542,
      "è¡ĮæĶ¿åĴĮ": 3543,
      "éħĮæĥħ": 3544,
      "åĴĮé»ĳ": 3545,
      "éĿŀæ´²èģĶçĽŁ": 3546,
      "èĻĲå¾ħ": 3547,
      "æĬĵ": 3548,
      "ä»¥å¤ĸ": 3549,
      "çļĦä¸ĢåĪĩ": 3550,
      "æŃ»äºĨ": 3551,
      "çī¹åĪ«æĺ¯åľ¨": 3552,
      "å¸ĥéļĨè¿ª": 3553,
      "ĠâĢľ": 3554,
      "åĪ©æ¯Ķ": 3555,
      "æĥ³è¦ģ": 3556,
      "çľĭæ³ķ": 3557,
      "éĺ¿æł¹": 3558,
      "Ġre": 3559,
      "ä¸Ńå¤®": 3560,
      "å¤§çº¦": 3561,
      "éĺ¿æł¹å»·": 3562,
      "å°Ĩä¼ļ": 3563,
      "æ¸¯": 3564,
      "è¡¥æķĳ": 3565,
      "è®°å¾Ĺ": 3566,
      "æĿĥåĪ©åĴĮ": 3567,
      "æķĮ": 3568,
      "åĲĮä¸Ĭ": 3569,
      "åķĨå®ļ": 3570,
      "äººåľ¨": 3571,
      "ä¿¡ä»»": 3572,
      "æĮĩåįĹ": 3573,
      "å®ŀéĻħä¸Ĭ": 3574,
      "åĪ©æ¯ĶéĩĮäºļ": 3575,
      "ä½ĵç³»": 3576,
      "çĽ¸åħ³çļĦ": 3577,
      "äºĭå®ŀä¸Ĭ": 3578,
      "è§ĦåĪĴç½²": 3579,
      "è¢Ńåĩ»": 3580,
      "aH": 3581,
      "Ġè¿Ļæĺ¯": 3582,
      "æıĲè¯·": 3583,
      "æķĳæµİ": 3584,
      "ä¹Ŀå±Ĭä¼ļè®®": 3585,
      "è·¨åĽ½": 3586,
      "çłĶè®¨ä¼ļ": 3587,
      "ĠéĢļè¿ĩ": 3588,
      "æĸ¹æ¡Īé¢Ħç®Ĺ": 3589,
      "åĮºåŁŁåĴĮ": 3590,
      "ä¸¾æİª": 3591,
      "æĺ¯æĪĳ": 3592,
      "å®ĥçļĦ": 3593,
      "è²": 3594,
      "ill": 3595,
      "éĺĲ": 3596,
      "è¿Ļä¸ªéĹ®é¢ĺ": 3597,
      "åĳĬè¯īæĪĳ": 3598,
      "ä¸İèģĶåĲĪåĽ½": 3599,
      "ç¾¤å²Ľ": 3600,
      "ä¸Ģå¹´": 3601,
      "æĭĸ": 3602,
      "åŃķ": 3603,
      "ä½¿åħ¶": 3604,
      "å°Ĩç»§ç»Ń": 3605,
      "éģĹæĨ¾": 3606,
      "éĤ»": 3607,
      "æ£Ģå¯Łå®ĺ": 3608,
      "ä»ĸè¯´": 3609,
      "èģĮä½į": 3610,
      "shad": 3611,
      "æŁ¥æĺİ": 3612,
      "æ²»çĸĹ": 3613,
      "ers": 3614,
      "bord": 3615,
      "é¢Ħè®¡": 3616,
      "åıįæģĲ": 3617,
      "éĹ®é¢ĺåĽ½éĻħ": 3618,
      "ç¬¬åĽĽåįģ": 3619,
      "æĭīä¸ģç¾İæ´²": 3620,
      "è°ħ": 3621,
      "èĢħåĴĮ": 3622,
      "åĩ¯": 3623,
      "åĲįåŃĹ": 3624,
      "Ġr": 3625,
      "ä¸įåºĶ": 3626,
      "åı¯èĥ½ä¼ļ": 3627,
      "å¾Į": 3628,
      "ä¸»é¢ĺ": 3629,
      "æīĢæľīåĽ½å®¶": 3630,
      "æ¶Īè´¹": 3631,
      "æĪĳä¸įçŁ¥éģĵ": 3632,
      "ä¸Ģå±Ĭä¼ļè®®": 3633,
      "è¯Ńè¨Ģ": 3634,
      "å¿Ļ": 3635,
      "åľ¨ç¬¬": 3636,
      "åĴĮç»ıæµİ": 3637,
      "äºĭæĥħ": 3638,
      "å¤ļå°ĳ": 3639,
      "è½®": 3640,
      "'t": 3641,
      "çĶ¨çļĦ": 3642,
      "å¤ĸåľ°": 3643,
      "éĽĨä¸Ń": 3644,
      "äººåĬĽèµĦæºĲ": 3645,
      "åĴĮè§£": 3646,
      "åĴĮå»ºè®®": 3647,
      "ä»¥åıĬåľ¨": 3648,
      "èµ·èįī": 3649,
      "è½½äºİ": 3650,
      "ight": 3651,
      "å½ĵåīį": 3652,
      "ä½ľåĩºçļĦ": 3653,
      "ä¼ļè®®å®¤": 3654,
      "åĩĢ": 3655,
      "åı·åĨ³è®®ç¬¬": 3656,
      "è¿Ļæ¬¡": 3657,
      "å¯¹æŃ¤": 3658,
      "æĹ¶æľŁ": 3659,
      "çļĦæĶ¯æĮģ": 3660,
      "çĩĥ": 3661,
      "æ»¥": 3662,
      "îľ": 3663,
      "......": 3664,
      "nd": 3665,
      "ä¸ĢèĪ¬æĢ§": 3666,
      "çļĦæĶ¿çŃĸ": 3667,
      "å°±æŃ¤": 3668,
      "å»ºç«ĭä¸Ģä¸ª": 3669,
      "é¬¼": 3670,
      "å¤Ħäºİ": 3671,
      "åħĭç½Ĺ": 3672,
      "è¿Ī": 3673,
      "åľ¨ä¸Ģèµ·": 3674,
      "åİ»äºĨ": 3675,
      "éĻ¤éĿŀ": 3676,
      "èĬ¬": 3677,
      "å±¿": 3678,
      "åĳ½ä»¤": 3679,
      "è¯¾ç¨ĭ": 3680,
      "çľŁæĺ¯": 3681,
      "æĿľ": 3682,
      "çļĦåľ°æĸ¹": 3683,
      "ä¸Ĭå¸Ŀ": 3684,
      "å²Ľå±¿": 3685,
      "çļĦæĹ¶éĹ´": 3686,
      "çĪĨçĤ¸": 3687,
      "æľĢä½³": 3688,
      "åı¦ä¸Ģä¸ª": 3689,
      ":âĢľ": 3690,
      "ĠåĽłä¸º": 3691,
      "æľīä¸Ģä¸ª": 3692,
      "Ġis": 3693,
      "ç¬¬ä¸īåįģ": 3694,
      "æľªèĥ½": 3695,
      "åħ±åĲĮä½ĵ": 3696,
      "å¹ħ": 3697,
      "Ġbe": 3698,
      "å¦ĩå¥³åľ°ä½į": 3699,
      "æī°": 3700,
      "æĪĳä»¬è®¤ä¸º": 3701,
      "èį£": 3702,
      "åıĸå¾ĹäºĨ": 3703,
      "åĢºæĿĥ": 3704,
      "çĸ¾çĹħ": 3705,
      "æİĮ": 3706,
      "çĳŀåħ¸": 3707,
      "æ²³": 3708,
      "å®¹æĺĵ": 3709,
      "åį°åıĳ": 3710,
      "è¾¾å°Ķ": 3711,
      "éł": 3712,
      "æĹ¥åĴĮ": 3713,
      "æİ¥è§¦": 3714,
      "æĪĪ": 3715,
      "èĦĨå¼±": 3716,
      "å¼Ħ": 3717,
      "çĪ¶æ¯į": 3718,
      "å¹´é¾Ħ": 3719,
      "ãĥ»": 3720,
      "ia": 3721,
      "è¾Ĩ": 3722,
      "åĪ¶éĢł": 3723,
      "ell": 3724,
      "å¤ľ": 3725,
      "Ġthat": 3726,
      "è¬": 3727,
      "æĮªå¨ģ": 3728,
      "éĢĴ": 3729,
      "ç§ĳçī¹": 3730,
      "çĶ·åŃĲ": 3731,
      "åĽ½ç±į": 3732,
      "å¸ķ": 3733,
      "è®¸åı¯": 3734,
      "å¸¦æĿ¥": 3735,
      "å¯¹ä¸įèµ·": 3736,
      "æŃ¦åĻ¨åĴĮ": 3737,
      "æµ¦": 3738,
      "å¾Ĵ": 3739,
      "åĻ¢": 3740,
      "ce": 3741,
      "æĢ»ä½ĵ": 3742,
      "å·¥ä½ľéĺŁ": 3743,
      "çī¹åĪ«å§Ķåĳĺä¼ļ": 3744,
      "æ³¢æĸ¯": 3745,
      "æĶ¿åºľåĴĮ": 3746,
      "äºīåıĸ": 3747,
      "æĢİä¹Īæł·": 3748,
      "éĻįä½İ": 3749,
      "è´¦æĪ·": 3750,
      "äº®": 3751,
      "åĨ°": 3752,
      "æĵį": 3753,
      "if": 3754,
      "åĽŀå®¶": 3755,
      "2010": 3756,
      "æĢİæł·": 3757,
      "åŃ¦ä¹ł": 3758,
      "ç½ĳç«Ļ": 3759,
      "Ġä¸Ģ": 3760,
      "ä¸įåı¯èĥ½": 3761,
      "æĪĳåĽ½ä»£è¡¨åĽ¢": 3762,
      "åĲĦä¸ª": 3763,
      "æĪªèĩ³": 3764,
      "åħ¨ä¸ĸçķĮ": 3765,
      "çļĦæĦıè§ģ": 3766,
      "è¾¹çķĮ": 3767,
      "68": 3768,
      "èįĴ": 3769,
      "åŁĥå¡ŀ": 3770,
      "å¹³è¡¡": 3771,
      "å·´åĭĴæĸ¯åĿ¦äººæ°ĳ": 3772,
      "åĹ¨": 3773,
      "åĲĮä¸Ģ": 3774,
      "éĽĨä½ĵ": 3775,
      "æĺ¾çĦ¶": 3776,
      "éĻ·": 3777,
      "æĮĩç¤º": 3778,
      "åİŁåŃĲèĥ½æľºæŀĦ": 3779,
      "æ¬¡çº§": 3780,
      "æ£Ĵ": 3781,
      "æĥĬ": 3782,
      "AC": 3783,
      "ä½łä¼ļ": 3784,
      "ç¬¬ä¸ĥ": 3785,
      "ä¿Ħæ¯Ķäºļ": 3786,
      "æ³ķæ²»": 3787,
      "é¡¹çĽ®çļĦ": 3788,
      "èµŀæĪĲ": 3789,
      "éĻĦä»¶ä¸Ģ": 3790,
      "åŁĥå¡ŀä¿Ħæ¯Ķäºļ": 3791,
      "çĽĳçĭ±": 3792,
      "åĨ³å¿ĥ": 3793,
      "æĽ´æŃ£": 3794,
      "éĢĤåºĶ": 3795,
      "ä¹Įåħĭåħ°": 3796,
      "ä»ĭç»įäºĨ": 3797,
      "ä¸įåıĹ": 3798,
      "ä¸ºæŃ¢": 3799,
      "æŃ£å¸¸": 3800,
      "è£ģåĨ³": 3801,
      ":(": 3802,
      "æķĻèĤ²åĴĮ": 3803,
      "çĪ¶äº²": 3804,
      "ãģ": 3805,
      "ä½łå¥½": 3806,
      "ç¡®å®ŀ": 3807,
      "ç»´åĴĮ": 3808,
      "å¤ĸäº¤éĥ¨éķ¿": 3809,
      "ub": 3810,
      "èģĶç»ľ": 3811,
      "ä¸´æĹ¶è®®ç¨ĭ": 3812,
      "åħ¼": 3813,
      "è§ĦèĮĥ": 3814,
      "ç§ģäºº": 3815,
      "ov": 3816,
      "æĪĳä»¬å¿ħé¡»": 3817,
      "ç»ıæµİåĴĮç¤¾ä¼ļ": 3818,
      "çĭĹ": 3819,
      "å¥³äºº": 3820,
      "éĢ®": 3821,
      "å¦»": 3822,
      "æµģåĬ¨": 3823,
      "éĺ¿å°ĶåıĬ": 3824,
      "è´¯": 3825,
      "æľ¬ç»Ħç»ĩ": 3826,
      "ä»ĸåľ¨": 3827,
      "æľīçļĦ": 3828,
      "å°¼æĸ¯": 3829,
      "æ¡Ĩæŀ¶åĨħ": 3830,
      "ç»ıè¿ĩ": 3831,
      "èµĦæł¼": 3832,
      "éķĩ": 3833,
      "è·¯æĸ¯": 3834,
      "åķĨåĵģ": 3835,
      "åħ´è¶£": 3836,
      "å¡ŀæµ¦": 3837,
      "å¡ŀæµ¦è·¯æĸ¯": 3838,
      "69": 3839,
      "è°´": 3840,
      "æĪĳä»¬åľ¨": 3841,
      "å°¼æĹ¥åĪ©äºļ": 3842,
      "æ´¾éģ£": 3843,
      "åĩºçīĪçī©": 3844,
      "è¯ĳ": 3845,
      "åģı": 3846,
      "Ġme": 3847,
      "åºĶçĶ¨": 3848,
      "åıªèĥ½": 3849,
      "éħ¬": 3850,
      "çļĦç»ĵæŀľ": 3851,
      "æĪĸåħ¶ä»ĸ": 3852,
      "æ¯ĶåĪ©": 3853,
      "æĻ®éĢļ": 3854,
      "Ð¸": 3855,
      "åĿĹ": 3856,
      "å¹ķ": 3857,
      "ä¸¥æł¼": 3858,
      "æĳ©æ´Ľ": 3859,
      "åĩ½": 3860,
      "å¹´æĿ¥": 3861,
      "çĶ·äºº": 3862,
      "st": 3863,
      "å¥ĸ": 3864,
      "å¼ĢæĶ¾": 3865,
      "ä»¥æľŁ": 3866,
      "ä¸»æĿĥ": 3867,
      "ä¾ĿçĦ¶": 3868,
      "orr": 3869,
      "çİĽ": 3870,
      "èµĭ": 3871,
      "åħ«å±Ĭä¼ļè®®": 3872,
      "äººéģĵä¸»ä¹īæ³ķ": 3873,
      "çļĦåĦ¿ç«¥": 3874,
      "æĭīåľŃ": 3875,
      "ä¸ĸçķĮéĵ¶è¡Į": 3876,
      "çĽ¸åĲĮ": 3877,
      "åī¥å¤º": 3878,
      "çĸ¯": 3879,
      "å¾Ģå¾Ģ": 3880,
      "æ±¡æŁĵ": 3881,
      "åĢĻéĢī": 3882,
      "å»¶éķ¿": 3883,
      "è°´è´£": 3884,
      "è§£åĨ³åĬŀæ³ķ": 3885,
      "ç¨¿": 3886,
      "å¯Įå°Ķ": 3887,
      "å¹´æľŁéĹ´": 3888,
      "èĢĮæĺ¯": 3889,
      "ç¤ºèĮĥ": 3890,
      "æµ·åľ°": 3891,
      "çłĶç©¶æīĢ": 3892,
      "çł´äº§": 3893,
      "æĶ¿åºľçļĦ": 3894,
      "å¸¸è®¾": 3895,
      "è¿Ļä¸ĢéĹ®é¢ĺ": 3896,
      "ç³»ç»ŁçļĦ": 3897,
      "èµŀåĲĮ": 3898,
      "çİ°å®ŀ": 3899,
      "ä¸İåħ¶ä»ĸ": 3900,
      "æī§è¡Įå±Ģ": 3901,
      "1993": 3902,
      "åĴĮå¹³è¿Ľç¨ĭ": 3903,
      "ä½łçľĭ": 3904,
      "éĩĩåıĸæİªæĸ½": 3905,
      "çļĦæľīåħ³": 3906,
      "ç¬Ķ": 3907,
      "æ³¢æĸ¯å°¼äºļ": 3908,
      "Ġæľ¬": 3909,
      "æ¶ĪéĻ¤å¯¹å¦ĩå¥³": 3910,
      "îĢ": 3911,
      "æĭį": 3912,
      "æĳ©æ´Ľåĵ¥": 3913,
      "çļĦåģļæ³ķ": 3914,
      "å®Įæķ´": 3915,
      "66": 3916,
      "ä¹¦éĿ¢": 3917,
      "äººæĿĥäºĭåĬ¡é«ĺçº§ä¸ĵåĳĺ": 3918,
      "åĲ¯åĬ¨": 3919,
      "æ³ķä»¤": 3920,
      "ant": 3921,
      "å¹´è½»": 3922,
      "åģ·": 3923,
      "è¿ªçĵ¦": 3924,
      "åľ°äºļ": 3925,
      "1992": 3926,
      "è½¬ç§»": 3927,
      "è¾¾å°Ķå¯Įå°Ķ": 3928,
      "ĠåıĪ": 3929,
      "æľ¨": 3930,
      "ä¸ŃæīĢ": 3931,
      "çļĦä¹īåĬ¡": 3932,
      "è¯ļ": 3933,
      "ç§Ł": 3934,
      "æĸ¹éĴĪ": 3935,
      "ç§ĳçī¹è¿ªçĵ¦": 3936,
      "çİ»": 3937,
      "éļĶ": 3938,
      "å·´å¸ĥ": 3939,
      "è®©æĪĳä»¬": 3940,
      "åįıè°ĥåĳĺ": 3941,
      "é¢Ħéĺ²çĬ¯ç½ª": 3942,
      "èĩ³åħ³éĩįè¦ģ": 3943,
      "æľįåĬ¡çļĦ": 3944,
      "åĪĿæŃ¥": 3945,
      "è¿¹": 3946,
      "åľ¨äºİ": 3947,
      "æĪĳä»¬è¿ĺ": 3948,
      "å°±åĥı": 3949,
      "ess": 3950,
      "æĿĢäºĨ": 3951,
      "å¾Īå¤§": 3952,
      "çłģ": 3953,
      "é¤Ĳ": 3954,
      "ĠåĨ³å®ļ": 3955,
      "åħ±è¯Ĩ": 3956,
      "ç¿°": 3957,
      "åıĸå¾ĹçļĦè¿Ľå±ķ": 3958,
      "ld": 3959,
      "å¤ĸå±Ĥ": 3960,
      "æĽ´å¥½åľ°": 3961,
      "ä¸įåĨį": 3962,
      "å¿«çĤ¹": 3963,
      "èĥľ": 3964,
      "ep": 3965,
      "èµĦæľ¬": 3966,
      "ä¸¾è¡ĮäºĨ": 3967,
      "æį·": 3968,
      "çĿĢéĩį": 3969,
      "our": 3970,
      "th": 3971,
      "å®ľ": 3972,
      "æ¢ħ": 3973,
      "æĿ¾": 3974,
      "å¹´ä»¥æĿ¥": 3975,
      "åĮĸçļĦ": 3976,
      "å¤ĸå±Ĥç©ºéĹ´": 3977,
      "åıĳå±ķçļĦ": 3978,
      "èİī": 3979,
      "æ²Ļçī¹": 3980,
      "ik": 3981,
      "çī¹å®ļ": 3982,
      "ä¼Ĳ": 3983,
      "èı²å¾ĭ": 3984,
      "èħĬ": 3985,
      "èı²å¾ĭå®¾": 3986,
      "ä¾µå®³": 3987,
      "åı¥": 3988,
      "çļĦæī§è¡Į": 3989,
      "ä»°": 3990,
      "æ¯įäº²": 3991,
      "æľīä»Ģä¹Ī": 3992,
      "å¹¶å°Ĩ": 3993,
      "äº§çĶŁçļĦ": 3994,
      "å½¢æĪĲ": 3995,
      "æ¥¼": 3996,
      "è¡Ĺ": 3997,
      "çŃĳ": 3998,
      "æ¯ĽéĩĮ": 3999,
      "--": 4000,
      "éĻĦå±ŀ": 4001,
      "ĠIn": 4002,
      "æĪĳçİ°åľ¨": 4003,
      "é»ĺ": 4004,
      "æİĴæĶ¾": 4005,
      "è£¡": 4006,
      "è¡ĮåĬ¨çļĦ": 4007,
      "åıĬåħ¶ä»ĸ": 4008,
      "æĬĢæľ¯åĲĪä½ľ": 4009,
      "è¡¥ç¼ĸ": 4010,
      "ç¼ħ": 4011,
      "å¯¹è¯¥": 4012,
      "éŁ¦": 4013,
      "éĢ®æįķ": 4014,
      "ĠU": 4015,
      "å§Ķåĳĺä¼ļè¿ĺ": 4016,
      "æľĢå¤§": 4017,
      "å¼ºåĪ¶": 4018,
      "1991": 4019,
      "éĢĶå¾Ħ": 4020,
      "è®¢æŃ£": 4021,
      "éļıçĿĢ": 4022,
      "ç¿»": 4023,
      "å·¥äºº": 4024,
      "æľŁéĻĲ": 4025,
      "æī§æ³ķ": 4026,
      "åĮħæĭ¬åľ¨": 4027,
      "æ¤į": 4028,
      "éĥ½æľī": 4029,
      "è¡ĮçļĦ": 4030,
      "å¹³åĿĩ": 4031,
      "æł¸æŁ¥": 4032,
      "éĩĩåıĸäºĨ": 4033,
      "å¤§éĥ¨åĪĨ": 4034,
      "æĩĤ": 4035,
      "çµ¦": 4036,
      "èĹı": 4037,
      "è§£éĻ¤": 4038,
      "è·³": 4039,
      "æĶ¾åľ¨": 4040,
      "ä¸įåĲĮçļĦ": 4041,
      "æĻºåĪ©": 4042,
      "é¢Ŀå¤ĸ": 4043,
      "æĥ©ç½ļ": 4044,
      "æĢİä¹ĪäºĨ": 4045,
      "çĶ¸": 4046,
      "æķ¬": 4047,
      "é«ĺåº¦": 4048,
      "æĽ´ä¸º": 4049,
      "å¨ľ": 4050,
      "æĸĹäºī": 4051,
      "åģļäºĨ": 4052,
      "æķĪåĬĽ": 4053,
      "å±ħä½ı": 4054,
      "è¾±": 4055,
      "åıĳå±ķæı´åĬ©": 4056,
      "çĸĨ": 4057,
      "ä¹Įå¹²": 4058,
      "ĠåĪ«": 4059,
      "çº¦æĿŁ": 4060,
      "è§ģA": 4061,
      "äººåĳĺçļĦ": 4062,
      "æĸĩåĮĸæĿĥåĪ©": 4063,
      "ä¹Įå¹²è¾¾": 4064,
      "å®ģ": 4065,
      "çĥ¦": 4066,
      "æ°¸è¿ľ": 4067,
      "65": 4068,
      "åĦ¿åŃĲ": 4069,
      "iv": 4070,
      "çļĦèģĶåĲĪåĽ½": 4071,
      "èĳ¡": 4072,
      "ä½łèĥ½": 4073,
      "è¯Ńæĸĩ": 4074,
      "è½½æľī": 4075,
      "è¿ĶåĽŀ": 4076,
      "æķ¢": 4077,
      "Ġde": 4078,
      "çº¦ç¿°": 4079,
      "å°ĳå¹´": 4080,
      "åıĳåĩº": 4081,
      "ç»ĦæĪĲéĥ¨åĪĨ": 4082,
      "å°½åı¯èĥ½": 4083,
      "åŃ£": 4084,
      "æĿ¥åĲ§": 4085,
      "æĽ¿ä»£": 4086,
      "éĺ¿å°ĶåıĬåĪ©äºļ": 4087,
      "è«": 4088,
      "ä¸ºåŁºç¡Ģ": 4089,
      "æĺ¯ä¸į": 4090,
      "å±ķå¼Ģ": 4091,
      "åĴĮç®¡çĲĨ": 4092,
      "åºĹ": 4093,
      "äºīç«¯": 4094,
      "ra": 4095,
      "éĻĪ": 4096,
      "åĪĨéĴŁ": 4097,
      "åĢ¼å¾Ĺ": 4098,
      "è¿Ħ": 4099,
      "å·¥åıĳ": 4100,
      "éĥ¨éĹ¨çļĦ": 4101,
      "åıĸæ¶Ī": 4102,
      "éĥ½ä¸į": 4103,
      "è¯¸å¦Ĥ": 4104,
      "åħĦå¼Ł": 4105,
      "ä¿¡æīĺ": 4106,
      "ç®¡çĲĨåĴĮ": 4107,
      "åī¥åīĬ": 4108,
      "cH": 4109,
      "éĿ¢åīį": 4110,
      "æľºæŀĦéĹ´": 4111,
      "åŁºåľ°": 4112,
      "åĲĦåľ°": 4113,
      "æīĢæľīçļĦ": 4114,
      "åıĳå±ķä¸ŃåĽ½å®¶çļĦ": 4115,
      "64": 4116,
      "å²¸": 4117,
      "ç¼ħçĶ¸": 4118,
      "è¯´çļĦ": 4119,
      "Ġå¥½": 4120,
      "ç´¯": 4121,
      "åĪĳäºĭåı¸æ³ķ": 4122,
      "åľ¨è¿Ļä¸Ģ": 4123,
      "çŁ³æ²¹": 4124,
      "ex": 4125,
      "åĵªäºĽ": 4126,
      "æĺ¯åķĬ": 4127,
      "éĽ¶": 4128,
      "åı¯èĥ½æĢ§": 4129,
      "ES": 4130,
      "Ġk": 4131,
      "ä¸įåĪ©": 4132,
      "æľªç»ı": 4133,
      "ä¹Ķ": 4134,
      "âĢĿ(": 4135,
      "åıĳäºĨ": 4136,
      "è¢«åĳĬ": 4137,
      "ust": 4138,
      "æľīç»Ħç»ĩ": 4139,
      "æĪĳä»¬è¦ģ": 4140,
      "çļĦèµĦæºĲ": 4141,
      "ä¼Ĭæĸ¯åħ°ä¼ļè®®": 4142,
      "é½": 4143,
      "æµģç¦»å¤±æīĢèĢħ": 4144,
      "åįĹéĥ¨": 4145,
      "è®¨è®ºä¼ļ": 4146,
      "è¿Ħä»Ĭ": 4147,
      "è¿Ļå°±æĺ¯": 4148,
      "åħ¬åĬ¡": 4149,
      "å®īåħ¨åĴĮ": 4150,
      "èĲĦ": 4151,
      "èİ·åıĸ": 4152,
      "éģŃåĪ°": 4153,
      "èĳ¡èĲĦ": 4154,
      "å»ºçŃĳ": 4155,
      "å¸ĮèħĬ": 4156,
      "äº²çĪ±çļĦ": 4157,
      "æĢģåº¦": 4158,
      "ä¸ŃæľŁ": 4159,
      "åıĳå±ķåĴĮ": 4160,
      "å¡ŀåĵ¥": 4161,
      "æĺ¯å¯¹": 4162,
      "ç¬¬äºĮæ¬¡": 4163,
      "æ¯ģçģŃ": 4164,
      "å°Ĩäºİ": 4165,
      "åľ°åĪ©": 4166,
      "ä¹ĭä¸Ń": 4167,
      "é¦Ļ": 4168,
      "æļ´åĬĽè¡Įä¸º": 4169,
      "å¡ŀåĵ¥ç»´": 4170,
      "åĪĳæ³ķ": 4171,
      "éļ¾ä»¥": 4172,
      "é¢ł": 4173,
      "å¥¥åľ°åĪ©": 4174,
      "å®¶ä¼Ļ": 4175,
      "å¥³ç«¥": 4176,
      "åįıä½ľ": 4177,
      "æł¼é²ģ": 4178,
      "est": 4179,
      "Ġè¦ģ": 4180,
      "åħĭç½Ĺåľ°äºļ": 4181,
      "è¡¥ç¼ĸç¬¬": 4182,
      "éģĵè·¯": 4183,
      "Ġè¯·ç§ĺä¹¦éķ¿": 4184,
      "ä»Ĭå¹´": 4185,
      "åĺ´": 4186,
      "ä¸įéĶĻ": 4187,
      "å¤ĸéĥ¨": 4188,
      "æĮĩå®ļ": 4189,
      "Ġä¸İ": 4190,
      "æŃ£ç¡®": 4191,
      "æ³¢æĸ¯å°¼äºļåĴĮé»ĳ": 4192,
      "æīĢæľīäºº": 4193,
      "pp": 4194,
      "çļĦæĮĳæĪĺ": 4195,
      "ä¸ĭåİ»": 4196,
      "çı¾": 4197,
      "æ³¢æĸ¯å°¼äºļåĴĮé»ĳå¡ŀåĵ¥ç»´": 4198,
      "Ã©": 4199,
      "éĹ®é¢ĺä¸ĸçķĮ": 4200,
      "æ¬§åħĥ": 4201,
      "èĩªæ²»": 4202,
      "æľĿé²ľ": 4203,
      "çļĦç¤¾ä¼ļ": 4204,
      "ä¸»å¸ŃåĽ¢": 4205,
      "è´·æ¬¾": 4206,
      "é¢ģå¸ĥ": 4207,
      "è¿·": 4208,
      "æķ°çĽ®": 4209,
      "è®©ä½ł": 4210,
      "åıĹçĽĬ": 4211,
      "é©¬æĿ¥": 4212,
      "æĸ¼": 4213,
      "æ¼ł": 4214,
      "ä¿ĥè¯·": 4215,
      "åĴĮçĬ¯ç½ª": 4216,
      "éĺ¿å¡ŀ": 4217,
      "åĳĬè¯īä½ł": 4218,
      ":ãĢĮ": 4219,
      "ç¹ģ": 4220,
      "å¹¶æ²¡æľī": 4221,
      "çŃ¹æİª": 4222,
      "ä¸Ŀ": 4223,
      "æ²Ĵæľī": 4224,
      "æĬĢèĥ½": 4225,
      "æ¯ĶåĪ©æĹ¶": 4226,
      "æĪı": 4227,
      "æģ¤": 4228,
      "æĭľçĸĨ": 4229,
      "èģļ": 4230,
      "å½±åĵįçļĦ": 4231,
      "éĺ¿å¡ŀæĭľçĸĨ": 4232,
      "æľ«": 4233,
      "æ³Ĭ": 4234,
      "æ²¡éĶĻ": 4235,
      "ä»£çĲĨ": 4236,
      "è¿ĻäºĽåĽ½å®¶": 4237,
      "åıĹçĲĨ": 4238,
      "åŃĲå¥³": 4239,
      "èµĦæºĲçļĦ": 4240,
      "å¹²é¢Ħ": 4241,
      "èĭ±åĽ½": 4242,
      "çĽ´åĪ°": 4243,
      "è´Łæĭħ": 4244,
      "è¢«åįłé¢Ĩ": 4245,
      "åħ¨ä½ĵä¼ļè®®": 4246,
      "åĲīäºļ": 4247,
      "æ±ĩç¼ĸ": 4248,
      "îĽ": 4249,
      "äºĭåĬ¡åİħ": 4250,
      "å³": 4251,
      "åĽ½éĽĨåĽ¢": 4252,
      "åı¯æĺ¯": 4253,
      "çļĦä¸ĢèĪ¬": 4254,
      "äºĭåĬ¡éĥ¨": 4255,
      "âĢķâĢķ": 4256,
      "åĪ°åºķ": 4257,
      "æĬķåħ¥": 4258,
      "æł¼é²ģåĲīäºļ": 4259,
      "åľ¨éĤ£": 4260,
      "é©¬æĿ¥è¥¿äºļ": 4261,
      "è®®äºĭè§ĦåĪĻ": 4262,
      "éĿ¢å¯¹": 4263,
      "ç³Ł": 4264,
      "åį«æĺŁ": 4265,
      "åĿļæĮģ": 4266,
      "æľĢå¥½": 4267,
      "é¢Ħæµĭ": 4268,
      "éĸĭ": 4269,
      "å·¥ä½ľæĸ¹æ¡Ī": 4270,
      "ä¾ĽèµĦ": 4271,
      "åĸĤ": 4272,
      "æ³¢æĸ¯å°¼äºļåĴĮé»ĳå¡ŀåĵ¥ç»´éĤ£": 4273,
      "out": 4274,
      "éĢıæĺİåº¦": 4275,
      "æĿ¿": 4276,
      "æĥħåĨµçļĦ": 4277,
      "ĠæīĢä»¥": 4278,
      "çļĦäºĭæĥħ": 4279,
      "éĻ¤åħ¶ä»ĸ": 4280,
      "æĿ¯": 4281,
      "ä¸įäºĨ": 4282,
      "èĦļ": 4283,
      "åĬ©çĲĨ": 4284,
      "Ġæ³¨æĦıåĪ°": 4285,
      "æį·åħĭ": 4286,
      "îĻ": 4287,
      "åĨįè§ģ": 4288,
      "åĢį": 4289,
      "åŃŁ": 4290,
      "åľ¨åĽ½éĻħ": 4291,
      "æ³ķæ¡Ī": 4292,
      "åıĤåĬłäºĨ": 4293,
      "é£Łçī©": 4294,
      "Ġä»İ": 4295,
      "æĺİå¤©": 4296,
      "åĨĽéĺŁ": 4297,
      "å®īåħ¨çĲĨäºĭä¼ļä¸»å¸Ń": 4298,
      "å¤ļæł·æĢ§": 4299,
      "å¼Ģåıĳç½²": 4300,
      "è´©åįĸ": 4301,
      "æĤ²": 4302,
      "çİ»åĪ©": 4303,
      "ä¸§": 4304,
      "æīİ": 4305,
      "ä»»æľŁ": 4306,
      "æ¯ıä¸Ģ": 4307,
      "ä¸¹éº¦": 4308,
      "ä»ĸå¦ĪçļĦ": 4309,
      "ith": 4310,
      "ä¸ĥå±Ĭä¼ļè®®": 4311,
      "æľīç»Ħç»ĩçĬ¯ç½ª": 4312,
      "è½¯": 4313,
      "å¤±ä¸ļ": 4314,
      "èĴĻçī¹": 4315,
      "è°ĵ": 4316,
      "çļĦæĸ¹æ³ķ": 4317,
      "ä»¶äºĭ": 4318,
      "è¿Ľåı£": 4319,
      "åıĺæĪĲ": 4320,
      "åīįåįĹæĸ¯æĭīå¤«": 4321,
      "ack": 4322,
      "å·¥èµĦ": 4323,
      "åī©": 4324,
      "éĽħ": 4325,
      "èĨ": 4326,
      "æ³¢åħ°": 4327,
      "èĤ¯å°¼äºļ": 4328,
      "èģĶåĲĪåĽ½çļĦ": 4329,
      "å¼ºè¿«": 4330,
      "åįķçĭ¬": 4331,
      "åľ¨æľ¬": 4332,
      "ä½łåı¯ä»¥": 4333,
      "çŁ¿": 4334,
      "æ¢¦": 4335,
      "ect": 4336,
      "æ¬¡çº§æĸ¹æ¡Ī": 4337,
      "çļĦåĨ³è®®èįīæ¡Ī": 4338,
      "ä½Ľ": 4339,
      "çļĦæĸĩä»¶": 4340,
      "çľĭæĿ¥": 4341,
      "ä¼Ĭæĸ¯åħ°åħ±åĴĮåĽ½": 4342,
      "äºĮå±Ĭä¼ļè®®": 4343,
      "å¦¨ç¢į": 4344,
      "æĸ¹åĲĳ": 4345,
      "å½¼": 4346,
      "å§Ķåĳĺä¼ļçļĦæĬ¥åĳĬ": 4347,
      "è¯ķéªĮ": 4348,
      "éĶĻè¯¯": 4349,
      "è¥¿éĿŀ": 4350,
      "èµĭäºĪ": 4351,
      "çļĦåŁºæľ¬": 4352,
      "èīº": 4353,
      "é»ŀ": 4354,
      "åıĳçĶŁçļĦ": 4355,
      "èµ¶": 4356,
      "åĿ¡": 4357,
      "æĳĨ": 4358,
      "å·¥ç¨ĭå¤Ħ": 4359,
      "ä¸įå¥½": 4360,
      "å¹¶éĿŀ": 4361,
      "æľīåĪ©äºİ": 4362,
      "é©±éĢĲ": 4363,
      "çļĦè¯´æĺİ": 4364,
      "å¿½": 4365,
      "ç«Ł": 4366,
      "åľ°çĲĥ": 4367,
      "æĪĳåıªæĺ¯": 4368,
      "ä¿¡éģĵ": 4369,
      "æ®µä¸Ń": 4370,
      "çªģå°¼æĸ¯": 4371,
      "äººåĳĺåĴĮ": 4372,
      "æķ°æį®åºĵ": 4373,
      "çļĦåħ·ä½ĵ": 4374,
      "æļĹ": 4375,
      "çİ°è¡Į": 4376,
      "èĬ¬åħ°": 4377,
      "è³": 4378,
      "æŃ£å¼ıè®°å½ķ": 4379,
      "è¿ĩå¢ĥ": 4380,
      "ä¿¡ä»°": 4381,
      "æĹħæ¸¸": 4382,
      "çļĦæī¿è¯º": 4383,
      "åĴĮåĮºåŁŁ": 4384,
      "åºĬ": 4385,
      "è¿ĺåľ¨": 4386,
      "ä»ĺæ¬¾": 4387,
      "æĭŁå®ļ": 4388,
      "æĹħè¡Į": 4389,
      "éĩİ": 4390,
      "è§Ĵåº¦": 4391,
      "æĩī": 4392,
      "æĪĳåı¯ä»¥": 4393,
      "åĪĨäº«": 4394,
      "ä¹Łæ²¡æľī": 4395,
      "å¤±è¸ª": 4396,
      "è´º": 4397,
      "æ¬ł": 4398,
      "ard": 4399,
      "ä»ĬæĻļ": 4400,
      "åłĤ": 4401,
      "éĹ®è´£": 4402,
      "æľĢä½İ": 4403,
      "æĺ¯åĽłä¸º": 4404,
      "åıĳè¨ĢèĢħ": 4405,
      "çļĦæĸ¹æ¡Ī": 4406,
      "åĬłæ²Ļ": 4407,
      "æĢ»æĺ¯": 4408,
      "åħ¬å¸ĥ": 4409,
      "åıĺå¾Ĺ": 4410,
      "èĳ¡èĲĦçīĻ": 4411,
      "æŃĮ": 4412,
      "åıįæģĲæĢĸä¸»ä¹ī": 4413,
      "å°½å¿«": 4414,
      "çļĦè´£ä»»": 4415,
      "æı¡": 4416,
      "åīĤ": 4417,
      "å°ıå§Ĳ": 4418,
      "ç´§å¼ł": 4419,
      "éĺ»æŃ¢": 4420,
      "å·©": 4421,
      "å¼¹èį¯": 4422,
      "å±ĭ": 4423,
      "æģ°": 4424,
      "ç§ĺé²ģ": 4425,
      "æ²¿": 4426,
      "å§Ķåĳĺä¼ļåĴĮ": 4427,
      "å·©åĽº": 4428,
      "å¦¹": 4429,
      "æĹ¥æľŁéĹ´": 4430,
      "æľĪåľ¨": 4431,
      "ort": 4432,
      "æ¶Īæģ¯": 4433,
      "åı³": 4434,
      "èģĶåĲĪåĽ½åĲĦ": 4435,
      "ob": 4436,
      "çļĦå¦ĩå¥³": 4437,
      "å¹´ä»£": 4438,
      "æĪĺæĸĹ": 4439,
      "æĹıè£Ķ": 4440,
      "æ´ģ": 4441,
      "ä¸įçĶ¨": 4442,
      "ä¾Ŀèµĸ": 4443,
      "çİ°ä»£": 4444,
      "æķĻç§ĳ": 4445,
      "ment": 4446,
      "æĺ¨": 4447,
      "ä¸»æµģ": 4448,
      "å¾ĹåĪ°äºĨ": 4449,
      "æ¯«æĹł": 4450,
      "è¿ĻäºĽéĹ®é¢ĺ": 4451,
      "èµ¢": 4452,
      "æĪĲå°±": 4453,
      "åĲİçļĦ": 4454,
      "å¡ŀå°Ķç»´äºļ": 4455,
      "åį³å°Ĩ": 4456,
      "åľ°é©¬æĭī": 4457,
      "éĨī": 4458,
      "ä¿¡æīĺåŁºéĩĳ": 4459,
      "äºĮåįģ": 4460,
      "åį±åľ°é©¬æĭī": 4461,
      "ĠæĬĬ": 4462,
      "ä¸įç®¡": 4463,
      "éĺµ": 4464,
      "éĥ¨éķ¿çº§": 4465,
      "ä¸ĢåĪĩå½¢å¼ı": 4466,
      "æ¸Ķä¸ļ": 4467,
      "åıĳçĶŁäºĨ": 4468,
      "èĶ": 4469,
      "æĦıæĦ¿": 4470,
      "èµ¤": 4471,
      "åİĭåĬĽ": 4472,
      "75": 4473,
      "ä¼ļè®¡": 4474,
      "åľ¨æī§è¡Į": 4475,
      "éĩįè¿Ķ": 4476,
      "æıĲåĩºæĬ¥åĳĬ": 4477,
      "æ¼Ĥ": 4478,
      "çļĦåŁºç¡Ģä¸Ĭ": 4479,
      "éĤ®": 4480,
      "ational": 4481,
      "è¿°äºĨ": 4482,
      "æ³°åĽ½": 4483,
      "æĪĸè®¸": 4484,
      "æĢ»çĲĨ": 4485,
      "åħ»æģ¤": 4486,
      "åĽ½éĻħåĴĮå¹³ä¸İå®īåħ¨": 4487,
      "åģļä»Ģä¹Ī": 4488,
      "éĺ»ç¢į": 4489,
      "è·ŁæĪĳ": 4490,
      "ial": 4491,
      "åĩ¡": 4492,
      "æĶ¾å¼ĥ": 4493,
      "æ¯ĴåĵģåĴĮçĬ¯ç½ª": 4494,
      "å¼ºçĥĪ": 4495,
      "äº¤æį¢": 4496,
      "åĪĨæĳĬ": 4497,
      "æ°ĳåĽ½": 4498,
      "æĢ»é¢Ŀ": 4499,
      "ä¼ļè®®åĴĮ": 4500,
      "åĩıè½»": 4501,
      "åľĨ": 4502,
      "ä¸Ģä½į": 4503,
      "æĦŁæŁĵ": 4504,
      "æ»¥çĶ¨": 4505,
      "é©¬ä¸Ĭ": 4506,
      "çĹĽèĭ¦": 4507,
      "äººå£«": 4508,
      "å·¦": 4509,
      "çħ§é¡¾": 4510,
      "çĶ¨éĢĶ": 4511,
      "å½»åºķ": 4512,
      "åŃ¤": 4513,
      "åĮħåĲ«": 4514,
      "//": 4515,
      "æłĳ": 4516,
      "çº¦æĹ¦": 4517,
      "çĶµè§Ĩ": 4518,
      "å¸Ĳ": 4519,
      "è¯ģä¹¦": 4520,
      "Ġé¼ĵåĬ±": 4521,
      "è¿Ļä¸¤": 4522,
      "éĺ²æ²»": 4523,
      "å¢ŀåĬłäºĨ": 4524,
      "Ġ[": 4525,
      "çĳŀæĭī": 4526,
      "åĬ³å·¥ç»Ħç»ĩ": 4527,
      "æķı": 4528,
      "éĶĢåĶ®": 4529,
      "å§ĶåĨħ": 4530,
      "ä½¿å¾Ĺ": 4531,
      "å®¡çĲĨ": 4532,
      "åĮĸåŃ¦åĵģ": 4533,
      "æĪĳè§īå¾Ĺ": 4534,
      "åºĩ": 4535,
      "åıĸåĨ³": 4536,
      "çĨŁ": 4537,
      "è°ĥè§£": 4538,
      "åĵªéĩĮ": 4539,
      "å§ĶåĨħçĳŀæĭī": 4540,
      "Ġha": 4541,
      "ä½łäºĨ": 4542,
      "è£Ĥ": 4543,
      "æŃ»çļĦ": 4544,
      "åŃŁåĬłæĭī": 4545,
      "è®®é¢ĺ": 4546,
      "æ²»çĲĨ": 4547,
      "ä¿ĿæĬ¤åĴĮ": 4548,
      "æ¯ĴåĵģåĴĮçĬ¯ç½ªéĹ®é¢ĺ": 4549,
      "å®ŀåľ°": 4550,
      "ä½ľåĩºäºĨ": 4551,
      "éŃĶ": 4552,
      "åıĸåĨ³äºİ": 4553,
      "çĶŁæĢģ": 4554,
      "åĲĦä½į": 4555,
      "æĽ¾ç»ı": 4556,
      "tern": 4557,
      "å·®è·Ŀ": 4558,
      "å¤ļçļĦ": 4559,
      "è¯¥åĮºåŁŁ": 4560,
      "è·µ": 4561,
      "èĮ¨": 4562,
      "æĸ¯æ´Ľæĸĩ": 4563,
      "çİ°éĩĳ": 4564,
      "æ¬¡åĮºåŁŁ": 4565,
      "ç§ĺä¹¦éķ¿çļĦæĬ¥åĳĬ": 4566,
      "èī¯å¥½": 4567,
      "æĸ¯æ´Ľæĸĩå°¼äºļ": 4568,
      "ç»ĵå©ļ": 4569,
      "Ġv": 4570,
      "æĺ¯è°ģ": 4571,
      "æŃ»åĪĳ": 4572,
      "çĽĳæµĭåĴĮ": 4573,
      "å¤§éŁ©": 4574,
      "çĶ»": 4575,
      "åıĳèµ·": 4576,
      "ä½łè¿ĺ": 4577,
      "çĻ½ä¿Ħç½Ĺæĸ¯": 4578,
      "ee": 4579,
      "Ġ,": 4580,
      "æıĲæ¡ĪåĽ½": 4581,
      "ä¼ĬæľĹä¼Ĭæĸ¯åħ°åħ±åĴĮåĽ½": 4582,
      "çļĦåİŁåĽł": 4583,
      "æľŁå¾ħ": 4584,
      "äººæĿĥçĲĨäºĭä¼ļ": 4585,
      "ä¸ĢåĢĭ": 4586,
      "å¾Ĺä»¥": 4587,
      "ç»Ŀå¯¹": 4588,
      "å¹¿æ³ĽçļĦ": 4589,
      "æ±ī": 4590,
      "ä¸Ģä¸ªäºº": 4591,
      "æĺ¯ä½ł": 4592,
      "å¦ĩå¥³åľ¨": 4593,
      "îĢĻ": 4594,
      "Ġhe": 4595,
      "åĿĢ": 4596,
      "æł¸åı¯": 4597,
      "å·¥åıĳç»Ħç»ĩ": 4598,
      "æĬĢæľ¯åĴĮ": 4599,
      "çĬ¶æĢģ": 4600,
      "è¯ķåĽ¾": 4601,
      "ä»Ģä¹Īäºĭ": 4602,
      "aw": 4603,
      "ey": 4604,
      "è¿ĽæŃ¥": 4605,
      "ç¶ĵ": 4606,
      "Ġä¼ļè®®": 4607,
      "æĬĺ": 4608,
      "è¡¨è¾¾": 4609,
      "åŁºæľ¬èĩªçĶ±": 4610,
      "éĺħ": 4611,
      "è¾ŀ": 4612,
      "å®īä¿Ŀ": 4613,
      "æ²Ļçī¹éĺ¿æĭīä¼¯": 4614,
      "ä¸Ģä½ĵ": 4615,
      "ä¸įæĥ³": 4616,
      "çĽ®åīįçļĦ": 4617,
      "ç¯": 4618,
      "åĲ¬åĪ°": 4619,
      "å¤ļå°Ķ": 4620,
      "ç«ĭçī¹": 4621,
      "çģµæ´»": 4622,
      "åıĽ": 4623,
      "å¾ŀ": 4624,
      "çĬ¹": 4625,
      "æŀģç«¯": 4626,
      "ä¸ĢçĽ´åľ¨": 4627,
      "æľīçĤ¹": 4628,
      "åĩºåĶ®": 4629,
      "åĵ¥æĭī": 4630,
      "éĢĲæŃ¥": 4631,
      "è°ħè§£": 4632,
      "ä¼Ĭæĸ¯åħ°ä¼ļè®®ç»Ħç»ĩ": 4633,
      "åĴĮåĬłåĭĴæ¯Ķ": 4634,
      "ll": 4635,
      "tp": 4636,
      "ä¸Ģéģĵ": 4637,
      "æĶ¿æ²»æĿĥåĪ©": 4638,
      "qu": 4639,
      "æĤ£": 4640,
      "éĻª": 4641,
      "éĥ½åľ¨": 4642,
      "å®ĹæĹ¨": 4643,
      "ç®Ģåįķ": 4644,
      "éĶģ": 4645,
      "é¥Ń": 4646,
      "åĴĮéĿŀ": 4647,
      "ĠæĪĳçļĦ": 4648,
      "ä¸ŃéĿŀ": 4649,
      "æ¡Į": 4650,
      "ä¹ĭä¸ĭ": 4651,
      "å®īåĵ¥æĭī": 4652,
      "æĭīæĸ¯": 4653,
      "åĪĹé¢ł": 4654,
      "çīĽ": 4655,
      "çŃ¾åĲį": 4656,
      "ç½Ĺé©¬å°¼äºļ": 4657,
      "å¤§éŁ©æ°ĳåĽ½": 4658,
      "æĿ¡è§Ħå®ļ": 4659,
      "è¦ĭ": 4660,
      "å°ĩ": 4661,
      "æİ¢è®¨": 4662,
      "éĿŀæ´²åĽ½å®¶": 4663,
      "è®¾ç«ĭä¸Ģä¸ª": 4664,
      "îľĩ": 4665,
      "å®½": 4666,
      "æĸĩæľ¬": 4667,
      "è½»æŃ¦åĻ¨": 4668,
      "æ¯ıå¤©": 4669,
      "èł": 4670,
      "ĠçĦ¶åĲİ": 4671,
      "å£°ç§°": 4672,
      "åİĦç«ĭçī¹": 4673,
      "Rev": 4674,
      "çļĦèµĦéĩĳ": 4675,
      "èĢĹ": 4676,
      "éĥ½ä¼ļ": 4677,
      "åĩıè´«": 4678,
      "çĽ®åīįæŃ£åľ¨": 4679,
      "æĢĢçĸĳ": 4680,
      "éĢļä¿¡æĬĢæľ¯": 4681,
      "ist": 4682,
      "åİĦç«ĭçī¹éĩĮäºļ": 4683,
      "æĪĳè®¤ä¸º": 4684,
      "åĲĪå¹¶": 4685,
      "ä¸İæŃ¤": 4686,
      "ä¾µçĬ¯äººæĿĥ": 4687,
      "çĩĥæĸĻ": 4688,
      "ri": 4689,
      "çĶ¨æĿ¥": 4690,
      "éļ¾æ°ĳç½²": 4691,
      "åĮ»éĻ¢": 4692,
      "æ®ĭçĸ¾äºº": 4693,
      "å¦Ĥæŀľä½ł": 4694,
      "ä¸įåĪĹé¢ł": 4695,
      "çĥŁ": 4696,
      "äººå±ħ": 4697,
      "èĥ¡": 4698,
      "çļĦå¤§": 4699,
      "æ¬£": 4700,
      "æĮĩæĮ¥": 4701,
      "çļĦå·¥ä½ľäººåĳĺ": 4702,
      "åºĩæĬ¤": 4703,
      "æĪ´": 4704,
      "æ²ī": 4705,
      "å®ĥä»¬çļĦ": 4706,
      "ä¿®æŃ£æ¡Ī": 4707,
      "åĤ¨åŃĺ": 4708,
      "ãĢĭãĢģãĢĬ": 4709,
      "è¿Ļæĸ¹éĿ¢çļĦ": 4710,
      "åĲ¬åıĸ": 4711,
      "æ¶µ": 4712,
      "å¹²ä»Ģä¹Ī": 4713,
      "äººæ°ĳçļĦ": 4714,
      "ä¼Ļè®¡": 4715,
      "Ġç¼Ķçº¦åĽ½": 4716,
      "è°ĥåĬ¨": 4717,
      "ç»ĵåĲĪ": 4718,
      "æ³Ĭå°Ķ": 4719,
      "èľ": 4720,
      "çĹĩ": 4721,
      "å¼ķæ¸¡": 4722,
      "ç®±": 4723,
      "å°¼æ³Ĭå°Ķ": 4724,
      "åī¯ä¸»å¸Ń": 4725,
      "æ½ľåľ¨": 4726,
      "ĠYou": 4727,
      "çļĦåīį": 4728,
      "æīĢè®¾": 4729,
      "å¿ĹæĦ¿": 4730,
      "Ġä¸ºäºĨ": 4731,
      "æŁ¬": 4732,
      "are": 4733,
      "ç¨ĭåº¦ä¸Ĭ": 4734,
      "åĴĮå®īåħ¨": 4735,
      "ä¸īå±Ĭä¼ļè®®": 4736,
      "http": 4737,
      "ĠåĽ½éĻħ": 4738,
      "Ġæ¬¢è¿İ": 4739,
      "æĿĥåĪ©çļĦ": 4740,
      "æ´ĹéĴ±": 4741,
      "åĴĮä¸į": 4742,
      "æĪĳèĥ½": 4743,
      "çĽĺ": 4744,
      "èŀįåħ¥": 4745,
      "å¼ĢæĶ¯": 4746,
      "æıĲä¾Ľæı´åĬ©": 4747,
      "å®ļäºİ": 4748,
      "èĪªç©º": 4749,
      "å¹¶åĲĳ": 4750,
      "ä»ĸä»¬åľ¨": 4751,
      "å¹²åĺĽ": 4752,
      "åĲ¬çĿĢ": 4753,
      "è°¢è°¢ä½ł": 4754,
      "å·¨å¤§": 4755,
      "æĬ¥è¡¨": 4756,
      "èĩªåĨ³": 4757,
      "è§£æĶ¾": 4758,
      "åĲįä¹ī": 4759,
      "ç§ĳæĬĢ": 4760,
      "åĮĹçĪ±å°Ķåħ°": 4761,
      "å¯¹è¿ĻäºĽ": 4762,
      "å§Ķåĳĺä¼ļå»ºè®®": 4763,
      "è®¤çľŁ": 4764,
      "ä¼ļçļĦ": 4765,
      "78": 4766,
      "://": 4767,
      "åĮĸåĴĮ": 4768,
      "æŁĲç§į": 4769,
      "ä½łæĢİä¹Ī": 4770,
      "éĴ»": 4771,
      "å¿Ĩ": 4772,
      "åĲİåĭ¤": 4773,
      "åį±å®³": 4774,
      "FFFF": 4775,
      "åİĦçĵľ": 4776,
      "03": 4777,
      "ĠçļĦ": 4778,
      "æ³ķè§Ħ": 4779,
      "æķĻç§ĳæĸĩ": 4780,
      "ä¸Ī": 4781,
      "ä¸¥éĩįçļĦ": 4782,
      "åİĦçĵľå¤ļå°Ķ": 4783,
      "åĽŀåİ»": 4784,
      "ãĢĤãĢį": 4785,
      "è®ĵ": 4786,
      "è¾ħ": 4787,
      "æĳĺ": 4788,
      "çĮľ": 4789,
      "æĦıè¯ĨåĪ°": 4790,
      "ä¸Ńæľī": 4791,
      "ç¤¾ä¼ļåıĳå±ķ": 4792,
      "72": 4793,
      "ĠV": 4794,
      "æīĢåľ¨": 4795,
      "æ°§": 4796,
      "é½Ĳ": 4797,
      "éĻ¤åħ¶ä»ĸå¤ĸ": 4798,
      "NF": 4799,
      "å¤§ä¼ļç¬¬äºĶåįģ": 4800,
      "è¡ĮæĶ¿åĴĮé¢Ħç®Ĺ": 4801,
      "åĴĮåĽ½å®¶": 4802,
      "ä¾§": 4803,
      "Ġ.": 4804,
      "æµª": 4805,
      "ok": 4806,
      "æ¸Ĳ": 4807,
      "ä¿ĥä½¿": 4808,
      "ĠéĩįçĶ³": 4809,
      "ä»¥å¾Ģ": 4810,
      "å¥ī": 4811,
      "åºĶä»ĺ": 4812,
      "å¤Ħç½ļ": 4813,
      "Ġå®ĥ": 4814,
      "æĽ´æĸ°": 4815,
      "éĿŀæŃ£å¼ıåįıåķĨ": 4816,
      "çļĦä¸ľè¥¿": 4817,
      "ç©Ĩæĸ¯": 4818,
      "CE": 4819,
      "çļĦçİ¯å¢ĥ": 4820,
      "çļĦåħ³éĶ®": 4821,
      "æĪĳåİ»": 4822,
      "éĽĩåĳĺ": 4823,
      "Ġçİ°åľ¨": 4824,
      "äºļç¾İ": 4825,
      "ä»İæĿ¥": 4826,
      "å§»": 4827,
      "Ġä½łä»¬": 4828,
      "åı£å¤´": 4829,
      "åĽŀçŃĶ": 4830,
      "å¥¶": 4831,
      "åı¯éĿł": 4832,
      "è±ģ": 4833,
      "åħŃå±Ĭä¼ļè®®": 4834,
      "æĲľ": 4835,
      "äºļç¾İå°¼äºļ": 4836,
      "çļĦåĬŀæ³ķ": 4837,
      "éĩįè¦ģçļĦæĺ¯": 4838,
      "ç¬¬ä¸īæ¬¡": 4839,
      "æĸ°éĹ»éĥ¨": 4840,
      "æ´¥è´´": 4841,
      "åĪ¥": 4842,
      "ä¸Ĭåįĩ": 4843,
      "åķĨå®ļçļĦ": 4844,
      "å¨ĺ": 4845,
      "ä¸ĢèĪ¬äºĭåĬ¡": 4846,
      "åĢĻéĢīäºº": 4847,
      "åŃŁåĬłæĭīåĽ½": 4848,
      "ct": 4849,
      "åĽ½éĺ²": 4850,
      "å°Ĩæĺ¯": 4851,
      "ä¸Ĭæĸĩç¬¬": 4852,
      "æ¼Ĥäº®": 4853,
      "çļĦæĿ¡ä»¶": 4854,
      "ç¡®ç«ĭ": 4855,
      "åºŁçī©": 4856,
      "Ġä»Ģä¹Ī": 4857,
      "çĽ¸åºĶ": 4858,
      "çĸ«": 4859,
      "å±¥è¡Įåħ¶": 4860,
      "è¿Ļä¸¤ä¸ª": 4861,
      "ä¸īå¹´": 4862,
      "æĤī": 4863,
      "Ġæ²¡æľī": 4864,
      "å¹´åºķ": 4865,
      "æ°¯": 4866,
      "å§Ķåĳĺä¼ļæĪĲåĳĺ": 4867,
      "æŀģä¸º": 4868,
      "ome": 4869,
      "æģ¨": 4870,
      "çľĭè§ģ": 4871,
      "ä½¿çĶ¨çļĦ": 4872,
      "ä½ıåĮº": 4873,
      "åľ¨æĪĳ": 4874,
      "åĽ½éĻħäººæĿĥ": 4875,
      "çļĦäººéģĵ": 4876,
      "å¤«äºº": 4877,
      "è±ģåħį": 4878,
      "çĶŁæ®ĸ": 4879,
      "åĽłèĢĮ": 4880,
      "å°ıå¿ĥ": 4881,
      "åħĭæĸ¯": 4882,
      "åĴĮåĬłå¼º": 4883,
      "åįľ": 4884,
      "åĽ½éĻħäººéģĵä¸»ä¹īæ³ķ": 4885,
      "æī§è¡Įä¸»ä»»": 4886,
      "åħĪçĶŁéĺģä¸ĭ": 4887,
      "æĢİéº¼": 4888,
      "Ġst": 4889,
      "ĠèĢĮ": 4890,
      "åħ¶å®ŀ": 4891,
      "åĶ±": 4892,
      "RC": 4893,
      "å¥¸": 4894,
      "ä¹Łæľī": 4895,
      "å¾Īéļ¾": 4896,
      "åĽŀåºĶ": 4897,
      "Ġè¿ĻäºĽ": 4898,
      "çļĦä¼ļè®®": 4899,
      "å°ıå²Ľå±¿": 4900,
      "å°ıæŃ¦åĻ¨åĴĮ": 4901,
      "æľīæĹ¶": 4902,
      "å®ŀè·µ": 4903,
      "åĦ¿ç«¥åĴĮ": 4904,
      "è¦Ĩ": 4905,
      "å¯¨": 4906,
      "åħ³å¿ĥ": 4907,
      "æķĻè®Ń": 4908,
      "ä¸Īå¤«": 4909,
      "å¹¶ä¸º": 4910,
      "æĸ¯è¾¾": 4911,
      "ä»¥åıĬåħ¶ä»ĸ": 4912,
      "è¯ģå®ŀ": 4913,
      "å¤§ä¸įåĪĹé¢ł": 4914,
      "å½¹": 4915,
      "æŃ£ä¹ī": 4916,
      "æİªæĸ½çļĦ": 4917,
      "æķħäºĭ": 4918,
      "èįĴæ¼ł": 4919,
      "éĹ®é¢ĺä¸Ĭ": 4920,
      "çľĭèµ·æĿ¥": 4921,
      "ä»»ä½ķäºº": 4922,
      "å¸¦æĿ¥çļĦ": 4923,
      "æį·åħĭåħ±åĴĮåĽ½": 4924,
      "äºĶå±Ĭä¼ļè®®": 4925,
      "ä½łå°±": 4926,
      "å¡«": 4927,
      "å±ĤéĿ¢": 4928,
      "îħ": 4929,
      "åŁĶ": 4930,
      "åĲİæĿ¥": 4931,
      "ç¡®æĺ¯": 4932,
      "å®¡è¯Ħ": 4933,
      "ä¸ĸçķĮä¸Ĭ": 4934,
      "ä¸ľéģĵ": 4935,
      "èĢģå¹´": 4936,
      "ç»ĳ": 4937,
      "ç§©": 4938,
      "æĶ¶åĪ°çļĦ": 4939,
      "çī¹æ´¾åĽ¢çļĦ": 4940,
      "çļĦåħ³äºİ": 4941,
      "è¿Ļæĸ¹éĿ¢": 4942,
      "åĬłå°Ķ": 4943,
      "æĿ¡èįīæ¡Ī": 4944,
      "åĲĪä½ľçļĦ": 4945,
      "åĽŀäºĭ": 4946,
      "æ¶µçĽĸ": 4947,
      "Corr": 4948,
      "åĪº": 4949,
      "å¥³åĦ¿": 4950,
      "åįĥå¹´å®£è¨Ģ": 4951,
      "ç§©åºı": 4952,
      "74": 4953,
      "å¹¶å¯¹": 4954,
      "æ·«": 4955,
      "å©ļå§»": 4956,
      "ly": 4957,
      "é¥¿": 4958,
      "éĶĢæ¯ģ": 4959,
      "ç¥Ŀè´º": 4960,
      "æŁ¬åŁĶ": 4961,
      "æŁ¬åŁĶå¯¨": 4962,
      "èŀįèµĦ": 4963,
      "åī²": 4964,
      "å¢Ļ": 4965,
      "æĻļä¸Ĭ": 4966,
      "å»ºç«ĭäºĨ": 4967,
      "å®¶åºŃæļ´åĬĽ": 4968,
      "æĺ¯ä¸įæĺ¯": 4969,
      "å¡Ķå°Ķ": 4970,
      "æįĲåĬ©èĢħ": 4971,
      "éļĲ": 4972,
      "èİİ": 4973,
      "ä¾ĭåŃĲ": 4974,
      "Ġwh": 4975,
      "å®Ŀè´Ŀ": 4976,
      "åħ°åį¡": 4977,
      "å¦»åŃĲ": 4978,
      "110": 4979,
      "åĲĵ": 4980,
      "åľ¨è¿ĩåİ»": 4981,
      "ä»£è¡¨çļĦ": 4982,
      "å®ļå±ħ": 4983,
      "å¾Īå¿«": 4984,
      "æŁĲä¸Ģ": 4985,
      "é»İåĬł": 4986,
      "å¹¶ä¸įæĺ¯": 4987,
      "åĵ¥æĸ¯è¾¾": 4988,
      "çļĦç¨ĭåºı": 4989,
      "è½¬åŀĭ": 4990,
      "åħ¬åĬ¡åĳĺ": 4991,
      "å°ıæŃ¦åĻ¨åĴĮè½»æŃ¦åĻ¨": 4992,
      "æĸ¯éĩĮ": 4993,
      "çĭĤ": 4994,
      "æĥ¯ä¾ĭ": 4995,
      "åĵ¥æĸ¯è¾¾é»İåĬł": 4996,
      "ST": 4997,
      "éģĵå¾·": 4998,
      "ĠThe": 4999,
      "ç©Ĩæĸ¯æŀĹ": 5000,
      "åĪł": 5001,
      "å¦¥": 5002,
      "è®¨è®ºäºĨ": 5003,
      "æıĲé«ĺå¦ĩå¥³åľ°ä½į": 5004,
      "èªĵ": 5005,
      "çļĦäººéģĵä¸»ä¹ī": 5006,
      "åģ¶": 5007,
      "éĿŀæ´²åıĳå±ķ": 5008,
      "æĭīä¸ģç¾İæ´²åĴĮåĬłåĭĴæ¯Ķ": 5009,
      "è¬Ŀ": 5010,
      "71": 5011,
      "ä¸įåľ¨": 5012,
      "æīĢè°ĵ": 5013,
      "æĬ¥éģĵ": 5014,
      "ang": 5015,
      "æĹłæł¸æŃ¦åĻ¨": 5016,
      "äº§æĿĥ": 5017,
      "ç¢°": 5018,
      "æ¾Ħ": 5019,
      "åĴĮæĪĳ": 5020,
      "åĬłåĿ¡": 5021,
      "åĪĨç±»": 5022,
      "åĪĽæĸ°": 5023,
      "ä¼ļä¸Ĭ": 5024,
      "åľ¨åĨħ": 5025,
      "åıĬåĮĹçĪ±å°Ķåħ°": 5026,
      "éĵģ": 5027,
      "ä»ĩå¤ĸ": 5028,
      "åĢºæĿĥäºº": 5029,
      "çļĦå¿ħè¦ģ": 5030,
      "æī£": 5031,
      "æ¬²": 5032,
      "ç»ĨåĪĻ": 5033,
      "ç¼ĺ": 5034,
      "èĩªèº«": 5035,
      "èĪį": 5036,
      "çļĦåħ¨çĲĥ": 5037,
      "æĹ§": 5038,
      "æł¹æį®ç¬¬": 5039,
      "å¤§ä¸įåĪĹé¢łåıĬåĮĹçĪ±å°Ķåħ°": 5040,
      "Ġä¸Ģä¸ª": 5041,
      "ä¸ĵéĹ¨æľºæŀĦ": 5042,
      "ç»ıåİĨ": 5043,
      "é«ĺçŃī": 5044,
      "æ¯Ķå¦Ĥ": 5045,
      "å¤įåĳĺ": 5046,
      "å¥´": 5047,
      "èĲ¨å°Ķ": 5048,
      "è©±": 5049,
      "çļĦæķ°æį®": 5050,
      "çİ¯å¢ĥè§ĦåĪĴç½²": 5051,
      "ä»ħä»ħ": 5052,
      "æ·±åħ¥": 5053,
      "æ¾Ħæ¸ħ": 5054,
      "ä¸įè®º": 5055,
      "åĩºçĶŁ": 5056,
      "åĬłçº³": 5057,
      "åĪ©æ¯Ķäºļ": 5058,
      "å¥½å¤Ħ": 5059,
      "éĮ": 5060,
      "Ġå¼ºè°ĥ": 5061,
      "éĺ³": 5062,
      "æĢ§æŃ¦åĻ¨": 5063,
      "æĸ¯çī¹": 5064,
      "æĸ°åĬłåĿ¡": 5065,
      "ç»ĪæŃ¢": 5066,
      "åĲĦåĮºåŁŁ": 5067,
      "è§Ħçº¦": 5068,
      "åĽŀé¡¾åħ¶": 5069,
      "98": 5070,
      "åĮĪ": 5071,
      "åĢ¾": 5072,
      "èĤī": 5073,
      "ä¸ĢæĹ¦": 5074,
      "Ġdo": 5075,
      "çĽĳçĿ£åİħ": 5076,
      "å¸¸é©»èģĶåĲĪåĽ½ä»£è¡¨": 5077,
      "åıĳå¸ĥ": 5078,
      "å¸¸è§Ħ": 5079,
      "end": 5080,
      "èĲ¥åħ»": 5081,
      "éģµå¾ª": 5082,
      "ç»ıèĲ¥": 5083,
      "çĽ¸æ¯Ķ": 5084,
      "æ³¨éĩį": 5085,
      "Ġå¤§ä¼ļ": 5086,
      "æĪĳæ²¡": 5087,
      "æ°ĳä¼Ĺ": 5088,
      "Ġä¸įæĺ¯": 5089,
      "ä¸įè¡Į": 5090,
      "åĽŀåĪ°": 5091,
      "äººæ°ĳåħ±åĴĮåĽ½": 5092,
      "çĺ": 5093,
      "è°·": 5094,
      "ç±»åŀĭ": 5095,
      "ä½łä»¬çļĦ": 5096,
      "éĢļè®¯": 5097,
      "é«ĺä¸ĵ": 5098,
      "é¥®": 5099,
      "æĸ¯éĩĮåħ°åį¡": 5100,
      "ä¿©": 5101,
      "å¤ļå¹´": 5102,
      "æľŁæľĽ": 5103,
      "è®¤åı¯": 5104,
      "è®¾æ³ķ": 5105,
      "éĻĦä»¶äºĮ": 5106,
      "èĩªçĦ¶èµĦæºĲ": 5107,
      "æģ¶åĮĸ": 5108,
      "èģĶåĲĪä¼ļ": 5109,
      "å¤ĩå¿ĺ": 5110,
      "çİ¯å¢ĥç½²": 5111,
      "æīĵçĶµè¯Ŀ": 5112,
      "äººäºº": 5113,
      "æ¬º": 5114,
      "å¿ħé¡»åľ¨": 5115,
      "åĮĪçīĻ": 5116,
      "99": 5117,
      "åī¯ç§ĺä¹¦éķ¿": 5118,
      "å¤ĩå¿ĺå½ķ": 5119,
      "åĮĪçīĻåĪ©": 5120,
      "äºĨæĪĳ": 5121,
      "æ³ķå¾ĭåĴĮ": 5122,
      "çĽĳå¯Ł": 5123,
      "äºĶå¹´": 5124,
      "åĨ²çªģåĲİ": 5125,
      "æĺ¯ä¸ºäºĨ": 5126,
      "æ¡£": 5127,
      "åĵĪæĭī": 5128,
      "çļĦå®¡è®®": 5129,
      "è·Łä½ł": 5130,
      "ff": 5131,
      "åĴĮæľīåħ³": 5132,
      "çİ°æľīçļĦ": 5133,
      "å¯»æī¾": 5134,
      "è¿ģ": 5135,
      "åĴĮæĸ¹æ¡Ī": 5136,
      "éĻ¶": 5137,
      "åĲ¸å¼ķ": 5138,
      "è¡ĮæĶ¿åĴĮé¢Ħç®ĹéĹ®é¢ĺ": 5139,
      "å¤§ä¸įåĪĹé¢łåıĬåĮĹçĪ±å°Ķåħ°èģĶåĲĪçİĭåĽ½": 5140,
      "æĪĳè°¨": 5141,
      "åı¯åľ¨": 5142,
      "æĥħå½¢": 5143,
      "çĽ¸å¯¹": 5144,
      "çĻ¼": 5145,
      "åŃĺåľ¨çļĦ": 5146,
      "æķĻç§ĳæĸĩç»Ħç»ĩ": 5147,
      "ä»¥æ³ķ": 5148,
      "88": 5149,
      "æıı": 5150,
      "åħ±ä½ĵ": 5151,
      "éľĩ": 5152,
      "ara": 5153,
      "æĶ¸": 5154,
      "è¾ĳ": 5155,
      "åĲĳå§Ķåĳĺä¼ļ": 5156,
      "ç»ıæµİå¢ŀéķ¿": 5157,
      "æŃ¦è£ħéĥ¨éĺŁ": 5158,
      "éĽ¨": 5159,
      "åĩłå¹´": 5160,
      "æĸ¯æ´Ľä¼Ĳ": 5161,
      "æĸ¯æ´Ľä¼Ĳåħĭ": 5162,
      "åĽĽå±Ĭä¼ļè®®": 5163,
      "åĪļåĪļ": 5164,
      "æĪ¿åŃĲ": 5165,
      "è£ģåĨĽè°ĪåĪ¤": 5166,
      "é«ĺä¸ĵåĬŀ": 5167,
      "æĶ¸åħ³": 5168,
      "Ġ0": 5169,
      "çļĦå°ı": 5170,
      "æĮ¯": 5171,
      "æĥ³æ³ķ": 5172,
      "éĩĩåıĸçļĦè¡ĮåĬ¨": 5173,
      "ä½©": 5174,
      "çºł": 5175,
      "æľ¬åĨ³è®®": 5176,
      "æ¬¾é¡¹": 5177,
      "äººéģĵä¸»ä¹īæı´åĬ©": 5178,
      "æ¡ĳå°¼äºļ": 5179,
      "æĪĳå¸ĮæľĽ": 5180,
      "åĳĥ": 5181,
      "å¥½åĥı": 5182,
      "åħĴ": 5183,
      "ĠæĪĳæĥ³": 5184,
      "å·®å¼Ĥ": 5185,
      "è¯ģäºº": 5186,
      "åĿ¦æ¡ĳå°¼äºļ": 5187,
      "Ġwith": 5188,
      "çľŁæŃ£çļĦ": 5189,
      "Ġj": 5190,
      "èµł": 5191,
      "å¤±åİ»": 5192,
      "éĺ¿æĭīä¼¯åıĻåĪ©äºļ": 5193,
      "Ġå°Ĩ": 5194,
      "å·´é»İ": 5195,
      "åıĸå¾Ĺè¿Ľå±ķ": 5196,
      "èĸªéĩĳ": 5197,
      "ä¸»åĬ¨": 5198,
      "æķĪæŀľ": 5199,
      "up": 5200,
      "åħĥé¦ĸ": 5201,
      "ä¸ĸè´¸": 5202,
      "è®²è¯Ŀ": 5203,
      "éĩĬæĶ¾": 5204,
      "ain": 5205,
      "ä¸įå¯¹": 5206,
      "ä¸İåĲĪä½ľ": 5207,
      "éĵŃ": 5208,
      "éĩĳèŀįæľºæŀĦ": 5209,
      "èµ°åĲ§": 5210,
      "ç¢³": 5211,
      "å°Ĭä¸¥": 5212,
      "çļĦæĪĺçķ¥": 5213,
      "äºĨä¸Ģé¡¹": 5214,
      "åİĤ": 5215,
      "Ġ10": 5216,
      "åĴĮä½ł": 5217,
      "ç¼ĸåı·": 5218,
      "é¾Ļ": 5219,
      "ç»ıå¸¸é¢Ħç®Ĺ": 5220,
      "éĺ¿æĭīä¼¯åıĻåĪ©äºļåħ±åĴĮåĽ½": 5221,
      "è¿ĺå°Ĩ": 5222,
      "æł¸è£ģåĨĽ": 5223,
      "å¦®": 5224,
      "éķ¿å®ĺ": 5225,
      "å½ĵéĢī": 5226,
      "è§ģåĪ°": 5227,
      "CP": 5228,
      "çĽĽ": 5229,
      "è´¾": 5230,
      "Ġwe": 5231,
      "ä¹łæĥ¯": 5232,
      "Ġä¼ļ": 5233,
      "Ġä¹Ł": 5234,
      "è¯¥æĬ¥åĳĬ": 5235,
      "ç»ıæµİåĴĮ": 5236,
      "ib": 5237,
      "æ²¡æľīä»»ä½ķ": 5238,
      "'m": 5239,
      "é¢ĳ": 5240,
      "åı¯è¡Į": 5241,
      "ä¸ļç»©": 5242,
      "å¤©åķĬ": 5243,
      "åĽĽä¸ª": 5244,
      "åĲ¦åĪĻ": 5245,
      "Ġwas": 5246,
      "ä¼°è®¡æķ°": 5247,
      "æķıæĦŁ": 5248,
      "å§ĵ": 5249,
      "åıĤèĢĥ": 5250,
      "ç±»åĪ«": 5251,
      "éĢĤåĲĪ": 5252,
      "éļ¾éģĵ": 5253,
      "èģĮåĬ¡": 5254,
      "79": 5255,
      "å¹¶ç¡®ä¿Ŀ": 5256,
      "è§Ĥå¿µ": 5257,
      "éĩĩåıĸçļĦæİªæĸ½": 5258,
      "çģŃç»Ŀ": 5259,
      "Ġè¿ĺæľī": 5260,
      "èģĮçŃī": 5261,
      "æµ·åħ³": 5262,
      "å¡ŀåĨħ": 5263,
      "Ġan": 5264,
      "çļĦéľĢè¦ģ": 5265,
      "æĿ¥çľĭ": 5266,
      "åħĭæľį": 5267,
      "çºªå¿µ": 5268,
      "åĴĮA": 5269,
      "åĽ½éĻħæ³ķéĻ¢": 5270,
      "ä¿¡æģ¯æĬĢæľ¯": 5271,
      "fscx": 5272,
      "fscy": 5273,
      "éĹ®é¢ĺåĴĮ": 5274,
      "æĸĩæĺİ": 5275,
      "è¯´ä»Ģä¹Ī": 5276,
      "Ġæĺ¯çļĦ": 5277,
      "è´Ńä¹°": 5278,
      "Ġnot": 5279,
      "è¹": 5280,
      "æĸ°ä¼Ļä¼´åħ³ç³»": 5281,
      "æ±Ĥæĸ¯": 5282,
      "èģĮæĿĥ": 5283,
      "åĴĮä¿ĿæĬ¤äººæĿĥ": 5284,
      "éĩįè¿Ķç¤¾ä¼ļ": 5285,
      "çļĦèĮĥåĽ´": 5286,
      "åĩºäºİ": 5287,
      "åħįè´¹": 5288,
      "____": 5289,
      "çį": 5290,
      "æĪĲå¹´": 5291,
      "éªĹ": 5292,
      "ä¾µçķ¥": 5293,
      "æ¯ĽéĩĮæ±Ĥæĸ¯": 5294,
      "ä¹¡": 5295,
      "ç§ĺå¯Ĩ": 5296,
      "ate": 5297,
      "è®¾ç«ĭçļĦ": 5298,
      "æĻĤåĢĻ": 5299,
      "åľ¨è¿ĻäºĽ": 5300,
      "è¿ĻåĦ¿": 5301,
      "éĩĮçļĦ": 5302,
      "æĬĬå®ĥ": 5303,
      "å¸®æĪĳ": 5304,
      "å·´åĭĴæĸ¯åĿ¦é¢ĨåľŁ": 5305,
      "è¶ĬåįĹ": 5306,
      "äººæĿĥåĴĮåŁºæľ¬èĩªçĶ±": 5307,
      "å¡ŀåĨħåĬłå°Ķ": 5308,
      "å¯¹å¾ħ": 5309,
      "åĪĨåºŃ": 5310,
      "1373": 5311,
      "èº«ä½ĵ": 5312,
      "å¤ı": 5313,
      "å¼Ģä¼ļ": 5314,
      "Ġgo": 5315,
      "è¡£æľį": 5316,
      "av": 5317,
      "èĩŃ": 5318,
      "ä½ĵçİ°": 5319,
      "è§ģç¬¬": 5320,
      "ç»ĵçĽŁ": 5321,
      "é¢Ħéĺ²çĬ¯ç½ªåĴĮ": 5322,
      "åĬ«": 5323,
      "ä¸İåħ¶": 5324,
      "æ±½": 5325,
      "åİ»å¹´": 5326,
      "ç¬¬ä¸Ģä¸ª": 5327,
      "æīĭåĨĮ": 5328,
      "èį¯åĵģ": 5329,
      "ud": 5330,
      "çļĦè´¹çĶ¨": 5331,
      "å¤§å¤§": 5332,
      "8080": 5333,
      "åį«çĶŁç»Ħç»ĩ": 5334,
      "å½ĵäºĭæĸ¹": 5335,
      "çĶ²": 5336,
      "æıĲéĨĴ": 5337,
      "å®īåħ¨çļĦ": 5338,
      "çĽĳç¦ģ": 5339,
      "åľºæīĢ": 5340,
      "Ġthis": 5341,
      "äºĨåħ³äºİ": 5342,
      "éĩįå¤į": 5343,
      "åĪĨåĮºåŁŁ": 5344,
      "å¯ĨåĪĩåĲĪä½ľ": 5345,
      "å¤§å¹ħ": 5346,
      "è£ħå¤ĩ": 5347,
      "èªī": 5348,
      "ä¹ĮæĭīåľŃ": 5349,
      "ä¹į": 5350,
      "å´ĩ": 5351,
      "ternational": 5352,
      "çļĦçĽ®çļĦ": 5353,
      "æĪĳä¸įèĥ½": 5354,
      "ä¸ĭæĸĩ": 5355,
      "çĽ¸åıį": 5356,
      "ä½įç½®": 5357,
      "76": 5358,
      "Ġå¿«": 5359,
      "çļĦçĶŁæ´»": 5360,
      "çĦ¡": 5361,
      "åĿļå®ļ": 5362,
      "åľ¨è¿Ļä¸ª": 5363,
      "æĪĳä¸įæĺ¯": 5364,
      "éĻĲäºİ": 5365,
      "Ġyour": 5366,
      "å¤§è§Ħæ¨¡æ¯ģçģŃ": 5367,
      "åıĳäºĨè¨Ģ": 5368,
      "æĪĳæ²¡æľī": 5369,
      "è¢«è§Ĩä¸º": 5370,
      "æīĵåĩ»æģĲæĢĸä¸»ä¹ī": 5371,
      "omm": 5372,
      "åĪĳäºĭæ³ķéĻ¢": 5373,
      "èĢ¶è·¯": 5374,
      "æĺ¯çĶ±": 5375,
      "åħ¶ä»ĸåĽ½å®¶": 5376,
      "ä¸¤åĽ½": 5377,
      "æĴĴåĨ·": 5378,
      "äºĨå¯¹": 5379,
      "æĬ½": 5380,
      "æĸ¹éĿ¢åıĳæĮ¥": 5381,
      "åŃ¦éĻ¢": 5382,
      "ä¼į": 5383,
      "èģĬ": 5384,
      "è¨Ģè®º": 5385,
      "èĢ¶è·¯æĴĴåĨ·": 5386,
      "éķ¿çļĦ": 5387,
      "åĨ³å®ļèįīæ¡Ī": 5388,
      "åĨĽå¤ĩ": 5389,
      "éĵŃè®°": 5390,
      "æİĴéĻ¤": 5391,
      "çļĦæľīæķĪ": 5392,
      "å«Į": 5393,
      "äººç±»ä½ıåĮº": 5394,
      "çļĦçłĶç©¶": 5395,
      "åĽļ": 5396,
      "æµ·æ´ĭæ³ķ": 5397,
      "å¹´åº¦æĬ¥åĳĬ": 5398,
      "æ··èĽĭ": 5399,
      "æİĮæı¡": 5400,
      "na": 5401,
      "åĴĮå¯¹": 5402,
      "æĹ¥èµ·": 5403,
      "éĩĮéĿ¢": 5404,
      "ç¤ºèĮĥæ³ķ": 5405,
      "æĪĳä»¬å¸ĮæľĽ": 5406,
      "ä»įçĦ¶æĺ¯": 5407,
      "å°ĳæķ°ç¾¤ä½ĵ": 5408,
      "è¡Įä¸ļ": 5409,
      "åĲįé¢Ŀ": 5410,
      "èĦ¸": 5411,
      "èĳ£": 5412,
      "åŁºç¡Ģä¸Ĭ": 5413,
      "é£Łåĵģ": 5414,
      "å®ĺæĸ¹åıĳå±ķæı´åĬ©": 5415,
      "æľīæľºä¼ļ": 5416,
      "æ²¡ä»Ģä¹Ī": 5417,
      "åįģåŃĹ": 5418,
      "ĠåĽłæŃ¤": 5419,
      "åľ¨éĤ£éĩĮ": 5420,
      "çº¸": 5421,
      "é©¬å°Ķ": 5422,
      "çļĦäººæĿĥ": 5423,
      "æĪĲç»©": 5424,
      "å¹¶è¯·": 5425,
      "éº»çĥ¦": 5426,
      "æ´ª": 5427,
      "æĳĬæ¬¾": 5428,
      "æŃ£æĺ¯": 5429,
      "è®¾æĥ³": 5430,
      "åı¯èĥ½æĺ¯": 5431,
      "è§Ĩå¯Ł": 5432,
      "æĮº": 5433,
      "æĶ¿åħļ": 5434,
      "è´¸æĺĵæ³ķ": 5435,
      "çĥ§": 5436,
      "çļĦæłĩåĩĨ": 5437,
      "ä¸ĢæĿ¡": 5438,
      "è§ģè¿ĩ": 5439,
      "çļĦä¸Ģç§į": 5440,
      "åįļå£«": 5441,
      "se": 5442,
      "ä¸Ģç³»åĪĹ": 5443,
      "éĻĦè¿ĳ": 5444,
      "ies": 5445,
      "çļĦéĤ£æł·": 5446,
      "äº¤ç»Ļ": 5447,
      "éľĢè¦ģçļĦ": 5448,
      "ä¸ĢäºĽåĽ½å®¶": 5449,
      "çĶ·åŃ©": 5450,
      "æħĪ": 5451,
      "ĠãĢĤ": 5452,
      "è¿Ľåİ»": 5453,
      "æµģè¡Į": 5454,
      "å®īçĲĨä¼ļæĪĲåĳĺ": 5455,
      "éļıæĹ¶": 5456,
      "ä¿¡æģ¯åĴĮéĢļä¿¡æĬĢæľ¯": 5457,
      "åĴĮåľ¨": 5458,
      "è¦ģç´ł": 5459,
      "åĬłåĪ©äºļ": 5460,
      "äºļå¤ª": 5461,
      "è¿ĺè¦ģ": 5462,
      "æŃ£è§Ħ": 5463,
      "æĽ²": 5464,
      "åįĸæ·«": 5465,
      "å¾ģèģĺ": 5466,
      "XX": 5467,
      "æľĢæĸ°": 5468,
      "èĭ±æĸĩ": 5469,
      "åįıåķĨä¸Ģèĩ´": 5470,
      "éĴ»çŁ³": 5471,
      "å¹´åľ¨": 5472,
      "çĶŁèĤ²": 5473,
      "åĪ«äºº": 5474,
      "çŃīå¾ħ": 5475,
      "é©¬åħ¶": 5476,
      "åĴĮä¿ĥè¿Ľ": 5477,
      "ä»ĩå¤ĸå¿ĥçĲĨ": 5478,
      "é©¬åħ¶é¡¿": 5479,
      "æĺ¯åĲĹ": 5480,
      "ä¿Ĺ": 5481,
      "å¯¼è¨Ģ": 5482,
      "éĻĦåĬł": 5483,
      "ĠSt": 5484,
      "Ġ500": 5485,
      "ĠçĶ±äºİ": 5486,
      "çļĦåĮºåŁŁ": 5487,
      "ä¿ĿåĬłåĪ©äºļ": 5488,
      "è¿Ļæĺ¯ä¸Ģä¸ª": 5489,
      "ç¢İ": 5490,
      "åĪ©çĽĬæĶ¸åħ³": 5491,
      "æĮĤ": 5492,
      "æĶ¶çĽĬ": 5493,
      "å¹¶é¼ĵåĬ±": 5494,
      "å¼ºå¥¸": 5495,
      "ine": 5496,
      "åĪ¤ä¾ĭ": 5497,
      "ä¸»è¦ģæĺ¯": 5498,
      "'re": 5499,
      "çļĦçĲĨçĶ±": 5500,
      "è¾Ľ": 5501,
      "å¹´åĴĮ": 5502,
      "å°Ķå¤ļ": 5503,
      "è®©ä»ĸ": 5504,
      "å¤ĩéĢī": 5505,
      "åĴĮæĶ¿åºľ": 5506,
      "æī«": 5507,
      "ä»»æĦı": 5508,
      "çīĻä¹°": 5509,
      "è¿«åĪĩ": 5510,
      "çĬ¹å¤ª": 5511,
      "åĴĮå¤ļ": 5512,
      "é£ŀè¡Į": 5513,
      "æķĻå¸Ī": 5514,
      "åĵĪèĲ¨": 5515,
      "åħ»æģ¤éĩĳ": 5516,
      "85": 5517,
      "çĶ¨æĪ·": 5518,
      "å¢ĥåĨħçļĦ": 5519,
      "çīĻä¹°åĬł": 5520,
      "æ©": 5521,
      "å®ĥæĺ¯": 5522,
      "å¾Īæľī": 5523,
      "è¡¥è´´": 5524,
      "ä¸ĵåĳĺåĬŀäºĭå¤Ħ": 5525,
      "95": 5526,
      "ĠæŃ¤å¤ĸ": 5527,
      "çļĦè®¨è®º": 5528,
      "å¹¶æľª": 5529,
      "ç³ķ": 5530,
      "åĪĿçº§": 5531,
      "III": 5532,
      "åı¯ä»¥åľ¨": 5533,
      "ç¥ĸ": 5534,
      "çĪ±ä½ł": 5535,
      "æİ¨è¿Ł": 5536,
      "æĪĳä¸įæĥ³": 5537,
      "ä¸įæī©æķ£æĿ¡çº¦": 5538,
      "çļĦåĨħå®¹": 5539,
      "æĹ±": 5540,
      "åĬłéĢŁ": 5541,
      "çī¹çĤ¹": 5542,
      "è¿ĩäºĨ": 5543,
      "èĩ³äºİ": 5544,
      "éĿĴå°ĳå¹´": 5545,
      "äº¬éĥ½": 5546,
      "åĨ»": 5547,
      "çī©åĵģ": 5548,
      "ç¼Ķç»ĵ": 5549,
      "çħ§çīĩ": 5550,
      "åįķæĸ¹éĿ¢": 5551,
      "éĢĢä¼ĳ": 5552,
      "ç®¡è¾ĸæĿĥ": 5553,
      "åĲĦæĪĲåĳĺåĽ½": 5554,
      "çĶŁæ´»åľ¨": 5555,
      "åŃĺåľ¨çĿĢ": 5556,
      "èµ¦": 5557,
      "äºĭåħĪ": 5558,
      "æ±¤": 5559,
      "åĴĮåįıè°ĥ": 5560,
      "æ²¡æľīäºº": 5561,
      "ä½ľåĩºåĨ³å®ļ": 5562,
      "æľĢå¤§çļĦ": 5563,
      "æĽ´å¥½çļĦ": 5564,
      "èī°": 5565,
      "å®³æĢķ": 5566,
      "ä¸°": 5567,
      "çļĦç»ıéªĮ": 5568,
      "çī¢": 5569,
      "æĸ¹éĿ¢æīĢ": 5570,
      "éľį": 5571,
      "æľīäºĨ": 5572,
      "çĲĨäºĭä¼ļç¬¬": 5573,
      "æ»ļ": 5574,
      "è¡ĮæĶ¿å½ĵå±Ģ": 5575,
      "æĭĸå»¶": 5576,
      "ew": 5577,
      "ä½Ĩåľ¨": 5578,
      "96": 5579,
      "èģĶåĲĪåĽ½åľ¨": 5580,
      "è¿Ĳäºº": 5581,
      "èİ·å¾ĹéĢļè¿ĩ": 5582,
      "ç®Ģè¦ģ": 5583,
      "çģ¾éļ¾": 5584,
      "è¾¾æĪĲçļĦ": 5585,
      "åĵĪèĲ¨åħĭæĸ¯åĿ¦": 5586,
      "æĪĳå¾Ĺ": 5587,
      "äºĨåĲ§": 5588,
      "å¯¹ä»ĺ": 5589,
      "éĹ®é¢ĺçī¹åĪ«æĬ¥åĳĬåĳĺ": 5590,
      "ç±³å°¼": 5591,
      "åĩĨç¡®": 5592,
      "man": 5593,
      "çļĦéĤ£": 5594,
      "åħ¥ä¾µ": 5595,
      "å¸¸å¸¸": 5596,
      "åį¡å¡Ķå°Ķ": 5597,
      "èĴĻåı¤": 5598,
      "çİ»åĪ©ç»´äºļ": 5599,
      "Ġ{": 5600,
      "æľīçĽĬ": 5601,
      "æ¡Īä¾ĭ": 5602,
      "æİĴéĽ·": 5603,
      "åĮĹäº¬": 5604,
      "ä¸İæŃ¤åĲĮæĹ¶": 5605,
      "SR": 5606,
      "æľīä¹īåĬ¡": 5607,
      "åıĸä»£": 5608,
      "è®¡åĪĴçļĦ": 5609,
      "èĵĦ": 5610,
      "äººæĿĥäºĭåĬ¡é«ĺçº§ä¸ĵåĳĺåĬŀäºĭå¤Ħ": 5611,
      "å¹´èĩ³": 5612,
      "åľ°çĲĨ": 5613,
      "æĿ¡æĸĩ": 5614,
      "äººæĿĥé«ĺä¸ĵåĬŀ": 5615,
      "æľĢé«ĺæ³ķéĻ¢": 5616,
      "ä¿¡è´·": 5617,
      "ind": 5618,
      "åħ·å¤ĩ": 5619,
      "UN": 5620,
      "å·¥ä¼ļ": 5621,
      "çļĦäººåı£": 5622,
      "æģĲæĢĸåĪĨåŃĲ": 5623,
      "è®¾ç«ĭäºĨ": 5624,
      "éĿ¢ä¸´çļĦ": 5625,
      "ap": 5626,
      "æī¶": 5627,
      "éĩįè¦ģä½ľçĶ¨": 5628,
      "æ¸ħæ´ģ": 5629,
      "çŁ¥è¯Ĩäº§æĿĥ": 5630,
      "è¿Ļå°Ĩ": 5631,
      "ä¸»å¸ŃåħĪçĶŁ": 5632,
      "ĠæıĲäº¤äºº": 5633,
      "ç»ıå§Ķä¼ļ": 5634,
      "æīĢéľĢçļĦ": 5635,
      "èĩªçĦ¶çģ¾å®³": 5636,
      "çŁŃæľŁ": 5637,
      "è§£éĻ¤æŃ¦è£ħ": 5638,
      "çļĦåı¯èĥ½æĢ§": 5639,
      "åĨħéĻĨ": 5640,
      "äº¤éĢļ": 5641,
      "è¡¡éĩı": 5642,
      "æĴĴåĵĪæĭī": 5643,
      "ä¸Ģä½ĵåĮĸ": 5644,
      "åĭŁ": 5645,
      "å®¢æĪ·": 5646,
      "éº¦éļĨ": 5647,
      "Ġhave": 5648,
      "æĪĳä»¬å¯¹": 5649,
      "èª°": 5650,
      "çļĦè¿Ľå±ķ": 5651,
      "ä¾ĭå¤ĸ": 5652,
      "çĶµå½±": 5653,
      "æĭľæīĺ": 5654,
      "åĸĢéº¦éļĨ": 5655,
      "ity": 5656,
      "çĲĮ": 5657,
      "ert": 5658,
      "Ġmy": 5659,
      "éĢŁåº¦": 5660,
      "Ġkn": 5661,
      "å®Ľ": 5662,
      "å¿§": 5663,
      "ĠæĪĳæĺ¯": 5664,
      "æĶ¹ä¸º": 5665,
      "ç½Ĺæ¯ķ": 5666,
      "ä¸įå¤Ł": 5667,
      "å¯¼å¼¹": 5668,
      "è¡¥åģ¿": 5669,
      "ĠCon": 5670,
      "æľĢä½³åģļæ³ķ": 5671,
      "uc": 5672,
      "åĴĮçĽ¸åħ³": 5673,
      "æĪĳä»¬åı¯ä»¥": 5674,
      "ä½ĵèĤ²": 5675,
      "å©´": 5676,
      "æĲ¬": 5677,
      "å¤§è§Ħæ¨¡æ¯ģçģŃæĢ§æŃ¦åĻ¨": 5678,
      "æĪĴ": 5679,
      "ä»¥åıĬå¯¹": 5680,
      "çľĭçĿĢ": 5681,
      "è°Īè°Ī": 5682,
      "97": 5683,
      "æľīä¸ª": 5684,
      "ä¸ºåħ¶": 5685,
      "é¡¶": 5686,
      "å¤§éĻĨ": 5687,
      "çĶŁåŃĺ": 5688,
      "ä¹Łä¼ļ": 5689,
      "ä¹Łåľ¨": 5690,
      "æĿĢå®³": 5691,
      "ä»Ķ": 5692,
      "ç®¡çĲĨå±Ģ": 5693,
      "æĶ¿çŃĸçļĦ": 5694,
      "æł¼çļĦ": 5695,
      "å£«åħµ": 5696,
      "ç§ĳåŃ¦åĴĮæĬĢæľ¯": 5697,
      "iz": 5698,
      "ãĦ": 5699,
      "ran": 5700,
      "èģ½": 5701,
      "è°İ": 5702,
      "åĦ¿ç«¥æĿĥåĪ©åħ¬çº¦": 5703,
      "æĭ¨æ¬¾": 5704,
      "è¯Ĭ": 5705,
      "æĬ¢": 5706,
      "ä»¥æŃ¤": 5707,
      "ĠæĪĳè¦ģ": 5708,
      "æĳĺè¦ģ": 5709,
      "82": 5710,
      "æĪĳå·²ç»ı": 5711,
      "è®®åĳĺ": 5712,
      "çĽ²": 5713,
      "åĵĪé©¬": 5714,
      "ä¸ľéģĵåĽ½": 5715,
      "ä½łåİ»": 5716,
      "å¤ļç§į": 5717,
      "çĿĢæīĭ": 5718,
      "ä½ľä¸ºä¸Ģä¸ª": 5719,
      "è·¯çº¿": 5720,
      "å®ļæľŁæĬ¥åĳĬ": 5721,
      "éº»éĨī": 5722,
      "èīºæľ¯": 5723,
      "æĸ¥": 5724,
      "éĢĨ": 5725,
      "çĻ¾åĪĨ": 5726,
      "çı¾åľ¨": 5727,
      "83": 5728,
      "åĬ¨çī©": 5729,
      "å¸ĥåŁº": 5730,
      "æķ´ä½ĵ": 5731,
      "ãĢĭ;": 5732,
      "ç¬¬äºĶå§Ķåĳĺä¼ļ": 5733,
      "ç¢ºæĺ¯": 5734,
      "è¿¹è±¡": 5735,
      "éĻ¶å®Ľ": 5736,
      "æıĲåĪ°çļĦ": 5737,
      "åĬłå¿«": 5738,
      "ç«ĭéĻ¶å®Ľ": 5739,
      "éĩĮæĸ¯": 5740,
      "è¨±": 5741,
      "åľ¨åĵªéĩĮ": 5742,
      "æ³ķç´¢": 5743,
      "åĬłä¸Ĭ": 5744,
      "éĥ¨çļĦ": 5745,
      "åŁºåĩĨ": 5746,
      "Ġcon": 5747,
      "èĲ¨å°Ķçĵ¦": 5748,
      "ive": 5749,
      "çĽ¾": 5750,
      "æĽ´å¤§çļĦ": 5751,
      "è¡¨ç¤ºåħ³åĪĩ": 5752,
      "han": 5753,
      "åįĹåįĹ": 5754,
      "æİ¨è¿Ľ": 5755,
      "Ġæķ¦ä¿ĥ": 5756,
      "å°¸": 5757,
      "äºĨä¸ĢäºĽ": 5758,
      "æ²¡äºº": 5759,
      "çļĦæĪĲåĳĺ": 5760,
      "å±ģ": 5761,
      "åºĶæĢ¥": 5762,
      "è¯´è¯Ŀ": 5763,
      "åģļåĪ°": 5764,
      "éĩĩåıĸä¸ĢåĪĩ": 5765,
      "åįĹäºļ": 5766,
      "ould": 5767,
      "é¹": 5768,
      "åĪ¸": 5769,
      "ä¸ĬéĿ¢": 5770,
      "ç»ıç¤¾ä¼ļ": 5771,
      "åĲĦä¼ļåĳĺåĽ½": 5772,
      "å°¤åħ¶æĺ¯åľ¨": 5773,
      "äº¬éĥ½è®®å®ļä¹¦": 5774,
      "89": 5775,
      "ip": 5776,
      "Ġåĵ¦": 5777,
      "åĨ²çªģçļĦ": 5778,
      "éļĶç¦»": 5779,
      "åºĦ": 5780,
      "æıĲåĲį": 5781,
      "æĹ¶ä»£": 5782,
      "äº¤ä»ĺ": 5783,
      "ass": 5784,
      "ĠåĲģè¯·": 5785,
      "è¯¥é¡¹": 5786,
      "æĢİä¹ĪåĬŀ": 5787,
      "åĬ³åĬ¨åĬĽ": 5788,
      "åıĶ": 5789,
      "ä¼ª": 5790,
      "å°±èĥ½": 5791,
      "çİ¯å¢ĥåŁºéĩĳ": 5792,
      "æŃ»äº¡çİĩ": 5793,
      "å¤ļç±³å°¼": 5794,
      "åħĪåīį": 5795,
      "å¾Īé«ĺåħ´": 5796,
      "ä½ķç§į": 5797,
      "ç§°ä¸º": 5798,
      "çīĮ": 5799,
      "æĪĸæľī": 5800,
      "äºĶä¸ª": 5801,
      "èŃ¦åĳĬ": 5802,
      "åĴ¨è¯¢æĦıè§ģ": 5803,
      "ä¾ĽåºĶåķĨ": 5804,
      "æ¹¾": 5805,
      "æıĲåĩºå»ºè®®": 5806,
      "eg": 5807,
      "çļĦåħ¨éĿ¢": 5808,
      "åİĮ": 5809,
      "åĲ¬è¯´": 5810,
      "èµŀèµıåľ°æ³¨æĦıåĪ°": 5811,
      "IS": 5812,
      "æĬ¥åĳĬç¬¬": 5813,
      "è®¢ç«ĭ": 5814,
      "ĠAl": 5815,
      "æļ´åĬĽä¾µå®³": 5816,
      "è§Ĵèī²": 5817,
      "æ°¸ä¹ħ": 5818,
      "87": 5819,
      "her": 5820,
      "åĴĮCorr": 5821,
      "ä¸Ģå¤©": 5822,
      "æīĢè§Ħå®ļçļĦ": 5823,
      "æĪĳä»¬ä¹Ł": 5824,
      "è¿ĺæ²¡æľī": 5825,
      "è¯¢éĹ®": 5826,
      "å£°éŁ³": 5827,
      "é¢Ħéĺ²çĬ¯ç½ªåĴĮåĪĳäºĭåı¸æ³ķ": 5828,
      "èĳ£äºĭ": 5829,
      "æĪ¿éĹ´": 5830,
      "å®ı": 5831,
      "åıĳåŁºéĩĳ": 5832,
      "æĿĥåĴĮ": 5833,
      "èĩªæĪĳ": 5834,
      "ä¸¤åĲį": 5835,
      "ç¡®å®ļçļĦ": 5836,
      "æ¶ĪéĻ¤è´«ç©·": 5837,
      "éĻĪè¿°": 5838,
      "og": 5839,
      "åĵĩ": 5840,
      "å·²åľ¨": 5841,
      "éĥ½æ²¡æľī": 5842,
      "ä¸ĸçķĮäººæĿĥ": 5843,
      "å©Ĩ": 5844,
      "æ¦Ĥç®Ĺ": 5845,
      "èįĴæ¼łåĮĸ": 5846,
      "åıĳå°Ħ": 5847,
      "ä¸ĸçķĮåĲĦåľ°": 5848,
      "è®¸å¤ļåĽ½å®¶": 5849,
      "æĢ§åĪ«è§ĤçĤ¹": 5850,
      "çĽ´æİ¥æĬķèµĦ": 5851,
      "èĲ¨å°Ķçĵ¦å¤ļ": 5852,
      "å°¼åĬłæĭī": 5853,
      "è¾¹å¢ĥ": 5854,
      "ä¸ºä½ķ": 5855,
      "èĩªä»İ": 5856,
      "è½¨": 5857,
      "ç¬¬äºĮä¸ª": 5858,
      "ä¸ĸè´¸ç»Ħç»ĩ": 5859,
      "ä¹įå¾Ĺ": 5860,
      "å°¼åĬłæĭīçĵľ": 5861,
      "Ġ2004": 5862,
      "å®¶äºº": 5863,
      "ä¸Ĭåİ»": 5864,
      "è¯¥åĨ³è®®": 5865,
      "å»ºéĢł": 5866,
      "æ¯Ķç»į": 5867,
      "åı·åĨ³è®®ä¸Ń": 5868,
      "åĤ»": 5869,
      "Ġ2002": 5870,
      "ä¸ĵéĹ¨çŁ¥è¯Ĩ": 5871,
      "æ½ľåĬĽ": 5872,
      "å°ıå²Ľå±¿åıĳå±ķä¸ŃåĽ½å®¶": 5873,
      "81": 5874,
      "Ġå·¥ä½ľç»Ħ": 5875,
      "ä»»èģĮ": 5876,
      "ç»Ļç§ĺä¹¦éķ¿": 5877,
      "é¥¥": 5878,
      "æ··åĲĪ": 5879,
      "ç»ĳæŀ¶": 5880,
      "æĪĳæĿ¥": 5881,
      "è¿Ļç§įæĥħåĨµ": 5882,
      "æİ¨å¹¿": 5883,
      "å®£è¨ĢåĴĮ": 5884,
      "éĢĻåĢĭ": 5885,
      "æīĢè¿°æľŁéĹ´": 5886,
      "å°Ŀ": 5887,
      "åħ¬æ°ĳæĿĥåĪ©åĴĮ": 5888,
      "ç´¢èµĶäºº": 5889,
      "åħ±æľī": 5890,
      "éªļ": 5891,
      "å°½éĩı": 5892,
      "iss": 5893,
      "åĿļåĨ³": 5894,
      "è®¸åı¯è¯ģ": 5895,
      "åľ¨æĪĳä»¬": 5896,
      "åīįå¾Ģ": 5897,
      "è§Ħå®ļäºĨ": 5898,
      "è½¦è¾Ĩ": 5899,
      "é¦ĸæ¬¡": 5900,
      "å¿«éĢŁ": 5901,
      "çĶŁçī©å¤ļæł·æĢ§": 5902,
      "çİ©ç¬ĳ": 5903,
      "Ġal": 5904,
      "Ġ2006": 5905,
      "çļĩ": 5906,
      "çļĦåħ³ç³»": 5907,
      "æľĪä»½": 5908,
      "æıĲä¾ĽæĶ¯åĬ©": 5909,
      "èµŀæ¯Ķäºļ": 5910,
      "åĪļæīį": 5911,
      "åľ¨æīĢæľī": 5912,
      "èĢĮä¸į": 5913,
      "å·´å°¼äºļ": 5914,
      "åįķä¸Ģ": 5915,
      "æŃ§è§Ĩåħ¬çº¦": 5916,
      "çľŁä¸»çļĦ": 5917,
      "åħ¨åĬĽ": 5918,
      "éĻĲåº¦": 5919,
      "èį¯çī©ç®¡åĪ¶": 5920,
      "æ¹ĸ": 5921,
      "çļĦåĨ³è®®": 5922,
      "æľīå®³": 5923,
      "å®ŀéªĮ": 5924,
      "**": 5925,
      "ä»¥ä¿ĥè¿Ľ": 5926,
      "è¢ĭ": 5927,
      "å½±åĵįåĪ°": 5928,
      "å¼Ģå±ķçļĦ": 5929,
      "éĺ¿æĭīä¼¯åĽ½å®¶": 5930,
      "éŁ³ä¹Ĳ": 5931,
      "å½ĵäºĭäºº": 5932,
      "éĤ»åĽ½": 5933,
      "æĶ¿åºľåľ¨": 5934,
      "æĪĲåĳĺåĲįé¢Ŀ": 5935,
      "å¤±è´¥": 5936,
      "Ġå°±æĺ¯": 5937,
      "è¿ĽæĿ¥": 5938,
      "éĿŀåħ¬å¼Ģ": 5939,
      "ç¡¬": 5940,
      "å±Ĭçī¹åĪ«ä¼ļè®®": 5941,
      "åĸĶ": 5942,
      "çº³æ³ķç´¢": 5943,
      "é¢Ħéĺ²åĴĮ": 5944,
      "DP": 5945,
      "æĦŁåħ´è¶£": 5946,
      "éĹ®è´£åĪ¶": 5947,
      "å§Ķåĳĺä¼ļè®¤ä¸º": 5948,
      "åĮºåĪ«": 5949,
      "æĭīèĦ±": 5950,
      "æİ¥è¿ĳ": 5951,
      "çĽĳç®¡": 5952,
      "æĹ©ä¸Ĭ": 5953,
      "è´§å¸ģåŁºéĩĳ": 5954,
      "é©¬åħ¶é¡¿åħ±åĴĮåĽ½": 5955,
      "Ġè°¢è°¢": 5956,
      "èģĶç½ĳ": 5957,
      "å¤ĦåĨ³": 5958,
      "æıĲäº¤äºĨ": 5959,
      "åĳ¨æľŁ": 5960,
      "è§Ī": 5961,
      "å®ļä¸º": 5962,
      "å¼Ģå¹ķ": 5963,
      "ç½ªçĬ¯": 5964,
      "åŁ¹è®ŃåĴĮ": 5965,
      "çļĦäºĭä»¶": 5966,
      "ç»ıè´¹çļĦ": 5967,
      "åı¦ä¸Ģæĸ¹éĿ¢": 5968,
      "æĺ¯æł¹æį®": 5969,
      "ç»ıç¤¾": 5970,
      "æľ¬å±Ĭä¼ļè®®": 5971,
      "ç»§ç»ŃåĬªåĬĽ": 5972,
      "æł¼æŀĹ": 5973,
      "æĭīèĦ±ç»´äºļ": 5974,
      "æĹ¶èĩ³": 5975,
      "å¼ºè°ĥäºĨ": 5976,
      "èł¢": 5977,
      "å¸ĥåŁºçº³æ³ķç´¢": 5978,
      "æĸ¹çļĦ": 5979,
      "æķĪçĽĬ": 5980,
      "84": 5981,
      "åĬłæĸ¯": 5982,
      "äº§åĩº": 5983,
      "ä¸¤æ¬¡": 5984,
      "04": 5985,
      "Ġat": 5986,
      "çļĦæĬĢæľ¯": 5987,
      "å¤§ä¼ļç¬¬åħŃåįģ": 5988,
      "åľ¨è¿ĻåĦ¿": 5989,
      "è£ħç½®": 5990,
      "æĶ¿æ²»æĿĥåĪ©åĽ½éĻħåħ¬çº¦": 5991,
      "æĪĳåıª": 5992,
      "æĹĭ": 5993,
      "å§Ķåĳĺä¼ļçļĦå·¥ä½ľ": 5994,
      "æĸ¯åħĪçĶŁ": 5995,
      "åĮºçļĦ": 5996,
      "æ°ĳä¸»ä¸»ä¹ī": 5997,
      "äºĴåĬ¨": 5998,
      "éĹ®é¢ĺä¸ĸçķĮé¦ĸèĦĳä¼ļè®®": 5999,
      "ian": 6000,
      "çļĦåħ±åĲĮ": 6001,
      "ä¸»åĬŀ": 6002,
      "æįĲåĬ©åĽ½": 6003,
      "åıĳæĶ¾": 6004,
      "æĽ´å¤§": 6005,
      "è£ģåĨĽè°ĪåĪ¤ä¼ļè®®": 6006,
      "ä¸įä¹ħ": 6007,
      "è¿Ļä¸įæĺ¯": 6008,
      "105": 6009,
      "ç»ıæµİåıĳå±ķ": 6010,
      "æĶ¶åĪ°äºĨ": 6011,
      "çļĦäººæķ°": 6012,
      "é»Ħ": 6013,
      "ĠåĲĳ": 6014,
      "åºĨ": 6015,
      "åĬłåī§": 6016,
      "è¢«è®¤ä¸º": 6017,
      "éĺ¿å°Ķå·´å°¼äºļ": 6018,
      "åĩłåĨħäºļæ¯Ķç»į": 6019,
      "Ġ2000": 6020,
      "ä½łä¸ºä»Ģä¹Ī": 6021,
      "æľĢåĪĿ": 6022,
      "éĻĲæĪĲåĳĺåĲįé¢Ŀ": 6023,
      "ç¬¬ä¸Ģç«ł": 6024,
      "çĻ¾ä¸ĩ": 6025,
      "çļĦç®¡çĲĨ": 6026,
      "æĿ¡çļĦ": 6027,
      "ary": 6028,
      "çĶ·æĢ§": 6029,
      "èģĶåĲĪåĽ½ç³»ç»ŁåĲĦ": 6030,
      "å¤Ħå¢ĥ": 6031,
      "é©¬èĢ³": 6032,
      "æĺ¾èĳĹ": 6033,
      "éĢģäº¤": 6034,
      "åĴĮå®ŀæĸ½": 6035,
      "èĥİ": 6036,
      "è¡¥åĬ©": 6037,
      "ä¼ģåĽ¾": 6038,
      "è´Ŀå®ģ": 6039,
      "çļĦä¸ĸçķĮ": 6040,
      "åĴĮAdd": 6041,
      "åľ¨è¿Ļç§į": 6042,
      "åħ¬æĬ¥": 6043,
      "å»ºè®®çļĦ": 6044,
      "è¿ĿèĥĮ": 6045,
      "å°ĳæķ°æ°ĳæĹı": 6046,
      "ĠåºĶ": 6047,
      "ä¸»å¼ł": 6048,
      "èº«ä¸Ĭ": 6049,
      "ick": 6050,
      "è´¢åĬ¡æĬ¥è¡¨": 6051,
      "Ġå¦Ĥ": 6052,
      "æĺ¯ä¸Ģ": 6053,
      "æľīåħ³åĽ½å®¶": 6054,
      "èģĶåĪļ": 6055,
      "å°±è¿Ļæł·": 6056,
      "è¿ĺåºĶ": 6057,
      "æľĿé²ľæ°ĳä¸»ä¸»ä¹ī": 6058,
      "å±Ĭä¼ļ": 6059,
      "çĽ®æłĩæĺ¯": 6060,
      "æĿĢä¼¤": 6061,
      "è¡¥æķĳåĬŀæ³ķ": 6062,
      "åĴĮçİ¯å¢ĥ": 6063,
      "åĴĮæľįåĬ¡": 6064,
      "ç»ıæµİä½ĵ": 6065,
      "ç²®åĨľ": 6066,
      "çº¢åįģåŃĹ": 6067,
      "ä¾§éĩį": 6068,
      "è¯¥é¡¹çĽ®": 6069,
      "å·´åĭĴæĸ¯åĿ¦äºº": 6070,
      "å¼Ģåıĳéĵ¶è¡Į": 6071,
      "åģľçģ«": 6072,
      "åıįæĺłäºĨ": 6073,
      "åĴĮæĶ¯æĮģ": 6074,
      "ç¬¬ä¹Ŀ": 6075,
      "æľ¬åħ¬çº¦": 6076,
      "äººæĿĥçļĦ": 6077,
      "ä¸ĵå®¶å°ıç»Ħ": 6078,
      "æĭ¿é©¬": 6079,
      "éģĩåĪ°": 6080,
      "æľĿé²ľæ°ĳä¸»ä¸»ä¹īäººæ°ĳåħ±åĴĮåĽ½": 6081,
      "86": 6082,
      "çĲĨè®º": 6083,
      "è¯¥åľ°åĮº": 6084,
      "å¼Ģå±ķå·¥ä½ľ": 6085,
      "å¥ĩæĢª": 6086,
      "Ġ2003": 6087,
      "å·´æĭ¿é©¬": 6088,
      "Ġknow": 6089,
      "æ²¡æĶ¶": 6090,
      "ĠæĪĳä¼ļ": 6091,
      "æĬĬæĪĳ": 6092,
      "æıĲäº¤ç»Ļ": 6093,
      "ake": 6094,
      "è¦ĨçĽĸ": 6095,
      "Ġ2005": 6096,
      "å¾·éĩĮ": 6097,
      "çªģåĩº": 6098,
      "è´Łæľī": 6099,
      "æĿ¡çº¦æľºæŀĦ": 6100,
      "è¾©æĬ¤": 6101,
      "ĠNo": 6102,
      "ä»¥ä½¿": 6103,
      "çķı": 6104,
      "å¤§ä¼ļçļĦ": 6105,
      "ä½İäºİ": 6106,
      "èĵĿ": 6107,
      "å·§": 6108,
      "å¯¹æĪĳ": 6109,
      "ä¸Ńå°ı": 6110,
      "çº³ç±³": 6111,
      "è©²": 6112,
      "ĠåĬłå¼º": 6113,
      "åİī": 6114,
      "èģĶåĲĪåħ±åĴĮåĽ½": 6115,
      "å®īç½®": 6116,
      "è®¾åľ¨": 6117,
      "Ġå½ĵ": 6118,
      "æĪĳä»¬å°Ĩ": 6119,
      "ç¹ģèį£": 6120,
      "è®®äºĭè§ĦåĪĻç¬¬": 6121,
      "Ġåİ»": 6122,
      "æĺ¯ä¸Ģç§į": 6123,
      "ä»ĸè¿ĺ": 6124,
      "é¡¹ä¸ĭ": 6125,
      "çķĻä¸ĭ": 6126,
      "æ£®åł¡": 6127,
      "è¿ĿåıįäºĨ": 6128,
      "åīĬåĩı": 6129,
      "Ġ19": 6130,
      "å¹¶ä½¿": 6131,
      "ä¿ĿåŃĺ": 6132,
      "åĪĨæ®µ": 6133,
      "éħĭ": 6134,
      "äºīè®®": 6135,
      "å®¡è®¡å§Ķåĳĺä¼ļ": 6136,
      "ä½£": 6137,
      "å¤ļäºĨ": 6138,
      "æķĻæİĪ": 6139,
      "æ¯ıä¸ªäºº": 6140,
      "Ġcan": 6141,
      "æĢģåıĳå±ķ": 6142,
      "éģĹäº§": 6143,
      "Ġåı¯": 6144,
      "æĪĳä¸įä¼ļ": 6145,
      "æĪĳä»¬éľĢè¦ģ": 6146,
      "æľºåľº": 6147,
      "è´¸æĺĵåĴĮåıĳå±ķ": 6148,
      "ä»įåľ¨": 6149,
      "çĳŁ": 6150,
      "éĢĻæ¨£": 6151,
      "æĢĿæĥ³": 6152,
      "åĪłéĻ¤": 6153,
      "ry": 6154,
      "Ġç§ĺä¹¦éķ¿": 6155,
      "é«ĺçļĦ": 6156,
      "æł¹æºĲ": 6157,
      "åĪĹçļĦ": 6158,
      "ĠæĪĳçŁ¥éģĵ": 6159,
      "åĲīå°Ķ": 6160,
      "åĿ¦æ¡ĳå°¼äºļèģĶåĲĪåħ±åĴĮåĽ½": 6161,
      "é©³": 6162,
      "åĭĩ": 6163,
      "ç¬¬åĽĽæ¬¡": 6164,
      "è»": 6165,
      "çļĦåĲĮæĹ¶": 6166,
      "çļĦä¸ªäºº": 6167,
      "åĨĴ": 6168,
      "æľīç½ª": 6169,
      "éĹ®é¢ĺæĺ¯": 6170,
      "æĬĬä»ĸ": 6171,
      "æľªæĿ¥çļĦ": 6172,
      "ore": 6173,
      "åį¢æ£®åł¡": 6174,
      "çĶ³è¯īäºº": 6175,
      "é¡ºåĪ©": 6176,
      "ä¸¢": 6177,
      "å¹¼": 6178,
      "è¢ĸ": 6179,
      "éļ¾æ°ĳä¸ĵåĳĺåĬŀäºĭå¤Ħ": 6180,
      "å¿ĺäºĨ": 6181,
      "æļĤåģľ": 6182,
      "å°Ķå¤ļçĵ¦": 6183,
      "ĠåĽ½å®¶": 6184,
      "çļĦåħ¬çº¦": 6185,
      "æĳĦ": 6186,
      "å½¢åĬ¿": 6187,
      "åĪ¶å®ļäºĨ": 6188,
      "é©¬èĢ³ä»ĸ": 6189,
      "åľ¨ä¸Ģä¸ª": 6190,
      "åħ³äºİåľ¨": 6191,
      "æį®ç§°": 6192,
      "æīĢæľīè¿ĻäºĽ": 6193,
      "çĪµ": 6194,
      "æ°Ķä½ĵ": 6195,
      "å·¨å¤§çļĦ": 6196,
      "Ġ#": 6197,
      "çļĦç¼Ķçº¦åĽ½": 6198,
      "æ³ķå®ļ": 6199,
      "æĦĽ": 6200,
      "æĪĳä»¬ä¼ļ": 6201,
      "èĦı": 6202,
      "å½¼æŃ¤": 6203,
      "Ġé¡¹çĽ®": 6204,
      "ĠèĢĮä¸Ķ": 6205,
      "Ġare": 6206,
      "éĥ½èĥ½": 6207,
      "æŃ¦åĬĽ": 6208,
      "ç§¯æŀģåıĤä¸İ": 6209,
      "ations": 6210,
      "å¦ĩå¥³åĴĮåĦ¿ç«¥": 6211,
      "93": 6212,
      "çļĦæļ´åĬĽ": 6213,
      "å¯¹è±¡": 6214,
      "åı·åĴĮ": 6215,
      "ç©ºç¼º": 6216,
      "åħ¶åľ¨": 6217,
      "åıĳå±ķçŃ¹èµĦ": 6218,
      "ä¹ĭäºĮ": 6219,
      "èĩªåĬ¨": 6220,
      "è¢«åįł": 6221,
      "åĨħéĥ¨çĽĳçĿ£": 6222,
      "Ġä¸»å¸Ń": 6223,
      "Ġ2001": 6224,
      "è¿Ļä»½": 6225,
      "åįıåĲĮ": 6226,
      "è¿ĳä¸ľ": 6227,
      "å§ĭç»Ī": 6228,
      "çĵ¦å°Ķ": 6229,
      "åľ¨åĽ½å®¶ä¸Ģçº§": 6230,
      "åıĹä¼¤": 6231,
      "æ¯Ķåħĭ": 6232,
      "åı¯èĥ½çļĦ": 6233,
      "æī¿åĮħ": 6234,
      "è£ģå®ļ": 6235,
      "æ´¾éģ£åĽ½": 6236,
      "åı·åĴĮç¬¬": 6237,
      "å¾Īå°ĳ": 6238,
      "åĪ¶åº¦çļĦ": 6239,
      "æĳ©å°Ķå¤ļçĵ¦": 6240,
      "åĨ°å²Ľ": 6241,
      "94": 6242,
      "æ²Ł": 6243,
      "æĬ¤çĲĨ": 6244,
      "æıĲäº¤æĬ¥åĳĬ": 6245,
      "éĽĩä¸»": 6246,
      "éĽĩçĶ¨": 6247,
      "éĹ®é¢ĺåĽ½éĻħæ³ķåºŃ": 6248,
      "PR": 6249,
      "Ġè¿Ļä¸ª": 6250,
      "ç»´æĮģåĴĮå¹³è¡ĮåĬ¨éĥ¨": 6251,
      "ä¸ºå®ŀçİ°": 6252,
      "ä¹ŁéĹ¨": 6253,
      "åŃ¦å®¶": 6254,
      "åıįèħĲè´¥": 6255,
      "åıĹå®³äºº": 6256,
      "ãĤ": 6257,
      "æĥ³çŁ¥éģĵ": 6258,
      "2011": 6259,
      "æİ¥åıĹçļĦ": 6260,
      "çļĦæľºæŀĦ": 6261,
      "çī²": 6262,
      "åħ¶ä»ĸäºº": 6263,
      "ä¸¤é¡¹": 6264,
      "éģĹæĨ¾çļĦæĺ¯": 6265,
      "çļĦåįıè°ĥ": 6266,
      "ä»ª": 6267,
      "åĴ±": 6268,
      "åħ³éĹŃ": 6269,
      "ä¼¯åĪ©": 6270,
      "æ´¥å·´å¸ĥ": 6271,
      "çļĦæŃ§è§Ĩ": 6272,
      "å¤§åĬĽ": 6273,
      "åĬ¨åĬĽ": 6274,
      "æĪĲåĬŁåľ°": 6275,
      "çľ¼çĿ": 6276,
      "æ´¥å·´å¸ĥéŁ¦": 6277,
      "åĪĢ": 6278,
      "å¹´åīį": 6279,
      "ä¹ĭéĹ´çļĦåħ³ç³»": 6280,
      "è·¨åĽ½æľīç»Ħç»ĩçĬ¯ç½ª": 6281,
      "çļĦçĽ¸åħ³": 6282,
      "æĺ¯æĪĳçļĦ": 6283,
      "èĢĮå·²": 6284,
      "çłĶç©¶åĴĮ": 6285,
      "çļĦäºĭå®ŀ": 6286,
      "è§Ĥå¯ŁåĽ¢": 6287,
      "æĿİ": 6288,
      "æĢ»æķ°": 6289,
      "çĸŁ": 6290,
      "ç¤¾ä¼ļåĴĮæĸĩåĮĸæĿĥåĪ©": 6291,
      "éĹ´æİ¥": 6292,
      "çĪ±æ²Ļ": 6293,
      "åıĳè¾¾åĽ½å®¶çļĦ": 6294,
      "è°ĭæĿĢ": 6295,
      "Ġå¹¶": 6296,
      "Ġå°½ç®¡": 6297,
      "åĳĨ": 6298,
      "æľīèĥ½åĬĽ": 6299,
      "ä¸İåĽ½éĻħ": 6300,
      "å°±åľ¨": 6301,
      "å°±åı¯ä»¥": 6302,
      "åĮħå®¹": 6303,
      "å¸ĥé²ģ": 6304,
      "è½¬éĢĴ": 6305,
      "éĵ¾": 6306,
      "æĢİä¹ĪåĽŀäºĭ": 6307,
      "æĭħä¿ĿæĿĥ": 6308,
      "é¸¡": 6309,
      "éŀ": 6310,
      "åĨħç½Ĺæ¯ķ": 6311,
      "éĽĦ": 6312,
      "åħħåĪĨçļĦ": 6313,
      "æ®ĭå¿į": 6314,
      "çļĦå¨ģèĥģ": 6315,
      "æŃ¤é¡¹": 6316,
      "è¦º": 6317,
      "çĪ±æ²Ļå°¼äºļ": 6318,
      "92": 6319,
      "îĺ": 6320,
      "Ġ12": 6321,
      "ä»¥åĬłå¼º": 6322,
      "éģ¥": 6323,
      "ä¸ĬäºĨ": 6324,
      "å¤ļåĵĪ": 6325,
      "150": 6326,
      "æīĢéľĢèµĦæºĲ": 6327,
      "è¿ŀç»Ń": 6328,
      "æ®ĸæ°ĳåĮĸ": 6329,
      "ber": 6330,
      "ä¸įç»ĵçĽŁ": 6331,
      "è¯¥å§Ķåĳĺä¼ļ": 6332,
      "çľŁçĽ¸": 6333,
      "èĻļ": 6334,
      "ä»¥ä¾¿åľ¨": 6335,
      "çŃ¾è®¢": 6336,
      "ç»ĪäºĨ": 6337,
      "æıĲåĩºçļĦå»ºè®®": 6338,
      "è´¸æĺĵæ³ķå§Ķåĳĺä¼ļ": 6339,
      "rom": 6340,
      "æŃ£å½ĵ": 6341,
      "Ø§": 6342,
      "å°ĨæĿ¥": 6343,
      "çĽ®å½ķ": 6344,
      "æıĲäº¤çļĦæĬ¥åĳĬ": 6345,
      "éĥ¨åĪĨç¬¬": 6346,
      "èªį": 6347,
      "ç¼ºå°ĳ": 6348,
      "å·¥ä½ľäººåĳĺçļĦ": 6349,
      "åĲ¨": 6350,
      "å¯¦": 6351,
      "çĽĹ": 6352,
      "äºĭä¸ļ": 6353,
      "ä»İæľª": 6354,
      "çģ¯": 6355,
      "å»ºç«ĭä¿¡ä»»": 6356,
      "åĵªåĦ¿": 6357,
      "é¼ĵèĪŀ": 6358,
      "éĺ¿æĭīä¼¯åĪ©æ¯Ķäºļ": 6359,
      "ĠåħĪçĶŁ": 6360,
      "åĴĸ": 6361,
      "ä½łåĴĮ": 6362,
      "ä¾¦": 6363,
      "éĺ´": 6364,
      "Ġä½łçŁ¥éģĵ": 6365,
      "å®ĪåĪĻ": 6366,
      "ä¹Įåħ¹": 6367,
      "åİŁåĽłæĺ¯": 6368,
      "æ±ĩæĬ¥": 6369,
      "èİ«æ¡ĳ": 6370,
      "ä¸§å¤±": 6371,
      "èİ«æ¡ĳæ¯Ķåħĭ": 6372,
      "å¹¶éĢļè¿ĩ": 6373,
      "å®¡æŁ¥åĴĮ": 6374,
      "åĮĹéĥ¨": 6375,
      "ä¼Ł": 6376,
      "ä¸įå¹³çŃī": 6377,
      "å°±è¦ģ": 6378,
      "æ°ĳä¼ĹåĽ½": 6379,
      "å·²æľī": 6380,
      "å®¡æŁ¥äºĨ": 6381,
      "æĦ¿æľĽ": 6382,
      "å¹¿æĴŃ": 6383,
      "ike": 6384,
      "æĪĳéľĢè¦ģ": 6385,
      "ä½łè§īå¾Ĺ": 6386,
      "å¯¹èģĶåĲĪåĽ½": 6387,
      "åľ°å¸¦": 6388,
      "åºĶçĶ±": 6389,
      "æ°ĳäºĭ": 6390,
      "éĻĦå±ŀæľºæŀĦ": 6391,
      "çļĦæĿ¡æ¬¾": 6392,
      "åĴĮç¨ĭåºı": 6393,
      "æľĢå¥½çļĦ": 6394,
      "ç»Ļä»ĸ": 6395,
      "çªģçĦ¶": 6396,
      "è´¸æĺĵåĴĮ": 6397,
      "æĢĢåŃķ": 6398,
      "ä¹Įåħ¹åĪ«": 6399,
      "èŁ": 6400,
      "æĿ¡çļĦè§Ħå®ļ": 6401,
      "é¦ĸéķ¿": 6402,
      "ä½ľåĩºè´¡çĮ®": 6403,
      "åı¬éĽĨ": 6404,
      "ä¸ĵä¸ļäººåĳĺ": 6405,
      "ãģĥ": 6406,
      "å¤ĸéĿ¢": 6407,
      "éģ£è¿Ķ": 6408,
      "æļĤè¡Į": 6409,
      "è¦ģæ±ĤçļĦ": 6410,
      "å¿ħè¦ģæİªæĸ½": 6411,
      "æĸĩåĮĸåĴĮ": 6412,
      "ĠCh": 6413,
      "éħĭéķ¿": 6414,
      "æįį": 6415,
      "ong": 6416,
      "æĪĲåĳĺçļĦ": 6417,
      "ä¼łæŁĵ": 6418,
      "æĢ§åĪ«éĹ®é¢ĺ": 6419,
      "WG": 6420,
      "çļĦå®ļä¹ī": 6421,
      "ç®ĢæĬ¥": 6422,
      "åĮĸåŃ¦æŃ¦åĻ¨": 6423,
      "pos": 6424,
      "ure": 6425,
      "çļĦè°ĥæŁ¥": 6426,
      "ä»ĸä¼ļ": 6427,
      "1967": 6428,
      "ä½¿æĪĳä»¬": 6429,
      "åķ¡": 6430,
      "çŃīä¸Ģä¸ĭ": 6431,
      "ice": 6432,
      "ever": 6433,
      "å¤ĸåĽ½çĽ´æİ¥æĬķèµĦ": 6434,
      "æľªç»ıè¡¨åĨ³": 6435,
      "éĽ£": 6436,
      "æķĻåŃ¦": 6437,
      "èĻ«": 6438,
      "æŀģåħ¶": 6439,
      "åģ¿è¿ĺ": 6440,
      "æīĢéľĢç»ıè´¹": 6441,
      "Ġå¤§": 6442,
      "äº¦": 6443,
      "æĥ§": 6444,
      "å¤ļä¸ª": 6445,
      "çĽ®æłĩåĴĮ": 6446,
      "çĶ·å¥³å¹³çŃī": 6447,
      "è¶³å¤ŁçļĦ": 6448,
      "æ¶ĪéĻ¤å¯¹å¦ĩå¥³ä¸ĢåĪĩå½¢å¼ı": 6449,
      ",(": 6450,
      "è¡Įäºĭ": 6451,
      "æıĲä¾ĽèµĦéĩĳ": 6452,
      "Al": 6453,
      "Ġ11": 6454,
      "å¿ħéľĢ": 6455,
      "æ¸ł": 6456,
      "æĬĬä½ł": 6457,
      "è¾¹ç¼ĺ": 6458,
      "å§Ķåĳĺä¼ļçļĦå»ºè®®": 6459,
      "çļĦæ¡Īä»¶": 6460,
      "ä¸ĢåĽ½": 6461,
      "æīĢå¾Ĺ": 6462,
      "èĢĮåľ¨": 6463,
      "æĪĸåľ¨": 6464,
      "æĮĩæķ°": 6465,
      "çľŁå®ŀ": 6466,
      "åħ¨éĿ¢çļĦ": 6467,
      "åĳ¨å¹´": 6468,
      "éĸĵ": 6469,
      "çľ¼çĿĽ": 6470,
      "åĪĬ": 6471,
      "æĢ§åī¥åīĬ": 6472,
      "ç¨®": 6473,
      "æ¬¾çļĦ": 6474,
      "æħİ": 6475,
      "æļĤæĹ¶": 6476,
      "è¡ĮæĶ¿åĴĮé¢Ħç®ĹéĹ®é¢ĺåĴ¨è¯¢å§Ķåĳĺä¼ļ": 6477,
      "æīŃ": 6478,
      "åĽ½éĻħåĪĳäºĭæ³ķéĻ¢": 6479,
      "åķĨåĬ¡": 6480,
      "è®©äºº": 6481,
      "ä¸ŃéĿŀåħ±åĴĮåĽ½": 6482,
      "åĴĮå·¥ä½ľ": 6483,
      "æ´ŀ": 6484,
      "ä¸ĭæĶ¾": 6485,
      "éĺĲè¿°": 6486,
      "åĨ»ç»ĵ": 6487,
      "ä¸Ģè¯į": 6488,
      "Ġä½łçļĦ": 6489,
      "è§Ħç«ł": 6490,
      "åĲĳèģĶåĲĪåĽ½": 6491,
      "é¦ĸè¦ģ": 6492,
      "å¸®ä½ł": 6493,
      "ä¼ĺåĬ¿": 6494,
      "çĭ¬ç«ĭä¸ĵå®¶": 6495,
      "å®Ŀè´µ": 6496,
      "çº³ç±³æ¯Ķäºļ": 6497,
      "CR": 6498,
      "Ġä¸ºä»Ģä¹Ī": 6499,
      "æīĢåģļ": 6500,
      "åıĹå½±åĵį": 6501,
      "ä¸Ńå¿ĥçļĦ": 6502,
      "éĺĲæĺİ": 6503,
      "å¿½è§Ĩ": 6504,
      "æįįåį«": 6505,
      "ä¸Ģéĥ¨åĪĨ": 6506,
      "ä¸ªåĪ«": 6507,
      "æĹ¥ä¸¾è¡ĮçļĦ": 6508,
      "æĬ¥åĳĬè¯´": 6509,
      "åĲĪä½ľä¼Ļä¼´": 6510,
      "èĭ¯": 6511,
      "çļĦäºĭé¡¹": 6512,
      "åº·å¤į": 6513,
      "è¾±äºº": 6514,
      "åıĳåĬ¨": 6515,
      "åľ°åŁŁ": 6516,
      "åĲİèĢħ": 6517,
      "å¥½å¥½": 6518,
      "ä¹Łåı¯ä»¥": 6519,
      "çī¹å¾ģ": 6520,
      "æĢ§æļ´åĬĽ": 6521,
      "ä¹¦è®°": 6522,
      "è¿Ľç¨ĭçļĦ": 6523,
      "è¿Ļåľº": 6524,
      "èį¡": 6525,
      "ä¸ĸçķĮè´¸æĺĵ": 6526,
      "ç´§è¿«": 6527,
      "åħ³åĪĩåľ°æ³¨æĦıåĪ°": 6528,
      "ç²®åĨľç»Ħç»ĩ": 6529,
      "ä¸ºæī§è¡Į": 6530,
      "çī§": 6531,
      "è®¤å®ļ": 6532,
      "ç»Ļå®īåħ¨çĲĨäºĭä¼ļä¸»å¸Ń": 6533,
      "ç¼Ķçº¦åĽ½åľ¨": 6534,
      "åĽ¾ä¹¦": 6535,
      "èģĶåĪļçī¹æ´¾åĽ¢": 6536,
      "91": 6537,
      "å¯Ħ": 6538,
      "å¥ĭ": 6539,
      "åĮºåŁŁåĴĮåĽ½éĻħ": 6540,
      "åĲĦä»£è¡¨åĽ¢": 6541,
      "æģĭ": 6542,
      "ä¸įå¾Ĺä¸į": 6543,
      "æĦıæĢĿæĺ¯": 6544,
      "æĺ¨å¤©": 6545,
      "è¯Ī": 6546,
      "å®ĥè¿ĺ": 6547,
      "ĠInternational": 6548,
      "ĠæĿ¥": 6549,
      "çļĦåıĳè¨Ģ": 6550,
      "éĢ»": 6551,
      "ä¼Ĭæĸ¯åħ°å¤ĸäº¤éĥ¨éķ¿": 6552,
      "çŀ§": 6553,
      "CONF": 6554,
      "æĬ«": 6555,
      "æĪĳä»¬çİ°åľ¨": 6556,
      "itt": 6557,
      "îĹ¬": 6558,
      "åĴĸåķ¡": 6559,
      "å¼Ģå¿ĥ": 6560,
      "109": 6561,
      "Ġdon": 6562,
      "ãĢĤ]": 6563,
      "ä½¿ä»ĸä»¬": 6564,
      "å¤§ä¼ļæŃ£å¼ıè®°å½ķ": 6565,
      "Ġä¸įè¦ģ": 6566,
      "Ġä¸įè¿ĩ": 6567,
      "çĴ": 6568,
      "åĪĨæķ£": 6569,
      "æ¬¡åħ¨ä½ĵä¼ļè®®": 6570,
      "ä¿¡æģ¯ç³»ç»Ł": 6571,
      "æ±½è½¦": 6572,
      "Ġåĳ¼åĲģ": 6573,
      "åĴĮæķĻèĤ²": 6574,
      "çº¯": 6575,
      "æ²¡åħ³ç³»": 6576,
      "æķĮå¯¹": 6577,
      "åīįåįĹæĸ¯æĭīå¤«çļĦ": 6578,
      "500": 6579,
      "±ä¹Ĳ": 6580,
      "ä¸ªP": 6581,
      "å°Ĩå¯¹": 6582,
      "è®°èĢħ": 6583,
      "1980": 6584,
      "èĸĦ": 6585,
      "å¿ĹæĦ¿äººåĳĺ": 6586,
      "åĴĮéĩįè¿Ķç¤¾ä¼ļ": 6587,
      "åħ¨æĿĥ": 6588,
      "æĬ¥éħ¬": 6589,
      "è¾ľ": 6590,
      "æľ¬æĿ¥": 6591,
      "éĺ²æŃ¢åĴĮ": 6592,
      "ä¹Įåħ¹åĪ«åħĭæĸ¯åĿ¦": 6593,
      "çļĦç¡®": 6594,
      "å¦³": 6595,
      "å·´æŀĹ": 6596,
      "åŃ¦æľ¯": 6597,
      "éª¨": 6598,
      "åħ¬åı¸çļĦ": 6599,
      "æĬĵä½ı": 6600,
      "212": 6601,
      "äººæĿĥéĹ®é¢ĺ": 6602,
      "ç»´å°Ķ": 6603,
      "æīįæĺ¯": 6604,
      "æľīåħ³åĨ³è®®": 6605,
      "åĪĹæĶ¯": 6606,
      "çķĮå®ļ": 6607,
      "æ¯ıä¸Ģä¸ª": 6608,
      "è´¨çĸĳ": 6609,
      "æ¸łéģĵ": 6610,
      "300": 6611,
      "ä¸Ģäºº": 6612,
      "ä¸Ģæ®µ": 6613,
      "è¿Ļå°±": 6614,
      "åĲİéĿ¢": 6615,
      "å¿ħå®ļ": 6616,
      "è¿Ľè¡ĮåĲĪä½ľ": 6617,
      "ä¸īåĪĨ": 6618,
      "ä½įäºİ": 6619,
      "æīĢè½½çļĦ": 6620,
      "ä¸ºæŃ¤çĽ®çļĦ": 6621,
      "å®ıè§Ĥ": 6622,
      "ĠèĻ½çĦ¶": 6623,
      "çĶ°": 6624,
      "è¦ģåİ»": 6625,
      "ç¨į": 6626,
      "åĽłçĤº": 6627,
      "é¡¹çĽ®æłĩ": 6628,
      "è®©ä»ĸä»¬": 6629,
      "éĩıçļĦ": 6630,
      "åĬŁèĥ½": 6631,
      "æ¸¸æĪı": 6632,
      "ä½Ļé¢Ŀ": 6633,
      "ä¸įäººéģĵ": 6634,
      "èĥ½åĲ¦": 6635,
      "å¸Ńä½į": 6636,
      "æł¹æį®åħ¶": 6637,
      "åĩ¶": 6638,
      "çīµ": 6639,
      "æ¬¡æĬ¥åĳĬ": 6640,
      "è½¬äº¤": 6641,
      "å¼±åĬ¿": 6642,
      "çŃ¹å¤ĩå§Ķåĳĺä¼ļ": 6643,
      "eb": 6644,
      "ĠæĮīçħ§": 6645,
      "åľ¨ä½ł": 6646,
      "èŃ¦å®ĺ": 6647,
      "èĢģé¾Ħ": 6648,
      "æ¦Ĥè¿°": 6649,
      "è½¯ä»¶": 6650,
      "åı¯æĢķ": 6651,
      "å£«çĻ»": 6652,
      "å¤ªå¤ª": 6653,
      "æĳ§": 6654,
      "æķ¦å£«çĻ»": 6655,
      "çĸŁçĸ¾": 6656,
      "å¿ł": 6657,
      "ç»ıåĲĪ": 6658,
      "âĢľ(": 6659,
      "æīĵå¼Ģ": 6660,
      "ä¸¾è¡Įä¼ļè®®": 6661,
      "å¿ħè¦ģæĹ¶": 6662,
      "åħ¬æ°ĳæĿĥåĪ©åĴĮæĶ¿æ²»æĿĥåĪ©åĽ½éĻħåħ¬çº¦": 6663,
      "åĪĹæĶ¯æķ¦å£«çĻ»": 6664,
      "åĬĽåĴĮ": 6665,
      "åĵŃ": 6666,
      "è¯´äºĨ": 6667,
      "è´©è¿Ĳäººåı£": 6668,
      "................": 6669,
      "åīįåįĹæĸ¯æĭīå¤«çļĦé©¬åħ¶é¡¿åħ±åĴĮåĽ½": 6670,
      "ä¿ĥè¿Ľåıĳå±ķ": 6671,
      "èĥĢ": 6672,
      "ä»ĸåĢĳçļĦ": 6673,
      "1989": 6674,
      "å®¢è§Ĥ": 6675,
      "æ¶ĪéĻ¤å¯¹å¦ĩå¥³ä¸ĢåĪĩå½¢å¼ıæŃ§è§Ĩåħ¬çº¦": 6676,
      "ç»Ļå®īåħ¨çĲĨäºĭä¼ļä¸»å¸ŃçļĦä¿¡": 6677,
      ":ãĢĬ": 6678,
      "æľīçĿĢ": 6679,
      "èµĮ": 6680,
      "æĹ¶åĪ»": 6681,
      "æĪĸæĺ¯": 6682,
      "ä½¿èĢħ": 6683,
      "éĺ¿å¸ĥ": 6684,
      "èĥ½å¤Łåľ¨": 6685,
      "æ¶ĪèĢĹ": 6686,
      "è¡¨ç¤ºæ¬¢è¿İ": 6687,
      ").": 6688,
      "åĴĮä½¿çĶ¨": 6689,
      "è¯ŀ": 6690,
      "ä¸Ģåľº": 6691,
      "æľīåĬĽçļĦ": 6692,
      "è¯¥åħ¬çº¦": 6693,
      "éĽª": 6694,
      "çªĹ": 6695,
      "æĴŀ": 6696,
      "ç¾İåĽ½çļĦ": 6697,
      "çĻ»è®°åĨĮ": 6698,
      "ç²®é£Łè®¡åĪĴç½²": 6699,
      "çļĦä½¿çĶ¨": 6700,
      "å¾Ĺåĩº": 6701,
      "ç¦ģæŃ¢éħ·åĪĳ": 6702,
      "éĢĲæ¸Ĳ": 6703,
      "å±ł": 6704,
      "åı·åĨ³è®®æīĢè®¾": 6705,
      "åĩºå¸ŃäºĨ": 6706,
      "æ¯ĴåĵģåĴĮçĬ¯ç½ªéĹ®é¢ĺåĬŀäºĭå¤Ħ": 6707,
      "EP": 6708,
      "Ġä»¥": 6709,
      "å¹¶ä¸İ": 6710,
      "åª½": 6711,
      "é«ĺçº§ä¸ĵåĳĺåĬŀäºĭå¤Ħ": 6712,
      "æĭĽåĭŁ": 6713,
      "æ»¡æĦıåľ°æ³¨æĦıåĪ°": 6714,
      "éĺ¿æĭīä¼¯åĪ©æ¯Ķäºļæ°ĳä¼ĹåĽ½": 6715,
      "çļĦè®¤è¯Ĩ": 6716,
      "çļĦæł¸å¿ĥ": 6717,
      "æľīæ²¡æľī": 6718,
      "åĪ¶ä½ľ": 6719,
      "åĴĮæĸĩåĮĸ": 6720,
      "è¢«æĭĺçķĻ": 6721,
      "åıĤçħ§": 6722,
      "éĺ¿æĭīä¼¯èģĶåĲĪ": 6723,
      "è´¢æĶ¿èµĦæºĲ": 6724,
      "åĽļçĬ¯": 6725,
      "Ġå°ı": 6726,
      "çļĦåĴĮå¹³": 6727,
      "è¯¥åĨ³è®®èįīæ¡Ī": 6728,
      "æ±Ĥä½ł": 6729,
      "ä¾ĿéĿł": 6730,
      "ĠTh": 6731,
      "å¤ĸåĽ½äºº": 6732,
      "çļĦåŁ¹è®Ń": 6733,
      "æĪĳä»¬éĥ½": 6734,
      "åķı": 6735,
      "ç§ĺä¹¦éķ¿çļĦ": 6736,
      "ä¸»å¸ŃçļĦ": 6737,
      "åħħè¶³": 6738,
      "éĿ©åĳ½": 6739,
      "éĢłæĪĲäºĨ": 6740,
      "Ġä¿ĥè¿Ľ": 6741,
      "æĹģ": 6742,
      "ä¸įå¹¸": 6743,
      "æµ·ä¸Ĭ": 6744,
      "çĹħæ¯Ĵ": 6745,
      "ç¨ĭåºıåĴĮ": 6746,
      "å»ºè®¾æĢ§": 6747,
      "åĴ¨è¯¢æľºæŀĦ": 6748,
      "Ġå¾Ī": 6749,
      "å°ĨçĶ±": 6750,
      "æ´»åĬ¨åĴĮ": 6751,
      "ç»§æī¿": 6752,
      "å·®åĪ«": 6753,
      "Ġright": 6754,
      "ä¸°å¯Į": 6755,
      "çļĦäººåĳĺ": 6756,
      "ç»ķ": 6757,
      "ç¬¬åħ«": 6758,
      "å®ĥåľ¨": 6759,
      "çĪ·": 6760,
      "é©»åľ°": 6761,
      "æī¹åĩĨäºĨ": 6762,
      "ĠPr": 6763,
      "ç»³": 6764,
      "åĩĨåħ¥": 6765,
      "ink": 6766,
      "çļĦåĲĦä¸ª": 6767,
      "ç¼Ķçº¦æĸ¹å¤§ä¼ļ": 6768,
      "äº§çĶŁäºĨ": 6769,
      "é¦ĸèĦĳä¼ļè®®çļĦ": 6770,
      "è´Ŀå°Ķ": 6771,
      "ä¸Ģå®ļè¦ģ": 6772,
      "è®¡ç®Ĺæľº": 6773,
      "èļ": 6774,
      "îĤ": 6775,
      "æĥ¨": 6776,
      "åĲĦç¼Ķçº¦åĽ½": 6777,
      "åĲĮçŃī": 6778,
      "æıĲä¾Ľåħ³äºİ": 6779,
      "è¿Ŀæ³ķ": 6780,
      "Ġåħ¶ä»ĸ": 6781,
      "Ġas": 6782,
      "åĬ£": 6783,
      "æĸĲ": 6784,
      "æĪĳåĴĮ": 6785,
      "èģª": 6786,
      "ä¸ĭä¸Ģ": 6787,
      "åĽłçī¹": 6788,
      "ä»£ä»·": 6789,
      "å¤ĸåĭ¤": 6790,
      "ence": 6791,
      "æµĭè¯ķ": 6792,
      "äºĨä»ĸ": 6793,
      "ä¸įå®¹å¿į": 6794,
      "æ¯ĶèµĽ": 6795,
      "ç®¡çĲĨçļĦ": 6796,
      "æ±ĩçİĩ": 6797,
      "htm": 6798,
      "çļĦæľĢåĲİ": 6799,
      "åĩŃ": 6800,
      "åħ¶å·¥ä½ľ": 6801,
      "æĿ¡çº¦çļĦ": 6802,
      "è¿Ľä¸ĢæŃ¥åĬłå¼º": 6803,
      "è´£ä»»çļĦ": 6804,
      "ho": 6805,
      "å®¿": 6806,
      "åĴĮæ³ķå¾ĭ": 6807,
      "ä¸įéĻĲæĪĲåĳĺåĲįé¢Ŀ": 6808,
      "åĪĨæŃ§": 6809,
      "è¯¥æĸ¹æ¡Ī": 6810,
      "å±Ĭä¼ļè®®ä¸Ĭ": 6811,
      "å§ĳ": 6812,
      "ä½ĨæĪĳ": 6813,
      "åķ¥": 6814,
      "æ¯Ķçİĩ": 6815,
      "ern": 6816,
      "èŃ¦æĸ¹": 6817,
      "ç§»åĬ¨": 6818,
      "(ãĢĬ": 6819,
      "DA": 6820,
      "ĠåĹ¯": 6821,
      "ä¸ºæľŁ": 6822,
      "äºĭæķħ": 6823,
      "å¹¶å°±": 6824,
      "å·´æĭīåľŃ": 6825,
      "çĶ³æĺİ": 6826,
      "éĢĻæĺ¯": 6827,
      "ç³Łç³ķ": 6828,
      "èĳ£äºĭä¼ļ": 6829,
      "Ġ?": 6830,
      "è¯´æ³ķ": 6831,
      "ç¨ĭåºıçļĦ": 6832,
      "çĭ¬çī¹": 6833,
      "ä¸įæī©æķ£æł¸æŃ¦åĻ¨": 6834,
      "CCC": 6835,
      "éªļæī°": 6836,
      "ä¹¦è®°å®ĺ": 6837,
      "aåħĪçĶŁ": 6838,
      "åĽ½å®¶ä¸Ģçº§": 6839,
      "éĥ½è¦ģ": 6840,
      "ä»ĸä»¬è¯´": 6841,
      "å·´å·´": 6842,
      "é©¬è¾¾": 6843,
      "int": 6844,
      "çļĦåį±éĻ©": 6845,
      "ä¸ŃéĹ´": 6846,
      "æĮĿ": 6847,
      "èģĶå¡ŀ": 6848,
      "åĨħæĸ¯": 6849,
      "æĶ¯æı´": 6850,
      "èĢģæĮĿ": 6851,
      "Ġ2007": 6852,
      "åĴĮæĶ¿æ²»": 6853,
      "æĪĲæķĪ": 6854,
      "ä¿ĥæĪĲ": 6855,
      "æĢ»åĢ¼": 6856,
      "æĸĩä»¶çļĦ": 6857,
      "èĩªæ²»é¢ĨåľŁ": 6858,
      "å¤ļç±³å°¼åĬł": 6859,
      "åĽ½åĴĮ": 6860,
      "ä½łä¸įèĥ½": 6861,
      "æŁ¥éĺħ": 6862,
      "ĠæĪĳä¸į": 6863,
      "250": 6864,
      "éĥ¨éĺŁæ´¾éģ£åĽ½": 6865,
      "ç¿»è¯ĳ": 6866,
      "ĠæľĢåĲİ": 6867,
      "Ġå¥½åĲ§": 6868,
      "æĪĳåĸľæ¬¢": 6869,
      "åĳĬçŁ¥": 6870,
      "å¤ļæĸ¯": 6871,
      "çĤ®": 6872,
      "è¨´": 6873,
      "çī©çļĦ": 6874,
      "åĭĥ": 6875,
      "ç½Ĺå§Ĩ": 6876,
      "åĩºçİ°äºĨ": 6877,
      "éĹŃåĺ´": 6878,
      "è¿Ħä»Ĭä¸ºæŃ¢": 6879,
      "ç»Ļç§ĺä¹¦éķ¿çļĦä¿¡": 6880,
      "çļĦåıĤä¸İ": 6881,
      "æĺ¯æľī": 6882,
      "éķľ": 6883,
      "è¢«è¿«": 6884,
      "è¿Ļä¸ĢåĪĩ": 6885,
      "æİĴæĸ¥": 6886,
      "åĲīå¸ĥ": 6887,
      "ç»ĦæĪĲçļĦ": 6888,
      "æĳĨèĦ±": 6889,
      "ook": 6890,
      "ug": 6891,
      "ĠæĿ¡": 6892,
      "æľĪçļĦ": 6893,
      "å¤ļä¹ħ": 6894,
      "çİ°åľº": 6895,
      "éĤ£ç§į": 6896,
      "éĩįè¦ģæĢ§": 6897,
      "åı·åĨ³è®®åĴĮ": 6898,
      "ĠIt": 6899,
      "èī¯å¥½çļĦ": 6900,
      "æīĢä½ľçļĦåĬªåĬĽ": 6901,
      "çĶŁæĢģç³»ç»Ł": 6902,
      "æĦıåĽ¾": 6903,
      "æĬ¥åĳĬåĴĮ": 6904,
      "é¢Ĩè¢ĸ": 6905,
      "å¡ĶåĪ©": 6906,
      "åĬ¨åĳĺ": 6907,
      "å¸¸ä¼ļ": 6908,
      "èĪĴ": 6909,
      "åŁºéĩĳçļĦ": 6910,
      "åįıè°ĥå§Ķåĳĺä¼ļ": 6911,
      "ç¦ģè¿Ĳ": 6912,
      "åĽ½åĨħæ³ķ": 6913,
      "åĽ¾ä¹¦é¦Ĩ": 6914,
      "Ġus": 6915,
      "ä½łä¹Ł": 6916,
      "è¯¥ç»Ħç»ĩ": 6917,
      "éģ£éĺŁ": 6918,
      "äººå±ħç½²": 6919,
      "ç§įæ¤į": 6920,
      "ä½¿ä¹ĭ": 6921,
      "å¾·çıŃ": 6922,
      "åįıè°ĥä¸Ģèĩ´": 6923,
      "æłĩåĩĨåĴĮ": 6924,
      "Ġå§Ķåĳĺä¼ļå»ºè®®": 6925,
      "çĭ¬ç«ĭçļĦ": 6926,
      "åľĨæ¡Į": 6927,
      "ç½ķ": 6928,
      "åħ¬è·¯": 6929,
      "éľĢè¦ģåľ¨": 6930,
      "åħ±åĴĮåĽ½æĢ»ç»Ł": 6931,
      "çķĻåľ¨": 6932,
      "åİŁåĪĻåĴĮ": 6933,
      "))": 6934,
      "çļĦæľī": 6935,
      "æıĲäº¤ä¸Ģä»½": 6936,
      "å¼Ģå±ķäºĨ": 6937,
      "oh": 6938,
      "ä¸ªåĳĺé¢Ŀ": 6939,
      "åľ°çļĦ": 6940,
      "èģĶåĲĪåĽ½å¼Ģåıĳè®¡åĪĴç½²": 6941,
      "å¦Ĥä»Ĭ": 6942,
      "éĿŀæ´²çļĦ": 6943,
      "å¿«ä¹Ĳ": 6944,
      "é¢Ħç®Ĺå¤ĸ": 6945,
      "èħ¿": 6946,
      "ä¸ĸçķĮäººæĿĥå®£è¨Ģ": 6947,
      "åĲ¹": 6948,
      "æĸ¯ç§ĳ": 6949,
      "è¿ĻäºĽæİªæĸ½": 6950,
      "è§ģéĻĦä»¶": 6951,
      "è¥¿æĸ¹": 6952,
      "ork": 6953,
      "å®ŀçİ°åįĥå¹´åıĳå±ķçĽ®æłĩ": 6954,
      "åĴ¨è¯¢æľįåĬ¡": 6955,
      "éĺ¿æĭīä¼¯èģĶåĲĪéħĭéķ¿": 6956,
      "å¯¹ä½ł": 6957,
      "å¹¶åĬłå¼º": 6958,
      "éĥ½æĭīæĸ¯": 6959,
      "åĲ¦è®¤": 6960,
      "éļ¾æ°ĳäºĭåĬ¡": 6961,
      "ä¸įç¬¦åĲĪ": 6962,
      "ä¸ĭéĿ¢": 6963,
      "ä¹ĭå¤Ħ": 6964,
      "çĸĳéĹ®": 6965,
      "è¦ª": 6966,
      "æĿ°åħĭ": 6967,
      "å©´åĦ¿": 6968,
      "æĺ¯ä¸Ģé¡¹": 6969,
      "æ³½": 6970,
      "å¦Ļ": 6971,
      "æĪĳä»¬æ¬¢è¿İ": 6972,
      "éĿŀèĩªæ²»é¢ĨåľŁ": 6973,
      "éĥ½å¿ħé¡»": 6974,
      "çº§åĪ«": 6975,
      "æŁ±": 6976,
      "æ¶ĪçģŃ": 6977,
      "åĪ¤å¤Ħ": 6978,
      "å¤ªéĺ³": 6979,
      "é¦Ļæ¸¯": 6980,
      "æ´ªéĥ½æĭīæĸ¯": 6981,
      "Ġ2008": 6982,
      "çļĦéľĢæ±Ĥ": 6983,
      "å®¶å±ŀ": 6984,
      "åŁºçĿ£": 6985,
      "è¿ĻäºĽäºº": 6986,
      "è½¬åıĺ": 6987,
      "ç§»äº¤": 6988,
      "æ¼«": 6989,
      "åĽłçī¹ç½ĳ": 6990,
      "½åŃĲ": 6991,
      "æĪĳçľĭ": 6992,
      "äºĨä½ł": 6993,
      "120": 6994,
      "åĪĳäºĭæ³ķåºŃ": 6995,
      "çī¹è®¾å§Ķåĳĺä¼ļ": 6996,
      "çĿĢéĩįæĮĩåĩº": 6997,
      "Ġ200": 6998,
      "Ġç¡®ä¿Ŀ": 6999,
      "Ġåĺ¿": 7000,
      "çļĦåĲĹ": 7001,
      "å°¾": 7002,
      "å¤ļæ¬¡": 7003,
      "è§ģçļĦ": 7004,
      "æĢ»å¹²äºĭ": 7005,
      "æı´å¼ķ": 7006,
      "2015": 7007,
      "è¿Ľå±ķæĥħåĨµ": 7008,
      "å¡ĶåĲī": 7009,
      "ä¿Ŀåģ¥æľįåĬ¡": 7010,
      "ç»ıè´¹çļĦçŃ¹æİª": 7011,
      "bl": 7012,
      "åľ¨åħ¨çĲĥ": 7013,
      "åħ¶å¯¹": 7014,
      "æ°ĳåħµ": 7015,
      "çĪ¾": 7016,
      "ä¼¦æķ¦": 7017,
      "åĲĮæł·çļĦ": 7018,
      "å¸¸é©»ä»£è¡¨": 7019,
      "æ¸©å®¤": 7020,
      "å°ģéĶģ": 7021,
      "ĠåĨį": 7022,
      "éĤ£è¾¹": 7023,
      "çļĦäººæ°ĳ": 7024,
      "è·Łè¸ª": 7025,
      "åĨľæĿĳåľ°åĮº": 7026,
      "æ¡£æ¡Ī": 7027,
      "ei": 7028,
      "çļĦæĻĤåĢĻ": 7029,
      "å·¡": 7030,
      "åĽ½å®¶åħĥé¦ĸ": 7031,
      "ä¹Łå°±æĺ¯": 7032,
      "åħ·ä½ĵçļĦ": 7033,
      "åįĩçº§": 7034,
      "çŃ¾ç½²äºĨ": 7035,
      "ä¸įå¤ª": 7036,
      "æĦıå¤ĸ": 7037,
      "é¢Ĩåıĸ": 7038,
      "å¥¹è¯´": 7039,
      "æ®µæīĢè¿°": 7040,
      "Ġwhat": 7041,
      "Ġ100": 7042,
      "çļĦä¸ĢèĪ¬æĢ§": 7043,
      "é¥¥é¥¿": 7044,
      "åľ°ä¸ĭ": 7045,
      "åħ¬è®¤": 7046,
      "æ»ĳ": 7047,
      "ç§ĺä¹¦éķ¿çī¹åĪ«ä»£è¡¨": 7048,
      "åįıè°ĥåĴĮ": 7049,
      "åı¦æľī": 7050,
      "ç¬¬ä¸īå§Ķåĳĺä¼ļ": 7051,
      "ham": 7052,
      "1988": 7053,
      "åı¬å¼ĢçļĦ": 7054,
      "FCCC": 7055,
      "å¹¶å¼ºè°ĥ": 7056,
      "æĪĳä»¬å°±": 7057,
      "ç§įç§į": 7058,
      "ä»»ä½ķåħ¶ä»ĸ": 7059,
      "çļĦäººä»¬": 7060,
      "çĽ®æłĩçļĦ": 7061,
      "çĶµä¿¡": 7062,
      "èŀįåĲĪ": 7063,
      "Ġå§Ķåĳĺä¼ļæ³¨æĦıåĪ°": 7064,
      "åĴĮäººæĿĥ": 7065,
      "åĴĮè¡ĮæĶ¿": 7066,
      "ä¹ĺ": 7067,
      "éĥ½æ²¡": 7068,
      "å°ıåŃ¦": 7069,
      "æ¯ıæ¬¡": 7070,
      "æŁĲä¸ª": 7071,
      "ç»ĵæĿŁåĲİ": 7072,
      "æĽ´å¤ļåľ°": 7073,
      "æĺİç¡®çļĦ": 7074,
      "Ġå¯¹äºİ": 7075,
      "ä¸įçĦ¶": 7076,
      "æĪĳä»¬æľī": 7077,
      "åĮºåĪĨ": 7078,
      "ç³ĸ": 7079,
      "èī²æĥħ": 7080,
      "æĸ¹éĿ¢çļĦä½ľçĶ¨": 7081,
      "Ġab": 7082,
      "åĩºçİ°çļĦ": 7083,
      "åºŁéĻ¤": 7084,
      "îĵĩ": 7085,
      "åĬłæĸ¯åĬł": 7086,
      "é©¬è¾¾åĬłæĸ¯åĬł": 7087,
      "ue": 7088,
      "è¿Ľåº¦": 7089,
      "æĹ¥åħ³äºİ": 7090,
      "è¿ĩåº¦": 7091,
      "æĪĳä»¬æĺ¯": 7092,
      "æĸ½åĬł": 7093,
      "åħĭåĬ³": 7094,
      "å¥¹æĺ¯": 7095,
      "çłĶæīĢ": 7096,
      "å°½æĹ©": 7097,
      "ĠAnd": 7098,
      "åĲīæĸ¯": 7099,
      "åıĳè¡¨çļĦ": 7100,
      "æĳ§æ¯ģ": 7101,
      "îŀ": 7102,
      "å¯¹è¿Ļä¸Ģ": 7103,
      "æľĪèĩ³": 7104,
      "å¾Ĺä¸įåĪ°": 7105,
      "èģĶåĲĪåĽ½åĩºçīĪçī©": 7106,
      "å¼ºåĮĸ": 7107,
      "æµ·äºĭ": 7108,
      "åĵģç¼ĸåı·": 7109,
      "å®ŀæĸ½çļĦ": 7110,
      "Ġå»ºè®®": 7111,
      "åĴĮæľī": 7112,
      "æĸ¹ä¾¿": 7113,
      "å®ļäºĨ": 7114,
      "åĮºåŁŁç»Ħç»ĩ": 7115,
      "ä¹ĭéĹ´çļĦåĲĪä½ľ": 7116,
      "ç¬¬äºĶåįģä¸ĥå±Ĭä¼ļè®®": 7117,
      "ä¼ĳæģ¯": 7118,
      "å³°": 7119,
      "çºłæŃ£": 7120,
      "az": 7121,
      "pr": 7122,
      "çļĦå®ŀéĻħ": 7123,
      "ä¼ļæľī": 7124,
      "å¹´ä¸ĸçķĮ": 7125,
      "çĶ¨åĵģ": 7126,
      "ä¸ĩäºº": 7127,
      "æĮĩå¯¼æĸ¹éĴĪ": 7128,
      ".,": 7129,
      "è¿ĩçļĦ": 7130,
      "ä»ĸä»¬æĺ¯": 7131,
      "åĴĮå¹³åĪ©çĶ¨": 7132,
      "æĪĲåĳĺåĽ½çļĦ": 7133,
      "é¦ĸå¸Ń": 7134,
      "ç¬¬äºĶåįģä¹Ŀå±Ĭä¼ļè®®": 7135,
      "åĤ¨å¤ĩ": 7136,
      "å¡ĶåĪ©çıŃ": 7137,
      "çĶ¨ä»¥": 7138,
      "å·¥ä½ľèĢħ": 7139,
      "ç»§ç»Ńåľ¨": 7140,
      "æ¶Īå¤±": 7141,
      "è´ŁåĢº": 7142,
      "ç¬¬åįģåĽĽ": 7143,
      "ç§ĳç´¢æ²ĥçī¹æ´¾åĽ¢": 7144,
      "èĵ¬": 7145,
      "Ġall": 7146,
      "çļĦé£İéĻ©": 7147,
      "å¥ĳ": 7148,
      "å¤§åľ°": 7149,
      "æĮĩç§°": 7150,
      "çĬ¯ä¸ĭ": 7151,
      "åĪĳç½ļ": 7152,
      "è§Ĥæµĭ": 7153,
      "å¸®å¿Ļ": 7154,
      "åıĳçĶŁåľ¨": 7155,
      "äººåı£çļĦ": 7156,
      "èĬĤçĽ®": 7157,
      "æħ°": 7158,
      "åĲīå¸ĥæıĲ": 7159,
      "åĴĮåĲĦ": 7160,
      "ä¸įä¿¡éģĵ": 7161,
      "éĹ®é¢ĺå·¥ä½ľç»Ħ": 7162,
      "åĳĬè¨´": 7163,
      "ä¹ĭåĨħ": 7164,
      "å¤Ħç½®": 7165,
      "åĮºåŁŁçļĦ": 7166,
      "ç¼Ķçº¦åĽ½ä¼ļè®®": 7167,
      "å¤±æľĽ": 7168,
      "å®¡è®®å¤§ä¼ļ": 7169,
      "åħħæ»¡": 7170,
      "è±ª": 7171,
      "åħħåĪĨæī§è¡Į": 7172,
      "åħ¬åħ±éĥ¨éĹ¨": 7173,
      "ĠUn": 7174,
      "Ġex": 7175,
      "å§Ķåĳĺä¼ļæ³¨æĦıåĪ°": 7176,
      "åħ¥åŃ¦": 7177,
      "é©¾": 7178,
      "çī©ä½ĵ": 7179,
      "åĽłä¸ºå®ĥ": 7180,
      "é¢ĨåľŁå®Įæķ´": 7181,
      "è·Ŀç¦»": 7182,
      "éłŃ": 7183,
      "åĨħéĥ¨çĽĳçĿ£äºĭåĬ¡åİħ": 7184,
      "âĪ": 7185,
      "äººä¸º": 7186,
      "æī¿è¿Ĳäºº": 7187,
      "åĨľæ°ĳ": 7188,
      "ä¼ĺæĥł": 7189,
      "åľ°ä½įçļĦ": 7190,
      "çĶŁäº§åĴĮ": 7191,
      "çºªå¾ĭ": 7192,
      "å½©": 7193,
      "è¯¥æ³ķ": 7194,
      "é¢ĦèŃ¦": 7195,
      "æĻ¤": 7196,
      "und": 7197,
      "å¤ļç±³å°¼åĬłåħ±åĴĮåĽ½": 7198,
      "ĠÙ": 7199,
      "åĴĮåı¯": 7200,
      "åıĬå¤ªå¹³æ´ĭ": 7201,
      "å»ī": 7202,
      "å·²è¢«": 7203,
      "æ¶Īæŀģ": 7204,
      "æĦŁåĪ°åħ³åĪĩ": 7205,
      "éĻ·åħ¥": 7206,
      "lic": 7207,
      "ä¼ļè°Ī": 7208,
      "æĹ¥åŃĲ": 7209,
      "åīįæĻ¯": 7210,
      "çī©èµĦ": 7211,
      "è¡Įä¸ºèĢħ": 7212,
      "èĩ³åħ³éĩįè¦ģçļĦ": 7213,
      "èĩ£": 7214,
      "å¹¶åºĶ": 7215,
      "ä»Ģä¹ĪæĹ¶åĢĻ": 7216,
      "æľĢè¿ĳçļĦ": 7217,
      "å¡Ķå°¼äºļ": 7218,
      "èıľ": 7219,
      "èĥĮæĻ¯ä¸ĭ": 7220,
      "Ġåı¯ä»¥": 7221,
      "ĠèĢģ": 7222,
      "äººæĪĸ": 7223,
      "ä½ľåĩºåĬªåĬĽ": 7224,
      "ç©ºä¸Ń": 7225,
      "ç¡®å®ļäºĨ": 7226,
      "æīĵåĩ»è·¨åĽ½æľīç»Ħç»ĩçĬ¯ç½ª": 7227,
      "è¿Ļä¹Īåģļ": 7228,
      "å¼ĥæĿĥ": 7229,
      "åīĬå¼±": 7230,
      "åľĭ": 7231,
      "æĹĹ": 7232,
      "ä¸įèī¯": 7233,
      "æĭĨ": 7234,
      "å§Ķåĳĺä¼ļç¬¬": 7235,
      "å¼Ģæŀª": 7236,
      "æ¯Ķé¢Ŀ": 7237,
      "ç¬¬äºĮç«ł": 7238,
      "å¤ĸäº¤éĥ¨": 7239,
      "æĿ¡æ¬¾èįīæ¡Ī": 7240,
      "æĿĥåĬĽæľºæŀĦ": 7241,
      "å¿ĺè®°": 7242,
      "æıĲè¯·æ³¨æĦı": 7243,
      "åĩıè´«æĪĺçķ¥": 7244,
      "ire": 7245,
      "å°Ĩä¸º": 7246,
      "çĵ¦çº³": 7247,
      "åĩĢé¢Ŀ": 7248,
      "å·´å·´å¤ļæĸ¯": 7249,
      "%)": 7250,
      "çļĦè¯·æ±Ĥ": 7251,
      "ä¹³": 7252,
      "ä½ľä¸ļ": 7253,
      "æ³¨åĨĮ": 7254,
      "æĹłè¾ľ": 7255,
      "åĴĮå¹³åįıå®ļ": 7256,
      "å®īåħ¨çĲĨäºĭä¼ļåħ³äºİ": 7257,
      "ç»Īäºİ": 7258,
      "Ġ300": 7259,
      "è·¨çķĮ": 7260,
      "æĵįä½ľ": 7261,
      "æĪĸæľīè¾±äºº": 7262,
      "åºĨç¥Ŀ": 7263,
      "çļĦåĪ©çĽĬ": 7264,
      "éĢ²": 7265,
      "å¤§ä¼ļç¬¬äºĮåįģ": 7266,
      "éħįåĲĪ": 7267,
      "åľŁèĳĹæ°ĳæĹı": 7268,
      "æııè¿°": 7269,
      "çĲ³": 7270,
      "ä»½é¢Ŀ": 7271,
      "å²ģä»¥ä¸ĭ": 7272,
      "çļĦæľĢä½³": 7273,
      "Ġéĥ½": 7274,
      "æľīåħ³çļĦéĹ®é¢ĺ": 7275,
      "èİ·æĤī": 7276,
      "æ°´åĴĮ": 7277,
      "è¡¨ç¤ºèµŀèµı": 7278,
      "æİ¢ç´¢": 7279,
      "æĴ¤éĶĢ": 7280,
      "æĿĢä¼¤äººåĳĺ": 7281,
      "æĿ¥åĪ°": 7282,
      "æĹ¶éĻĲ": 7283,
      "è§ģäºĨ": 7284,
      "åĽŀè¿Ķ": 7285,
      "èįīç¨¿": 7286,
      "ä¿ĿæĬ¤å¹³æ°ĳ": 7287,
      "ç¥¸": 7288,
      "çħ§æĸĻ": 7289,
      "çıį": 7290,
      "æģ°å½ĵ": 7291,
      "ä¼ļè´¹": 7292,
      "å®¶éĩĮ": 7293,
      "çĲĨæĥ³": 7294,
      "æıĲä¾ĽæľįåĬ¡": 7295,
      "åıĸå¾ĹæĪĲåĬŁ": 7296,
      "å¾ªçİ¯": 7297,
      "æĿĢä¼¤äººåĳĺåľ°éĽ·": 7298,
      "Ġå¯¼è¨Ģ": 7299,
      "åĽ½éĻħä¼ļè®®": 7300,
      "æĮģæľī": 7301,
      "Ġsh": 7302,
      "åĪĳäºĭè¯īè®¼": 7303,
      "åĩºåĶ®åĵģç¼ĸåı·": 7304,
      "ä»¥æ³ķè¯Ńåıĳè¨Ģ": 7305,
      "æ¸©å®¤æ°Ķä½ĵ": 7306,
      "çļĦè®¡åĪĴ": 7307,
      "çļĦç¬¬ä¸Ģ": 7308,
      "åĽ½çİĭ": 7309,
      "æĺ¥": 7310,
      "æıĲèµ·": 7311,
      "æĶ¿æĿĥ": 7312,
      "æĪĳä»¬ä¸į": 7313,
      "åĽ½éĻħè´¸æĺĵ": 7314,
      "çİ°çĬ¶": 7315,
      "æĥ³åĪ°": 7316,
      "å¤ŁäºĨ": 7317,
      "å¯Įæľī": 7318,
      "ast": 7319,
      "ä¸¾åĬŀäºĨ": 7320,
      "å¸¸è§ĦæŃ¦åĻ¨": 7321,
      "æł¼æŀĹçº³": 7322,
      "ä¸įæī©æķ£æł¸æŃ¦åĻ¨æĿ¡çº¦": 7323,
      "éļ¶": 7324,
      "çĻĮ": 7325,
      "è¯Ħæ³¨": 7326,
      "çłĶç©¶æĬ¥åĳĬ": 7327,
      "æĹ¶éĹ´è¡¨": 7328,
      "Ġpara": 7329,
      "äºļæ´²åıĬå¤ªå¹³æ´ĭ": 7330,
      "Ġä»¥åıĬ": 7331,
      "Ġä¸ĢäºĽ": 7332,
      "Ġçī¹åĪ«æĬ¥åĳĬåĳĺ": 7333,
      "åľ¨æŁĲäºĽ": 7334,
      "çĶ±æŃ¤": 7335,
      "âĢĿ;": 7336,
      "æīĢæľīä¼ļåĳĺåĽ½": 7337,
      "oun": 7338,
      "åł±": 7339,
      "åłĨ": 7340,
      "èĴĻçī¹éĽ·": 7341,
      "éĤ®ä»¶": 7342,
      "¯æķĳ": 7343,
      "æĭ¯æķĳ": 7344,
      "å°Ĩæľ¬": 7345,
      "æĢ»ç»ĵ": 7346,
      "æıĲäº¤äººçļĦ": 7347,
      "æ¼ı": 7348,
      "åģĩè®¾": 7349,
      "Ġ400": 7350,
      "åįİçĽĽ": 7351,
      "è´§å¸ģåŁºéĩĳç»Ħç»ĩ": 7352,
      "âĻ": 7353,
      "çļĦæĶ¿åºľ": 7354,
      "çļĦå®ŀæĸ½": 7355,
      "ä¼¸": 7356,
      "åĴĮä¸Ń": 7357,
      "ä½łçľŁ": 7358,
      "æĿ¡åĴĮç¬¬": 7359,
      "æľĢå¤ļ": 7360,
      "ç»Łæ²»": 7361,
      "åĨĽçģ«": 7362,
      "èĲ¨æĳ©": 7363,
      "ame": 7364,
      "èĦ±ç¦»": 7365,
      "è¶ĬæĿ¥è¶Ĭå¤ļ": 7366,
      "å´ĩæĭľ": 7367,
      "èģªæĺİ": 7368,
      "oy": 7369,
      "ss": 7370,
      "ä¸¦": 7371,
      "åĴĮåİŁåĪĻ": 7372,
      "æ°Ľ": 7373,
      "ä¿Ŀå®ī": 7374,
      "åĨħæĶ¿": 7375,
      "åįģäºĮ": 7376,
      "åĴĮå¹³è§£åĨ³": 7377,
      "èĥŀ": 7378,
      "å¸¦æĿ¥äºĨ": 7379,
      "åĪĨéħįç»Ļ": 7380,
      "å¡ĶåĲīåħĭæĸ¯åĿ¦": 7381,
      "åįİçĽĽé¡¿": 7382,
      "åħ³èģĶ": 7383,
      "éĩįå¤§çļĦ": 7384,
      "æĶ¾å°Ħ": 7385,
      "ç§¯æŀģçļĦ": 7386,
      "ç¬¬åįģäºĮ": 7387,
      "åĢ¡å¯¼": 7388,
      "æĪĳåĽ½æĶ¿åºľ": 7389,
      "æ²¿æµ·": 7390,
      "å·¦åı³": 7391,
      "èĲ¨æĳ©äºļ": 7392,
      "å®«": 7393,
      "åĴĮæĶ¿çŃĸ": 7394,
      "å·¥ä½ľåľ°çĤ¹": 7395,
      "è¯¥æŃ»çļĦ": 7396,
      "äººæĿĥåĪ©": 7397,
      "è¡¨ç¤ºåħ³æ³¨": 7398,
      "æ³ķéĻ¢çļĦ": 7399,
      "çŃ¾åŃĹ": 7400,
      "å¼ķèµ·çļĦ": 7401,
      "çĽ¸å½ĵäºİ": 7402,
      "åľ¨å¯¹": 7403,
      "åĳĪ": 7404,
      "æľīæľº": 7405,
      "å¼¥": 7406,
      "é¢Ĩç©º": 7407,
      "æĪĲæŀľçļĦ": 7408,
      "æĸĲæµİ": 7409,
      "ä¸Ģå¥Ĺ": 7410,
      "ä¸ĭè¿°": 7411,
      "è¿ĺéľĢè¦ģ": 7412,
      "è®¨åİĮ": 7413,
      "æĻ®åıĬ": 7414,
      "éĶĻäºĨ": 7415,
      "çº¦ç¿°åĨħæĸ¯": 7416,
      "åı¶": 7417,
      "åŁĭ": 7418,
      "ä¸ĭæ¬¡": 7419,
      "æ¶¨": 7420,
      "ä¸ľéĥ¨": 7421,
      "åĩłä¸ªæľĪ": 7422,
      "ç»©æķĪ": 7423,
      "å¡«è¡¥": 7424,
      "æĬ«éľ²": 7425,
      "ç»ª": 7426,
      "çİ°å·²": 7427,
      "å¼Ģçİ©ç¬ĳ": 7428,
      "ä»įæľī": 7429,
      "ç¬¬äºĶåįģåħ«å±Ĭä¼ļè®®": 7430,
      "çļĦæľĢæĸ°": 7431,
      "Ġè°ģ": 7432,
      "åľ¨çº½çº¦": 7433,
      "æıĴ": 7434,
      "ç¥Ī": 7435,
      "å¤ªå¥½äºĨ": 7436,
      "è¿ĳå¹´æĿ¥": 7437,
      "å¸ĲæĪ·": 7438,
      "af": 7439,
      "çļĦåı¯": 7440,
      "è¨ĺ": 7441,
      "æ¶¦": 7442,
      "è¡ĮæĶ¿é¦ĸéķ¿": 7443,
      "è¿½è¸ª": 7444,
      "æİĴæĶ¾éĩı": 7445,
      "éĿŀæ´²åıĳå±ķæĸ°ä¼Ļä¼´åħ³ç³»": 7446,
      "åįĹåįĹåĲĪä½ľ": 7447,
      "åħ¨æĿĥè¯ģä¹¦": 7448,
      "çļĦåľ°åĮº": 7449,
      "ä¸įå¤ļ": 7450,
      "åĬłç´§": 7451,
      "å¤ļåĵ¥": 7452,
      "æī¿åıĹ": 7453,
      "äºĴèģĶç½ĳ": 7454,
      "æĲº": 7455,
      "çº¦ç¿°åĨħæĸ¯åł¡": 7456,
      "çļĦè¿Ľç¨ĭ": 7457,
      "åĴĮåĦ¿ç«¥": 7458,
      "ä½łä¸įæĺ¯": 7459,
      "éĢ¼": 7460,
      "ä¼ļè®®äºĭè§ĦåĪĻ": 7461,
      "åºĶä»¥": 7462,
      "èģĶåĲĪåĽ½æľºæŀĦ": 7463,
      "éĤ£å°±": 7464,
      "æ®º": 7465,
      "æ¶²": 7466,
      "çĶµèĦĳ": 7467,
      "çľŁçļĦå¾Ī": 7468,
      "è¡ĮåĬ¨çº²è¦ģ": 7469,
      "ĠçĲĨäºĭä¼ļ": 7470,
      "Ġæľ¬æĬ¥åĳĬ": 7471,
      "ä¸Ģå®¶": 7472,
      "ä¸ºèį·": 7473,
      "åħ³ç¨İ": 7474,
      "å·¥ä½ľä¸Ń": 7475,
      "å¤§ä¼ļä¸»å¸Ń": 7476,
      "one": 7477,
      "æģĲæĢĸä¸»ä¹īè¡Įä¸º": 7478,
      "æĹħè´¹": 7479,
      "Ġ13": 7480,
      "çļĦç»ĵè®º": 7481,
      "è¦ģæĺ¯": 7482,
      "æĪĳä»¬åºĶè¯¥": 7483,
      "æĸĩèģĮ": 7484,
      "åĲĳåħ¶": 7485,
      "è¿ĲçĶ¨": 7486,
      "æ·±ä¿¡": 7487,
      "å±łæĿĢ": 7488,
      "ç·": 7489,
      "Ġè§ģ": 7490,
      "Ġè¢«": 7491,
      "Ġup": 7492,
      "ç»¿": 7493,
      "æĹ¥ç»ĪäºĨ": 7494,
      "ç¬¬åħŃåįģä¸Ģå±Ĭä¼ļè®®": 7495,
      "åĲ¬åıĸäºĨ": 7496,
      "éĺ¿æĭīä¼¯èģĶåĲĪéħĭéķ¿åĽ½": 7497,
      "ĠåĪ°": 7498,
      "Ġè¯´": 7499,
      "çĶľ": 7500,
      "åĲĮäºĭ": 7501,
      "ä¹Łå°Ĩ": 7502,
      "æıĲä¾ĽæĬĢæľ¯æı´åĬ©": 7503,
      "åĪĹåĩº": 7504,
      "å¢ŀç¼ĸ": 7505,
      "ark": 7506,
      "æĮĩå¯¼åİŁåĪĻ": 7507,
      "çĽ¸ä¿¡æĪĳ": 7508,
      "ef": 7509,
      "Ġçľĭ": 7510,
      "æĹ¶çļĦ": 7511,
      "çħ½": 7512,
      "æľºåĪ¶çļĦ": 7513,
      "æĢĿèĢĥ": 7514,
      "éĽĩä½£": 7515,
      "åĲīå°ĶåĲīæĸ¯": 7516,
      "æľ¬äºº": 7517,
      "å°ıçļĦ": 7518,
      "è°Īä¼ļ": 7519,
      "ä½ıåľ¨": 7520,
      "åĥµ": 7521,
      "ç±³å°Ķ": 7522,
      "å°±ä¸ļæľºä¼ļ": 7523,
      "ç»Łè®¡æķ°æį®": 7524,
      "æ¯«ä¸į": 7525,
      "é¸Ł": 7526,
      "ä¸»æĦı": 7527,
      "å¤ĸç©º": 7528,
      "äºĴçĽ¸": 7529,
      "æĲŃ": 7530,
      "æĪĳæĺ¯è¯´": 7531,
      "åĲĪçĲĨçļĦ": 7532,
      "æ¯ĴåĵģåĴĮçĬ¯ç½ªéĹ®é¢ĺåĬŀåħ¬å®¤": 7533,
      "Ġjust": 7534,
      "WP": 7535,
      "Ġæī§è¡Į": 7536,
      "ä¼ļæĻ¤": 7537,
      "çī¹éģ£éĺŁ": 7538,
      "è¥¿å²¸": 7539,
      "å¤§å®¶éĥ½": 7540,
      "äººåĬĽèµĦæºĲç®¡çĲĨ": 7541,
      "å¿ĨåıĬ": 7542,
      "ear": 7543,
      "Ġout": 7544,
      "å¸ĥå°Ķ": 7545,
      "æİ¨è¡Į": 7546,
      "ä»·åĢ¼è§Ĥ": 7547,
      "æĴ¤åĽŀ": 7548,
      "åĢŁæŃ¤": 7549,
      "Ch": 7550,
      "Ġ*": 7551,
      "Ġå¥½çļĦ": 7552,
      "ä¸ªäººçļĦ": 7553,
      "å¼Ģå±ķçļĦæ´»åĬ¨": 7554,
      "ç¼ºéĻ·": 7555,
      "åĨ·éĿĻ": 7556,
      "å°¼æĹ¥å°Ķ": 7557,
      "å®ıè§Ĥç»ıæµİ": 7558,
      "å®ļç½ª": 7559,
      "è¿ĻäºĽæ´»åĬ¨": 7560,
      "è®¾ç½®": 7561,
      "æĥ³è±¡": 7562,
      "ç§įæĹıçģŃç»Ŀ": 7563,
      "ç¯ĩ": 7564,
      "æł¼çļĦå¾ħéģĩ": 7565,
      "çļĦé¢Ħç®Ĺ": 7566,
      "å°º": 7567,
      "éĢĬ": 7568,
      "æīĢåģļçļĦ": 7569,
      "å§Ķåĳĺä¼ļåħ³äºİ": 7570,
      "ĠæĪĳå°±": 7571,
      "æı´åĬ©åĽ¢": 7572,
      "288": 7573,
      "æ¯Ķé¢Ŀè¡¨": 7574,
      "Ġæ²¡": 7575,
      "Ġ15": 7576,
      "çļĦå¯¹": 7577,
      "åľĪ": 7578,
      "æł¼å¼ı": 7579,
      "è°ĪåĪ°": 7580,
      "ç¾İåĽ½åĴĮ": 7581,
      "ä¹łä¿Ĺ": 7582,
      "çµķ": 7583,
      "ä¸įäººéģĵæĪĸæľīè¾±äºº": 7584,
      "BE": 7585,
      "Ġå½ĵçĦ¶": 7586,
      "çļĦæľºåĪ¶": 7587,
      "ä»¥ä¸ĬçļĦ": 7588,
      "æıŃ": 7589,
      "æ°´èµĦæºĲ": 7590,
      "è´ŁéĿ¢": 7591,
      "æ¸ħéĻ¤": 7592,
      "èĮ¨çĵ¦çº³": 7593,
      "ä¸ĢèĪ¬äºĭåĬ¡äººåĳĺ": 7594,
      "iåħĪçĶŁ": 7595,
      "çļĦç»Ħç»ĩ": 7596,
      "è¡Įå¾Ħ": 7597,
      "å¤§æ¦Ĥ": 7598,
      "åºĶæĶ¶": 7599,
      "å°ıæŃ¦åĻ¨": 7600,
      "å¹²æ¶ī": 7601,
      "ä»½æĬ¥åĳĬ": 7602,
      "è¡¨ç¤ºæĦŁè°¢": 7603,
      "æ¨ª": 7604,
      "éĥ¨éĺŁçļĦ": 7605,
      "èĩªæĦ¿æįĲæ¬¾": 7606,
      "age": 7607,
      "æ¸¯åı£": 7608,
      "la": 7609,
      "æ§": 7610,
      "Ġ!": 7611,
      "åľ¨ä¸į": 7612,
      "ä½łå¾Ĺ": 7613,
      "æĪĲäºĨ": 7614,
      "åĽ½éĻħæģĲæĢĸä¸»ä¹ī": 7615,
      "éĹ´çļĦ": 7616,
      "éĤ£å°±æĺ¯": 7617,
      "ç¤¾ä¼ļä¿Ŀéļľ": 7618,
      "ç»ĻæĪĳä»¬": 7619,
      "åĨįçĶŁ": 7620,
      "ç¼ĸè¾ĳ": 7621,
      "éħįåģ¶": 7622,
      "æĺ¨æĻļ": 7623,
      "æµģè¡ĮçĹħ": 7624,
      "io": 7625,
      "åĽ½å¤ĸ": 7626,
      "æİ¥çĿĢ": 7627,
      "å±ĢéĿ¢": 7628,
      "å¸ĥéĽ·": 7629,
      "åĬłå¼ºèģĶåĲĪåĽ½": 7630,
      "å¹²æĹ±": 7631,
      "åºĶè¯¥æĺ¯": 7632,
      "ase": 7633,
      "åŃ©åŃĲä»¬": 7634,
      "éĩįçĤ¹æĺ¯": 7635,
      "Ġ800": 7636,
      "éĹľ": 7637,
      "æıĲä¾ĽèµĦæĸĻ": 7638,
      "ç»§ç»Ńå®¡è®®": 7639,
      "åıĺéĿ©": 7640,
      "åºıè¨Ģ": 7641,
      "ç²ī": 7642,
      "æĿĢäºº": 7643,
      "å®ĮæĪĲäºĨ": 7644,
      "uman": 7645,
      "çļĦä¸¥éĩį": 7646,
      "çļĦæĢ§è´¨": 7647,
      "åĲ»": 7648,
      "åľ¨ä»ĸ": 7649,
      "åħ¥å¢ĥ": 7650,
      "ç»ıæµİåĲĪä½ľ": 7651,
      "åĽĽå¹´": 7652,
      "ish": 7653,
      "ä¹ĭéĹ´çļĦèģĶç³»": 7654,
      "åįļèĮ¨çĵ¦çº³": 7655,
      "å®£è¨ĢåĴĮè¡ĮåĬ¨çº²é¢Ĩ": 7656,
      "çº·": 7657,
      "åĲĪéĢĤ": 7658,
      "å£ģ": 7659,
      "æģĲæĥ§": 7660,
      "çĬ¯ç½ªè¡Įä¸º": 7661,
      "æī©å±ķ": 7662,
      "æĹ©æľŁ": 7663,
      "çļĦä¸Ģä¸ªéĩįè¦ģ": 7664,
      "æĶ¿åºľéĹ´ç»Ħç»ĩ": 7665,
      "çħ½åĬ¨": 7666,
      "æĹ¥éĢļè¿ĩçļĦ": 7667,
      "å·¥ä½ľè®¡åĪĴ": 7668,
      "äº§å¦ĩ": 7669,
      "åĴ¨åķĨ": 7670,
      "åŁºæľ¬ä¸Ĭ": 7671,
      "å¹´è½»äºº": 7672,
      "æĪĳçİ°åľ¨è¯·": 7673,
      "Ġéī´äºİ": 7674,
      "ä»ģ": 7675,
      "åı¯åĲ¦": 7676,
      "ä¸ĭä¸Ģä¸ª": 7677,
      "å¹³åı°": 7678,
      "ç³Ĭ": 7679,
      "çŁ¥çļĦ": 7680,
      "çī¹åĪ«æĶ¿æ²»": 7681,
      "ç©¶ç«Ł": 7682,
      "140": 7683,
      "çĪĨåıĳ": 7684,
      "è¢«åįłé¢ĨåľŁ": 7685,
      "ä¸įå®ī": 7686,
      "æĪĳä»¬å·²ç»ı": 7687,
      "å°±å¿ħé¡»": 7688,
      "æıĲä¾Ľæľīåħ³": 7689,
      "éĩĳé¢Ŀ": 7690,
      "å¾Īå¤§çļĦ": 7691,
      "åĳ¨åĽ´": 7692,
      "æĳ©çº³": 7693,
      "å¸¸é©»ä»£è¡¨åĽ¢": 7694,
      "èĢģå¹´äºº": 7695,
      "Ġèĩª": 7696,
      "çļĦä¿ĿæĬ¤": 7697,
      "åĴĮåĨ³å®ļ": 7698,
      "åĴĮçĽĳæµĭ": 7699,
      "å¯¹ä»ĸ": 7700,
      "åħ¶ä½Ļ": 7701,
      "ä¸»å¯¼": 7702,
      "ä¸İåĴĮå¹³": 7703,
      "åŃ¦ä¼ļ": 7704,
      "æ¯ĽéĩĮå¡Ķå°¼äºļ": 7705,
      "è¿«åĪĩéľĢè¦ģ": 7706,
      "ä»Ķç»Ĩ": 7707,
      "å®ĩ": 7708,
      "åľ¨å§Ķåĳĺä¼ļ": 7709,
      "è¡°": 7710,
      "æĹ¥å¸¸": 7711,
      "å°ĨæľīåĬ©äºİ": 7712,
      "å¤ĦçļĦ": 7713,
      "è¡ĮåĬ¨èĢħ": 7714,
      "åħ¬çº¦èįīæ¡Ī": 7715,
      "æĢ»çļĦ": 7716,
      "æµ·å¤ĸ": 7717,
      "åŁ¹åħ»": 7718,
      "ç¬¬ä¸īæĸ¹": 7719,
      "ç»ĨèĬĤ": 7720,
      "Ġget": 7721,
      "å¸¸é©»èģĶåĲĪåĽ½ä»£è¡¨åĽ¢": 7722,
      "è«ĭ": 7723,
      "ä¸įå¦¨": 7724,
      "è¯¥ç¼Ķçº¦åĽ½": 7725,
      "éĽ¢": 7726,
      "è¥¿æ´ĭ": 7727,
      "é¡¹çĽ®åİħ": 7728,
      "æ·»": 7729,
      "å¢ŀåĬłåĪ°": 7730,
      "åĬłæ²Ļåľ°å¸¦": 7731,
      "å°Ŀè¯ķ": 7732,
      "å¹¶å°±æŃ¤": 7733,
      "åīįéĿ¢": 7734,
      "æĸ½æĶ¿": 7735,
      "è´¢å¯Į": 7736,
      "çĥĤ": 7737,
      "åħ»æĬ¤": 7738,
      "ç®ĢåĮĸ": 7739,
      "ä¸ļåĬ¡æ´»åĬ¨": 7740,
      "æ²¡äºĭåĲ§": 7741,
      "æĳ©çº³åĵ¥": 7742,
      "çī¹ä½¿": 7743,
      "åı·æĿ¥æĸĩ": 7744,
      "æ´»çĿĢ": 7745,
      "ä»¥åıĬä¸İ": 7746,
      "åĮħæĭ¬éĢļè¿ĩ": 7747,
      "ans": 7748,
      "éĻ¤å¤ĸ": 7749,
      "åĭķ": 7750,
      "éªĳ": 7751,
      "é©¬æĭīç»´": 7752,
      "å¼ºåĪ¶æĢ§": 7753,
      "çļĦå½¢å¼ı": 7754,
      "åħĳ": 7755,
      "ä¸ĢåįĬ": 7756,
      "æŃ¡": 7757,
      "æĥľ": 7758,
      "åĽ½éĻħæĸĩä¹¦": 7759,
      "æĿ¡åĴĮ": 7760,
      "éķ·": 7761,
      "æĪĸä¸į": 7762,
      "âĢĿ)": 7763,
      "è§ģS": 7764,
      "åı¯æĮģç»ŃæĢ§": 7765,
      "ich": 7766,
      "åı«æĪĳ": 7767,
      "è¿Ļä¹Īè¯´": 7768,
      "Ġ600": 7769,
      "Ġle": 7770,
      "åħ¶ä»»åĬ¡": 7771,
      "æľºåĻ¨": 7772,
      "éĤ£æĹ¶": 7773,
      "åĪºæ¿Ģ": 7774,
      "çļĦæīĭæ®µ": 7775,
      "æľ±": 7776,
      "è¯±": 7777,
      "ä¸Ģæĸ¹": 7778,
      "åĨĪ": 7779,
      "ä¸įéľĢè¦ģ": 7780,
      "ä¿Ŀç½Ĺ": 7781,
      "ĠæĪĳåĢĳ": 7782,
      "ç®¡çĲĨåĽ½": 7783,
      "åıĳæĮ¥ä½ľçĶ¨": 7784,
      "å®ļå±ħçĤ¹": 7785,
      "éĮ¯": 7786,
      "å¯¹æīĢæľī": 7787,
      "å§Ķæīĺ": 7788,
      "æŁı": 7789,
      "åįĹæĸ¹": 7790,
      "çļĦæĬ¥åĳĬä¸Ń": 7791,
      "èº²": 7792,
      "åĩıå°ĳäºĨ": 7793,
      "åı¯æĮģç»ŃçļĦ": 7794,
      "åıĮéĩį": 7795,
      "éĿŀæ³ķè´¸æĺĵ": 7796,
      "Ġ700": 7797,
      ")}": 7798,
      "çļĦé¢ĨåŁŁ": 7799,
      "çļĦæ¦Ĥå¿µ": 7800,
      "çļĦåĶ¯ä¸Ģ": 7801,
      "åĲµ": 7802,
      "è¾Ĳ": 7803,
      "æĸ¹éĿ¢åıĸå¾ĹçļĦè¿Ľå±ķ": 7804,
      "å°ıåŀĭ": 7805,
      "ond": 7806,
      "åĩıåħį": 7807,
      "èµĦæĸĻæĿ¥æºĲ": 7808,
      "Ġpr": 7809,
      "åĿĩè¡¡": 7810,
      "ç»ĵæĿŁäºĨ": 7811,
      "é«ĺåħ´åľ°": 7812,
      "çļĦæķĻèĤ²": 7813,
      "çļĦçĽ®çļĦæĺ¯": 7814,
      "åĴĮéĿŀæĶ¿åºľç»Ħç»ĩ": 7815,
      "ç§Ĵ": 7816,
      "æīĢæıĲä¾ĽçļĦ": 7817,
      "å°ĨåĨĽ": 7818,
      "è¿Ľè¡Įå®¡æŁ¥": 7819,
      "èĩ³ç¬¬": 7820,
      "ç©ºæ°Ķ": 7821,
      "çĶŁäº§æĢ»åĢ¼": 7822,
      "éŃĤ": 7823,
      "ç¼ĵè§£": 7824,
      "The": 7825,
      "çļĦå®¶åºŃ": 7826,
      "ä¼ļæľŁéĹ´": 7827,
      "æĢľ": 7828,
      "å¤įåĳĺåĴĮéĩįè¿Ķç¤¾ä¼ļ": 7829,
      "åĪ©çĽĬæĶ¸åħ³æĸ¹": 7830,
      "åļ": 7831,
      "èķ": 7832,
      "åĩºæĿ¥çļĦ": 7833,
      "è¢«å®³": 7834,
      "éĺ¿æĽ¼": 7835,
      "äººæ°ĳæ°ĳä¸»åħ±åĴĮåĽ½": 7836,
      "ä¸įåŃĺåľ¨": 7837,
      "ä½łçİ°åľ¨": 7838,
      "æĪĳä»¬ä¸įèĥ½": 7839,
      "ä¿Ŀå¯Ĩ": 7840,
      "æľĢä¸º": 7841,
      "è®¤æįĲ": 7842,
      "åĲĳä½ł": 7843,
      "å¦ĩåıĳåŁºéĩĳ": 7844,
      "èģĶåĲĪåĽ½ç³»ç»ŁåĨħ": 7845,
      "å®ŀè´¨æĢ§ä¼ļè®®": 7846,
      "îħħ": 7847,
      "662": 7848,
      "Ġä½ľä¸º": 7849,
      "ĠåĴ¨è¯¢å§Ķåĳĺä¼ļ": 7850,
      "æĪĳäºĨ": 7851,
      "æľīè´£ä»»": 7852,
      "åĪ©å°Ķ": 7853,
      "æłĩå¿Ĺ": 7854,
      "æłĩåĩĨçļĦ": 7855,
      "Ġch": 7856,
      "æ¶īåıĬåĪ°": 7857,
      "âĶ": 7858,
      "ä¿¡å¿ĥ": 7859,
      "é«ĺäºİ": 7860,
      "åİ»æī¾": 7861,
      "è¿Ļä¸Ģè¿Ľç¨ĭ": 7862,
      "æ¬§å®ī": 7863,
      "ç¬¬äºĮéĥ¨åĪĨ": 7864,
      "åıĬåħ¶å¯¹": 7865,
      "åĽ½éĻħç¤¾ä¼ļçļĦ": 7866,
      "å¸ĤåľºçļĦ": 7867,
      "æķĳæµİå·¥ç¨ĭå¤Ħ": 7868,
      "åĴ±ä»¬": 7869,
      "ĠæīĢæľī": 7870,
      "çļĦéĿŀ": 7871,
      "æĪĳæīĢ": 7872,
      "ç®Ń": 7873,
      "ä»¥åıĬä¸º": 7874,
      "æº´": 7875,
      "æĹłæķĪ": 7876,
      "æľĢä¸įåıĳè¾¾åĽ½å®¶çļĦ": 7877,
      "æĹłæł¸æŃ¦åĻ¨åĮº": 7878,
      "èģĮæĿĥèĮĥåĽ´": 7879,
      "ä¸įç»ĵçĽŁè¿ĲåĬ¨": 7880,
      "åĪ·": 7881,
      "æĪĳå°Ĩ": 7882,
      "æĬļ": 7883,
      "èµļ": 7884,
      "æľªæĪĲå¹´": 7885,
      "æĪĺçķ¥è®¡åĪĴ": 7886,
      "åħŃä¸ªæľĪ": 7887,
      "åĲ¬æĪĳè¯´": 7888,
      "åħ±åĲĮåĬªåĬĽ": 7889,
      "æ¶ĪéĻ¤å¯¹å¦ĩå¥³æŃ§è§Ĩ": 7890,
      "ä»£çĲĨä¸»å¸Ń": 7891,
      "è·¯çº¿åĽ¾": 7892,
      "æĺ¯æĮĩ": 7893,
      "æĦĪ": 7894,
      "æĪĸå¤Ħç½ļ": 7895,
      "éļ¾æ°ĳèĲ¥": 7896,
      "Ġhere": 7897,
      "cHFFFF": 7898,
      "è°ħè§£å¤ĩå¿ĺå½ķ": 7899,
      "åĴĮåŁ¹è®Ń": 7900,
      "æĪĳåı«": 7901,
      "ç¬¨": 7902,
      "æµĵ": 7903,
      "çľ¾": 7904,
      "åıĳå±ķæĿĥ": 7905,
      "åį¡å°Ķ": 7906,
      "cHFFFFFF": 7907,
      "ne": 7908,
      "æĢĴ": 7909,
      "æ¡¥": 7910,
      "ä¹ĭæĹ¶": 7911,
      "å¤©åĵª": 7912,
      "åį³ä¾¿": 7913,
      "èī²çļĦ": 7914,
      "å¼Ģå±ķåĲĪä½ľ": 7915,
      "æī¾åĪ°äºĨ": 7916,
      "åıĭå¥½": 7917,
      "ç»´æĮģåĴĮå¹³çī¹æ´¾åĽ¢": 7918,
      "æİĪäºĪ": 7919,
      "ç¬¬åħŃåįģå±Ĭä¼ļè®®": 7920,
      "æĩīçķ¶": 7921,
      "æ¬ºè¯Ī": 7922,
      "Ġæį®": 7923,
      "çļĦç«ĭæ³ķ": 7924,
      "çī¹åĪ«æ³¨æĦı": 7925,
      "åİ»åĲ§": 7926,
      "ä¸ľæ¬§": 7927,
      "130": 7928,
      "æĪĺçķ¥åĴĮ": 7929,
      "åħ©": 7930,
      "ä½Ĳ": 7931,
      "æĪĳéĥ½": 7932,
      "ä»ĸå¦Ī": 7933,
      "å·²æĪĲä¸º": 7934,
      "å¾Īéĩįè¦ģ": 7935,
      "åĪĹä¸º": 7936,
      "æ°´å±Ĥ": 7937,
      "æĳĩ": 7938,
      "æĤ¬": 7939,
      "éĢĢåĮĸ": 7940,
      "æĢ§åĪ«è§ĤçĤ¹çº³åħ¥": 7941,
      "ä¾§éĩįäºİ": 7942,
      "è¿ĳä¸ľæķĳæµİå·¥ç¨ĭå¤Ħ": 7943,
      "è®Ĭ": 7944,
      "å·²ç¶ĵ": 7945,
      "éĽ»": 7946,
      "æł·åŃĲ": 7947,
      "æł¸å®ļ": 7948,
      "è§£åĨ³åĨ²çªģ": 7949,
      "åıĳå±ķä¸ŃåĽ½å®¶åĴĮ": 7950,
      "åĪĽå»º": 7951,
      "æįĲåĬ©æĸ¹": 7952,
      "ĠHe": 7953,
      "èĪ¹åıª": 7954,
      "(âĢľ": 7955,
      "ä¸ºä½ł": 7956,
      "æ³ķåĴĮ": 7957,
      "å¤§è¥¿æ´ĭ": 7958,
      "å¦ĵ": 7959,
      "æ¡Īæĥħ": 7960,
      "åīįæıĲ": 7961,
      "çĦ¦": 7962,
      "çī¹åĪ«ä¼ļè®®çļĦ": 7963,
      "è®°ä½ı": 7964,
      "oug": 7965,
      "éĿŀæĶ¿åºľç»Ħç»ĩåĴĮ": 7966,
      "ç©·äºº": 7967,
      "è¿Ļé¡¹å·¥ä½ľ": 7968,
      "æķħæĦı": 7969,
      "çļĦæķ°é¢Ŀ": 7970,
      "æĪĳçĽ¸ä¿¡": 7971,
      "æİ©": 7972,
      "éĤ£åĦ¿": 7973,
      "åħ±äº«": 7974,
      "äººæĿĥæĥħåĨµ": 7975,
      "ç«¥å·¥": 7976,
      "è¯ģä»¶": 7977,
      "èĩªçĶ±åĮĸ": 7978,
      "è¾ĥä½İ": 7979,
      "åıªæľīåľ¨": 7980,
      "åı¥è¯Ŀ": 7981,
      "ä¸įç½ļ": 7982,
      "åħ¨æ°ĳ": 7983,
      "æįŀ": 7984,
      "åĮĸç¢³": 7985,
      "åĽŀæĿ¥äºĨ": 7986,
      "æ³ķå¾ĭæı´åĬ©": 7987,
      "ç»§ç»Ńè¿Ľè¡Į": 7988,
      "å¨ģå£«": 7989,
      "éº½": 7990,
      "ä¼Ĭæĸ¯åħ°åĽ½å®¶": 7991,
      "çĿ¡è§ī": 7992,
      "ä¹Ķæ²»": 7993,
      "é©³åĽŀ": 7994,
      "èĢģæĮĿäººæ°ĳæ°ĳä¸»åħ±åĴĮåĽ½": 7995,
      "æīĵåĩ»è·¨åĽ½æľīç»Ħç»ĩçĬ¯ç½ªåħ¬çº¦": 7996,
      "æĪĳè·Ł": 7997,
      "ä¸įç¨³å®ļ": 7998,
      "åĮ¹": 7999,
      "åĬ¨æľº": 8000,
      "çĶŁçļĦ": 8001,
      "åİŁä»¶": 8002,
      "çĽĳæĬ¤": 8003,
      "çŁĽ": 8004,
      "çŃĶæ¡Ī": 8005,
      "å¤§å¹ħåº¦": 8006,
      "çĻ¾åĪĨæ¯Ķ": 8007,
      "'ll": 8008,
      "Ġè®©": 8009,
      "æľīå¤ļ": 8010,
      "å¸¶": 8011,
      "æĪĸåĬłåħ¥": 8012,
      "æıĲä¾Ľå¿ħè¦ģçļĦ": 8013,
      "ç¤¾ä¼ļç»ıæµİ": 8014,
      "å°¼è¾¾": 8015,
      "ina": 8016,
      "åį¡æĭī": 8017,
      "ç»ĵæĿŁæĹ¶": 8018,
      "éĿŀæ³ķè´©è¿Ĳ": 8019,
      "åºĵåŃĺ": 8020,
      "åı¯æĮģç»Ńåıĳå±ķéĹ®é¢ĺä¸ĸçķĮé¦ĸèĦĳä¼ļè®®": 8021,
      "åĽºå®ļ": 8022,
      "ä¸įä»ħä»ħ": 8023,
      "å¹¸ç¦ı": 8024,
      "çļĦè´¡çĮ®": 8025,
      "ä»¥æĶ¯æĮģ": 8026,
      "åĪĨæĭħ": 8027,
      "çĦ¶å¾Į": 8028,
      "ç¼Ķçº¦åĽ½çļĦ": 8029,
      "ä½ľåĩºçļĦåĬªåĬĽ": 8030,
      "ä¸ĵå®¶ä¼ļè®®": 8031,
      "Ġwant": 8032,
      "æŃ£å¼ıè¯Ńæĸĩ": 8033,
      "è¯¥åĽ½æĶ¿åºľ": 8034,
      "èµĶåģ¿è´£ä»»": 8035,
      "ç¤¾ä¼ļåĴĮç»ıæµİ": 8036,
      "çļĦåĴĮ": 8037,
      "åĴĮä¸ŃåĽ½": 8038,
      "æľīåħ³åĲĦæĸ¹": 8039,
      "å¤§ä¼ļåĴĮ": 8040,
      "èĭĹ": 8041,
      "è¿Ĳè¡Į": 8042,
      "ç½ĳåĿĢ": 8043,
      "åĩĨåĪĻèįīæ¡Ī": 8044,
      "éŀĭ": 8045,
      "black": 8046,
      "ä½łåºĶè¯¥": 8047,
      "ä½ľçī©": 8048,
      "å¤§åŀĭ": 8049,
      "åı¸éķ¿": 8050,
      "Ġä½łåľ¨": 8051,
      "èĥĨ": 8052,
      "é¦ĸéĥ½": 8053,
      "å°½åĬĽ": 8054,
      "å¸¦çĿĢ": 8055,
      "é»ĳä½ĵ": 8056,
      "åĢºåĬ¡äºº": 8057,
      "112": 8058,
      "çļĦçľĭæ³ķ": 8059,
      "æĿĥå¨ģ": 8060,
      "è¿ĺæ²¡": 8061,
      "åĿİ": 8062,
      "ç»ıæµİå§Ķåĳĺä¼ļ": 8063,
      "æĶ¯æĮģåĴĮ": 8064,
      "åĬłå¼ºäºĨ": 8065,
      "arial": 8066,
      "ç¡®ä¿Ŀåľ¨": 8067,
      "å·´åĭĴæĸ¯åĿ¦éļ¾æ°ĳ": 8068,
      "åħįçĸ«": 8069,
      "éĢĤå½ĵæİªæĸ½": 8070,
      "fnarial": 8071,
      "blackfs": 8072,
      "fnarialblackfs": 8073,
      "Ġæľīäºº": 8074,
      "åħ³äºİèģĶåĲĪåĽ½": 8075,
      "å°ıåŃĲ": 8076,
      "éĺ¿åįľ": 8077,
      "åĳ½è¿Ĳ": 8078,
      "æ¸ħçĲĨ": 8079,
      "åĸĦæĶ¿": 8080,
      "ild": 8081,
      "ĠWhat": 8082,
      "CRP": 8083,
      "ç»ıåĲĪç»Ħç»ĩ": 8084,
      "èĿ": 8085,
      "çļĦçİ°è±¡": 8086,
      "åĴĮä»ĸ": 8087,
      "å¹´ä¸º": 8088,
      "å¯¹äºĨ": 8089,
      "å¯¹æĬĹ": 8090,
      "ä¸ŃçŃī": 8091,
      "ç»ıåħ±ä½ĵ": 8092,
      "äºļéĤ£": 8093,
      "å°ıåŃ©": 8094,
      "ä¸¤ç§į": 8095,
      "åĵįåºĶ": 8096,
      "arl": 8097,
      "å¼ºè°ĥæĮĩåĩº": 8098,
      "è¶³ä»¥": 8099,
      "æŃ£ç¡®çļĦ": 8100,
      "æĮ¯åħ´": 8101,
      "son": 8102,
      "åĴĮä¿¡æģ¯": 8103,
      "æīĶ": 8104,
      "å°Ĩè¿ĻäºĽ": 8105,
      "çŁ¥æĥħ": 8106,
      "åĮħæĭ¬å¯¹": 8107,
      "å¦ĤæŀľæĪĳä»¬": 8108,
      "ç¾İåħĥçļĦ": 8109,
      "æī¹è¯Ħ": 8110,
      "ä¹°åįĸ": 8111,
      "ally": 8112,
      "è½¨éģĵ": 8113,
      "åĴĮæĢ§": 8114,
      "æĬĽ": 8115,
      "çºµ": 8116,
      "æīĢæĮĩ": 8117,
      "æĶ¯æŁ±": 8118,
      "éĥ½åı¯ä»¥": 8119,
      "å®Įç¾İ": 8120,
      "åħ¨çĲĥç»ıæµİ": 8121,
      "èĢģæĿ¿": 8122,
      "ç¬¬äºĶåįģåħŃå±Ĭä¼ļè®®": 8123,
      "ç«ŀäºīåĬĽ": 8124,
      "å¦ĩå¥³åĴĮå¥³åŃ©": 8125,
      "çĪĨçĤ¸çī©": 8126,
      "æľīç½ªä¸įç½ļ": 8127,
      "è¾Ĳå°Ħ": 8128,
      "è¼": 8129,
      "åĴĮåı¸æ³ķ": 8130,
      "åľ¨è®¸å¤ļ": 8131,
      "åĩºåıĳ": 8132,
      "å¹¶æł¹æį®": 8133,
      "åĪ¶çº¦": 8134,
      "å¦ĩå¥³åıĤä¸İ": 8135,
      "Ġä½łæĺ¯": 8136,
      "èµŀåĬ©": 8137,
      "ace": 8138,
      "è¯¦æĥħ": 8139,
      "æĴ¤åĩº": 8140,
      "è°ĭæ±Ĥ": 8141,
      "åľŃäºļéĤ£": 8142,
      "èĴĻçī¹åĪ©å°Ķ": 8143,
      "åĽ½åĪ«": 8144,
      "åľ¨ä¿ĥè¿Ľ": 8145,
      "æıĲåĪ°äºĨ": 8146,
      "å§Ķåĳĺä¼ļå¯¹": 8147,
      "çī¹ç«ĭ": 8148,
      "107": 8149,
      "èİ·å¾ĹçļĦ": 8150,
      "å¼ºè°ĥå¿ħé¡»": 8151,
      "æķ£åıĳ": 8152,
      "åĲ«æ°´å±Ĥ": 8153,
      "çĤ¸å¼¹": 8154,
      "æĥ©æ²»": 8155,
      "æĶ¿çŃĸåĴĮæĸ¹æ¡Ī": 8156,
      "æ²¡äºĭçļĦ": 8157,
      "åľ¨è¿Ļç§įæĥħåĨµä¸ĭ": 8158,
      "HP": 8159,
      "ĠZ": 8160,
      "æĺ¯ä»¥": 8161,
      "åĮĻ": 8162,
      "éģı": 8163,
      "ä¸Ĭæ¬¡": 8164,
      "å½ĵä»Ĭ": 8165,
      "çŃīäºº": 8166,
      "èĲ¬": 8167,
      "ç§ĺä¹¦éķ¿åľ¨": 8168,
      "è¿Ļç§įåģļæ³ķ": 8169,
      "ä»¥èī²åĪĹçļĦ": 8170,
      "ä¸¥éĩįè¿Ŀåıį": 8171,
      "å¹´åĪĿ": 8172,
      "åĪ°è¾¾": 8173,
      "æİ¥æĶ¶": 8174,
      "å¤įåİŁ": 8175,
      "çĹħäºº": 8176,
      "ä¼Ĺå¤ļ": 8177,
      "åħįåıĹ": 8178,
      "æĬķèµĦèĢħ": 8179,
      "å²ģçļĦ": 8180,
      "éĥ¨éķ¿çº§ä¼ļè®®": 8181,
      "ĠçľŁ": 8182,
      "å¹»": 8183,
      "è¿Ļæ¬¡ä¼ļè®®": 8184,
      "å¥Ī": 8185,
      "ä¸»çļĦ": 8186,
      "äºĽä»Ģä¹Ī": 8187,
      "æľ¬ç»Ħç»ĩçļĦ": 8188,
      "åĽ¢éķ¿": 8189,
      "æĹıå¡ŀ": 8190,
      "èĲ¥åľ°": 8191,
      "å±¥è¡ĮæľºæŀĦ": 8192,
      "å¾ĴåĪĳ": 8193,
      "è¢«åįłé¢Ĩå·´åĭĴæĸ¯åĿ¦é¢ĨåľŁ": 8194,
      "èĨ¨": 8195,
      "åĢ¾åĲĳ": 8196,
      "æĳ©å°Ķå¤ļçĵ¦åħ±åĴĮåĽ½": 8197,
      "HRC": 8198,
      "ID": 8199,
      "ĠæĪĸèĢħ": 8200,
      "çļĦè®°å½ķ": 8201,
      "æĪĳå¯¹": 8202,
      "éĥİ": 8203,
      "ä¹Łåı¯": 8204,
      "æī§è¡Įè®¡åĪĴ": 8205,
      "å·´åĵ¥": 8206,
      "ä¸ľèĢ¶è·¯æĴĴåĨ·": 8207,
      "æ¯ıæľĪ": 8208,
      "ç²¹": 8209,
      "ited": 8210,
      "æ¯Ľé¢Ŀ": 8211,
      "åĲĪæ³ķæĢ§": 8212,
      "COP": 8213,
      "åľ¨ä¸İ": 8214,
      "ç«Ń": 8215,
      "éĤ£æľ«": 8216,
      "Ġby": 8217,
      "ç±»ä¼¼çļĦ": 8218,
      "æĮĩæĮ¥å®ĺ": 8219,
      "è¨Ģè®ºèĩªçĶ±": 8220,
      "é»ĳä½ĵfs": 8221,
      "çĶŁæĦı": 8222,
      "éĥ¨èĲ½": 8223,
      "åĪ«çļĦ": 8224,
      "çŃīéĹ®é¢ĺ": 8225,
      "åĲįç§°": 8226,
      "æĶ¾æĿ¾": 8227,
      "æļĸ": 8228,
      "æľįåĬ¡åĴĮ": 8229,
      "èĥ½åĬĽåĴĮ": 8230,
      "è¶ħè¶Ĭ": 8231,
      "fné»ĳä½ĵfs": 8232,
      "å¢ŀè¿ĽåĴĮä¿ĿæĬ¤äººæĿĥ": 8233,
      "æµªè´¹": 8234,
      "St": 8235,
      "çļĦä¼ļåĳĺåĽ½": 8236,
      "åľ¾": 8237,
      "å¯¿": 8238,
      "å½ĵä¸Ń": 8239,
      "è¿ĻäºĽå»ºè®®": 8240,
      "å·´å¡ŀå°Ķ": 8241,
      "åħ¬çº¦çļĦ": 8242,
      "éĻĦå½ķ": 8243,
      "è£ģè°Īä¼ļ": 8244,
      "æ·¡": 8245,
      "æ°Ķæ°Ľ": 8246,
      "ĠAm": 8247,
      "éĿŀå¸¸éĩįè¦ģ": 8248,
      "ç½®äºİ": 8249,
      "eth": 8250,
      "éĺ¶å±Ĥ": 8251,
      "Ġlike": 8252,
      "æ½®": 8253,
      "ĠWe": 8254,
      "ç´§æĢ¥æĥħåĨµ": 8255,
      "aHBE": 8256,
      "808080": 8257,
      "åĴĮå¤ļå·´åĵ¥": 8258,
      "çī¹ç«ĭå°¼è¾¾": 8259,
      "äººèº«": 8260,
      "ä½łæ²¡": 8261,
      "åĬĽæ±Ĥ": 8262,
      "æ±ł": 8263,
      "æĶ¯éħį": 8264,
      "æłĩé¢ĺ": 8265,
      "è¿Ļä¸ĢçĽ®æłĩ": 8266,
      "åİŁè°ħ": 8267,
      "å¸ĥæĭī": 8268,
      "æµ·çīĻ": 8269,
      "é¡¾åıĬ": 8270,
      "è¯´æĺİäºĨ": 8271,
      "åŀĥ": 8272,
      "é«ĺçº§ä»£è¡¨": 8273,
      "æ·±åĪĩ": 8274,
      "Ġfrom": 8275,
      "åºĵæĽ¼": 8276,
      "%)ãĢĤ": 8277,
      "æĪĳæĬĬ": 8278,
      "ä½łèĩªå·±": 8279,
      "çĶ¨ä½ľ": 8280,
      "èĩªæĿĢ": 8281,
      "æł¸å®ŀ": 8282,
      "ç¦»å©ļ": 8283,
      "æĺ¯åĲ¦æľī": 8284,
      "ç¨İæĶ¶": 8285,
      "ç£¨": 8286,
      "çĶµåŃĲåķĨåĬ¡": 8287,
      "çŃ¹å¤ĩå·¥ä½ľ": 8288,
      "åŁºäºİæĢ§åĪ«": 8289,
      "ä¸»å¸ŃåĽ¢æĪĲåĳĺ": 8290,
      "æĥ¡": 8291,
      "å±ķç¤º": 8292,
      "å¹¶äºİ": 8293,
      "è¡¨æ¼Ķ": 8294,
      "åıªä¼ļ": 8295,
      "æīĭæľº": 8296,
      "åĪ¶å®ļçļĦ": 8297,
      "åĪĨåıĳä¸ºèį·": 8298,
      "ç»´åĴĮè¡ĮåĬ¨": 8299,
      "è»Ĭ": 8300,
      "èĨ¨èĥĢ": 8301,
      "åŀĥåľ¾": 8302,
      "Ã³": 8303,
      "åľ¨éĿŀæ´²": 8304,
      "ä½łæĿ¥": 8305,
      "æ°Ł": 8306,
      "èĥ½åľ¨": 8307,
      "åĬłå·¥": 8308,
      "å¹¶ä¿ĥè¿Ľ": 8309,
      "è¿ĺå¿ħé¡»": 8310,
      "åı·æ³ķä»¤": 8311,
      "çĶ±èģĶåĲĪåĽ½": 8312,
      "å°ĶåħĪçĶŁ": 8313,
      "å¥¹åľ¨": 8314,
      "å£¤": 8315,
      "åľŁåºĵæĽ¼": 8316,
      "æĪĲä¸ºä¸Ģä¸ª": 8317,
      "ention": 8318,
      "ult": 8319,
      "æ¶Īè´¹èĢħ": 8320,
      "aj": 8321,
      "ç°": 8322,
      "çļĦæĪĲæŀľ": 8323,
      "çļĦç«ĭåľº": 8324,
      "åĴĮåĪĨæŀĲ": 8325,
      "è¡·": 8326,
      "æĺ¯æĪĳä»¬": 8327,
      "è¿ĻæĦıåĳ³çĿĢ": 8328,
      "åľ°éĿ¢": 8329,
      "åĽ½å®¶åıĳå±ķ": 8330,
      "åŁºåĽł": 8331,
      "æıĲä¾Ľç»Ļ": 8332,
      "æ³ķå¾ĭæĸĩä¹¦": 8333,
      "åı£è¯ĳ": 8334,
      "è®ŃçłĶæīĢ": 8335,
      "åĩłå¤©": 8336,
      "Ġ--": 8337,
      "è¿½æ±Ĥ": 8338,
      "DAW": 8339,
      "IV": 8340,
      "NA": 8341,
      "å¥ł": 8342,
      "åıĳèªĵ": 8343,
      "ound": 8344,
      "åŁ¹è®ŃçıŃ": 8345,
      "éļ¾æ°ĳåĴĮ": 8346,
      "ash": 8347,
      "è¾¾æĪĲåįıè®®": 8348,
      "ime": 8349,
      "çĸ¯äºĨ": 8350,
      "îĥ": 8351,
      "Ġåıªæĺ¯": 8352,
      "ä¼ļåĦ¿": 8353,
      "åĽ½å®¶å®īåħ¨": 8354,
      "èĢĮéĿŀ": 8355,
      "å¾Īé«ĺ": 8356,
      "åĩĨè®¸": 8357,
      "éĢīåĩº": 8358,
      "çĽĳè§Ĩ": 8359,
      "çħ§ä¼ļ": 8360,
      "å·²ç»ıåľ¨": 8361,
      "180": 8362,
      "ç«łç¨ĭ": 8363,
      "æĻ®æŁ¥": 8364,
      "ç»ĵè®ºåĴĮå»ºè®®": 8365,
      "ä»ĩæģ¨": 8366,
      "åī©ä½Ļ": 8367,
      "æīĢè°ĵçļĦ": 8368,
      "çļĦåĨĽäºĭ": 8369,
      "æĺ¯éĢļè¿ĩ": 8370,
      "ãĢģâĢľ": 8371,
      "åħ¨çĲĥçİ¯å¢ĥåŁºéĩĳ": 8372,
      "çĮ«": 8373,
      "å¸ĤåľºåĩĨåħ¥": 8374,
      "ä½łåĢĳçļĦ": 8375,
      "ç¼´æ¬¾": 8376,
      "ç§ĳæĬĢåĴ¨è¯¢æľºæŀĦ": 8377,
      "ä»¥å®ŀçİ°": 8378,
      "æīĢéĢłæĪĲçļĦ": 8379,
      "åĪ©çİĩ": 8380,
      "è¯¥åĽ½çļĦ": 8381,
      "ä¹ĭæĹ¥": 8382,
      "ç¡®ä¿¡": 8383,
      "æĸ¹éĿ¢åıĸå¾ĹäºĨ": 8384,
      "ä»¥åıĬåħ³äºİ": 8385,
      "æ²¡æľīå¾ĹåĪ°": 8386,
      "æĺĵåıĹ": 8387,
      "åĵ¥åĵ¥": 8388,
      "åľ°æĸ¹å½ĵå±Ģ": 8389,
      "æĪ¿åľ°": 8390,
      "æ³ķåºŃçļĦ": 8391,
      "åľ£è¯ŀ": 8392,
      "äºĨä¸Ģç³»åĪĹ": 8393,
      "åĲīå°ĶåĲīæĸ¯æĸ¯åĿ¦": 8394,
      "çļĦçŃĶå¤į": 8395,
      "æĿ±": 8396,
      "æĪĸåħ¶": 8397,
      "æľ¬çĿĢ": 8398,
      "è¡Įä¸ºè´Łè´£": 8399,
      "çĵ¶": 8400,
      "æĪ¿å±ĭ": 8401,
      "è¿ľè¿ľ": 8402,
      "çĸ¯çĭĤ": 8403,
      "å¥´éļ¶": 8404,
      "çŁĽçĽ¾": 8405,
      "æĪĳä¸Ģ": 8406,
      "æĪĳåı¯": 8407,
      "æĪĳè¯·": 8408,
      "è¡ĮäºĨ": 8409,
      "æ³ķæĸĩ": 8410,
      "åħ³æĬ¼": 8411,
      "æĦļ": 8412,
      "åĬłèĵ¬": 8413,
      "è¾Ī": 8414,
      "æ±ŀ": 8415,
      "æī§è¡Įç§ĺä¹¦": 8416,
      "æĽ´æľī": 8417,
      "è£ı": 8418,
      "èĤ¥": 8419,
      "å¸¸ä»»": 8420,
      "æī¾åĩº": 8421,
      "æĬµæĬĹ": 8422,
      "çļĦå¿ħè¦ģæĢ§": 8423,
      "çĽĳå¯Łåĳĺ": 8424,
      "Ġç»§ç»Ń": 8425,
      "ç¡Ĥ": 8426,
      "è¯·åħģè®¸": 8427,
      "é©¬åħĭ": 8428,
      "çģ°": 8429,
      "èĥ½åĬĽçļĦ": 8430,
      "ç´¢æīĺ": 8431,
      "åħ³ç³»çļĦ": 8432,
      "è¿Ľç¨ĭä¸Ń": 8433,
      "æıĲé«ĺè®¤è¯Ĩ": 8434,
      "åĪĨæŀĲåĴĮ": 8435,
      "æĪĳè¿ĺè¦ģ": 8436,
      "èµłæ¬¾": 8437,
      "ä¸įäººéģĵæĪĸæľīè¾±äººæł¼çļĦå¾ħéģĩ": 8438,
      "eed": 8439,
      "Î¤": 8440,
      "åıł": 8441,
      "æĪĳæĦŁè°¢": 8442,
      "è¯¥æŃ»": 8443,
      "ä»»çĶ¨": 8444,
      "åīįè¿Ľ": 8445,
      "éĩĳå±ŀ": 8446,
      "æİªè¾ŀ": 8447,
      "å®ĮäºĨ": 8448,
      "å®ĮåĸĦ": 8449,
      "åĲ¦åĨ³": 8450,
      "æ¨Ĥ": 8451,
      "æł¸æŃ¦åĻ¨åĽ½å®¶": 8452,
      "ach": 8453,
      "ĠéĢļè¿ĩè®®ç¨ĭ": 8454,
      "èĩŃæ°§": 8455,
      "çī¹ç«ĭå°¼è¾¾åĴĮå¤ļå·´åĵ¥": 8456,
      "æĿĥéĻĲ": 8457,
      "åĪĨå¸ĥ": 8458,
      "èģĶåĲĪåĽ½åĴĮ": 8459,
      "éĢīæ°ĳ": 8460,
      "æľīæķĪæī§è¡Į": 8461,
      "160": 8462,
      "éĿ¢ä¸´çĿĢ": 8463,
      "ç¬¬åħŃåįģäºĮå±Ĭä¼ļè®®": 8464,
      "æ®ĸæ°ĳåľ°": 8465,
      "Ġabout": 8466,
      "119": 8467,
      "Ġèĥ½": 8468,
      "Ġor": 8469,
      "çļĦéĻĲåĪ¶": 8470,
      "å¹«": 8471,
      "éĻĢ": 8472,
      "ä»ĸä¸į": 8473,
      "å¯¹æĪĳä»¬": 8474,
      "éķ¿æĹ¶éĹ´": 8475,
      "è¿Ľè¡Įè°ĥæŁ¥": 8476,
      "åĨ³å®ļå°Ĩ": 8477,
      "åıĺåĬ¨": 8478,
      "ä¿®å»º": 8479,
      "æ¡Īä»¶ä¸Ń": 8480,
      "å¾ģæ±Ĥ": 8481,
      "æ¸ħæ¥ļåľ°": 8482,
      "èį£å¹¸": 8483,
      "sh": 8484,
      "ä¸ŃåŃ¦": 8485,
      "åħ¨ç³»ç»Ł": 8486,
      "æ¡Īä¸Ń": 8487,
      "106": 8488,
      "å»ºç«ĭçļĦ": 8489,
      "è¿Ļæĺ¯ä»Ģä¹Ī": 8490,
      "åŁ¹è®Ńæĸ¹æ¡Ī": 8491,
      "Ġpro": 8492,
      "èĪ¹èĪ": 8493,
      "äººæĿĥäºĭåĬ¡å§Ķåĳĺä¼ļ": 8494,
      "è´¯å½»": 8495,
      "cc": 8496,
      "Ġe": 8497,
      "åľ¨ä¸Ģ": 8498,
      "ä¸įæ³ķ": 8499,
      "ç½°": 8500,
      "ç®¡çĲĨäººåĳĺ": 8501,
      "æĶ¾ä¸ĭ": 8502,
      "ä»£è¡¨åĽ¢è®¤ä¸º": 8503,
      "ä»ĺè¯¸": 8504,
      "åĳ¼åĲ¸": 8505,
      "ä»İæĿ¥æ²¡æľī": 8506,
      "éĿŀåħ¬å¼Ģä¼ļè®®": 8507,
      "åľ¨ä»»ä½ķ": 8508,
      "éĩįç»Ħ": 8509,
      "åĲĮæ¬¡ä¼ļè®®ä¸Ĭ": 8510,
      "æĸ°åħ´": 8511,
      "æĹłåħ³": 8512,
      "æ²»å®ī": 8513,
      "æľªåĨ³": 8514,
      "èĢģå©Ĩ": 8515,
      "ä¼¯çī¹": 8516,
      "åĶĲ": 8517,
      "æĭŁè®®æĸ¹æ¡Īé¢Ħç®Ĺ": 8518,
      "å¤ļæł·åĮĸ": 8519,
      "æ¤įçī©": 8520,
      "Sub": 8521,
      "ÙĦ": 8522,
      "ç¸": 8523,
      "Ġ14": 8524,
      "Ġä¹Łè®¸": 8525,
      "çļĦçĬ¶åĨµ": 8526,
      "çļĦå±ĢåĬ¿": 8527,
      "çļĦæļ´åĬĽè¡Įä¸º": 8528,
      "ä»¿": 8529,
      "åľ¨ä¸ĢäºĽ": 8530,
      "åĲĦæľºæŀĦ": 8531,
      "å¾Ĺè§Ĵ": 8532,
      "åĪĨè£Ĥ": 8533,
      "æ°ĳèŃ¦": 8534,
      "å·´é©¬": 8535,
      "çľĭåĪ°äºĨ": 8536,
      "å¤©çĦ¶": 8537,
      "ä¸ľçĽŁ": 8538,
      "å®ĥä»¬åľ¨": 8539,
      "æĹ©å°±": 8540,
      "ä¸¤å¹´æľŁæĸ¹æ¡Īé¢Ħç®Ĺ": 8541,
      "ä¸Ģå®ļä¼ļ": 8542,
      "ĠEn": 8543,
      "ä½Ľå¾Ĺè§Ĵ": 8544,
      "äºļå¤ªç»ıç¤¾ä¼ļ": 8545,
      "å°¸ä½ĵ": 8546,
      "uk": 8547,
      "æ³¡": 8548,
      "éĿ¢ç§¯": 8549,
      "éĩĮçº¦": 8550,
      "ä¸ĸçķĮåį«çĶŁç»Ħç»ĩ": 8551,
      "æĬĢæľ¯çļĦ": 8552,
      "æĤĶ": 8553,
      "çĮª": 8554,
      "é¢Ħéĺ²åĨ²çªģ": 8555,
      "å·¥ä¸ļåıĳå±ķ": 8556,
      "åįģåĪĨéĩįè¦ģ": 8557,
      "][": 8558,
      "è®®éĻ¢": 8559,
      "çĶŁè®¡": 8560,
      "åĽ½å®¶åĴĮåĽ½éĻħ": 8561,
      "å¹¶è¦ģæ±Ĥ": 8562,
      "ä¹Łä¸įä¼ļ": 8563,
      "reat": 8564,
      "åıĹå®³èĢħçļĦ": 8565,
      "éĩįçĤ¹æĶ¾åľ¨": 8566,
      "å½Ĵè¿ĺ": 8567,
      "çİĽä¸½": 8568,
      "In": 8569,
      "ä¸ºä¿ĥè¿Ľ": 8570,
      "éĹ®ä½ł": 8571,
      "æ¡ĪåŃĲ": 8572,
      "æ°ĳçĶ¨": 8573,
      "ä¸ªäººåĴĮ": 8574,
      "ost": 8575,
      "æĹ¢çĦ¶": 8576,
      "æļ´åĬĽä¾µå®³å¦ĩå¥³": 8577,
      "ĠæĮī": 8578,
      "çļĦæĶ¹éĿ©": 8579,
      "äººäºĭ": 8580,
      "äºĨä¸Ģä»½": 8581,
      "è¿Ļä½į": 8582,
      "æ³ķå¤ĸ": 8583,
      "æĢ§æĦıè§ģ": 8584,
      "ä½¿åĳ½": 8585,
      "ä»¥åıĬèģĶåĲĪåĽ½": 8586,
      "å·´åĵĪé©¬": 8587,
      "é¦¬": 8588,
      "å¦ĤæŀľæĪĳ": 8589,
      "ç¦»èģĮ": 8590,
      "è¡¨ç¤ºæĶ¯æĮģ": 8591,
      "ret": 8592,
      "omp": 8593,
      "çŃĶåºĶ": 8594,
      "act": 8595,
      "çŁŃç¼º": 8596,
      "ç»Ħç»ĩåĴĮéĿŀæĶ¿åºľç»Ħç»ĩ": 8597,
      "Ġæľīåħ³": 8598,
      "äºĨåľ¨": 8599,
      "ç§Ģ": 8600,
      "çĶ¨æ°´": 8601,
      "è¿ĩåĪĨ": 8602,
      "åħ¬éĩĮ": 8603,
      "å¼Ģéĩĩ": 8604,
      "ä¹ŁåºĶ": 8605,
      "å°Ķå¾·": 8606,
      "ĠæĪĳåľ¨": 8607,
      "è°Īè®º": 8608,
      "åĲĮæĹ¶èĢĥèĻĳåĪ°": 8609,
      "æīĺåħĭåĬ³": 8610,
      "æĿĳåºĦ": 8611,
      "ä½łæĥ³è¦ģ": 8612,
      "ç¼©å°ı": 8613,
      "äºĮåįģä¸Ģ": 8614,
      "CEDAW": 8615,
      "çļĦéĥ¨åĪĨ": 8616,
      "äº¨": 8617,
      "åĴĮåįłé¢Ĩ": 8618,
      "åĩĮ": 8619,
      "é¢Ĺ": 8620,
      "å®ĥå°Ĩ": 8621,
      "ä»ĸä»¬ä¼ļ": 8622,
      "104": 8623,
      "å¡ĳ": 8624,
      "æĢİä¹Īåģļ": 8625,
      "åģ¥åħ¨": 8626,
      "1973": 8627,
      "å°ĸ": 8628,
      "åŃ¸": 8629,
      "æľĪåºķ": 8630,
      "å¾Ĺå¾Ī": 8631,
      "éĢļè´§": 8632,
      "108": 8633,
      "æ´»åĬ¨ä¸Ń": 8634,
      "åĮºåŁŁåĲĪä½ľ": 8635,
      "è®°å½ķè¡¨åĨ³": 8636,
      "æĹħæ¸¸ä¸ļ": 8637,
      "è½¬åŀĭæľŁ": 8638,
      "åľŁåºĵæĽ¼æĸ¯åĿ¦": 8639,
      "ail": 8640,
      "ĠåĮħæĭ¬": 8641,
      "ä¸ŃåĽ½çļĦ": 8642,
      "åĲĦç±»": 8643,
      "å¤ªå¤ļ": 8644,
      "æĴ°": 8645,
      "è´¢æĶ¿æľŁéĹ´": 8646,
      "å¢ŀéķ¿çİĩ": 8647,
      "1987": 8648,
      "ç«ŀèµĽ": 8649,
      "ä¸ĸçºªè®®ç¨ĭ": 8650,
      "îĹ¦": 8651,
      "å§ĳå¨ĺ": 8652,
      "Ġå®¡æŁ¥": 8653,
      "åĽ½åĬ¡": 8654,
      "å¤§äºº": 8655,
      "è¿ĺæĮĩåĩº": 8656,
      "çĲĨäºĭåĽ½": 8657,
      "åĮºåŁŁä¸Ńå¿ĥ": 8658,
      "æĭħå¿§": 8659,
      "èİ·å¾ĹäºĨ": 8660,
      "ä¸ŃçļĦä½ľçĶ¨": 8661,
      "å¥¥æĸ¯": 8662,
      "å¦ĩå¥³åĴĮå¥³ç«¥": 8663,
      "çĶŁæ®ĸåģ¥åº·": 8664,
      "AT": 8665,
      "BI": 8666,
      "åĬ²": 8667,
      "ä½łå¾Ī": 8668,
      "åĲįæĪĲåĳĺ": 8669,
      "å±Ĭå¸¸ä¼ļ": 8670,
      "arr": 8671,
      "ens": 8672,
      "æĬķè¯ī": 8673,
      "Ġso": 8674,
      "éĢĤçĶ¨çļĦ": 8675,
      "å´©": 8676,
      "Ġç§ĺä¹¦å¤Ħ": 8677,
      "Ġåĥı": 8678,
      "çļĦè°ĪåĪ¤": 8679,
      "ä¸įåºĶè¯¥": 8680,
      "æŀļ": 8681,
      "åĪĨåī²": 8682,
      "ç¾Ĭ": 8683,
      "ä»£è¡¨æ¬§æ´²èģĶçĽŁ": 8684,
      "101": 8685,
      "Ġä½łè¦ģ": 8686,
      "å¾ĹåĪ°çļĦ": 8687,
      "è§ĦåĪĴåĴĮ": 8688,
      "1982": 8689,
      "çŃ¾ç½²çļĦ": 8690,
      "çļĦä¸»é¢ĺ": 8691,
      "çº¦æĿŁåĬĽçļĦ": 8692,
      "éº»éĨīèį¯åĵģ": 8693,
      "ny": 8694,
      "Ġå°ıç»Ħ": 8695,
      "ĠçľŁçļĦ": 8696,
      "æľīæĭħä¿Ŀ": 8697,
      "å¯º": 8698,
      "æ³ķçļĦ": 8699,
      "ç»ĦåĲĪ": 8700,
      "åºĶå°Ĩ": 8701,
      "å°Ķæĳ©": 8702,
      "çĬ¯æľī": 8703,
      "æĢ§åĪ«å¹³çŃī": 8704,
      "æĻļå®ī": 8705,
      "Ġæĥ³": 8706,
      "Ġè¿ĺæĺ¯": 8707,
      "ä¸ĳ": 8708,
      "ä¸Ģè´¯": 8709,
      "ä½łåĸľæ¬¢": 8710,
      "ä»ĸäºº": 8711,
      "åĽ½å®¶äººæĿĥ": 8712,
      "å¹¶æĶ¯æĮģ": 8713,
      "å¾Īä¹ħ": 8714,
      "æŀĹä¸ļ": 8715,
      "é«ĺçŃīæķĻèĤ²": 8716,
      "ean": 8717,
      "çļĦç²¾ç¥ŀ": 8718,
      "ä¸įäºĪ": 8719,
      "æ³ķè¯Ń": 8720,
      "åıĳåĩºçļĦ": 8721,
      "æīĢéĩĩåıĸçļĦ": 8722,
      "å¹¶åĳ¼åĲģ": 8723,
      "ç¥·": 8724,
      "ä½İæĶ¶åħ¥": 8725,
      "çŃ¾è¯ģ": 8726,
      "è´Ńç½®": 8727,
      "æĿ¡ä¾ĭåĴĮ": 8728,
      "çİ»åĪ©çĵ¦å°Ķ": 8729,
      "å½¼å¾Ĺ": 8730,
      "éļĶç¦»å¢Ļ": 8731,
      "ood": 8732,
      "ĠæĶ¿åºľ": 8733,
      "Ġ17": 8734,
      "çļĦç¨ĭåº¦": 8735,
      "æĪĳå¿ħé¡»": 8736,
      "æĹ¥çĶŁæķĪ": 8737,
      "è¯¥éĥ¨": 8738,
      "ä¹Łä¸įèĥ½": 8739,
      "åħ±è®¡": 8740,
      "è®¡åĪĴåĴĮ": 8741,
      "ç±»çļĦ": 8742,
      "åĪ©çĽĬæľīåħ³": 8743,
      "æ¢¯": 8744,
      "ä¹ĭä¸Ģæĺ¯": 8745,
      "Ġè¦ģæ±Ĥ": 8746,
      "äºĨæĪĳçļĦ": 8747,
      "åħ¶æ¬¡": 8748,
      "çĶ¨å°½": 8749,
      "ä¼ļè®®æľŁéĹ´": 8750,
      "åħ¬èģĮ": 8751,
      "åĪ¶åĵģ": 8752,
      "èģĶåĲĪåĽ½ç§ĺä¹¦éķ¿": 8753,
      "èĢĮè¢«": 8754,
      "å¼ĢåĬŀ": 8755,
      "éĢļè¿ĩä¸Ģé¡¹": 8756,
      "è¿Ļæł·ä¸Ģä¸ª": 8757,
      "èĢģå¸Ī": 8758,
      "åĤ²": 8759,
      "åĩĨå¤ĩå¥½äºĨ": 8760,
      "èĥľåĪ©": 8761,
      "åĢŁæŃ¤æľºä¼ļ": 8762,
      "åĨįçĶŁèĥ½æºĲ": 8763,
      ")/": 8764,
      "ver": 8765,
      "Ġ20": 8766,
      "å°¿": 8767,
      "è¿Ļä»¶äºĭ": 8768,
      "ä»¥æıĲé«ĺ": 8769,
      "åľ°ä¸Ń": 8770,
      "ç»Ħç»ĩåľ¨": 8771,
      "æŃ¤äºĭ": 8772,
      "ä¿¡çĶ¨": 8773,
      "åĨ³è®®ä¸Ń": 8774,
      "ä¸¤çº§": 8775,
      "ä¸ĸçķĮçļĦ": 8776,
      "Ġä½łå¥½": 8777,
      "èĥ¸": 8778,
      "å¹²çļĦ": 8779,
      "æĸĩä»¶ä¸Ń": 8780,
      "éĥ¨éĹ¨åĴĮ": 8781,
      "æħ¨": 8782,
      "åĳĬè¯īä»ĸ": 8783,
      "åĮĹçº¦": 8784,
      "çļĦæĿĥåĪ©åĴĮ": 8785,
      "çľŁä¸»æĺ¯": 8786,
      "ç¼ĸåĨĻçļĦ": 8787,
      "own": 8788,
      "çļĦçĬ¯ç½ª": 8789,
      "çļĦåıĺåĮĸ": 8790,
      "çļĦä»·åĢ¼": 8791,
      "è¡ĮåĬ¨æĸ¹æ¡Ī": 8792,
      "æī§è¡Įéĥ¨åĪĨç¬¬": 8793,
      "ç»ĵæł¸": 8794,
      "æıĲåĩºçļĦéĹ®é¢ĺ": 8795,
      "éħ¸": 8796,
      "éĴ¥": 8797,
      "æŁ¯": 8798,
      "ĠAb": 8799,
      "Ġæĺ¯åķĬ": 8800,
      "éĺµçº¿": 8801,
      "æ¸ħæ´ģåıĳå±ķ": 8802,
      "01": 8803,
      "ºçī²": 8804,
      "Ġqu": 8805,
      "çļĦéĤ£äºĽ": 8806,
      "çļĦæķ°éĩı": 8807,
      "çīºçī²": 8808,
      "å¤§äºĨ": 8809,
      "ãĢĭ)": 8810,
      "åĽ½éĻħéĩĳèŀį": 8811,
      "æľ¬æĿ¡": 8812,
      "ä¹Łæ²¡": 8813,
      "å¾Īå¥½çļĦ": 8814,
      "åħĭå°Ķ": 8815,
      "æīĢæľīåħ¶ä»ĸ": 8816,
      "èĪĩ": 8817,
      "111": 8818,
      "éĴ©": 8819,
      "ä¸ľåįĹäºļ": 8820,
      "äººéģĵä¸»ä¹īäºĭåĬ¡": 8821,
      "æ¬£è§ģ": 8822,
      "çļĦçī¹åĪ«": 8823,
      "æĪĳæīį": 8824,
      "ç½¢": 8825,
      "æĹłçĸĳ": 8826,
      "è¯ģåĪ¸": 8827,
      "æł¸èĥ½": 8828,
      "é¼ł": 8829,
      "Ġhim": 8830,
      "æįķæįŀ": 8831,
      "é»ĺå¾·": 8832,
      "èĪ¹èĪ¶": 8833,
      "XV": 8834,
      "sp": 8835,
      "ä¸įå¿ħ": 8836,
      "èģĶåĲĪåĽ½æīĵåĩ»è·¨åĽ½æľīç»Ħç»ĩçĬ¯ç½ªåħ¬çº¦": 8837,
      "è½°": 8838,
      "ous": 8839,
      "çŃ¹éĽĨ": 8840,
      "å¤±ä¸ļçİĩ": 8841,
      "éĻĦåĬłè®®å®ļä¹¦": 8842,
      "çļĦæĶ¯åĬ©": 8843,
      "æĪĳçĪ±ä½ł": 8844,
      "ä»ĸå¯¹": 8845,
      "å§Ķåĳĺä¼ļç¬¬åįģ": 8846,
      "å·¥ä½ľåĴĮ": 8847,
      "102": 8848,
      "ä¸ĸçķĮç»ıæµİ": 8849,
      "çªĥ": 8850,
      "çļĦä¸Ģä»½": 8851,
      "èĮ¶": 8852,
      "è´Łè´£äºº": 8853,
      "çĤºä»Ģéº¼": 8854,
      "åĤ¨èĵĦ": 8855,
      "å¾Īå¤§ç¨ĭåº¦ä¸Ĭ": 8856,
      "åŃ£åº¦": 8857,
      "æĥĳ": 8858,
      "åĬ¨æĢģ": 8859,
      "æĸĩç«ł": 8860,
      "å¤ĸåĢº": 8861,
      "åıĹåĪ°äºĨ": 8862,
      "åģļå¥½": 8863,
      "è°ĥæŁ¥ç»ĵæŀľ": 8864,
      "è®¸å¤ļäºº": 8865,
      "èĩªçĶ±åĴĮ": 8866,
      "ç©·åĽ½": 8867,
      "æĩĪ": 8868,
      "æĪĪåħ°": 8869,
      "ĠéĻ¤äºĨ": 8870,
      "äºķ": 8871,
      "ä¼ļæľŁ": 8872,
      "ç»Ħå»º": 8873,
      "åĽ½å®¶æĸ¹æ¡Ī": 8874,
      "åĪĨèĩ³": 8875,
      "åŃĲéĩĮ": 8876,
      "æ·±åĪ»": 8877,
      "Ġno": 8878,
      "îĻĴ": 8879,
      "çģµæ´»æĢ§": 8880,
      "*ãĢģ": 8881,
      "Ġä¸Ń": 8882,
      "Ġæ¬¡": 8883,
      "Ġå¥½åĲĹ": 8884,
      "çļĦå®¡æŁ¥": 8885,
      "æľĢéĩįè¦ģçļĦ": 8886,
      "é©¶": 8887,
      "æĢ»åĬ¡": 8888,
      "å¤įèĭı": 8889,
      "åįıè°ĥåİħ": 8890,
      "æ³¢å¤ļ": 8891,
      "æĪĲåĬŁçļĦ": 8892,
      "éĢļè¿ĩçļĦåĨ³è®®": 8893,
      "æķ¬çķı": 8894,
      "çº¦æĿŁåĬĽ": 8895,
      "ä¸įåĪ©å½±åĵį": 8896,
      "æļĤè¡Įè®®äºĭè§ĦåĪĻç¬¬": 8897,
      "ĠéĢīä¸¾": 8898,
      "çļĦæı´åĬ©": 8899,
      "æĪĳä»¥ä¸º": 8900,
      "å¯¹åĲ§": 8901,
      "çĶ¨äºĨ": 8902,
      "æĪĳä»¬å¾Ĺ": 8903,
      "ä¸Ģä¸ªåĽ½å®¶": 8904,
      "å¿ħä¸įåı¯": 8905,
      "åĲĳå®īçĲĨä¼ļ": 8906,
      "è¥¿æĴĴåĵĪæĭī": 8907,
      "orm": 8908,
      "åĪ¤æĸŃ": 8909,
      "èĢĮä¸Ķè¿ĺ": 8910,
      "å®¶åºŃæĪĲåĳĺ": 8911,
      "è©¹": 8912,
      "ç½ķé»ĺå¾·": 8913,
      "çļĦæľįåĬ¡": 8914,
      "çļĦåıĹå®³èĢħ": 8915,
      "æī®": 8916,
      "å±İ": 8917,
      "åĪ©æ¶¦": 8918,
      "åĪĨç¦»": 8919,
      "å°Ĩä¸İ": 8920,
      "è¯´è¿ĩ": 8921,
      "æĮĩä»¤": 8922,
      "çŃīæĸ¹éĿ¢": 8923,
      "éĩĩåıĸæŃ¥éª¤": 8924,
      "æł¸è¯ķéªĮ": 8925,
      "æĶ¶å®¹": 8926,
      "æĬĢæľ¯è½¬è®©": 8927,
      "å¡ŀæĹı": 8928,
      "èº«è¾¹": 8929,
      "å½¢è±¡": 8930,
      "åĴĮåħ¶ä»ĸæ®ĭå¿į": 8931,
      "çĮİ": 8932,
      "çŃ¾åıĳ": 8933,
      "ä¼Ĭæĸ¯åħ°æķĻ": 8934,
      "èİ±ç´¢æīĺ": 8935,
      "å¹¸è¿Ĳ": 8936,
      "ç¼ĵæħ¢": 8937,
      "è´©åįĸäººåı£": 8938,
      "ä¼¯åĪ©åħ¹": 8939,
      "AèĬĤ": 8940,
      "ĠØ": 8941,
      "ĠæĬ¥åĳĬ": 8942,
      "æľīå¾Īå¤ļ": 8943,
      "ä¸ºåľ¨": 8944,
      "ä»ĸè¦ģ": 8945,
      "è¦ģçĤ¹": 8946,
      "æĮĸ": 8947,
      "éģĵå°Ķ": 8948,
      "åıĹæķĻèĤ²": 8949,
      "å·´åĭĴæĸ¯åĿ¦æĿĥåĬĽæľºæŀĦ": 8950,
      "å«ģ": 8951,
      "èĪªå¤©": 8952,
      "å®ŀéªĮå®¤": 8953,
      "ä»¥è¥¿çıŃçīĻ": 8954,
      "æłı": 8955,
      "1949": 8956,
      "ç»Ńä¼ļ": 8957,
      "çĿĢæĪĳ": 8958,
      "çļĦä¸Ģæ¬¡": 8959,
      "è®¨è®ºçļĦ": 8960,
      "çıĬ": 8961,
      "oll": 8962,
      "ä¸įå¥½æĦıæĢĿ": 8963,
      "çļĦç»¼åĲĪ": 8964,
      "çļĦè¯ģæį®": 8965,
      "åĴĮæĽ´": 8966,
      "ä¼ļåľ¨": 8967,
      "ä¸Ģä»¶": 8968,
      "åĪ©æģ¯": 8969,
      "å°Ĩä½¿": 8970,
      "å¼Ģè½¦": 8971,
      "æĶ¿åºľå¯¹": 8972,
      "æł¹éĻ¤": 8973,
      "æīĢæľīæĿĥ": 8974,
      "çľŁçĲĨ": 8975,
      "ç²Ĺ": 8976,
      "ä¾ĿåŃĺ": 8977,
      "æŃ£åľ¨è¿Ľè¡Į": 8978,
      "è¯ķè¯ķ": 8979,
      "ç¬¬åįģä¸Ģ": 8980,
      "Ġthere": 8981,
      "ĠLaw": 8982,
      "æī¿æĭħçļĦä¹īåĬ¡": 8983,
      "èī°éļ¾": 8984,
      "åľĨæ¡Įä¼ļè®®": 8985,
      "æĪĳä»İ": 8986,
      "è¿Ļè¾¹": 8987,
      "ä»ĸå°±": 8988,
      "èĢĲ": 8989,
      "ä¼ļè®®ç¨ĭ": 8990,
      "å½ĵä»£": 8991,
      "åı·çłģ": 8992,
      "åĽ¢ä¼Ļ": 8993,
      "éĩĩçº³": 8994,
      "æ¸´": 8995,
      "æľ¯è¯Ń": 8996,
      "åįķåħĥ": 8997,
      "äºĭåĬ¡åĴĮ": 8998,
      "ç¬¬ä¸Ģå§Ķåĳĺä¼ļ": 8999,
      "æĺ¯åĲ¦åı¯ä»¥": 9000,
      "æħķ": 9001,
      "çĭ¬ç«ĭæĢ§": 9002,
      "1986": 9003,
      "æĬĹè®®": 9004,
      "è¾ħåĬ©": 9005,
      "iy": 9006,
      "Ġen": 9007,
      "å®ħ": 9008,
      "å¾¡": 9009,
      "ä½łèªª": 9010,
      "èģĶé»İ": 9011,
      "æī§è¡Įå§Ķåĳĺä¼ļ": 9012,
      "æł·çļĦ": 9013,
      "è£¤": 9014,
      "èĢĥè¯ķ": 9015,
      "åĲĦåĽ½åľ¨": 9016,
      "ä¸»è¦ģçļĦ": 9017,
      "èµ¢å¾Ĺ": 9018,
      "å±ģèĤ¡": 9019,
      "éĴ¥åĮĻ": 9020,
      "çļĦæ¯Ķä¾ĭ": 9021,
      "æĺ¯è¦ģ": 9022,
      "æķ²": 9023,
      "çī¹åĪ«ç¨ĭåºı": 9024,
      "103": 9025,
      "æīĵçł´": 9026,
      "æł¼åħ°": 9027,
      "ä½¿çĶ¨æŃ¦åĬĽ": 9028,
      "åħ¨ä½ĵä¼ļè®®ä¸Ĭ": 9029,
      "æĴ¤ç¦»": 9030,
      "Ġone": 9031,
      "è¬Ŀè¬Ŀ": 9032,
      "UNEP": 9033,
      "å¿ħä¸įåı¯å°ĳ": 9034,
      "æľīä¸ĢäºĽ": 9035,
      "ä¸įä¸¹": 9036,
      "ä¸ŃæŃ¢": 9037,
      "åĩºèī²": 9038,
      "åĽ½å®¶æľºæŀĦ": 9039,
      "ç»ıæµİåħ±åĲĮä½ĵ": 9040,
      "ç§ĳæĳ©": 9041,
      "å¦Ĥæŀľæ²¡æľī": 9042,
      "åıĤä¸İäºĨ": 9043,
      "Ġwill": 9044,
      "èĬĤçľģ": 9045,
      "åįıåĬ©ä¸ĭ": 9046,
      "éĢĻè£¡": 9047,
      "ãĢĭ(ãĢĬ": 9048,
      "åıįæĺłåĩº": 9049,
      "æĪĲç«ĭäºĨ": 9050,
      "å¯»æ±ĤåºĩæĬ¤": 9051,
      "æ¯ķä¸ļ": 9052,
      "æµ·æ´ĭæ³ķåħ¬çº¦": 9053,
[...]
