{
  "version": "1.0",
  "truncation": null,
  "padding": null,
  "added_tokens": [
    {
      "id": 0,
      "content": "<|endoftext|>",
      "single_word": false,
      "lstrip": false,
      "rstrip": false,
      "normalized": false,
      "special": true
    },
    {
      "id": 1,
      "content": "<|padding|>",
      "single_word": false,
      "lstrip": false,
      "rstrip": false,
      "normalized": false,
      "special": true
    }
  ],
  "normalizer": {
    "type": "NFKC"
  },
  "pre_tokenizer": {
    "type": "ByteLevel",
    "add_prefix_space": true,
    "trim_offsets": true,
    "use_regex": true
  },
  "post_processor": {
    "type": "ByteLevel",
    "add_prefix_space": true,
    "trim_offsets": true,
    "use_regex": true
  },
  "decoder": {
    "type": "ByteLevel",
    "add_prefix_space": true,
    "trim_offsets": true,
    "use_regex": true
  },
  "model": {
    "type": "BPE",
    "dropout": null,
    "unk_token": null,
    "continuing_subword_prefix": null,
    "end_of_word_suffix": null,
    "fuse_unk": false,
    "byte_fallback": false,
    "ignore_merges": false,
    "vocab": {
      "<|endoftext|>": 0,
      "<|padding|>": 1,
      "!": 2,
      "\"": 3,
      "#": 4,
      "$": 5,
      "%": 6,
      "&": 7,
      "'": 8,
      "(": 9,
      ")": 10,
      "*": 11,
      "+": 12,
      ",": 13,
      "-": 14,
      ".": 15,
      "/": 16,
      "0": 17,
      "1": 18,
      "2": 19,
      "3": 20,
      "4": 21,
      "5": 22,
      "6": 23,
      "7": 24,
      "8": 25,
      "9": 26,
      ":": 27,
      ";": 28,
      "<": 29,
      "=": 30,
      ">": 31,
      "?": 32,
      "@": 33,
      "A": 34,
      "B": 35,
      "C": 36,
      "D": 37,
      "E": 38,
      "F": 39,
      "G": 40,
      "H": 41,
      "I": 42,
      "J": 43,
      "K": 44,
      "L": 45,
      "M": 46,
      "N": 47,
      "O": 48,
      "P": 49,
      "Q": 50,
      "R": 51,
      "S": 52,
      "T": 53,
      "U": 54,
      "V": 55,
      "W": 56,
      "X": 57,
      "Y": 58,
      "Z": 59,
      "[": 60,
      "\\": 61,
      "]": 62,
      "^": 63,
      "_": 64,
      "`": 65,
      "a": 66,
      "b": 67,
      "c": 68,
      "d": 69,
      "e": 70,
      "f": 71,
      "g": 72,
      "h": 73,
      "i": 74,
      "j": 75,
      "k": 76,
      "l": 77,
      "m": 78,
      "n": 79,
      "o": 80,
      "p": 81,
      "q": 82,
      "r": 83,
      "s": 84,
      "t": 85,
      "u": 86,
      "v": 87,
      "w": 88,
      "x": 89,
      "y": 90,
      "z": 91,
      "{": 92,
      "}": 93,
      "~": 94,
      "¡": 95,
      "¢": 96,
      "£": 97,
      "¤": 98,
      "¥": 99,
      "¦": 100,
      "§": 101,
      "¨": 102,
      "©": 103,
      "ª": 104,
      "«": 105,
      "¬": 106,
      "®": 107,
      "¯": 108,
      "°": 109,
      "±": 110,
      "²": 111,
      "³": 112,
      "´": 113,
      "µ": 114,
      "¶": 115,
      "·": 116,
      "¸": 117,
      "¹": 118,
      "º": 119,
      "»": 120,
      "¼": 121,
      "½": 122,
      "¾": 123,
      "¿": 124,
      "Â": 125,
      "Ã": 126,
      "Ä": 127,
      "Å": 128,
      "Æ": 129,
      "Ç": 130,
      "Ë": 131,
      "Ì": 132,
      "Î": 133,
      "Ï": 134,
      "Ð": 135,
      "Ñ": 136,
      "×": 137,
      "Ø": 138,
      "Ù": 139,
      "Ú": 140,
      "à": 141,
      "á": 142,
      "â": 143,
      "ã": 144,
      "ä": 145,
      "å": 146,
      "æ": 147,
      "ç": 148,
      "è": 149,
      "é": 150,
      "ï": 151,
      "Ġ": 152,
      "Ģ": 153,
      "ģ": 154,
      "Ĥ": 155,
      "ĥ": 156,
      "Ħ": 157,
      "ħ": 158,
      "Ĩ": 159,
      "ĩ": 160,
      "Ī": 161,
      "ī": 162,
      "Ĭ": 163,
      "ĭ": 164,
      "Į": 165,
      "į": 166,
      "İ": 167,
      "ı": 168,
      "Ĳ": 169,
      "ĳ": 170,
      "Ĵ": 171,
      "ĵ": 172,
      "Ķ": 173,
      "ķ": 174,
      "ĸ": 175,
      "Ĺ": 176,
      "ĺ": 177,
      "Ļ": 178,
      "ļ": 179,
      "Ľ": 180,
      "ľ": 181,
      "Ŀ": 182,
      "ŀ": 183,
      "Ł": 184,
      "ł": 185,
      "Ń": 186,
      "Ġt": 187,
      "he": 188,
      "Ġa": 189,
      "on": 190,
      "in": 191,
      "Ġthe": 192,
      "re": 193,
      "at": 194,
      "Ġo": 195,
      "en": 196,
      "er": 197,
      "ion": 198,
      "it": 199,
      "Ġof": 200,
      "nd": 201,
      "or": 202,
      "Ġs": 203,
      "es": 204,
      "Ġc": 205,
      "al": 206,
      "Ġp": 207,
      "ed": 208,
      "Ġw": 209,
      "Ġin": 210,
      "is": 211,
      "ou": 212,
      "an": 213,
      "Ġand": 214,
      "Ġto": 215,
      "ing": 216,
      "Ġf": 217,
      "ar": 218,
      "ent": 219,
      "Ġb": 220,
      "ation": 221,
      "ic": 222,
      "Ġm": 223,
      "Ġd": 224,
      "Ġre": 225,
      "om": 226,
      "ec": 227,
      "le": 228,
      "Ġth": 229,
      "ĠI": 230,
      "ro": 231,
      "ve": 232,
      "as": 233,
      "Ġh": 234,
      "ĠC": 235,
      "ĠS": 236,
      "il": 237,
      "ment": 238,
      "ĠT": 239,
      "Ġn": 240,
      "ĠA": 241,
      "st": 242,
      "Ġe": 243,
      "ce": 244,
      "Ġfor": 245,
      "ra": 246,
      "Ġon": 247,
      "ut": 248,
      "ri": 249,
      "Ġbe": 250,
      "ol": 251,
      "Ġg": 252,
      "Ġl": 253,
      "Ġthat": 254,
      "Ġcon": 255,
      "ly": 256,
      "id": 257,
      "im": 258,
      "ur": 259,
      "et": 260,
      "Ġy": 261,
      "ot": 262,
      "Ġpro": 263,
      "ct": 264,
      "Ġit": 265,
      "se": 266,
      "ter": 267,
      "ĠThe": 268,
      "op": 269,
      "gh": 270,
      "ver": 271,
      "Ġyou": 272,
      "ĠM": 273,
      "Ġ(": 274,
      "ort": 275,
      "ll": 276,
      "ĠP": 277,
      "Ġis": 278,
      "Ġas": 279,
      "ir": 280,
      "ith": 281,
      "ĠN": 282,
      "Ġu": 283,
      "ations": 284,
      "ect": 285,
      "ate": 286,
      "ow": 287,
      "ad": 288,
      "ul": 289,
      "omm": 290,
      "Ġwith": 291,
      "ĠW": 292,
      "res": 293,
      "00": 294,
      "ld": 295,
      "Ġst": 296,
      "Ġde": 297,
      "Ġ2": 298,
      "ity": 299,
      "ies": 300,
      "Ġsu": 301,
      "ĠU": 302,
      "ĠG": 303,
      "ĠR": 304,
      "ess": 305,
      "ĠD": 306,
      "Ġ1": 307,
      "port": 308,
      "her": 309,
      "'s": 310,
      "em": 311,
      "ay": 312,
      "ive": 313,
      "ff": 314,
      "Ġwe": 315,
      "Ġby": 316,
      "ab": 317,
      "Ġwh": 318,
      "oun": 319,
      "ĠH": 320,
      "ch": 321,
      "art": 322,
      "ial": 323,
      "ght": 324,
      "est": 325,
      "Ġan": 326,
      "um": 327,
      "Ġor": 328,
      "Ġres": 329,
      "oc": 330,
      "ational": 331,
      "ers": 332,
      "ist": 333,
      "ĠO": 334,
      "Ġex": 335,
      "end": 336,
      "ain": 337,
      "qu": 338,
      "Ġme": 339,
      "iv": 340,
      "if": 341,
      "ĠE": 342,
      "ĠB": 343,
      "Ġare": 344,
      "ions": 345,
      "am": 346,
      "ĠF": 347,
      "te": 348,
      "ill": 349,
      "ould": 350,
      "Ġ-": 351,
      "Ġhe": 352,
      "ak": 353,
      "vel": 354,
      "iz": 355,
      "Ġat": 356,
      "ud": 357,
      "Ġha": 358,
      "un": 359,
      "Ġnot": 360,
      "ant": 361,
      "ren": 362,
      "âĢ": 363,
      "ge": 364,
      "od": 365,
      "ĠIn": 366,
      "rom": 367,
      "..": 368,
      "ig": 369,
      "Ġim": 370,
      "ĠSt": 371,
      "ĠUn": 372,
      "Ġwas": 373,
      "ac": 374,
      "Ġ200": 375,
      "ited": 376,
      "ary": 377,
      "Ġv": 378,
      "pp": 379,
      "os": 380,
      "tern": 381,
      "Ġsh": 382,
      "th": 383,
      "and": 384,
      "us": 385,
      "Ġad": 386,
      "ance": 387,
      "Ġits": 388,
      "ust": 389,
      "ep": 390,
      "ĠComm": 391,
      "Ġpart": 392,
      "ie": 393,
      "ĠL": 394,
      "ount": 395,
      "ore": 396,
      "Ġne": 397,
      "our": 398,
      "ĠY": 399,
      "Ġle": 400,
      "velop": 401,
      "Ġhave": 402,
      "ĠUnited": 403,
      "ber": 404,
      "ther": 405,
      "ork": 406,
      "Ġal": 407,
      "Ġcom": 408,
      "Ġen": 409,
      "el": 410,
      "Ġinc": 411,
      "ure": 412,
      "rou": 413,
      "Ġthis": 414,
      "Ġcont": 415,
      "eral": 416,
      "Ġall": 417,
      "Ġag": 418,
      "Ġfrom": 419,
      "ated": 420,
      "ia": 421,
      "gra": 422,
      "over": 423,
      "all": 424,
      "ternational": 425,
      "cc": 426,
      "ates": 427,
      "ard": 428,
      "Ġk": 429,
      "ap": 430,
      "ĠNations": 431,
      "Ġimp": 432,
      "ip": 433,
      "lic": 434,
      "ĠCon": 435,
      "ments": 436,
      "Ġri": 437,
      "Ġch": 438,
      "red": 439,
      "orm": 440,
      "eneral": 441,
      "ich": 442,
      "iss": 443,
      "Ġreg": 444,
      "ities": 445,
      "Ġdevelop": 446,
      "ĠJ": 447,
      "Ġright": 448,
      "ru": 449,
      "'t": 450,
      "ice": 451,
      "ome": 452,
      "Ġact": 453,
      "ical": 454,
      "ution": 455,
      "Ġtheir": 456,
      "Ġwhich": 457,
      "ĠTh": 458,
      "Ġrec": 459,
      "Ġapp": 460,
      "ĠâĢ": 461,
      "ea": 462,
      "ord": 463,
      "Ġhas": 464,
      "ight": 465,
      "Ġprov": 466,
      "ult": 467,
      "vent": 468,
      "Ġcount": 469,
      "Ġj": 470,
      "ress": 471,
      "itte": 472,
      "form": 473,
      "able": 474,
      "ans": 475,
      "nder": 476,
      "ĠSec": 477,
      "Ġcomm": 478,
      "ĠIt": 479,
      "me": 480,
      "Ġwill": 481,
      "Ġdis": 482,
      "ub": 483,
      "ittee": 484,
      "overn": 485,
      "ĠAs": 486,
      "Ġdo": 487,
      "ry": 488,
      "Ġexp": 489,
      "uman": 490,
      "Ġreport": 491,
      "Ġsp": 492,
      "Ġcons": 493,
      "ib": 494,
      "ous": 495,
      "Ġco": 496,
      "Ġcomp": 497,
      "Ġab": 498,
      "lud": 499,
      "ĠCommittee": 500,
      "uc": 501,
      "Ġse": 502,
      "ĠStates": 503,
      "Ġwork": 504,
      "Ġgo": 505,
      "Ġper": 506,
      "ret": 507,
      "Ġinternational": 508,
      "Ġacc": 509,
      "min": 510,
      "lement": 511,
      "Ġar": 512,
      "Ġunder": 513,
      "Ġass": 514,
      "ĠWe": 515,
      "ĠYou": 516,
      "lo": 517,
      "ons": 518,
      "so": 519,
      "Ġout": 520,
      "gan": 521,
      "Ġbeen": 522,
      "ional": 523,
      "Ġeff": 524,
      "Ġother": 525,
      "...": 526,
      "ke": 527,
      "ide": 528,
      "ake": 529,
      "Ġpl": 530,
      "ces": 531,
      "ence": 532,
      "hen": 533,
      "Ġr": 534,
      "ission": 535,
      "Ġhad": 536,
      "cil": 537,
      "gram": 538,
      "pport": 539,
      "ries": 540,
      "ild": 541,
      "ganiz": 542,
      "out": 543,
      "Ġalso": 544,
      "Ġpre": 545,
      "Ġinclud": 546,
      "Ġwould": 547,
      "Ġ19": 548,
      "ĠWh": 549,
      "Ġshould": 550,
      "eration": 551,
      "ted": 552,
      "Ġresol": 553,
      "ĠCoun": 554,
      "ong": 555,
      "ĠHe": 556,
      "Ġsub": 557,
      "ue": 558,
      "age": 559,
      "ose": 560,
      "ative": 561,
      "erv": 562,
      "Ġman": 563,
      "resent": 564,
      "Ġwere": 565,
      "ĠCh": 566,
      "ĠCouncil": 567,
      "Ġcan": 568,
      "ign": 569,
      "og": 570,
      "aw": 571,
      "ast": 572,
      "Ġup": 573,
      "urity": 574,
      "reat": 575,
      "Ġpol": 576,
      "ear": 577,
      "ost": 578,
      "ember": 579,
      "Ġint": 580,
      "Ġun": 581,
      "ĠâĢľ": 582,
      "now": 583,
      "Ġ3": 584,
      "Ġpartic": 585,
      "Ġresp": 586,
      "ian": 587,
      "Ġthere": 588,
      "Ġfin": 589,
      "ublic": 590,
      "act": 591,
      "Ġdec": 592,
      "ire": 593,
      "mb": 594,
      "ĠK": 595,
      "ase": 596,
      "overnment": 597,
      "eren": 598,
      "ree": 599,
      "Ġrequ": 600,
      "oll": 601,
      "Ġsec": 602,
      "Ġcountries": 603,
      "ĠPro": 604,
      "Ġconc": 605,
      "ish": 606,
      "Ġhuman": 607,
      "omen": 608,
      "Ġtra": 609,
      "ric": 610,
      "âĢĿ": 611,
      "Ġind": 612,
      "Ġyour": 613,
      "one": 614,
      "Ġimplement": 615,
      "Ġdevelopment": 616,
      "ech": 617,
      "Ġmy": 618,
      "Ġknow": 619,
      "Ġneed": 620,
      "ph": 621,
      "Ġthey": 622,
      "anc": 623,
      "ecial": 624,
      "Ġrel": 625,
      "du": 626,
      "ject": 627,
      "ag": 628,
      "ction": 629,
      "ĠUN": 630,
      "onom": 631,
      "Ġso": 632,
      "ĠNo": 633,
      "pt": 634,
      "Ġrights": 635,
      "vention": 636,
      "Ġoff": 637,
      "rib": 638,
      "Ġinform": 639,
      "ific": 640,
      "eting": 641,
      "Ġsupport": 642,
      "ual": 643,
      "ty": 644,
      "Ġli": 645,
      "Ġresolution": 646,
      "),": 647,
      "Ġob": 648,
      "iew": 649,
      "ures": 650,
      "ok": 651,
      "ĠSecret": 652,
      "Ġproc": 653,
      "ident": 654,
      "ection": 655,
      "per": 656,
      "ors": 657,
      "Ġadd": 658,
      "ession": 659,
      "Ġprogram": 660,
      "ft": 661,
      "ack": 662,
      "Ġany": 663,
      "ara": 664,
      "Ġam": 665,
      "200": 666,
      "Ġthem": 667,
      "ular": 668,
      "roup": 669,
      "Ġtr": 670,
      "Ġone": 671,
      "ime": 672,
      "'m": 673,
      "ms": 674,
      "Ġorganiz": 675,
      "ine": 676,
      "ility": 677,
      "Ġsuch": 678,
      "ĠRe": 679,
      "Ġrep": 680,
      "eop": 681,
      "ition": 682,
      "semb": 683,
      "ade": 684,
      "Ġ5": 685,
      "ven": 686,
      "sembly": 687,
      "ating": 688,
      "eace": 689,
      "Ġwho": 690,
      "very": 691,
      "Ġbet": 692,
      "we": 693,
      "abl": 694,
      "ory": 695,
      "und": 696,
      "Ġinv": 697,
      "su": 698,
      "ĠAssembly": 699,
      "ĠGeneral": 700,
      "ens": 701,
      "ern": 702,
      "'re": 703,
      "ond": 704,
      "Ġus": 705,
      "feren": 706,
      "Ġagain": 707,
      "yst": 708,
      "Ġincluding": 709,
      "Ġwomen": 710,
      "Ġest": 711,
      "stit": 712,
      "Ġter": 713,
      "ision": 714,
      "enc": 715,
      "rop": 716,
      "Ġmore": 717,
      "ystem": 718,
      "tic": 719,
      "Ġnational": 720,
      "Ġjust": 721,
      "Ġmeeting": 722,
      "ĠRep": 723,
      "Ġno": 724,
      ").": 725,
      "Ġbut": 726,
      "ace": 727,
      "ĠAf": 728,
      "ĠCommission": 729,
      "Ġpers": 730,
      "Ġwhat": 731,
      "ious": 732,
      "onomic": 733,
      "ices": 734,
      "ne": 735,
      "Ġabout": 736,
      "ail": 737,
      "Ġlike": 738,
      "Ġ4": 739,
      "Ġcontin": 740,
      "Ġthose": 741,
      "get": 742,
      "Ġover": 743,
      "Ġsession": 744,
      "au": 745,
      "here": 746,
      "General": 747,
      "ĠState": 748,
      "ĠDec": 749,
      "Ġcl": 750,
      "rough": 751,
      "Ġdon": 752,
      "rit": 753,
      "Ġlaw": 754,
      "Ġ199": 755,
      "ives": 756,
      "Ġhis": 757,
      "Ġdra": 758,
      "Ġyear": 759,
      "utions": 760,
      "Ġinformation": 761,
      "Ġtrans": 762,
      "hed": 763,
      "graph": 764,
      "ĠSecretary": 765,
      "ĠWhat": 766,
      "Ġpeop": 767,
      "à¤": 768,
      "Ġqu": 769,
      "Ġsystem": 770,
      "Ġmade": 771,
      "ach": 772,
      "ame": 773,
      "ĠAnd": 774,
      "ference": 775,
      "orld": 776,
      "les": 777,
      "are": 778,
      "Ġpara": 779,
      "Ġpos": 780,
      "air": 781,
      "ĠV": 782,
      "ink": 783,
      "ĠMr": 784,
      "Ġsome": 785,
      "Ġinto": 786,
      "ĠDe": 787,
      "Ġsoc": 788,
      "Ġactiv": 789,
      "Ġtime": 790,
      "ommend": 791,
      "oin": 792,
      "Ġthrough": 793,
      "Ġsa": 794,
      "ĠConvention": 795,
      "Ġconcern": 796,
      "mit": 797,
      "ective": 798,
      "Ġchild": 799,
      "Ġcommun": 800,
      "Ġimplementation": 801,
      "Ġro": 802,
      "pos": 803,
      "Ġestabl": 804,
      "ract": 805,
      "Ġpeace": 806,
      "ile": 807,
      "ank": 808,
      "ts": 809,
      "Ġwell": 810,
      "ĠInternational": 811,
      "Ġec": 812,
      "Ġleg": 813,
      "Ġtw": 814,
      "Ġpri": 815,
      "ollow": 816,
      "Ġatt": 817,
      "Ġprovid": 818,
      "Ġent": 819,
      "echn": 820,
      "man": 821,
      "Ġcent": 822,
      "Ġagainst": 823,
      "Ġparticular": 824,
      "ĠSp": 825,
      "ĠGovernment": 826,
      "Ġgu": 827,
      "Ġif": 828,
      "Ġem": 829,
      "ang": 830,
      "ied": 831,
      "Ġnew": 832,
      "ible": 833,
      "ĠIs": 834,
      "Ġinter": 835,
      "ĠThis": 836,
      "Ġdisc": 837,
      "ove": 838,
      "igh": 839,
      "Ġrecommend": 840,
      "operation": 841,
      "Ġimport": 842,
      "ased": 843,
      "ween": 844,
      "ticle": 845,
      "fore": 846,
      "uring": 847,
      "Ġeffort": 848,
      "Ġassist": 849,
      "Ġour": 850,
      "Ġadop": 851,
      "Ġcould": 852,
      "iol": 853,
      "ook": 854,
      "Ġbetween": 855,
      "Ġactivities": 856,
      "ally": 857,
      "Ġprom": 858,
      "Ġhere": 859,
      "Ġhim": 860,
      "ĠAd": 861,
      "bers": 862,
      "Ġserv": 863,
      "Ġmeas": 864,
      "uth": 865,
      "Ġel": 866,
      "irst": 867,
      "ĠSecurity": 868,
      "lear": 869,
      "ism": 870,
      "Ġpeople": 871,
      "Ġref": 872,
      "ffic": 873,
      "ving": 874,
      "ved": 875,
      "ise": 876,
      "ful": 877,
      "Ġmay": 878,
      "Ġinte": 879,
      "ources": 880,
      "Ġrem": 881,
      "Ġdraft": 882,
      "Ġfollow": 883,
      "Ġtake": 884,
      "Ġget": 885,
      "leg": 886,
      "rimin": 887,
      "Ġtak": 888,
      "Ġdid": 889,
      "Ġconf": 890,
      "der": 891,
      "ĠAfric": 892,
      "Ġconsid": 893,
      "Ġrev": 894,
      "ass": 895,
      "ĠRepublic": 896,
      "xt": 897,
      "Ġsit": 898,
      "Ġprot": 899,
      "Ġprocess": 900,
      "Ġthese": 901,
      "Ġdi": 902,
      "ange": 903,
      "Ġte": 904,
      "ind": 905,
      "Ġher": 906,
      "hip": 907,
      "Ġsecurity": 908,
      "Ġfinanc": 909,
      "Ġsee": 910,
      "Ġens": 911,
      "ĠThat": 912,
      "Ġra": 913,
      "Ġpolic": 914,
      "ĠAn": 915,
      "Ġissu": 916,
      "Ġ6": 917,
      "Ġcap": 918,
      "rate": 919,
      "Ġrepresent": 920,
      "Ġincre": 921,
      "urther": 922,
      "vers": 923,
      "Ġregard": 924,
      "ural": 925,
      "Ġsc": 926,
      "embers": 927,
      "Ġcountry": 928,
      "'ll": 929,
      "ilit": 930,
      "Ġwant": 931,
      "ert": 932,
      "ĠDevelop": 933,
      "old": 934,
      "Ġonly": 935,
      "Ġtechn": 936,
      "inc": 937,
      "Ġefforts": 938,
      "Ġorganizations": 939,
      "de": 940,
      "ĠRight": 941,
      "Ġparagraph": 942,
      "als": 943,
      "Ġlevel": 944,
      "iat": 945,
      "Ġcooperation": 946,
      "uation": 947,
      "Ġmeasures": 948,
      "ized": 949,
      "mes": 950,
      "Ġnow": 951,
      "Ġtwo": 952,
      "uss": 953,
      "Ġmat": 954,
      "up": 955,
      "ays": 956,
      "Ġnum": 957,
      "ected": 958,
      "Ġrequest": 959,
      "Ġuse": 960,
      "ings": 961,
      "uthor": 962,
      "eth": 963,
      "ĠConference": 964,
      "Ġmust": 965,
      "ene": 966,
      "Ġpr": 967,
      "Ġwhen": 968,
      "ration": 969,
      "Ġthan": 970,
      "ute": 971,
      "ards": 972,
      "ĠFor": 973,
      "Ġviol": 974,
      "ĠPart": 975,
      "ood": 976,
      "Ġparticip": 977,
      "ble": 978,
      "Ġcall": 979,
      "aff": 980,
      "Ġset": 981,
      "ĠAr": 982,
      "Ġpromot": 983,
      "Ġbec": 984,
      "ization": 985,
      "Ġdes": 986,
      "Ġrele": 987,
      "ters": 988,
      "bal": 989,
      "na": 990,
      "ĠEx": 991,
      "ĠOr": 992,
      "arm": 993,
      "alth": 994,
      "ark": 995,
      "Ġgood": 996,
      "Ġappro": 997,
      "Ġmembers": 998,
      "ges": 999,
      "Ġresources": 1000,
      "land": 1001,
      "li": 1002,
      "olog": 1003,
      "ĠAll": 1004,
      "Ġdet": 1005,
      "Ġmon": 1006,
      "Ġfund": 1007,
      "vant": 1008,
      "Ġaddress": 1009,
      "rent": 1010,
      "Ġnon": 1011,
      "Ġorder": 1012,
      "Ġchildren": 1013,
      "ency": 1014,
      "Ġprogramme": 1015,
      "sel": 1016,
      "resident": 1017,
      "Ġhow": 1018,
      "ĠDevelopment": 1019,
      "iod": 1020,
      "oth": 1021,
      "Ġwhere": 1022,
      "Ġmake": 1023,
      "led": 1024,
      "Ġcontrib": 1025,
      "Ġform": 1026,
      "agement": 1027,
      "ocu": 1028,
      "Ġpublic": 1029,
      "enda": 1030,
      "itical": 1031,
      "Ġpropos": 1032,
      "ew": 1033,
      "Ġbel": 1034,
      "ause": 1035,
      "Ġequ": 1036,
      "Ġext": 1037,
      "ĠHuman": 1038,
      "Ġgroup": 1039,
      "ys": 1040,
      "ĠRights": 1041,
      "ound": 1042,
      "ning": 1043,
      "Ġpresent": 1044,
      "work": 1045,
      "Ġ\"": 1046,
      "Ġend": 1047,
      "Ġpur": 1048,
      "duct": 1049,
      "Ġassistance": 1050,
      "Ġeconomic": 1051,
      "ivil": 1052,
      "isions": 1053,
      "stru": 1054,
      "king": 1055,
      "oint": 1056,
      "ict": 1057,
      "Ġshall": 1058,
      "ever": 1059,
      "Ġfinancial": 1060,
      "ĠBut": 1061,
      "lobal": 1062,
      "Ġregional": 1063,
      "ror": 1064,
      "Ġyears": 1065,
      "ained": 1066,
      "Ġthink": 1067,
      "ished": 1068,
      "Ġnumber": 1069,
      "ĠHow": 1070,
      "ĠGroup": 1071,
      "Ġaccord": 1072,
      "Ġfurther": 1073,
      "Ġgot": 1074,
      "Ġauthor": 1075,
      "gy": 1076,
      "own": 1077,
      "Ġprovide": 1078,
      "ĠAl": 1079,
      "Ġensure": 1080,
      "Ġshe": 1081,
      "ordin": 1082,
      "Ġperiod": 1083,
      "onment": 1084,
      "ium": 1085,
      "Ġmain": 1086,
      "ĠAt": 1087,
      "row": 1088,
      "reng": 1089,
      "ining": 1090,
      "uild": 1091,
      "Ġissues": 1092,
      "ob": 1093,
      "Ġ7": 1094,
      "ite": 1095,
      "Ġac": 1096,
      "gress": 1097,
      "Ġfirst": 1098,
      "ient": 1099,
      "med": 1100,
      "vir": 1101,
      "Ġrespons": 1102,
      "ĠSpecial": 1103,
      "ĠAg": 1104,
      "av": 1105,
      "Ġed": 1106,
      "rat": 1107,
      "ince": 1108,
      "Ġspecial": 1109,
      "ention": 1110,
      "ieve": 1111,
      "Ġarticle": 1112,
      "Ġsocial": 1113,
      "ix": 1114,
      "Ġoper": 1115,
      "Ġworld": 1116,
      "ability": 1117,
      "Ġresult": 1118,
      "Ġcommit": 1119,
      "Ġplan": 1120,
      "Ġsign": 1121,
      "sp": 1122,
      "ĠThey": 1123,
      "Ġstate": 1124,
      "Ġreview": 1125,
      "Ġposs": 1126,
      "Ġeffective": 1127,
      "Ġbas": 1128,
      "loy": 1129,
      "Ġdeveloping": 1130,
      "ĠMin": 1131,
      "round": 1132,
      "Ġback": 1133,
      "then": 1134,
      "udget": 1135,
      "irect": 1136,
      "Ġfac": 1137,
      "vironment": 1138,
      "amp": 1139,
      "Ġdocu": 1140,
      "Ġaccount": 1141,
      "ah": 1142,
      "rengthen": 1143,
      "Ġsaid": 1144,
      "ean": 1145,
      "ĠThere": 1146,
      "ĠPresident": 1147,
      "Ġdem": 1148,
      "Ġach": 1149,
      "ĠOff": 1150,
      "Ġdecision": 1151,
      "Ġop": 1152,
      "Ġwithin": 1153,
      "Ġinstit": 1154,
      "Ġview": 1155,
      "Ġrelevant": 1156,
      "ull": 1157,
      "Ġ10": 1158,
      "com": 1159,
      "ner": 1160,
      "Ġeduc": 1161,
      "aration": 1162,
      "ily": 1163,
      "Ġ$": 1164,
      "ality": 1165,
      "ting": 1166,
      "urop": 1167,
      "ety": 1168,
      "Ġcur": 1169,
      "ov": 1170,
      "Ġestablish": 1171,
      "Ġcar": 1172,
      "duc": 1173,
      "ĠCo": 1174,
      "ines": 1175,
      "gramme": 1176,
      "incip": 1177,
      "ĠOrganiz": 1178,
      "ploy": 1179,
      "reed": 1180,
      "other": 1181,
      "ĠAm": 1182,
      "Ġadopted": 1183,
      "rest": 1184,
      "Ġbeing": 1185,
      "Ġservices": 1186,
      "Ġprogrammes": 1187,
      "ĠDecember": 1188,
      "Ġproject": 1189,
      "ĠOffice": 1190,
      "Ġpolitical": 1191,
      "Ġaf": 1192,
      "ĠOh": 1193,
      "Ġitem": 1194,
      "Ġmost": 1195,
      "ĠEurop": 1196,
      "Ġcontinu": 1197,
      "Ġpract": 1198,
      "Ġperson": 1199,
      "rol": 1200,
      "Ġway": 1201,
      "'ve": 1202,
      "ĠInd": 1203,
      "Ġaw": 1204,
      "Ġprovided": 1205,
      "ral": 1206,
      "arch": 1207,
      "Ġimpro": 1208,
      "Ġav": 1209,
      "Ġdeleg": 1210,
      "pr": 1211,
      "Ġstrengthen": 1212,
      "iven": 1213,
      "ĠLe": 1214,
      "ants": 1215,
      "wn": 1216,
      "Ġcapac": 1217,
      "ariat": 1218,
      "Ġbefore": 1219,
      "Ġprep": 1220,
      "minist": 1221,
      "Ġdef": 1222,
      "Ġrespect": 1223,
      "Ġevery": 1224,
      "Ġ[": 1225,
      "cept": 1226,
      "ina": 1227,
      "Ġcivil": 1228,
      "itional": 1229,
      "ug": 1230,
      "Ġareas": 1231,
      "Ġsituation": 1232,
      "Ġparty": 1233,
      "Ġcommunity": 1234,
      "Ġ8": 1235,
      "aking": 1236,
      "Ġquest": 1237,
      "Ġimportant": 1238,
      "Ġev": 1239,
      "Ġ9": 1240,
      "Ġinit": 1241,
      "nex": 1242,
      "Ġcontinue": 1243,
      "Ġparties": 1244,
      "uch": 1245,
      "Ġhealth": 1246,
      "its": 1247,
      "ĠSo": 1248,
      "Ġmin": 1249,
      "Ġaction": 1250,
      "ibility": 1251,
      "ife": 1252,
      "Ġtaken": 1253,
      "Ġsect": 1254,
      "enn": 1255,
      "iation": 1256,
      "Ġheld": 1257,
      "Ġhigh": 1258,
      "ulation": 1259,
      "ecess": 1260,
      "Ġagree": 1261,
      "uclear": 1262,
      "ases": 1263,
      "Ġcour": 1264,
      "vis": 1265,
      "ament": 1266,
      "19": 1267,
      "Ġlook": 1268,
      "illion": 1269,
      "Ġ2002": 1270,
      "oura": 1271,
      "Ġstrate": 1272,
      "Ġstaff": 1273,
      "Ġduring": 1274,
      "Ġaff": 1275,
      "Ġgreat": 1276,
      "Ġke": 1277,
      "Ġinvest": 1278,
      "Ġma": 1279,
      "Ġ2005": 1280,
      "ĠRec": 1281,
      "lp": 1282,
      "ater": 1283,
      "Ġamong": 1284,
      "ize": 1285,
      "Ġfact": 1286,
      "ropri": 1287,
      "duction": 1288,
      "urn": 1289,
      "Ġsubmit": 1290,
      "ĠEc": 1291,
      "ks": 1292,
      "Ġconflic": 1293,
      "Ġboth": 1294,
      "Ġhelp": 1295,
      "Ġglobal": 1296,
      "Ġmany": 1297,
      "Ġvery": 1298,
      "ender": 1299,
      "Ġmanagement": 1300,
      "ough": 1301,
      "eah": 1302,
      "ĠEn": 1303,
      "uilding": 1304,
      "Ġloc": 1305,
      "ĠProgramme": 1306,
      "Ġlong": 1307,
      "Ġfra": 1308,
      "Ġproble": 1309,
      "tle": 1310,
      "icial": 1311,
      "Ġaccordance": 1312,
      "ilities": 1313,
      "Ġ2000": 1314,
      "Ġ2004": 1315,
      "Ġspec": 1316,
      "Ġpolicy": 1317,
      "Ġtreat": 1318,
      "ĠPal": 1319,
      "ĠOrganization": 1320,
      "Ġprotection": 1321,
      "ait": 1322,
      "Ġlet": 1323,
      "Ġlegal": 1324,
      "Ġnecess": 1325,
      "Ġlead": 1326,
      "Ġexpress": 1327,
      "Ġbod": 1328,
      "arian": 1329,
      "itions": 1330,
      "Ġterror": 1331,
      "ĠAfrica": 1332,
      "ogn": 1333,
      "Ġprincip": 1334,
      "Ġbudget": 1335,
      "Ġagenda": 1336,
      "Ġsay": 1337,
      "Ġprogress": 1338,
      "Ġ2006": 1339,
      "Ġaccess": 1340,
      "Ġ20": 1341,
      "Ġafter": 1342,
      "Ġappropri": 1343,
      "Ġdiscuss": 1344,
      "Ġstand": 1345,
      "Ġfe": 1346,
      "Ġ2001": 1347,
      "day": 1348,
      "Ġeducation": 1349,
      "ired": 1350,
      "ister": 1351,
      "ĠShe": 1352,
      "Ġpersons": 1353,
      "Ġ15": 1354,
      "Ġgoing": 1355,
      "Ġsame": 1356,
      "ady": 1357,
      "ners": 1358,
      "Ġfollowing": 1359,
      "stand": 1360,
      "itor": 1361,
      "Ġrole": 1362,
      "ield": 1363,
      "ĠWork": 1364,
      "ified": 1365,
      "ave": 1366,
      "ification": 1367,
      "kay": 1368,
      "10": 1369,
      "ĠTo": 1370,
      "Ġ12": 1371,
      "ĠOn": 1372,
      "ĠProt": 1373,
      "Ġcapacity": 1374,
      "ĠMember": 1375,
      "ecut": 1376,
      "Ġplace": 1377,
      "ower": 1378,
      "Ġdown": 1379,
      "ĠPalest": 1380,
      "pl": 1381,
      "Ġobject": 1382,
      "eric": 1383,
      "ird": 1384,
      "rab": 1385,
      "Ġcurrent": 1386,
      "Ġcome": 1387,
      "Ġdoes": 1388,
      "ĠSoc": 1389,
      "ĠWorld": 1390,
      "ims": 1391,
      "ects": 1392,
      "Ġgeneral": 1393,
      "mework": 1394,
      "Ġser": 1395,
      "Ġfull": 1396,
      "une": 1397,
      "Ġprior": 1398,
      "ify": 1399,
      "go": 1400,
      "Ġrece": 1401,
      "Ġ2003": 1402,
      "Ġrequire": 1403,
      "Ġenvironment": 1404,
      "Ġenc": 1405,
      "Ġrecommendations": 1406,
      "esp": 1407,
      "ĠIf": 1408,
      "Ġcoordin": 1409,
      "Ġconsider": 1410,
      "ential": 1411,
      "overnmental": 1412,
      "gin": 1413,
      "Ġworking": 1414,
      "Ġstat": 1415,
      "ared": 1416,
      "Ġconsult": 1417,
      "ĠMay": 1418,
      "rael": 1419,
      "Ġproced": 1420,
      "Ġestablished": 1421,
      "Ġthree": 1422,
      "erc": 1423,
      "ten": 1424,
      "ĠBo": 1425,
      "Ġfam": 1426,
      "Ġwithout": 1427,
      "Ġsoci": 1428,
      "ĠParties": 1429,
      "Ġocc": 1430,
      "Ġur": 1431,
      "sue": 1432,
      "Ġcor": 1433,
      "Ġappropriate": 1434,
      "ĠMe": 1435,
      "Ġident": 1436,
      "Ġcond": 1437,
      "Ġtraining": 1438,
      "Ġexper": 1439,
      "Ġassess": 1440,
      "lus": 1441,
      "Ġsince": 1442,
      "itarian": 1443,
      "lig": 1444,
      "ĠIsrael": 1445,
      "Ġindic": 1446,
      "Ġreports": 1447,
      "ĠGu": 1448,
      "Ġcost": 1449,
      "Ġmand": 1450,
      "echan": 1451,
      "Ġcoll": 1452,
      "apons": 1453,
      "ĠEconomic": 1454,
      "ainable": 1455,
      "Ġdiff": 1456,
      "Ġthen": 1457,
      "Ġret": 1458,
      "Ġpossible": 1459,
      "Ġsust": 1460,
      "ĠGovern": 1461,
      "rong": 1462,
      "ĠNot": 1463,
      "Ġnecessary": 1464,
      "Ġinteg": 1465,
      "Ġdocument": 1466,
      "Ġeven": 1467,
      "Ġavail": 1468,
      "Ġinvol": 1469,
      ");": 1470,
      "outh": 1471,
      "ID": 1472,
      "ĠâĢĶ": 1473,
      "ool": 1474,
      "rime": 1475,
      "ivers": 1476,
      "ĠWell": 1477,
      "onna": 1478,
      "Ġrelated": 1479,
      "Ġmillion": 1480,
      "Ġcase": 1481,
      "Ġinterest": 1482,
      "ered": 1483,
      "Ġbecause": 1484,
      "Ġupon": 1485,
      "hes": 1486,
      "ended": 1487,
      "Ġph": 1488,
      "ĠSocial": 1489,
      "ĠDep": 1490,
      "ĠMy": 1491,
      "Ġful": 1492,
      "Ġexist": 1493,
      "Ġpost": 1494,
      "Ġsm": 1495,
      "ennium": 1496,
      "Ġnuclear": 1497,
      "ĠAmeric": 1498,
      "Ġcomple": 1499,
      "Ġ13": 1500,
      "erman": 1501,
      "Ġfun": 1502,
      "jor": 1503,
      "Ġown": 1504,
      "ris": 1505,
      "ĠNew": 1506,
      "Ġcre": 1507,
      "Ġoblig": 1508,
      "ĠAfrican": 1509,
      "laration": 1510,
      "Ġfore": 1511,
      "airs": 1512,
      "Ġvar": 1513,
      "eping": 1514,
      "riminal": 1515,
      "Ġfind": 1516,
      "self": 1517,
      "ĠJune": 1518,
      "rimination": 1519,
      "Ġgonna": 1520,
      "Ġtechnical": 1521,
      "ring": 1522,
      "imate": 1523,
      "isl": 1524,
      "Ġcla": 1525,
      "ept": 1526,
      "ules": 1527,
      "rug": 1528,
      "ged": 1529,
      "governmental": 1530,
      "ics": 1531,
      "Ġgender": 1532,
      "Ġinf": 1533,
      "Ġprovisions": 1534,
      "Ġremain": 1535,
      "Ġmechan": 1536,
      "ĠYeah": 1537,
      "ee": 1538,
      "Ġwel": 1539,
      "ather": 1540,
      "ont": 1541,
      "ology": 1542,
      "Ġneg": 1543,
      "ath": 1544,
      "ocol": 1545,
      "Ġviolence": 1546,
      "atives": 1547,
      "Ġdifferen": 1548,
      "Ġbasis": 1549,
      "Ġpop": 1550,
      "Ġmed": 1551,
      "oy": 1552,
      "ick": 1553,
      "ances": 1554,
      "ĠLet": 1555,
      "ruct": 1556,
      "irl": 1557,
      "tion": 1558,
      "Ġapplic": 1559,
      "Ġlife": 1560,
      "encies": 1561,
      "Ġ11": 1562,
      "ined": 1563,
      "uly": 1564,
      "Ġdeb": 1565,
      "Ġwhile": 1566,
      "Ġ2007": 1567,
      "Ġconsideration": 1568,
      "ultural": 1569,
      "Ġrecogn": 1570,
      "Ġdat": 1571,
      "Ġframework": 1572,
      "Ġstill": 1573,
      "Ġinstitutions": 1574,
      "Ġbro": 1575,
      "Ġlast": 1576,
      "ĠEuropean": 1577,
      "Ġconflict": 1578,
      "Ġissue": 1579,
      "Ġneeds": 1580,
      "Ġeach": 1581,
      "Ġins": 1582,
      "Ġsupp": 1583,
      "Ġsom": 1584,
      "Ġgive": 1585,
      "overty": 1586,
      "ĠArab": 1587,
      "Ġlit": 1588,
      "Ġcare": 1589,
      "Ġreal": 1590,
      "ars": 1591,
      "Ġmajor": 1592,
      "Ġpartners": 1593,
      "Ġdist": 1594,
      "Ġused": 1595,
      "ĠDo": 1596,
      "Ġ2008": 1597,
      "thing": 1598,
      "allen": 1599,
      "Ġfoc": 1600,
      "istan": 1601,
      "Ġencoura": 1602,
      "for": 1603,
      "cy": 1604,
      "ness": 1605,
      "Ġmuch": 1606,
      "Ġlist": 1607,
      "ĠPalestin": 1608,
      "ĠBoard": 1609,
      "ivid": 1610,
      "ĠPol": 1611,
      "Ġbeh": 1612,
      "Ġtrade": 1613,
      "ateral": 1614,
      "âĢĻ": 1615,
      "Ġadv": 1616,
      "come": 1617,
      "Ġjud": 1618,
      "enef": 1619,
      "alf": 1620,
      "ban": 1621,
      "Ġsecond": 1622,
      "Ġfield": 1623,
      "por": 1624,
      "Ġinstru": 1625,
      "Ġdelegation": 1626,
      "Ġquestion": 1627,
      "ros": 1628,
      "ĠFin": 1629,
      "ĠAct": 1630,
      "ĠDis": 1631,
      "Ġregion": 1632,
      "Ġgroups": 1633,
      "ĠWorking": 1634,
      "Ġtoo": 1635,
      "ĠCent": 1636,
      "ope": 1637,
      "Ġimportance": 1638,
      "Ġstud": 1639,
      "artment": 1640,
      "Ġdep": 1641,
      "ages": 1642,
      "ilateral": 1643,
      "ĠChair": 1644,
      "ĠCour": 1645,
      "000": 1646,
      "ĠJuly": 1647,
      "ale": 1648,
      "Ġgrow": 1649,
      "ĠJust": 1650,
      "ilitary": 1651,
      "Ġinclude": 1652,
      "lease": 1653,
      "Ġ14": 1654,
      "ĠFund": 1655,
      "IC": 1656,
      "imin": 1657,
      "Ġconcerned": 1658,
      "ets": 1659,
      "raq": 1660,
      "Ġtal": 1661,
      "II": 1662,
      "Ġmark": 1663,
      "eur": 1664,
      "Ġhumanitarian": 1665,
      "aren": 1666,
      "Ġgirl": 1667,
      "Ġclear": 1668,
      "Ġbenef": 1669,
      "Ġmult": 1670,
      "ocrat": 1671,
      "Ġhand": 1672,
      "Ġlegisl": 1673,
      "iving": 1674,
      "Ġcontrol": 1675,
      "ĠIraq": 1676,
      "ital": 1677,
      "uture": 1678,
      "Ġavailable": 1679,
      "Ġmeetings": 1680,
      "ĠNational": 1681,
      "ĠReg": 1682,
      "Ġincrease": 1683,
      "unity": 1684,
      "Ġpolicies": 1685,
      "Ġannex": 1686,
      "less": 1687,
      "Ġenh": 1688,
      "ĠCourt": 1689,
      "Ġpay": 1690,
      "ised": 1691,
      "Ġtell": 1692,
      "Ġà¤": 1693,
      "be": 1694,
      "Ġresolutions": 1695,
      "Ġnote": 1696,
      "Ġcases": 1697,
      "irc": 1698,
      "Ġdirect": 1699,
      "ption": 1700,
      "issions": 1701,
      "ves": 1702,
      "Ġrecent": 1703,
      "dd": 1704,
      "idered": 1705,
      "chool": 1706,
      "uge": 1707,
      "uck": 1708,
      "Ġsur": 1709,
      "epend": 1710,
      "Ġpoverty": 1711,
      "Ġmeans": 1712,
      "Ġarea": 1713,
      "Ġval": 1714,
      "Ġachieve": 1715,
      "arge": 1716,
      "ceed": 1717,
      "ĠLaw": 1718,
      "Ġguid": 1719,
      "ober": 1720,
      "Ġparticularly": 1721,
      "ock": 1722,
      "Ġann": 1723,
      "Ġchallen": 1724,
      "ĠUnion": 1725,
      "Ġconsidered": 1726,
      "iness": 1727,
      "ĠAction": 1728,
      "ividual": 1729,
      "ployment": 1730,
      "eptember": 1731,
      "Ġnever": 1732,
      "ething": 1733,
      "Ġnat": 1734,
      "ĠSh": 1735,
      "Ġunderstand": 1736,
      "ĠReport": 1737,
      "Ġ18": 1738,
      "Ġbetter": 1739,
      "Ġmod": 1740,
      "orry": 1741,
      "Ġobs": 1742,
      "tain": 1743,
      "ried": 1744,
      "Ġfuture": 1745,
      "Ġhapp": 1746,
      "Ġ30": 1747,
      "Ġland": 1748,
      "ermin": 1749,
      "Ġlocal": 1750,
      "Ġnoted": 1751,
      "Ġadminist": 1752,
      "ĠMan": 1753,
      "ĠSeptember": 1754,
      "Ġimprove": 1755,
      "ived": 1756,
      "Ġspe": 1757,
      "'d": 1758,
      "Ġopport": 1759,
      "Ġpriv": 1760,
      "TA": 1761,
      "Ġproposed": 1762,
      "az": 1763,
      "Ġrest": 1764,
      "Ġfocus": 1765,
      "Ġweapons": 1766,
      "armament": 1767,
      "Ġmar": 1768,
      "Ġtow": 1769,
      "ĠSecretariat": 1770,
      "Ġbased": 1771,
      "Ġprevent": 1772,
      "keeping": 1773,
      "ctions": 1774,
      "ross": 1775,
      "ĠDeclaration": 1776,
      "Ġsector": 1777,
      "ĠDon": 1778,
      "Ġpromote": 1779,
      "Ġmean": 1780,
      "ĠTra": 1781,
      "ences": 1782,
      "Ġmonitor": 1783,
      "ĠCan": 1784,
      "ĠZ": 1785,
      "Ġsociety": 1786,
      "Ġindividual": 1787,
      "Ġris": 1788,
      "iate": 1789,
      "Ġstrateg": 1790,
      "Ġofficial": 1791,
      "mber": 1792,
      "Ġsubst": 1793,
      "Ġsubmitted": 1794,
      "ĠPalestinian": 1795,
      "Ġcommunic": 1796,
      "Ġput": 1797,
      "Ġsaf": 1798,
      "ced": 1799,
      "sequ": 1800,
      "Ġelect": 1801,
      "ocratic": 1802,
      "à¥": 1803,
      "ertain": 1804,
      "ĠSu": 1805,
      "Ġdata": 1806,
      "hens": 1807,
      "see": 1808,
      "Ġimpact": 1809,
      "Ġsubject": 1810,
      "Ġparticipation": 1811,
      "atory": 1812,
      "ĠCome": 1813,
      "Ġcomb": 1814,
      "ccess": 1815,
      "âĢĿ.": 1816,
      "ĠNove": 1817,
      "Ġwar": 1818,
      "ĠNovember": 1819,
      "Ġallow": 1820,
      "ĠHey": 1821,
      "ents": 1822,
      "Ġspecific": 1823,
      "Ġplay": 1824,
      "ĠProtocol": 1825,
      "Ġ16": 1826,
      "ĠArticle": 1827,
      "ĠGovernments": 1828,
      "ĠWomen": 1829,
      "rehens": 1830,
      "Ġkill": 1831,
      "Ġear": 1832,
      "Ġsol": 1833,
      "text": 1834,
      "sh": 1835,
      "ience": 1836,
      "ĠTr": 1837,
      "idence": 1838,
      "Ġday": 1839,
      "Ġlim": 1840,
      "Ġgiven": 1841,
      "building": 1842,
      "Ġbodies": 1843,
      "ĠWith": 1844,
      "ctober": 1845,
      "Ġmilitary": 1846,
      "Ġhead": 1847,
      "Ġreally": 1848,
      "Ġsix": 1849,
      "Ġamount": 1850,
      "ck": 1851,
      "ĠHigh": 1852,
      "izing": 1853,
      "Ġagencies": 1854,
      "ĠRepresent": 1855,
      "osed": 1856,
      "Ġdeveloped": 1857,
      "Ġsomething": 1858,
      "ĠOctober": 1859,
      "ĠPl": 1860,
      "Ġconduct": 1861,
      "ief": 1862,
      "Ġvarious": 1863,
      "Ġlittle": 1864,
      "ories": 1865,
      "Ġdecid": 1866,
      "rehensive": 1867,
      "Ġreform": 1868,
      "ĠCom": 1869,
      "ought": 1870,
      "Ġrequired": 1871,
      "Ġfl": 1872,
      "Ġrepresentative": 1873,
      "nel": 1874,
      "ternal": 1875,
      "Ġmight": 1876,
      "stitution": 1877,
      "ĠAff": 1878,
      "Ġtot": 1879,
      "ger": 1880,
      "equ": 1881,
      "oss": 1882,
      "Ġcontext": 1883,
      "Ġattention": 1884,
      "ĠDepartment": 1885,
      "Ġvot": 1886,
      "Ġundert": 1887,
      "ecutive": 1888,
      "ically": 1889,
      "ouse": 1890,
      "Ġterrit": 1891,
      "Ġlevels": 1892,
      "apport": 1893,
      "Ġfacilit": 1894,
      "apporteur": 1895,
      "Ġ17": 1896,
      "Ġdom": 1897,
      "ĠServ": 1898,
      "Ġbi": 1899,
      "the": 1900,
      "Ġopen": 1901,
      "15": 1902,
      "Ġdidn": 1903,
      "Ġagreed": 1904,
      "Ġdifferent": 1905,
      "rative": 1906,
      "Ġexpl": 1907,
      "Ġsel": 1908,
      "Ġfour": 1909,
      "Ġwhe": 1910,
      "Ġfound": 1911,
      "ually": 1912,
      "Ġru": 1913,
      "Ġproper": 1914,
      "ĠGod": 1915,
      "Ġschool": 1916,
      "ĠRes": 1917,
      "enous": 1918,
      "oney": 1919,
      "ĠEl": 1920,
      "ĠAss": 1921,
      "Ġmen": 1922,
      "Ġtowards": 1923,
      "igenous": 1924,
      "Ġgen": 1925,
      "Ġmonth": 1926,
      "reg": 1927,
      "Ġcontained": 1928,
      "Ġrequested": 1929,
      "Ġsustainable": 1930,
      "rant": 1931,
      "ĠQ": 1932,
      "Ġabove": 1933,
      "ĠYes": 1934,
      "ĠMission": 1935,
      "ĠSub": 1936,
      "Ġprev": 1937,
      "Ġgovern": 1938,
      "ĠPre": 1939,
      "riend": 1940,
      "ĠGo": 1941,
      "use": 1942,
      "ĠRapporteur": 1943,
      "Ġapproach": 1944,
      "Ġbus": 1945,
      "Ġoperations": 1946,
      "aring": 1947,
      "Ġexamp": 1948,
      "Ġrepresentatives": 1949,
      "ready": 1950,
      "abor": 1951,
      "Ġsecret": 1952,
      "Ġrules": 1953,
      "ody": 1954,
      "Ġvol": 1955,
      "Ġtaking": 1956,
      "ĠJan": 1957,
      "DP": 1958,
      "Ġeconom": 1959,
      "Ġfamily": 1960,
      "Ġvict": 1961,
      "Ġsignific": 1962,
      "Ġadditional": 1963,
      "199": 1964,
      "Ġsex": 1965,
      "ĠSouth": 1966,
      "Ġstep": 1967,
      "ords": 1968,
      "ĠWhy": 1969,
      "ell": 1970,
      "Ġsuccess": 1971,
      "Ġconditions": 1972,
      "ĠHowever": 1973,
      "Ġdeal": 1974,
      "Ġreas": 1975,
      "Ġchange": 1976,
      "ĠPeace": 1977,
      "ĠAffairs": 1978,
      "Ġpres": 1979,
      "Ġwhether": 1980,
      "Ġalready": 1981,
      "Ġterrorism": 1982,
      "fer": 1983,
      "20": 1984,
      "pril": 1985,
      "Ġstatement": 1986,
      "gest": 1987,
      "ians": 1988,
      "ecially": 1989,
      "Ġconcerning": 1990,
      "estic": 1991,
      "Ġanother": 1992,
      "Ġvis": 1993,
      "Ã©": 1994,
      "rated": 1995,
      "Ġentit": 1996,
      "Ġauthorities": 1997,
      "mp": 1998,
      "Ġrequirements": 1999,
      "Ġsmall": 2000,
      "Add": 2001,
      "ging": 2002,
      "Ġrelating": 2003,
      "ĠApril": 2004,
      "aced": 2005,
      "ĠMarch": 2006,
      "Ġprivate": 2007,
      "Ġestablishment": 2008,
      "ulations": 2009,
      "Ġforce": 2010,
      "Ġeffect": 2011,
      "Ġmandate": 2012,
      "asing": 2013,
      "itive": 2014,
      "Ġcontract": 2015,
      "ource": 2016,
      "ĠOkay": 2017,
      "irm": 2018,
      "Ġaim": 2019,
      "Ġnegot": 2020,
      "Ġcontinued": 2021,
      "ai": 2022,
      "ĠDem": 2023,
      "IV": 2024,
      "Ġpopulation": 2025,
      "lose": 2026,
      "Ġmember": 2027,
      "ĠLi": 2028,
      "Ġche": 2029,
      "Ġbest": 2030,
      "ifty": 2031,
      "Ġexpressed": 2032,
      "itation": 2033,
      "Ġperform": 2034,
      "Ġbl": 2035,
      "Ġbelieve": 2036,
      "Ġresponsibility": 2037,
      "ran": 2038,
      "Ġask": 2039,
      "istry": 2040,
      "Ġaddition": 2041,
      "io": 2042,
      "phas": 2043,
      "mary": 2044,
      "atic": 2045,
      "Ġachie": 2046,
      "Ġanal": 2047,
      "Ġpar": 2048,
      "Ġrefl": 2049,
      "visory": 2050,
      "âĢĿ,": 2051,
      "Ġserious": 2052,
      "Ġshow": 2053,
      "Ġ1999": 2054,
      "Ġaddressed": 2055,
      "Ġstart": 2056,
      "Ġdone": 2057,
      "Ġcalled": 2058,
      "Ġsim": 2059,
      "Ġwater": 2060,
      "especially": 2061,
      "ĠRepresentative": 2062,
      "Ġstatus": 2063,
      "Ġcompet": 2064,
      "Ġname": 2065,
      "Ġtherefore": 2066,
      "ĠMinister": 2067,
      "Ġsignificant": 2068,
      "ward": 2069,
      "Ġmove": 2070,
      "Ġorganization": 2071,
      "Ġoccup": 2072,
      "Ġpolice": 2073,
      "Ġtoget": 2074,
      "Ġtogether": 2075,
      "Ġdest": 2076,
      "Ġcomprehensive": 2077,
      "igned": 2078,
      "ĠTer": 2079,
      "eal": 2080,
      "Ġpursu": 2081,
      "Ġespecially": 2082,
      "Ġentitled": 2083,
      "Ġthreat": 2084,
      "Ġintro": 2085,
      "Ġdecided": 2086,
      "ĠChar": 2087,
      "Ġagreement": 2088,
      "Ġfully": 2089,
      "Ġrule": 2090,
      "Ġprovision": 2091,
      "rec": 2092,
      "Ġeng": 2093,
      "Ġdoing": 2094,
      "Ġgra": 2095,
      "CO": 2096,
      "Ġcirc": 2097,
      "ructure": 2098,
      "ering": 2099,
      "erial": 2100,
      "duced": 2101,
      "Ġprinciples": 2102,
      "ĠFed": 2103,
      "Ġprojects": 2104,
      "Ġbo": 2105,
      "Ġdiscrimination": 2106,
      "Ġproblem": 2107,
      "ĠWho": 2108,
      "Ġlove": 2109,
      "Ġmatter": 2110,
      "eb": 2111,
      "uary": 2112,
      "Ġarmed": 2113,
      "yp": 2114,
      "isms": 2115,
      "range": 2116,
      "Ġ21": 2117,
      "ĠThese": 2118,
      "ĠSee": 2119,
      "Ġtotal": 2120,
      "Ġtar": 2121,
      "ĠNow": 2122,
      "ES": 2123,
      "ĠChina": 2124,
      "Ġdetermin": 2125,
      "Ġobligations": 2126,
      "IDS": 2127,
      "ĠAmerica": 2128,
      "Ġcoun": 2129,
      "Ġwhy": 2130,
      "iated": 2131,
      "Ġtraffic": 2132,
      "Ġproblems": 2133,
      "UN": 2134,
      "Ġbring": 2135,
      "Ġsent": 2136,
      "ier": 2137,
      "Ġnext": 2138,
      "ribun": 2139,
      "Ġdeli": 2140,
      "reedom": 2141,
      "ĠWhere": 2142,
      "ialog": 2143,
      "Ġcoordination": 2144,
      "Ġcrit": 2145,
      "view": 2146,
      "Ġmonitoring": 2147,
      "Ġhold": 2148,
      "Ġtook": 2149,
      "Ġgovernment": 2150,
      "Ġdomestic": 2151,
      "Ġclose": 2152,
      "Ġcertain": 2153,
      "Ġmeet": 2154,
      "Ġless": 2155,
      "Ġindepend": 2156,
      "Ġexample": 2157,
      "Ġincluded": 2158,
      "ĠJanuary": 2159,
      "Ġemer": 2160,
      "Ġcourse": 2161,
      "Ġsubstant": 2162,
      "ash": 2163,
      "ĠSum": 2164,
      "Ġbusiness": 2165,
      "Ġproceed": 2166,
      "Ġjustice": 2167,
      "Ġterms": 2168,
      "Ġcriminal": 2169,
      "Ġla": 2170,
      "ĠCont": 2171,
      "anel": 2172,
      "Ġsystems": 2173,
      "Ġincreased": 2174,
      "Ġkey": 2175,
      "rial": 2176,
      "ĠTreat": 2177,
      "Ġfree": 2178,
      "ĠAcc": 2179,
      "Ġpeacekeeping": 2180,
      "imes": 2181,
      "Ġstrong": 2182,
      "Ġexisting": 2183,
      "eg": 2184,
      "onse": 2185,
      "ialogue": 2186,
      "ĠEast": 2187,
      "Ġregular": 2188,
      "ĠExecutive": 2189,
      "Ġhome": 2190,
      "Ġclaim": 2191,
      "ĠMal": 2192,
      "12": 2193,
      "Ġreceived": 2194,
      "not": 2195,
      "Ġca": 2196,
      "Ġmechanisms": 2197,
      "alling": 2198,
      "Ġcommitment": 2199,
      "Ġresults": 2200,
      "Ġrefuge": 2201,
      "Ġprocedures": 2202,
      "Ġprof": 2203,
      "fficult": 2204,
      "ĠChairman": 2205,
      "Ġpractices": 2206,
      "Ġlegislation": 2207,
      "ĠMs": 2208,
      "Ġcred": 2209,
      "Ġbehalf": 2210,
      "CC": 2211,
      "to": 2212,
      "ists": 2213,
      "ned": 2214,
      "Ġfood": 2215,
      "pose": 2216,
      "Ġstrengthening": 2217,
      "Ġstandards": 2218,
      "Ġ25": 2219,
      "Ġfive": 2220,
      "ĠChild": 2221,
      "ways": 2222,
      "oh": 2223,
      "Ġfunds": 2224,
      "Ġaround": 2225,
      "Ġwelcom": 2226,
      "Ġinvestig": 2227,
      "Ġleast": 2228,
      "Ġtechnology": 2229,
      "Ġrefer": 2230,
      "Ġspace": 2231,
      "):": 2232,
      "Ġrelations": 2233,
      "Ġdifficult": 2234,
      "ĠII": 2235,
      "ĠâĢĵ": 2236,
      "Ġcommon": 2237,
      "Ġcontributions": 2238,
      "Ġtoday": 2239,
      "Ġkind": 2240,
      "amb": 2241,
      "utes": 2242,
      "Ġreporting": 2243,
      "Ġ31": 2244,
      "duce": 2245,
      "ĠOne": 2246,
      "Ġexc": 2247,
      "ĠAb": 2248,
      "ators": 2249,
      "Ġadoption": 2250,
      "IN": 2251,
      "ancing": 2252,
      "ently": 2253,
      "ĠThank": 2254,
      "ĠFr": 2255,
      "Ġmaterial": 2256,
      "Ġthing": 2257,
      "Ġlight": 2258,
      "Ġarms": 2259,
      "ĠDirect": 2260,
      "ugust": 2261,
      "Ġ23": 2262,
      "Ġregarding": 2263,
      "akes": 2264,
      "ĠWhen": 2265,
      "Ġindigenous": 2266,
      "Ġ22": 2267,
      "hold": 2268,
      "raft": 2269,
      "Ġnet": 2270,
      "Ġinst": 2271,
      "ax": 2272,
      "Ġwish": 2273,
      "Ġlack": 2274,
      "idd": 2275,
      "Ġcosts": 2276,
      "Ġevent": 2277,
      "iations": 2278,
      "Ġchar": 2279,
      "Ġeval": 2280,
      "Ġchang": 2281,
      "ending": 2282,
      "ĠAre": 2283,
      "ĠRuss": 2284,
      "ron": 2285,
      "ethod": 2286,
      "Ġconsultations": 2287,
      "Ġreturn": 2288,
      "Ġthank": 2289,
      "Ġprotect": 2290,
      "ĠAugust": 2291,
      "Ġsum": 2292,
      "aster": 2293,
      "Ġdisarmament": 2294,
      ".\"": 2295,
      "Ġleaders": 2296,
      "ream": 2297,
      "Ġasp": 2298,
      "ĠKing": 2299,
      "ĠHIV": 2300,
      "ermanent": 2301,
      "ĠInform": 2302,
      "Ġdecisions": 2303,
      "ĠSw": 2304,
      "Ġassoc": 2305,
      "Ġill": 2306,
      "Ġlarge": 2307,
      "Ġsecretariat": 2308,
      "Ġproviding": 2309,
      "Ġyet": 2310,
      "ising": 2311,
      "ĠPermanent": 2312,
      "lands": 2313,
      "Ġfreedom": 2314,
      "Ġâ": 2315,
      "Ġpast": 2316,
      "ĠDemocratic": 2317,
      "ior": 2318,
      "Ġmoney": 2319,
      "dom": 2320,
      "Ġ'": 2321,
      "Ġsug": 2322,
      "Ġ198": 2323,
      "Ġold": 2324,
      "Ġproduct": 2325,
      "stitute": 2326,
      "Ġrat": 2327,
      "Ġprevious": 2328,
      "11": 2329,
      "Ġaway": 2330,
      "force": 2331,
      "Ġresponse": 2332,
      "EF": 2333,
      "Ġgrowth": 2334,
      "ĠHis": 2335,
      "Ġrisk": 2336,
      "Ġpower": 2337,
      "by": 2338,
      "ĠAfgh": 2339,
      "ĠMinistry": 2340,
      "iatives": 2341,
      "ĠAdminist": 2342,
      "Ġfeel": 2343,
      "Ġmission": 2344,
      "Ġincreasing": 2345,
      "Ġchallenges": 2346,
      "Ġess": 2347,
      "lusion": 2348,
      "Ġpo": 2349,
      "orth": 2350,
      "ĠCons": 2351,
      "ledge": 2352,
      "raz": 2353,
      "ĠInter": 2354,
      "Ġpersonnel": 2355,
      "Ġemphas": 2356,
      "isc": 2357,
      "Ġprevention": 2358,
      "oman": 2359,
      "ĠCar": 2360,
      "Ġtry": 2361,
      "ĠBe": 2362,
      "aged": 2363,
      "Ġjoint": 2364,
      "abour": 2365,
      "Ġcover": 2366,
      "illennium": 2367,
      "Ġconclud": 2368,
      "Ġexpert": 2369,
      "Ġadequ": 2370,
      "ador": 2371,
      "Ġsure": 2372,
      "Ġdialogue": 2373,
      ".,": 2374,
      "Ġdue": 2375,
      "apan": 2376,
      "Ġpeoples": 2377,
      "2001": 2378,
      "Ġfriend": 2379,
      "Ġacts": 2380,
      "ici": 2381,
      "Ġhappen": 2382,
      "Ġreported": 2383,
      "ulture": 2384,
      "Ġmethod": 2385,
      "IS": 2386,
      "based": 2387,
      "til": 2388,
      "Ġbecome": 2389,
      "Ġinitiatives": 2390,
      "Ġpot": 2391,
      "ĠAfghan": 2392,
      "Ġsuggest": 2393,
      "Ġ24": 2394,
      "ator": 2395,
      "ifth": 2396,
      "Ġsever": 2397,
      "Ġactions": 2398,
      "Ġdrug": 2399,
      "25": 2400,
      "org": 2401,
      "Ġapprec": 2402,
      "Ġthird": 2403,
      "CN": 2404,
      "Ġassessment": 2405,
      "ruary": 2406,
      "ebruary": 2407,
      "ĠUNC": 2408,
      "Ġtarget": 2409,
      "ribunal": 2410,
      "ii": 2411,
      "Ġarrange": 2412,
      "Ġdel": 2413,
      "Ġkeep": 2414,
      "ĠImp": 2415,
      "of": 2416,
      "ef": 2417,
      "PA": 2418,
      "pro": 2419,
      "body": 2420,
      "Ġsl": 2421,
      "Ġfar": 2422,
      "ues": 2423,
      "Ġneeded": 2424,
      "Ġadequate": 2425,
      "unities": 2426,
      "ĠSc": 2427,
      "Ġalways": 2428,
      "Ġservice": 2429,
      "ĠFebruary": 2430,
      "Ġessential": 2431,
      "unt": 2432,
      "ison": 2433,
      "ured": 2434,
      "Ġpriority": 2435,
      "ither": 2436,
      "ĠPeop": 2437,
      "Ġenvironmental": 2438,
      "Ġprovides": 2439,
      "ww": 2440,
      "elines": 2441,
      "Ġpartnership": 2442,
      "Ġ26": 2443,
      "Ġbri": 2444,
      "ĠLook": 2445,
      "ĠAdvisory": 2446,
      "Ġvictims": 2447,
      "ĠSome": 2448,
      "Ġthought": 2449,
      "Ġseveral": 2450,
      "ĠPlan": 2451,
      "ti": 2452,
      "erate": 2453,
      "ably": 2454,
      "Ġtransfer": 2455,
      "ĠDirector": 2456,
      "Ġconn": 2457,
      "term": 2458,
      "ĠBank": 2459,
      "Ġable": 2460,
      "Ġbroad": 2461,
      "Ġtalk": 2462,
      "ĠBel": 2463,
      "ex": 2464,
      "Ġactive": 2465,
      "ĠCl": 2466,
      "Ġmet": 2467,
      "ada": 2468,
      "olution": 2469,
      "gent": 2470,
      "ĠAllah": 2471,
      "Ġobserv": 2472,
      "ĠWhile": 2473,
      "Ġexch": 2474,
      "Ġbre": 2475,
      "Ġrese": 2476,
      "Ġanalys": 2477,
      "ĠCommissioner": 2478,
      "ling": 2479,
      "rigin": 2480,
      "Ġmatters": 2481,
      "Ġstrategy": 2482,
      "Ġgirls": 2483,
      "CR": 2484,
      "va": 2485,
      "iveness": 2486,
      "ides": 2487,
      "Ġnight": 2488,
      "Ġbiennium": 2489,
      "Ġpoint": 2490,
      "Ġever": 2491,
      "Ġleave": 2492,
      "Ġapplication": 2493,
      "Ġrequests": 2494,
      "Ġlink": 2495,
      "lam": 2496,
      "ĠMillennium": 2497,
      "aken": 2498,
      "Ġrecord": 2499,
      "Ġhig": 2500,
      "erb": 2501,
      "Ġdocuments": 2502,
      "ON": 2503,
      "ĠGood": 2504,
      "Ġmind": 2505,
      "Ġcaus": 2506,
      "Ġwee": 2507,
      "ones": 2508,
      "30": 2509,
      "Ġagreements": 2510,
      "Ġthings": 2511,
      "Ġvote": 2512,
      "Ġer": 2513,
      "essional": 2514,
      "Ġwhole": 2515,
      "aran": 2516,
      "rict": 2517,
      "Ġtext": 2518,
      "Ġfew": 2519,
      "eed": 2520,
      "anda": 2521,
      "Ġrelig": 2522,
      "Ġpractice": 2523,
      "Ġcrime": 2524,
      "Ġfight": 2525,
      "way": 2526,
      "Ġread": 2527,
      "Ġposition": 2528,
      "hing": 2529,
      "ĠJapan": 2530,
      "ĠEm": 2531,
      "angu": 2532,
      "uty": 2533,
      "Ġforeign": 2534,
      "Ġokay": 2535,
      "Ġexerc": 2536,
      "Ġ28": 2537,
      "Ġpromotion": 2538,
      "rain": 2539,
      "ĠMon": 2540,
      "iative": 2541,
      "Ġcultural": 2542,
      "selves": 2543,
      "Ġcris": 2544,
      "Ġinstruments": 2545,
      "AIDS": 2546,
      "ests": 2547,
      "ours": 2548,
      "Ġtrad": 2549,
      "Ġground": 2550,
      "Ġproperty": 2551,
      "Ġenhance": 2552,
      "60": 2553,
      "Ġtas": 2554,
      "Ġdated": 2555,
      "Ġhope": 2556,
      "ĠSummit": 2557,
      "Ġpotential": 2558,
      "Ġdiscussion": 2559,
      "ĠCharter": 2560,
      "ĠGet": 2561,
      "ĠâĻ": 2562,
      "Ġhowever": 2563,
      "ĠOffic": 2564,
      "Ġtrafficking": 2565,
      "hib": 2566,
      "sec": 2567,
      "istics": 2568,
      "Ġprepared": 2569,
      "Ġcommitted": 2570,
      "Ġdebt": 2571,
      "app": 2572,
      "Ġfinal": 2573,
      "Ġrecommended": 2574,
      "Ġmaking": 2575,
      "ĠKingdom": 2576,
      "ĠAust": 2577,
      "Ġhouse": 2578,
      "ER": 2579,
      "Ġhaving": 2580,
      "ode": 2581,
      "ulated": 2582,
      "acy": 2583,
      "aid": 2584,
      "ĠTreaty": 2585,
      "ĠPanel": 2586,
      "ivision": 2587,
      "Ġtre": 2588,
      "atch": 2589,
      "Ġforces": 2590,
      "ĠEurope": 2591,
      "mar": 2592,
      "Ġturn": 2593,
      "val": 2594,
      "ĠPar": 2595,
      "ĠOther": 2596,
      "Ġfifty": 2597,
      "Ġresearch": 2598,
      "ĠâĢ¢": 2599,
      "Ġself": 2600,
      "Ġdetail": 2601,
      "Ġspeak": 2602,
      "Ġanything": 2603,
      "Ġstatements": 2604,
      "Ġsorry": 2605,
      "Ġdate": 2606,
      "new": 2607,
      "ĠAgree": 2608,
      "Ġuntil": 2609,
      "Ġsection": 2610,
      "Ġinstitution": 2611,
      "Ġothers": 2612,
      "ĠTrans": 2613,
      "ĠStat": 2614,
      "Ġequality": 2615,
      "Ġreason": 2616,
      "gency": 2617,
      "ense": 2618,
      "Ġtreaty": 2619,
      "ĠTur": 2620,
      "uted": 2621,
      "Ġreduction": 2622,
      "Ġprocedure": 2623,
      "Ġ27": 2624,
      "ĠTerrit": 2625,
      "--": 2626,
      "Ġgreater": 2627,
      "Ġobjectives": 2628,
      "ĠMa": 2629,
      "ĠCongo": 2630,
      "Ġhost": 2631,
      "Ġmig": 2632,
      "Ġage": 2633,
      "though": 2634,
      "Ġcannot": 2635,
      "Ġliving": 2636,
      "Ġnorm": 2637,
      "Ġfail": 2638,
      "Ġattack": 2639,
      "rought": 2640,
      "ĠYork": 2641,
      "Ġlive": 2642,
      "af": 2643,
      "Ġresponsible": 2644,
      "vere": 2645,
      "ĠUnder": 2646,
      "Ġdecl": 2647,
      "rast": 2648,
      "ĠAgenda": 2649,
      "ĠPlease": 2650,
      "mission": 2651,
      "The": 2652,
      "Ġpromoting": 2653,
      "ĠService": 2654,
      "bs": 2655,
      "Ġcamp": 2656,
      "ĠAdd": 2657,
      "ension": 2658,
      "Ġproposals": 2659,
      "Ġinvestment": 2660,
      "Ġstudy": 2661,
      "Ġaimed": 2662,
      "Ġmarket": 2663,
      "Ġpurpose": 2664,
      "Ġmonths": 2665,
      "Ġestim": 2666,
      "Ġoffice": 2667,
      "2005": 2668,
      "rel": 2669,
      "Ġdays": 2670,
      "Ġmissions": 2671,
      "ĠFurther": 2672,
      "Ġfav": 2673,
      "Ġouts": 2674,
      "anced": 2675,
      "ached": 2676,
      "Ġinvolved": 2677,
      "Ġunivers": 2678,
      "ĠUNDP": 2679,
      "Ġener": 2680,
      "Ġexam": 2681,
      "Ġknowledge": 2682,
      "ĠFore": 2683,
      "Ġdeath": 2684,
      "Ġadministrative": 2685,
      "ĠUS": 2686,
      "Ġleft": 2687,
      "Ġtru": 2688,
      "eria": 2689,
      "Ġcontain": 2690,
      "Ġconsist": 2691,
      "Ġbody": 2692,
      "Ġsteps": 2693,
      "amental": 2694,
      "Ġshort": 2695,
      "Ġfunding": 2696,
      "mediate": 2697,
      "Ġforward": 2698,
      "ipment": 2699,
      "ticles": 2700,
      "Ġelimin": 2701,
      "Ġair": 2702,
      "ĠTribunal": 2703,
      "Ġrecon": 2704,
      "AC": 2705,
      "Ġstress": 2706,
      "erson": 2707,
      "Ġemployment": 2708,
      "Ġwrit": 2709,
      "Ġyoun": 2710,
      "Ġindust": 2711,
      "ĠYour": 2712,
      "Ġdesc": 2713,
      "ording": 2714,
      "Ġplanning": 2715,
      "Ġearly": 2716,
      "uations": 2717,
      "ta": 2718,
      ".âĢĿ": 2719,
      "fficient": 2720,
      "ĠâĻª": 2721,
      "arters": 2722,
      "Ġstrategies": 2723,
      "ĠInformation": 2724,
      "ĠComp": 2725,
      "Ġprinciple": 2726,
      "Ġunderstanding": 2727,
      "ipl": 2728,
      "eneva": 2729,
      "Ġopportunity": 2730,
      "Ġmor": 2731,
      "ury": 2732,
      "Ġreserv": 2733,
      "Ġannual": 2734,
      "oke": 2735,
      "itiz": 2736,
      "ops": 2737,
      "Ġpursuant": 2738,
      "Ġlaws": 2739,
      "Ġplease": 2740,
      "Ġimplementing": 2741,
      "ĠMeeting": 2742,
      "struction": 2743,
      "Ġbal": 2744,
      "ograph": 2745,
      "Ġrac": 2746,
      "ana": 2747,
      "ĠCoven": 2748,
      "ĠQu": 2749,
      "ĠApp": 2750,
      "Ġforms": 2751,
      "ĠAnnex": 2752,
      "Ġloss": 2753,
      "Ġcontribute": 2754,
      "Ġoperational": 2755,
      "Ġteam": 2756,
      "Ġfacilitate": 2757,
      "63": 2758,
      "Ġthus": 2759,
      "ĠMar": 2760,
      "Ġ29": 2761,
      "Ġlangu": 2762,
      "Ġtold": 2763,
      "abilities": 2764,
      "Ġviolations": 2765,
      "Ġjob": 2766,
      "Ġchap": 2767,
      "Ġ1998": 2768,
      "ĠRussian": 2769,
      "13": 2770,
      "fact": 2771,
      "Ġnatural": 2772,
      "Ġdam": 2773,
      "alls": 2774,
      "Ġapproved": 2775,
      "Ġsk": 2776,
      "Ġenergy": 2777,
      "ilar": 2778,
      "Ġtreatment": 2779,
      "ĠTrade": 2780,
      "14": 2781,
      "Ġbegin": 2782,
      "Ġrun": 2783,
      "Ġgoals": 2784,
      "ĠCol": 2785,
      "ĠAsia": 2786,
      "Ġmaintain": 2787,
      "ĠCentral": 2788,
      "enty": 2789,
      "Ġcompan": 2790,
      "Ġrate": 2791,
      "ĠIsraeli": 2792,
      "DC": 2793,
      "Ġquestions": 2794,
      "Ġincome": 2795,
      "Ġproposal": 2796,
      "Ġmultilateral": 2797,
      "Ġfundamental": 2798,
      "ĠGeneva": 2799,
      "AT": 2800,
      "ĠCount": 2801,
      "ĠHead": 2802,
      "ĠGerman": 2803,
      "ien": 2804,
      "Ġletter": 2805,
      "Ġbuilding": 2806,
      "Ġsan": 2807,
      "Ġexchange": 2808,
      "olid": 2809,
      "Ġlear": 2810,
      "Ġplans": 2811,
      "Ġissued": 2812,
      "areness": 2813,
      "bit": 2814,
      "Ġrespond": 2815,
      "Ġoffic": 2816,
      "Ġorganized": 2817,
      "Ġexperts": 2818,
      "ĠSom": 2819,
      "Ġnothing": 2820,
      "Ġstop": 2821,
      "ĠAgreement": 2822,
      "men": 2823,
      "Ġpass": 2824,
      "uel": 2825,
      "icit": 2826,
      "ĠMore": 2827,
      "more": 2828,
      "ipp": 2829,
      "going": 2830,
      "Ġoften": 2831,
      "ĠCor": 2832,
      "ilization": 2833,
      "xic": 2834,
      "iter": 2835,
      "Ġmother": 2836,
      "Ġharm": 2837,
      "Ġidentify": 2838,
      "ĠRequ": 2839,
      "Ġaspects": 2840,
      "Ġwrong": 2841,
      "Ġtechnolog": 2842,
      "ulner": 2843,
      "ĠBy": 2844,
      "ICEF": 2845,
      "ĠAfghanistan": 2846,
      "Ġproduction": 2847,
      "ĠTechn": 2848,
      "ĠLeban": 2849,
      "Ġrein": 2850,
      "ensus": 2851,
      "quarters": 2852,
      "Ġcarry": 2853,
      "ĠNon": 2854,
      "Ġnature": 2855,
      "arante": 2856,
      "Ġele": 2857,
      "Ġhear": 2858,
      "Ġtop": 2859,
      "Ġsexual": 2860,
      "Ġperformance": 2861,
      "TAD": 2862,
      "ĠCovenant": 2863,
      "ises": 2864,
      "Ġorigin": 2865,
      "Ġdisp": 2866,
      "55": 2867,
      "ĠDivision": 2868,
      "Ġpap": 2869,
      "Ġimmediate": 2870,
      "Ġcommunication": 2871,
      "Ġbasic": 2872,
      "Ġequal": 2873,
      "Ġaffected": 2874,
      "Ġtyp": 2875,
      "ĠPeople": 2876,
      "ese": 2877,
      "Ġtransport": 2878,
      "Ġarrangements": 2879,
      "__": 2880,
      "Ġexpected": 2881,
      "Ġpoin": 2882,
      "Ġbank": 2883,
      "iferation": 2884,
      "Ġrecommendation": 2885,
      "most": 2886,
      "Ġbig": 2887,
      "liance": 2888,
      "ĠRecalling": 2889,
      "EA": 2890,
      "Ġdead": 2891,
      "Ġaud": 2892,
      "ferences": 2893,
      "Ġpat": 2894,
      "Ġundertaken": 2895,
      "ĠFederation": 2896,
      "ventions": 2897,
      "Ġdemand": 2898,
      "oot": 2899,
      "iction": 2900,
      "lementation": 2901,
      "Ġsupported": 2902,
      "ĠCriminal": 2903,
      "Ġonce": 2904,
      "Ġenj": 2905,
      "ĠCoordin": 2906,
      "Ġabs": 2907,
      "Ġyoung": 2908,
      "Ġwait": 2909,
      "ĠForum": 2910,
      "iqu": 2911,
      "Ġsett": 2912,
      "Ġaccept": 2913,
      "Ġrespective": 2914,
      "ya": 2915,
      "Ġcommunities": 2916,
      "ĠBur": 2917,
      "Ġdesign": 2918,
      "ĠGlobal": 2919,
      "Ġcoming": 2920,
      "Ġvulner": 2921,
      "Ġcounter": 2922,
      "Ġequipment": 2923,
      "Ġcarried": 2924,
      "level": 2925,
      "ĠCentre": 2926,
      "ung": 2927,
      "Ġdev": 2928,
      "Ġensuring": 2929,
      "udan": 2930,
      "Ġcollabor": 2931,
      "Ġopportunities": 2932,
      "2003": 2933,
      "Ġver": 2934,
      "23": 2935,
      "ires": 2936,
      "Ġnotes": 2937,
      "omb": 2938,
      "Ġcrisis": 2939,
      "Ġbu": 2940,
      "Ġwon": 2941,
      "Ġenforce": 2942,
      "Ġremains": 2943,
      "ying": 2944,
      "ĠEnvironment": 2945,
      "Ġdoll": 2946,
      "Ġdispl": 2947,
      "Ġdelegations": 2948,
      "Ġawareness": 2949,
      "Ġfulf": 2950,
      "Ġnegotiations": 2951,
      "Ġlow": 2952,
      "Ġcoop": 2953,
      "2000": 2954,
      "Ġanalysis": 2955,
      "Ġemploy": 2956,
      "Ġnetwork": 2957,
      "ama": 2958,
      "Ġcontribution": 2959,
      "Ġmechanism": 2960,
      "Ġguarante": 2961,
      "Ġdistrib": 2962,
      "izes": 2963,
      "ĠHer": 2964,
      "Ġline": 2965,
      "Ġoffices": 2966,
      "Ġformer": 2967,
      "Ġseen": 2968,
      "ĠCooperation": 2969,
      "reme": 2970,
      "ored": 2971,
      "Ġguidelines": 2972,
      "57": 2973,
      "Ġcommitments": 2974,
      "iddle": 2975,
      "ĠFirst": 2976,
      "Ġgrant": 2977,
      "Ġstated": 2978,
      "essions": 2979,
      "rimes": 2980,
      "Ġcompl": 2981,
      "Ġ50": 2982,
      "Ġcurrently": 2983,
      "Ġposts": 2984,
      "Ġclaims": 2985,
      "ched": 2986,
      "Ġ2009": 2987,
      "Ġcame": 2988,
      "ĠAccording": 2989,
      "Ġitself": 2990,
      "Ġhard": 2991,
      "ĠDid": 2992,
      "Ġconcerns": 2993,
      "Ġeconomy": 2994,
      "Ġhon": 2995,
      "Ġsoon": 2996,
      "Ġpositive": 2997,
      "Ġlimited": 2998,
      "Ġconsequ": 2999,
      "Ġcombat": 3000,
      "Ġpun": 3001,
      "Ġevidence": 3002,
      "Ġfinancing": 3003,
      "Ġexperience": 3004,
      "Ġparticipate": 3005,
      "Ġrural": 3006,
      "Ġreferred": 3007,
      "18": 3008,
      "ishment": 3009,
      "Ġsep": 3010,
      "Ġalia": 3011,
      "ĠSudan": 3012,
      "Ġauthority": 3013,
      "ĠLat": 3014,
      "ĠKore": 3015,
      "ĠUNCTAD": 3016,
      "oid": 3017,
      "Ġrecognized": 3018,
      "unic": 3019,
      "Ġmanner": 3020,
      "Ġstrategic": 3021,
      "ibilities": 3022,
      "Ġterritory": 3023,
      "Ġcomplete": 3024,
      "gal": 3025,
      "ĠThen": 3026,
      "Ġshare": 3027,
      "iting": 3028,
      "just": 3029,
      "Ġexcept": 3030,
      "Ġimplemented": 3031,
      "Ġconnection": 3032,
      "ĠCub": 3033,
      "Ġstay": 3034,
      "ik": 3035,
      "ĠNet": 3036,
      "ĠImplementation": 3037,
      "ĠCrime": 3038,
      "Ġenjoy": 3039,
      "Ġbelow": 3040,
      "Ġseem": 3041,
      "Ġlot": 3042,
      "Ġsuff": 3043,
      "endit": 3044,
      "17": 3045,
      "Ġrefugees": 3046,
      "ientific": 3047,
      "racy": 3048,
      "teg": 3049,
      "59": 3050,
      "ĠReview": 3051,
      "Ġbrought": 3052,
      "Ġindependent": 3053,
      "cont": 3054,
      "ica": 3055,
      "Ġkid": 3056,
      "ĠSecond": 3057,
      "Ġmom": 3058,
      "orn": 3059,
      "aragraph": 3060,
      "GO": 3061,
      "isional": 3062,
      "Ġmob": 3063,
      "Ġcircum": 3064,
      "Ġalleg": 3065,
      "62": 3066,
      "Ġexercise": 3067,
      "ĠIran": 3068,
      "Ġarticles": 3069,
      "uris": 3070,
      "ĠRo": 3071,
      "ĠSupp": 3072,
      "Ġpoor": 3073,
      "Ġbelie": 3074,
      "erous": 3075,
      "ination": 3076,
      "related": 3077,
      "Ġoverall": 3078,
      "Ġcourt": 3079,
      "itizens": 3080,
      "co": 3081,
      "Ġprocesses": 3082,
      "Ġface": 3083,
      "ĠTim": 3084,
      "stances": 3085,
      "ĠDuring": 3086,
      "razil": 3087,
      "lies": 3088,
      "Ġachieved": 3089,
      "Ġdeep": 3090,
      "EP": 3091,
      "Ġinfrast": 3092,
      "Ġoutcome": 3093,
      "enth": 3094,
      "ĠWel": 3095,
      "Ġroom": 3096,
      "Ġbenefits": 3097,
      "Ġindividuals": 3098,
      "Ġtransp": 3099,
      "Ġapply": 3100,
      "Ġeas": 3101,
      "OP": 3102,
      "ateg": 3103,
      "aches": 3104,
      "Ġenough": 3105,
      "ucking": 3106,
      "Ġprovisional": 3107,
      "58": 3108,
      "Ġexport": 3109,
      "ton": 3110,
      "Ġclimate": 3111,
      "ĠPer": 3112,
      "Ġeverything": 3113,
      "Ġ...": 3114,
      "ĠCanada": 3115,
      "Ġthemselves": 3116,
      "ĠSy": 3117,
      "Ġworkers": 3118,
      "Ġreference": 3119,
      "Ġfamil": 3120,
      "Ġsuccessful": 3121,
      "Ġsubs": 3122,
      "Ġenter": 3123,
      "Ġofficials": 3124,
      "Ġidentified": 3125,
      "Ġsubstantive": 3126,
      "ĠFrance": 3127,
      "Ġevaluation": 3128,
      "Ġmention": 3129,
      "Ġconference": 3130,
      "Ġmass": 3131,
      "ĠPh": 3132,
      "Ġinformed": 3133,
      "ĠJustice": 3134,
      "untary": 3135,
      "Ġlaun": 3136,
      "cent": 3137,
      "venth": 3138,
      "lamic": 3139,
      "lia": 3140,
      "Ġvalue": 3141,
      "Ġcalls": 3142,
      "Ġcust": 3143,
      "Ġpress": 3144,
      "rad": 3145,
      "Ġterrorist": 3146,
      "ev": 3147,
      "Ġfunctions": 3148,
      "Ġbuild": 3149,
      "rorism": 3150,
      "Ġfacilities": 3151,
      "ĠRequests": 3152,
      "Ġrecommends": 3153,
      "ourth": 3154,
      "Ġaccording": 3155,
      "Ġassets": 3156,
      "24": 3157,
      "ecting": 3158,
      "ĠHere": 3159,
      "Ġguy": 3160,
      "Ġid": 3161,
      "ĠDisc": 3162,
      "mical": 3163,
      "Ġmiss": 3164,
      "light": 3165,
      "Ġz": 3166,
      "ĠAlso": 3167,
      "imum": 3168,
      "Ġbrief": 3169,
      "ĠGreat": 3170,
      "Ġprimary": 3171,
      "ĠUNICEF": 3172,
      "Ġsing": 3173,
      "Ġlo": 3174,
      "Ġworksh": 3175,
      "Ġ--": 3176,
      "ites": 3177,
      "arth": 3178,
      "Ġasked": 3179,
      "ruction": 3180,
      "uw": 3181,
      "50": 3182,
      "Ġparagraphs": 3183,
      "Ġcol": 3184,
      "Ġitems": 3185,
      "Ġpresented": 3186,
      "oon": 3187,
      "orture": 3188,
      "Ġalloc": 3189,
      "ĠConstitution": 3190,
      "Ġcrimes": 3191,
      "Ġeffectively": 3192,
      "poses": 3193,
      "Ġquality": 3194,
      "ĠIndia": 3195,
      "Ġwhose": 3196,
      "Ġrather": 3197,
      "ĠParty": 3198,
      "Ġviews": 3199,
      "Ġelse": 3200,
      "Ġobjective": 3201,
      "Ġdebate": 3202,
      "Ġoutside": 3203,
      "ĠSince": 3204,
      "ĠForeign": 3205,
      "Ġagric": 3206,
      "Ġjuris": 3207,
      "ania": 3208,
      "Ġfather": 3209,
      "Ġhist": 3210,
      "Ġpreparation": 3211,
      "arent": 3212,
      "ĠMexic": 3213,
      "urement": 3214,
      "Ġsituations": 3215,
      "Ġdemon": 3216,
      "ĠProtection": 3217,
      "Ġgovernance": 3218,
      "Ġlater": 3219,
      "Ġexpendit": 3220,
      "ĠGe": 3221,
      "lied": 3222,
      "61": 3223,
      "Ġways": 3224,
      "Ġbad": 3225,
      "ĠCivil": 3226,
      "Ġrap": 3227,
      "Ġpurposes": 3228,
      "Ġopin": 3229,
      "atis": 3230,
      "AR": 3231,
      "aps": 3232,
      "ha": 3233,
      "Ġsusp": 3234,
      "Ġenable": 3235,
      "Ġongoing": 3236,
      "ude": 3237,
      "wing": 3238,
      "ĠTw": 3239,
      "ĠX": 3240,
      "Ġinitiative": 3241,
      "Ġeither": 3242,
      "ĠBrazil": 3243,
      "2004": 3244,
      "Ġintegrated": 3245,
      "Ġheard": 3246,
      "2002": 3247,
      "ĠAssist": 3248,
      "Ġdr": 3249,
      "uwait": 3250,
      "Ġsy": 3251,
      "ĠKos": 3252,
      "Ġinformal": 3253,
      "Ġinvolve": 3254,
      "ĠManagement": 3255,
      "ĠUnivers": 3256,
      "Ġappreciation": 3257,
      "ĠLord": 3258,
      "Ġregions": 3259,
      "Ġeth": 3260,
      "ĠPublic": 3261,
      "Ġfunction": 3262,
      "Ġentities": 3263,
      "orpor": 3264,
      "ĠKorea": 3265,
      "Ġcircumstances": 3266,
      "ĠEduc": 3267,
      "Ġinfrastructure": 3268,
      "Ġbenefit": 3269,
      "Ġce": 3270,
      "Ġreach": 3271,
      "aries": 3272,
      "Ġinstitutional": 3273,
      "Ġcomplain": 3274,
      "put": 3275,
      "ĠAgency": 3276,
      "osp": 3277,
      "Ġcateg": 3278,
      "Ġtool": 3279,
      "Ġimm": 3280,
      "ruption": 3281,
      "Ġproceedings": 3282,
      "Ġdefin": 3283,
      "2007": 3284,
      "comm": 3285,
      "ends": 3286,
      "hab": 3287,
      "Ġwanted": 3288,
      "Ġreduce": 3289,
      "Ġfuck": 3290,
      "Ġlabour": 3291,
      "con": 3292,
      "year": 3293,
      "order": 3294,
      "ĠInv": 3295,
      "ĠAmerican": 3296,
      "sw": 3297,
      "ĠKosov": 3298,
      "ins": 3299,
      "HR": 3300,
      "rench": 3301,
      "Ġchanges": 3302,
      "Ġemb": 3303,
      "Ġminor": 3304,
      "Ġdemonst": 3305,
      "56": 3306,
      "Ġtest": 3307,
      "Ġguys": 3308,
      "nic": 3309,
      "ĠHealth": 3310,
      "Ġsessions": 3311,
      "ple": 3312,
      "liament": 3313,
      "Ġgoods": 3314,
      "comes": 3315,
      "Ġdoesn": 3316,
      "Ġmut": 3317,
      "Ġobser": 3318,
      "ĠPr": 3319,
      "ĠStrate": 3320,
      "ĠSuch": 3321,
      "Ġtem": 3322,
      "Ġstability": 3323,
      "Ġreaff": 3324,
      "Ġencourage": 3325,
      "ery": 3326,
      "Ġbit": 3327,
      "Ġago": 3328,
      "Ġenforcement": 3329,
      "73": 3330,
      "Ġaltern": 3331,
      "ibb": 3332,
      "ĠDraft": 3333,
      "enal": 3334,
      "key": 3335,
      "Ġthroughout": 3336,
      "Ġelements": 3337,
      "ĠGermany": 3338,
      "Ġwelcome": 3339,
      "Ġtrust": 3340,
      "Ġcapital": 3341,
      "Ġsafety": 3342,
      "Ġut": 3343,
      "Ġcompens": 3344,
      "ducing": 3345,
      "ĠInstitute": 3346,
      "ustainable": 3347,
      "Ġindicated": 3348,
      "lications": 3349,
      "mark": 3350,
      "ĠOp": 3351,
      "ĠTH": 3352,
      "Ġresource": 3353,
      "ĠAny": 3354,
      "Ġhigher": 3355,
      "ĠKosovo": 3356,
      "DA": 3357,
      "Ġdevelopments": 3358,
      "Ġinternal": 3359,
      "ĠKuwait": 3360,
      "Ġintegration": 3361,
      "iet": 3362,
      "Ġusing": 3363,
      "illeg": 3364,
      "Ġprohib": 3365,
      "ĠSal": 3366,
      "verse": 3367,
      "Ġeffects": 3368,
      "Ġobligation": 3369,
      "Ġcompliance": 3370,
      "Ġcritical": 3371,
      "Ġhours": 3372,
      "ĠChildren": 3373,
      "40": 3374,
      "ĠOf": 3375,
      "Ġincorpor": 3376,
      "Ġtwenty": 3377,
      "my": 3378,
      "Ġcho": 3379,
      "Ġterm": 3380,
      "Ġinn": 3381,
      "struct": 3382,
      "Ġopt": 3383,
      "aly": 3384,
      "Ġextent": 3385,
      "ĠSection": 3386,
      "making": 3387,
      "ĠCountries": 3388,
      "16": 3389,
      "Ġwords": 3390,
      "Ġamend": 3391,
      "Ġfucking": 3392,
      "ĠExper": 3393,
      "ibbean": 3394,
      "Ġpeaceful": 3395,
      "Ġadministration": 3396,
      "Ġconducted": 3397,
      "Ġ1997": 3398,
      "Ġcommunications": 3399,
      "Ġregist": 3400,
      "Ġsir": 3401,
      "Un": 3402,
      "ĠBrit": 3403,
      "OS": 3404,
      "Ġilleg": 3405,
      "ĠForce": 3406,
      "Ġdri": 3407,
      "Ġinterests": 3408,
      "Ġresponsibilities": 3409,
      "Ġacce": 3410,
      "inea": 3411,
      "Ġexperi": 3412,
      "ronic": 3413,
      "Ġoperation": 3414,
      "uh": 3415,
      "Ġrevised": 3416,
      "Ġpriorities": 3417,
      "Ġmedia": 3418,
      "ows": 3419,
      "aving": 3420,
      "Ġconflicts": 3421,
      "Ġrelationship": 3422,
      "ĠUnit": 3423,
      "Ġcontinues": 3424,
      "Ġeffectiveness": 3425,
      "ĠCaribbean": 3426,
      "enary": 3427,
      "Ġsources": 3428,
      "Ġintergovernmental": 3429,
      "Ġcivilian": 3430,
      "Ġavoid": 3431,
      "ĠRegional": 3432,
      "Ġdollars": 3433,
      "ĠMexico": 3434,
      "Ġtimes": 3435,
      "Ġwide": 3436,
      "ĠOper": 3437,
      "standing": 3438,
      "semin": 3439,
      "acific": 3440,
      "Ġweek": 3441,
      "Ġsepar": 3442,
      "ĠEvery": 3443,
      "Ġaccom": 3444,
      "Ġcreate": 3445,
      "Ġve": 3446,
      "Ġhalf": 3447,
      "Ġwoman": 3448,
      "Ġfamilies": 3449,
      "lav": 3450,
      "ĠOur": 3451,
      "ĠLiber": 3452,
      "secut": 3453,
      "Ġwit": 3454,
      "Ġ60": 3455,
      "CT": 3456,
      "ades": 3457,
      "AS": 3458,
      "ler": 3459,
      "itors": 3460,
      "Ġlate": 3461,
      "ulate": 3462,
      "ĠBar": 3463,
      "mbass": 3464,
      "ĠPolitical": 3465,
      "ĠCuba": 3466,
      "hern": 3467,
      "ature": 3468,
      "Ġjurisd": 3469,
      "alk": 3470,
      "26": 3471,
      "Ġsimilar": 3472,
      "irms": 3473,
      "Ġsectors": 3474,
      "Ġtable": 3475,
      "reland": 3476,
      "Ġsubreg": 3477,
      "istic": 3478,
      "Ġacqu": 3479,
      "ued": 3480,
      "Ġconv": 3481,
      "Ġsubsequ": 3482,
      "ĠCode": 3483,
      "Ġdestruction": 3484,
      "Ġimproving": 3485,
      "Ġjudicial": 3486,
      "Ġden": 3487,
      "Ġconcept": 3488,
      "emin": 3489,
      "ĠBec": 3490,
      "rants": 3491,
      "Ġrates": 3492,
      "Ġinvited": 3493,
      "Ġcontinuing": 3494,
      "Ġcitizens": 3495,
      "Ġcompon": 3496,
      "Ġhous": 3497,
      "Ġjoin": 3498,
      "Ġexpand": 3499,
      "Ġkilled": 3500,
      "Ġcru": 3501,
      "Ġactivity": 3502,
      "ĠSupport": 3503,
      "à¤¾": 3504,
      "urs": 3505,
      "oph": 3506,
      "ĠRel": 3507,
      "Ġappoint": 3508,
      "itable": 3509,
      "Ġdescrib": 3510,
      "Ġcentral": 3511,
      "ensive": 3512,
      "ĠGuinea": 3513,
      "27": 3514,
      "Ġachieving": 3515,
      "AL": 3516,
      "rary": 3517,
      "akistan": 3518,
      "Ġconsolid": 3519,
      "Ġinstrument": 3520,
      "Ġdiscussions": 3521,
      "ening": 3522,
      "Ġprec": 3523,
      "Ġtechnologies": 3524,
      "line": 3525,
      "ersons": 3526,
      "Ġhell": 3527,
      "esc": 3528,
      "ĠIreland": 3529,
      "ĠDar": 3530,
      "Ġscope": 3531,
      "Ġ#": 3532,
      "read": 3533,
      "Ġelections": 3534,
      "Ġaid": 3535,
      "first": 3536,
      "ocracy": 3537,
      "Ġexplo": 3538,
      "ĠWest": 3539,
      "Ġwelcomed": 3540,
      "rian": 3541,
      "Ġconven": 3542,
      "person": 3543,
      "ills": 3544,
      "Ġsatis": 3545,
      "2006": 3546,
      "ĠFrench": 3547,
      "Ġofficers": 3548,
      "pted": 3549,
      "Ġcross": 3550,
      "Ġdang": 3551,
      "AN": 3552,
      "ĠMor": 3553,
      "Ġprison": 3554,
      "Ġintroduced": 3555,
      "know": 3556,
      "Ġparticipants": 3557,
      "wide": 3558,
      "Ġ40": 3559,
      "omin": 3560,
      "Ġopinion": 3561,
      "Ġflo": 3562,
      "ĠAustral": 3563,
      "aign": 3564,
      "Ġwent": 3565,
      "....": 3566,
      "mm": 3567,
      "EN": 3568,
      "Ġtri": 3569,
      "Ġfine": 3570,
      "Ġpaid": 3571,
      "vey": 3572,
      "Ġhappened": 3573,
      "Ġmess": 3574,
      "IT": 3575,
      "ding": 3576,
      "Ġrecru": 3577,
      "IL": 3578,
      "Ġforest": 3579,
      "Ġsufficient": 3580,
      "acter": 3581,
      "Ġside": 3582,
      "Ġ55": 3583,
      "Ġphys": 3584,
      "adic": 3585,
      "Ġheart": 3586,
      "oslav": 3587,
      "Ch": 3588,
      "orrow": 3589,
      "apon": 3590,
      "holders": 3591,
      "ector": 3592,
      "Ġalong": 3593,
      "Ġindicators": 3594,
      "Ġsw": 3595,
      "ierra": 3596,
      "ugoslav": 3597,
      "Ġcomments": 3598,
      "ĠThose": 3599,
      "Ġsal": 3600,
      "Ġtro": 3601,
      "ĠNGO": 3602,
      "Ġregime": 3603,
      "Ġspecialized": 3604,
      "irmed": 3605,
      "Ġregulations": 3606,
      "ij": 3607,
      "Ġfig": 3608,
      "Ġstake": 3609,
      "empt": 3610,
      "umb": 3611,
      "Ġinterp": 3612,
      "ĠYugoslav": 3613,
      "Ġadvance": 3614,
      "Ġinitial": 3615,
      "yond": 3616,
      "Ġreached": 3617,
      "Ġbar": 3618,
      "Ġmedical": 3619,
      "Ġstructure": 3620,
      "Ġassociated": 3621,
      "Ġeight": 3622,
      "Ġtreaties": 3623,
      "Ġalone": 3624,
      "OM": 3625,
      "lish": 3626,
      "ume": 3627,
      "ĠServices": 3628,
      "Ġcop": 3629,
      "Ġ1996": 3630,
      "ĠIII": 3631,
      "cell": 3632,
      "ĠRw": 3633,
      "Ġbilateral": 3634,
      "Ġdissemin": 3635,
      "Ġrange": 3636,
      "ixth": 3637,
      "Ġdou": 3638,
      "ĠSomal": 3639,
      "ĠLeone": 3640,
      "Ġnear": 3641,
      "Ġcreation": 3642,
      "Ġconsensus": 3643,
      "Ġupd": 3644,
      "ĠCap": 3645,
      "Ġlost": 3646,
      "ames": 3647,
      "ĠTimor": 3648,
      "ĠDiscrimination": 3649,
      "Ġ197": 3650,
      "ĠLebanon": 3651,
      "ĠSierra": 3652,
      "Ġcentres": 3653,
      "Ġinfl": 3654,
      "Ġadopt": 3655,
      "Ġwid": 3656,
      "orthern": 3657,
      "Ġtravel": 3658,
      "Ġtransmit": 3659,
      "Ġdisplaced": 3660,
      "isters": 3661,
      "used": 3662,
      "United": 3663,
      "ĠForm": 3664,
      "Ġcreated": 3665,
      "iable": 3666,
      "wise": 3667,
      "ĠEng": 3668,
      "Ġready": 3669,
      "Ġabuse": 3670,
      "augh": 3671,
      "Ġlooking": 3672,
      "Ġpaper": 3673,
      "arc": 3674,
      "Ġcollaboration": 3675,
      "Ġ]": 3676,
      "Ġprofessional": 3677,
      "Ġuniversal": 3678,
      "Ġtrue": 3679,
      "ĠInt": 3680,
      "ĠUNM": 3681,
      "Ġsettlement": 3682,
      "Ġboy": 3683,
      "ĠMiddle": 3684,
      "ĠIslamic": 3685,
      "Ġstandard": 3686,
      "head": 3687,
      "ĠSustainable": 3688,
      "part": 3689,
      "ĠJoh": 3690,
      "Ġrad": 3691,
      "Ġsafe": 3692,
      "ere": 3693,
      "ĠBecause": 3694,
      "ĠNig": 3695,
      "Ġillicit": 3696,
      "gypt": 3697,
      "Ġguidance": 3698,
      "pet": 3699,
      "Ġson": 3700,
      "Ġvoluntary": 3701,
      "uting": 3702,
      "porary": 3703,
      "Ġlat": 3704,
      "Ġestablishing": 3705,
      "Ġfair": 3706,
      "bour": 3707,
      "where": 3708,
      "lusions": 3709,
      "Ġled": 3710,
      "ĠUNF": 3711,
      "Ġstruct": 3712,
      "ĠSa": 3713,
      "Ġple": 3714,
      "Ġaddressing": 3715,
      "Ġfulfil": 3716,
      "tenance": 3717,
      "ĠPakistan": 3718,
      "Ġarbit": 3719,
      "roll": 3720,
      "Ġremember": 3721,
      "rist": 3722,
      "roliferation": 3723,
      "Ġlives": 3724,
      "ĠOut": 3725,
      "Ġtrying": 3726,
      "Ġdelivery": 3727,
      "Ġmethods": 3728,
      "Ġwitness": 3729,
      "ny": 3730,
      "Ġsaw": 3731,
      "Ġshit": 3732,
      "Ġidea": 3733,
      "urance": 3734,
      "manent": 3735,
      "ĠDisarmament": 3736,
      "HCR": 3737,
      "Ġeconomies": 3738,
      "Ġcontact": 3739,
      "Ġbalance": 3740,
      "ront": 3741,
      "ĠNor": 3742,
      "yl": 3743,
      "Ġsigned": 3744,
      "Ġencouraged": 3745,
      "Ġtransition": 3746,
      "Ġeradic": 3747,
      "iplom": 3748,
      "Ġcal": 3749,
      "Ġforth": 3750,
      "Ġcharacter": 3751,
      "inth": 3752,
      "Ġrepl": 3753,
      "Ġsound": 3754,
      "Ġmakes": 3755,
      "Ġplenary": 3756,
      "Ġhighlight": 3757,
      "ercial": 3758,
      "ony": 3759,
      "Ġentire": 3760,
      "aratory": 3761,
      "Ġseek": 3762,
      "Ġestimated": 3763,
      "Ġvulnerable": 3764,
      "iles": 3765,
      "Ġ1995": 3766,
      "coming": 3767,
      "Ġfollows": 3768,
      "Ġfire": 3769,
      "Ġactually": 3770,
      "Ġcustom": 3771,
      "alled": 3772,
      "Ġlonger": 3773,
      "umption": 3774,
      "EC": 3775,
      "Ġfa": 3776,
      "Ġ1990": 3777,
      "Ġuseful": 3778,
      "Ġcle": 3779,
      "Ġrecover": 3780,
      "ĠLatin": 3781,
      "Ġalmost": 3782,
      "lex": 3783,
      "ĠThird": 3784,
      "ĠAdministrative": 3785,
      "28": 3786,
      "Ġtraditional": 3787,
      "ees": 3788,
      "Ġsomeone": 3789,
      "Ġillegal": 3790,
      "ĠRed": 3791,
      "ĠPrevention": 3792,
      "ria": 3793,
      "anna": 3794,
      "ĠAuthor": 3795,
      "Ġroad": 3796,
      "imately": 3797,
      "Ġconcluded": 3798,
      "Ġconst": 3799,
      "Ġclass": 3800,
      "iciency": 3801,
      "Ġconsequences": 3802,
      "Ġincludes": 3803,
      "AM": 3804,
      "Ġcand": 3805,
      "Ġstates": 3806,
      "Ġcampaign": 3807,
      "ĠPacific": 3808,
      "Ġtalking": 3809,
      "Ġdirectly": 3810,
      "ĠAfter": 3811,
      "dra": 3812,
      "iolog": 3813,
      "Ġleadership": 3814,
      "ĠMaybe": 3815,
      "Ġlegislative": 3816,
      "Ġclos": 3817,
      "Ġserve": 3818,
      "Ġachievement": 3819,
      "Ġcivilians": 3820,
      "OU": 3821,
      "Ġmine": 3822,
      "Ġanti": 3823,
      "Ġimplications": 3824,
      "Ġbeyond": 3825,
      "Ġmaterials": 3826,
      "ienna": 3827,
      "Ġmorning": 3828,
      "rew": 3829,
      "Ġpractical": 3830,
      "Ġtask": 3831,
      "Ġbab": 3832,
      "Ġparts": 3833,
      "ciliation": 3834,
      "Ġtrend": 3835,
      "Ġevents": 3836,
      "onia": 3837,
      "Ġreligious": 3838,
      "ĠHell": 3839,
      "Ġfem": 3840,
      "Ġchallenge": 3841,
      "ĠElimin": 3842,
      "Ġpermit": 3843,
      "ua": 3844,
      "Ġund": 3845,
      "Ġstage": 3846,
      "Ġgetting": 3847,
      "Ġgoal": 3848,
      "Ġsupporting": 3849,
      "Ġimproved": 3850,
      "Ġinterpret": 3851,
      "Ġmaintenance": 3852,
      "Ġrecently": 3853,
      "Ġsingle": 3854,
      "stream": 3855,
      "ĠMembers": 3856,
      "ĠOfficial": 3857,
      "ĠFollow": 3858,
      "Ġemergency": 3859,
      "Ġtax": 3860,
      "itz": 3861,
      "Ġoccur": 3862,
      "Ġbrother": 3863,
      "Ġmo": 3864,
      "Ġappeal": 3865,
      "resp": 3866,
      "Ġpresence": 3867,
      "Ġhop": 3868,
      "ĠSlo": 3869,
      "ĠIndones": 3870,
      "Ġopp": 3871,
      "ĠChe": 3872,
      "Ġey": 3873,
      "Ġclearly": 3874,
      "Ġbreak": 3875,
      "ĠRea": 3876,
      "Ġrelation": 3877,
      "ĠEth": 3878,
      "Ġhur": 3879,
      "Ġactors": 3880,
      "ĠExp": 3881,
      "ique": 3882,
      "29": 3883,
      "Ġpoints": 3884,
      "iary": 3885,
      "ological": 3886,
      "Ġsupply": 3887,
      "eng": 3888,
      "mbassador": 3889,
      "Ġappear": 3890,
      "Ġdivers": 3891,
      "Ġyourself": 3892,
      "Ġdistribution": 3893,
      "Ġconclusion": 3894,
      "ĠFurthermore": 3895,
      "Ġcause": 3896,
      "ece": 3897,
      "alities": 3898,
      "Ġrequires": 3899,
      "ĠGoals": 3900,
      "ĠEqu": 3901,
      "Ġpersp": 3902,
      "ĠAdop": 3903,
      "Ġspons": 3904,
      "Ġconstit": 3905,
      "Ġinsp": 3906,
      "ately": 3907,
      "vereign": 3908,
      "rence": 3909,
      "ĠChief": 3910,
      "ĠAssoc": 3911,
      "Ġmodel": 3912,
      "cle": 3913,
      "aria": 3914,
      "Ġconferences": 3915,
      "Ġadjust": 3916,
      "Ġreasons": 3917,
      "ĠEst": 3918,
      "Ġarrest": 3919,
      "ĠHeadquarters": 3920,
      "Ġge": 3921,
      "ĠTerritory": 3922,
      "riage": 3923,
      "ĠEgypt": 3924,
      "Ġsixty": 3925,
      "Ġapplicable": 3926,
      "Ġsolution": 3927,
      "Ġcompensation": 3928,
      "Ġsubsid": 3929,
      "ĠEducation": 3930,
      "sc": 3931,
      "Ġsovereign": 3932,
      "Ġacross": 3933,
      "ĠJoint": 3934,
      "Ġapplied": 3935,
      "Ġred": 3936,
      "Ġethnic": 3937,
      "erve": 3938,
      "ĠUNHCR": 3939,
      "Ġpret": 3940,
      "Ġmajority": 3941,
      "ĠProm": 3942,
      "Ġreceive": 3943,
      "ane": 3944,
      "Ġproducts": 3945,
      "ĠHave": 3946,
      "Ġjurisdiction": 3947,
      "ĠNuclear": 3948,
      "herlands": 3949,
      "Ġviolation": 3950,
      "ĠMoreover": 3951,
      "ĠAustralia": 3952,
      "OR": 3953,
      "economic": 3954,
      "Ġschools": 3955,
      "estern": 3956,
      "arity": 3957,
      "Ġreflected": 3958,
      "ĠRoom": 3959,
      "rid": 3960,
      "Ġsubmission": 3961,
      "Ġsanctions": 3962,
      "Ġmentioned": 3963,
      "Ġthough": 3964,
      "Ġduty": 3965,
      "ĠElimination": 3966,
      "Ġlanguage": 3967,
      "Ġaut": 3968,
      "Ġbillion": 3969,
      "ĠKy": 3970,
      "67": 3971,
      "ala": 3972,
      "ĠBurund": 3973,
      "ĠItaly": 3974,
      "ĠCham": 3975,
      "uff": 3976,
      "Ġtorture": 3977,
      "nes": 3978,
      "Ġcore": 3979,
      "imb": 3980,
      "Ġpermanent": 3981,
      "Ġvisit": 3982,
      "Ġfactors": 3983,
      "Ġcomplex": 3984,
      "istical": 3985,
      "ray": 3986,
      "irth": 3987,
      "ĠVienna": 3988,
      "Ġhands": 3989,
      "Ġstakeholders": 3990,
      "ats": 3991,
      "Ġsche": 3992,
      "icient": 3993,
      "Ġchemical": 3994,
      "Ġgave": 3995,
      "Ġbur": 3996,
      "ĠTake": 3997,
      "Ġwelcomes": 3998,
      "enced": 3999,
      "Ġconsultation": 4000,
      "Ġmoment": 4001,
      "bid": 4002,
      "ishes": 4003,
      "Ġraised": 4004,
      "Ġmanag": 4005,
      "Ġperiodic": 4006,
      "Ġoccupied": 4007,
      "Ġapproaches": 4008,
      "ĠCommunity": 4009,
      "tained": 4010,
      "Ġdemocracy": 4011,
      "ĠAlthough": 4012,
      "Ġforum": 4013,
      "ĠRecommend": 4014,
      "ĠTable": 4015,
      "enior": 4016,
      "ĠGre": 4017,
      "ĠOK": 4018,
      "lusive": 4019,
      "Ġdetailed": 4020,
      "ĠReaff": 4021,
      "Ġwor": 4022,
      "Ġdrink": 4023,
      "Ġphysical": 4024,
      "Ġport": 4025,
      "Ġsuggested": 4026,
      "Ġpred": 4027,
      "Ġwithdra": 4028,
      "action": 4029,
      "Ġhousing": 4030,
      "Ġcandid": 4031,
      "vered": 4032,
      "ĠPersons": 4033,
      "orial": 4034,
      "ĠAmbassador": 4035,
      "Ġi": 4036,
      "Ġextreme": 4037,
      "Ġdemocratic": 4038,
      "Ġir": 4039,
      "Ġwhom": 4040,
      "tegration": 4041,
      "sy": 4042,
      "ĠSupplement": 4043,
      "osition": 4044,
      "22": 4045,
      "habilit": 4046,
      "ĠWeapons": 4047,
      "Ġoccupation": 4048,
      "ĠCoordination": 4049,
      "ĠList": 4050,
      "ancy": 4051,
      "ĠPalestine": 4052,
      "ittees": 4053,
      "Ġ57": 4054,
      "Ġurban": 4055,
      "national": 4056,
      "ump": 4057,
      "Ġtakes": 4058,
      "PR": 4059,
      "Ġjudges": 4060,
      "irty": 4061,
      "ĠWait": 4062,
      "ĠUh": 4063,
      "ands": 4064,
      "Ġintegr": 4065,
      "gu": 4066,
      "Ġlegit": 4067,
      "ĠBos": 4068,
      "hood": 4069,
      "Ġyeah": 4070,
      "ĠBudget": 4071,
      "ĠUNEP": 4072,
      "ĠIslands": 4073,
      "ĠRwanda": 4074,
      "Ġaver": 4075,
      "Ġdiscussed": 4076,
      "ĠQuest": 4077,
      "Ġexploitation": 4078,
      "Ġefficient": 4079,
      "Ġcorre": 4080,
      "arency": 4081,
      "ead": 4082,
      "otion": 4083,
      "ĠDrug": 4084,
      "ĠOpt": 4085,
      "Ġdisaster": 4086,
      "CE": 4087,
      "flic": 4088,
      "Ġisn": 4089,
      "Ġcovered": 4090,
      "gol": 4091,
      "ĠSpace": 4092,
      "Ġnegative": 4093,
      "Ġdiplom": 4094,
      "Ġexpect": 4095,
      "ĠTurkey": 4096,
      "1999": 4097,
      "icy": 4098,
      "Ġdetention": 4099,
      "ĠRecogn": 4100,
      "ĠOperations": 4101,
      "umed": 4102,
      "ush": 4103,
      "egu": 4104,
      "bel": 4105,
      "Ġknown": 4106,
      "Ġsubstantial": 4107,
      "Ġconsistent": 4108,
      "ĠConc": 4109,
      "ĠPhil": 4110,
      "ĠAuthority": 4111,
      "ĠCy": 4112,
      "Ġdesp": 4113,
      "irming": 4114,
      "ĠAdministration": 4115,
      "à¥ĩ": 4116,
      "iop": 4117,
      "vo": 4118,
      "Ġcut": 4119,
      "ĠSer": 4120,
      "Ġdise": 4121,
      "ĠNetherlands": 4122,
      "Ġmarkets": 4123,
      "Ġ100": 4124,
      "la": 4125,
      "ĠDecides": 4126,
      "ĠSystem": 4127,
      "Ġparas": 4128,
      "ĠBang": 4129,
      "Ġdesigned": 4130,
      "ĠLegal": 4131,
      "Ġword": 4132,
      "owers": 4133,
      "Ġcooperate": 4134,
      "Ġfre": 4135,
      "ancial": 4136,
      "rete": 4137,
      "ĠHi": 4138,
      "Ġremed": 4139,
      "Ġurgent": 4140,
      "Ġpartnerships": 4141,
      "ĠIndonesia": 4142,
      "gn": 4143,
      "Ġcourts": 4144,
      "arents": 4145,
      "ĠZeal": 4146,
      "Ġdonors": 4147,
      "ĠZealand": 4148,
      "ĠSession": 4149,
      "Ġcapacities": 4150,
      "Ġbeginning": 4151,
      "Ġadap": 4152,
      "Ġfavour": 4153,
      "Ġ*": 4154,
      "Ġintended": 4155,
      "Ġpenal": 4156,
      "Ġ1994": 4157,
      "ĠSpain": 4158,
      "Ġfriends": 4159,
      "Ġ!": 4160,
      "Ġsea": 4161,
      "Ġefficiency": 4162,
      "ĠSm": 4163,
      "miss": 4164,
      "Ġelectronic": 4165,
      "ureau": 4166,
      "ĠBurundi": 4167,
      "à¤°": 4168,
      "Ġscientific": 4169,
      "Ġresulting": 4170,
      "Ġstressed": 4171,
      "Ġprocurement": 4172,
      "ĠFifth": 4173,
      "Ġcompleted": 4174,
      "erland": 4175,
      "Ġcomment": 4176,
      "Ġliber": 4177,
      "ĠArgent": 4178,
      "Ġgrowing": 4179,
      "Ġwife": 4180,
      "Ġgl": 4181,
      "Ġsubregional": 4182,
      "ĠBosn": 4183,
      "Ġ($": 4184,
      "Ġcommercial": 4185,
      "Ġ56": 4186,
      "lier": 4187,
      "Ġexternal": 4188,
      "Ġclosely": 4189,
      "Ġindependence": 4190,
      "ING": 4191,
      "ĠSwed": 4192,
      "Ġcollective": 4193,
      "Ġperpet": 4194,
      "Ġtruth": 4195,
      "Ġjudge": 4196,
      "ĠSerb": 4197,
      "ĠChrist": 4198,
      "Ġbook": 4199,
      "Ġcreat": 4200,
      "itzerland": 4201,
      "atever": 4202,
      "ishing": 4203,
      "tt": 4204,
      "Ġconfidence": 4205,
      "Ġet": 4206,
      "Ġide": 4207,
      "Ġmandates": 4208,
      "uay": 4209,
      "arations": 4210,
      "Ġfemale": 4211,
      "Ġyes": 4212,
      "Ġcorpor": 4213,
      "Ġsold": 4214,
      "omes": 4215,
      "tlements": 4216,
      "Ġdelay": 4217,
      "iological": 4218,
      "third": 4219,
      "Ġeveryone": 4220,
      "Ġfreedoms": 4221,
      "ote": 4222,
      "ĠLike": 4223,
      "Ġreflect": 4224,
      "In": 4225,
      "Ġsens": 4226,
      "Ġwanna": 4227,
      "Ġmainstream": 4228,
      "Ġvac": 4229,
      "Ġeducational": 4230,
      "Ġblo": 4231,
      "Ġconclusions": 4232,
      "itment": 4233,
      "Ġenabl": 4234,
      "Ġrenew": 4235,
      "Ġracial": 4236,
      "ened": 4237,
      "iful": 4238,
      "Ġinvestigation": 4239,
      "Ġnice": 4240,
      "Ġknew": 4241,
      "ĠDad": 4242,
      "Ġmovement": 4243,
      "ĠSomalia": 4244,
      "Ġstri": 4245,
      "ĠOver": 4246,
      "Ġpub": 4247,
      "Ġord": 4248,
      "Ġpersonal": 4249,
      "Ġtimely": 4250,
      "ĠPrincip": 4251,
      "ĠPort": 4252,
      "ĠEU": 4253,
      "ĠSe": 4254,
      "ĠItem": 4255,
      "roat": 4256,
      "Ġattacks": 4257,
      "Ġrehabilit": 4258,
      "hat": 4259,
      "ieth": 4260,
      "Ġoffer": 4261,
      "ĠColomb": 4262,
      "ĠSyrian": 4263,
      "cial": 4264,
      "Ġelected": 4265,
      "Ġton": 4266,
      "Ġhonour": 4267,
      "aut": 4268,
      "Ġ0": 4269,
      "Ġinj": 4270,
      "Ġalthough": 4271,
      "hest": 4272,
      "Ġfear": 4273,
      "Ġremained": 4274,
      "ĠRef": 4275,
      "49": 4276,
      "roduction": 4277,
      "Ġnor": 4278,
      "ĠFifty": 4279,
      "Ġstarted": 4280,
      "Ġenterpr": 4281,
      "Ġparents": 4282,
      "Ġansw": 4283,
      "Ġcaused": 4284,
      "Ġinvolvement": 4285,
      "Ġentry": 4286,
      "Ġmeasure": 4287,
      "Ġsource": 4288,
      "abit": 4289,
      "Ġneigh": 4290,
      "Ġmis": 4291,
      "urit": 4292,
      "ĠOptional": 4293,
      "ma": 4294,
      "ĠMove": 4295,
      "spoke": 4296,
      "flict": 4297,
      "with": 4298,
      "Ġsle": 4299,
      "Ġemp": 4300,
      "Ġreiter": 4301,
      "Ġbaby": 4302,
      "ĠFederal": 4303,
      "CA": 4304,
      "Ġwasn": 4305,
      "Ġinvolving": 4306,
      "Ġphase": 4307,
      "Ġdie": 4308,
      "stan": 4309,
      "Ġsaying": 4310,
      "Ġdamage": 4311,
      "dy": 4312,
      "ĠStand": 4313,
      "Ġencourages": 4314,
      "kra": 4315,
      "Ġsemin": 4316,
      "Ġmembership": 4317,
      "ĠEthiop": 4318,
      "ĠNam": 4319,
      "Ġprepare": 4320,
      "Ġfocused": 4321,
      "ĠTwo": 4322,
      "Ġdealing": 4323,
      "ĠPeacekeeping": 4324,
      "Ġ58": 4325,
      "aza": 4326,
      "Ġpositions": 4327,
      "Ġcombating": 4328,
      "Ġtransparency": 4329,
      "Ġrecovery": 4330,
      "Ġround": 4331,
      "ming": 4332,
      "Ġconcrete": 4333,
      "ule": 4334,
      "ĠMad": 4335,
      "Ġspir": 4336,
      "Ġlikely": 4337,
      "Ġterritories": 4338,
      "54": 4339,
      "ching": 4340,
      "Ġattempt": 4341,
      "Ġculture": 4342,
      "Ġpossibility": 4343,
      "Ġguarantee": 4344,
      "Ġ?": 4345,
      "ĠPrep": 4346,
      "Ġuh": 4347,
      "Ġadvice": 4348,
      "Ġcheck": 4349,
      "ĠHello": 4350,
      "Ġoil": 4351,
      "ĠUr": 4352,
      "ointed": 4353,
      "Ġdifficulties": 4354,
      "Ġacknow": 4355,
      "Ġalternative": 4356,
      "Ġyouth": 4357,
      "iety": 4358,
      "Ġwond": 4359,
      "Ġaccountability": 4360,
      "ĠNote": 4361,
      "ĠBosnia": 4362,
      "ĠFinancing": 4363,
      "Ġgener": 4364,
      "Ġpublication": 4365,
      "Ġcompanies": 4366,
      "ĠNorth": 4367,
      "ĠRules": 4368,
      "ivity": 4369,
      "ĠProc": 4370,
      "ains": 4371,
      "Ġfloor": 4372,
      "Ġsou": 4373,
      "right": 4374,
      "iring": 4375,
      "idents": 4376,
      "Ġgotta": 4377,
      "iers": 4378,
      "Ġart": 4379,
      "Ġgone": 4380,
      "Ġformal": 4381,
      "ĠTerritories": 4382,
      "Ġobst": 4383,
      "jan": 4384,
      "ĠHait": 4385,
      "ovina": 4386,
      "Ġcrucial": 4387,
      "anish": 4388,
      "Ġfollowed": 4389,
      "Ġcriteria": 4390,
      "Ġbirth": 4391,
      "udi": 4392,
      "aces": 4393,
      "Ġdonor": 4394,
      "Ġstatistics": 4395,
      "Ġconstitution": 4396,
      "Ġimprovement": 4397,
      "ĠLabour": 4398,
      "lying": 4399,
      "oto": 4400,
      "Ġpercent": 4401,
      "Ġfil": 4402,
      "sych": 4403,
      "Ġconventions": 4404,
      "ĠEnglish": 4405,
      "prus": 4406,
      "zeg": 4407,
      "rep": 4408,
      "Ġdisapp": 4409,
      "Ġminutes": 4410,
      "ifically": 4411,
      "amer": 4412,
      "ĠFinancial": 4413,
      "ĠSorry": 4414,
      "Ġstudies": 4415,
      "ots": 4416,
      "ift": 4417,
      "ĠAsian": 4418,
      "Ġqual": 4419,
      "Ġsatisfact": 4420,
      "Ġconstruction": 4421,
      "emic": 4422,
      "Ġinternationally": 4423,
      "ĠUNID": 4424,
      "zegovina": 4425,
      "vance": 4426,
      "ervation": 4427,
      "Ġenhancing": 4428,
      "Ġ54": 4429,
      "Ġdraw": 4430,
      "Ġsafegu": 4431,
      "ĠLiberia": 4432,
      "Ġwatch": 4433,
      "ĠSte": 4434,
      "Ġurges": 4435,
      "kraine": 4436,
      "ĠSir": 4437,
      "Ġborder": 4438,
      "Ġdepend": 4439,
      "ĠHerzegovina": 4440,
      "gment": 4441,
      "ĠNorthern": 4442,
      "ival": 4443,
      "Ġbehind": 4444,
      "Ġrapid": 4445,
      "Ġdefinition": 4446,
      "Ġobtain": 4447,
      "Ġmax": 4448,
      "Ġrefugee": 4449,
      "ĠSwitzerland": 4450,
      "fur": 4451,
      "Ġbelong": 4452,
      "Ġendors": 4453,
      "Ġcauses": 4454,
      "Ġability": 4455,
      "Ġactively": 4456,
      "ĠFra": 4457,
      "ĠUNI": 4458,
      "ST": 4459,
      "etermin": 4460,
      "ĠJud": 4461,
      "earch": 4462,
      "Ġclar": 4463,
      "Ġlimit": 4464,
      "Ġanyone": 4465,
      "ĠAud": 4466,
      "ĠBen": 4467,
      "Ġrelief": 4468,
      "Ġinside": 4469,
      "Ġpayment": 4470,
      "Ġcou": 4471,
      "ley": 4472,
      "ourn": 4473,
      "Ġcorruption": 4474,
      "ĠDocu": 4475,
      "ĠRecords": 4476,
      "Ġadvoc": 4477,
      "Ġaudit": 4478,
      "ĠStrategy": 4479,
      "gans": 4480,
      "ĠWestern": 4481,
      "Ġdepart": 4482,
      "band": 4483,
      "let": 4484,
      "ĠFrom": 4485,
      "HC": 4486,
      "ĠTe": 4487,
      "ĠWill": 4488,
      "ĠAssistance": 4489,
      "Ġfinance": 4490,
      "Ġgenerally": 4491,
      "Ġalleged": 4492,
      "Ġinnov": 4493,
      "ĠCyprus": 4494,
      "ground": 4495,
      "Ġlog": 4496,
      "othing": 4497,
      "ĠGeorg": 4498,
      "Ġannoun": 4499,
      "ĠPop": 4500,
      "ses": 4501,
      "Ġapproval": 4502,
      "Ġcompany": 4503,
      "onization": 4504,
      "actions": 4505,
      "Ġexpertise": 4506,
      "elf": 4507,
      "Ġearth": 4508,
      "ĠNorway": 4509,
      "Ġbase": 4510,
      "ighth": 4511,
      "Ġ48": 4512,
      "ifying": 4513,
      "Ġimmediately": 4514,
      "itude": 4515,
      "ĠAssociation": 4516,
      "jud": 4517,
      "Ġdisabilities": 4518,
      "ĠPolice": 4519,
      "Ġorgan": 4520,
      "Ġdoct": 4521,
      "Ġseven": 4522,
      "ius": 4523,
      "Ġcomplement": 4524,
      "Ġleading": 4525,
      "Ġconvention": 4526,
      "Ġgiving": 4527,
      "Ġunits": 4528,
      "Ġrecognize": 4529,
      "second": 4530,
      "33": 4531,
      "fort": 4532,
      "ĠCultural": 4533,
      "Ġdeliber": 4534,
      "ĠMaurit": 4535,
      "lined": 4536,
      "Ġsup": 4537,
      "2009": 4538,
      "Ġlar": 4539,
      "ĠAnn": 4540,
      "Ġaverage": 4541,
      "ĠTrust": 4542,
      "rust": 4543,
      "Ġagricultural": 4544,
      "Ġindeed": 4545,
      "ĠMoroc": 4546,
      "Ġintern": 4547,
      "Ġconstitute": 4548,
      "Ġintell": 4549,
      "Ġobservations": 4550,
      "asion": 4551,
      "ression": 4552,
      "ĠUNFPA": 4553,
      "ĠICT": 4554,
      "ĠUniversity": 4555,
      "ĠAz": 4556,
      "Ġdoub": 4557,
      "ĠArgentina": 4558,
      "etimes": 4559,
      "Ġdestro": 4560,
      "ĠNGOs": 4561,
      "45": 4562,
      "Ġprob": 4563,
      "ĠPri": 4564,
      "ĠSubcomm": 4565,
      "int": 4566,
      "ĠMany": 4567,
      "ĠTechnical": 4568,
      "ĠSam": 4569,
      "Ġdespite": 4570,
      "Ġbr": 4571,
      "hic": 4572,
      "ole": 4573,
      "Ġdeployment": 4574,
      "ĠChile": 4575,
      "Ġindustry": 4576,
      "Ġtrial": 4577,
      "ĠIntroduction": 4578,
      "Ġsense": 4579,
      "Ġrepro": 4580,
      "Ġthinking": 4581,
      "Ġseparate": 4582,
      "ĠObs": 4583,
      "Ġmaybe": 4584,
      "Ġabsence": 4585,
      "Ġtools": 4586,
      "ĠResp": 4587,
      "thern": 4588,
      "Ġwouldn": 4589,
      "ĠTHE": 4590,
      "Ġgeograph": 4591,
      "Ġcommittee": 4592,
      "Ġmem": 4593,
      "programme": 4594,
      "ĠColombia": 4595,
      "lling": 4596,
      "Ġlaunched": 4597,
      "oring": 4598,
      "ninth": 4599,
      "ĠUkraine": 4600,
      "ĠChamber": 4601,
      "Ġlower": 4602,
      "ĠIntern": 4603,
      "Ġstrengthened": 4604,
      "Ġhappy": 4605,
      "Ġskills": 4606,
      "ĠJohn": 4607,
      "active": 4608,
      "Ġenhanced": 4609,
      "Ġallowed": 4610,
      "Ġholding": 4611,
      "ufact": 4612,
      "Ġhaven": 4613,
      "Ġinterested": 4614,
      "Ġsummary": 4615,
      "Ġtown": 4616,
      "secutor": 4617,
      "ĠAh": 4618,
      "Ġassessments": 4619,
      "Ġrehabilitation": 4620,
      "St": 4621,
      "ĠBureau": 4622,
      "CP": 4623,
      "Ġobstac": 4624,
      "ĠUNIDO": 4625,
      "Ġrestrict": 4626,
      "Ġdescribed": 4627,
      "ĠSweden": 4628,
      "oliv": 4629,
      "ĠKen": 4630,
      "ĠVice": 4631,
      "Ġchapter": 4632,
      "Ġtargets": 4633,
      "Ġ59": 4634,
      "ĠPolicy": 4635,
      "Ġelection": 4636,
      "Ġconstruct": 4637,
      "Ġsolutions": 4638,
      "Ġengaged": 4639,
      "Ġpunishment": 4640,
      "ĠDarfur": 4641,
      "Ġgun": 4642,
      "2008": 4643,
      "illed": 4644,
      "Ġextended": 4645,
      "Ġmigration": 4646,
      "Ġextend": 4647,
      "atem": 4648,
      "ĠUg": 4649,
      "Ġdecre": 4650,
      "Ġdeclaration": 4651,
      "Ġcy": 4652,
      "Ġfirm": 4653,
      "ĠMont": 4654,
      "Ġplanned": 4655,
      "lock": 4656,
      "ĠIbid": 4657,
      "ulg": 4658,
      "Ġindustrial": 4659,
      "Ġglobalization": 4660,
      "Ġten": 4661,
      "Ġpain": 4662,
      "Ġrelative": 4663,
      "ĠCalls": 4664,
      "Ġsite": 4665,
      "Ġthreats": 4666,
      "Ġraise": 4667,
      "Ġhistory": 4668,
      "ĠNigeria": 4669,
      "ĠEthiopia": 4670,
      "Ġspirit": 4671,
      "Comm": 4672,
      "oler": 4673,
      "Ġwants": 4674,
      "Ġwritten": 4675,
      "Ġlanguages": 4676,
      "Ġcomes": 4677,
      "Ġfell": 4678,
      "Ġperspective": 4679,
      "ĠNoting": 4680,
      "ĠPhilipp": 4681,
      "ĠRoman": 4682,
      "Ġmyself": 4683,
      "inding": 4684,
      "Ġscale": 4685,
      "Ġhus": 4686,
      "set": 4687,
      "resses": 4688,
      "Ġ47": 4689,
      "Ġ33": 4690,
      "fully": 4691,
      "ircraft": 4692,
      "ira": 4693,
      "proliferation": 4694,
      "ĠRefuge": 4695,
      "inary": 4696,
      "ĠDay": 4697,
      "igration": 4698,
      "Ġcoordinated": 4699,
      "Ġpretty": 4700,
      "Ġminimum": 4701,
      "ĠLetter": 4702,
      "ĠBritain": 4703,
      "aj": 4704,
      "Ġmur": 4705,
      "Ġhosp": 4706,
      "à¥į": 4707,
      "ĠFramework": 4708,
      "ĠDr": 4709,
      "ĠTell": 4710,
      "Ġdocumentation": 4711,
      "Ġclean": 4712,
      "Ġdefined": 4713,
      "Ġinsurance": 4714,
      "Ġdetermined": 4715,
      "ĠParagraph": 4716,
      "Ġdoor": 4717,
      "ously": 4718,
      "Ġforg": 4719,
      "Ġorgans": 4720,
      "Ġplaced": 4721,
      "ertification": 4722,
      "Ġdrugs": 4723,
      "Ġexpenditure": 4724,
      "Ġtemporary": 4725,
      "Ġreject": 4726,
      "Ġundertake": 4727,
      "ables": 4728,
      "ĠResearch": 4729,
      "Ġpric": 4730,
      "den": 4731,
      "paragraph": 4732,
      "ĠBr": 4733,
      "ĠParliament": 4734,
      "21": 4735,
      "inued": 4736,
      "Ġforced": 4737,
      "ĠHel": 4738,
      "Ġbuy": 4739,
      "atform": 4740,
      "ocks": 4741,
      "usal": 4742,
      "ĠJer": 4743,
      "weapon": 4744,
      "Ġweeks": 4745,
      "cing": 4746,
      "Ã´": 4747,
      "Ġknows": 4748,
      "vency": 4749,
      "Ġseries": 4750,
      "Ġmag": 4751,
      "Ġisland": 4752,
      "Ġadvant": 4753,
      "ĠInit": 4754,
      "ape": 4755,
      "à¤¿": 4756,
      "Ġextra": 4757,
      "ĠIndeed": 4758,
      "Ġinflu": 4759,
      "Ġfourth": 4760,
      "Ġtypes": 4761,
      "ĠRac": 4762,
      "Ġ37": 4763,
      "Ġemphasized": 4764,
      "ĠSaudi": 4765,
      "EM": 4766,
      "ĠInc": 4767,
      "Ġdetermine": 4768,
      "Ġsubsequent": 4769,
      "Ġworked": 4770,
      "geria": 4771,
      "Ġtom": 4772,
      "ĠMed": 4773,
      "Ġquick": 4774,
      "Ġemerging": 4775,
      "grat": 4776,
      "ĠLu": 4777,
      "gue": 4778,
      "ĠSim": 4779,
      "seventh": 4780,
      "Ġ`": 4781,
      "ĠEven": 4782,
      "Ġrecognition": 4783,
      "Ġvehic": 4784,
      "Ġsays": 4785,
      "ĠProv": 4786,
      "Ġrepresented": 4787,
      "olvency": 4788,
      "Ġshared": 4789,
      "Ġoperating": 4790,
      "Ġforty": 4791,
      "ĠLea": 4792,
      "Ġcredit": 4793,
      "Ġboys": 4794,
      "ĠThanks": 4795,
      "ĠConsid": 4796,
      "eighth": 4797,
      "Ġesc": 4798,
      "Ġworry": 4799,
      "Ġguess": 4800,
      "Ġspecifically": 4801,
      "Ġratification": 4802,
      "acher": 4803,
      "ĠPartners": 4804,
      "lev": 4805,
      "ĠBl": 4806,
      "Ġunless": 4807,
      "ifications": 4808,
      "Ġaffairs": 4809,
      "ĠCroat": 4810,
      "Ġsolid": 4811,
      "puts": 4812,
      "Ġaccompl": 4813,
      "ĠAdoption": 4814,
      "ximately": 4815,
      "Ġcash": 4816,
      "ĠProf": 4817,
      "Ġeliminate": 4818,
      "48": 4819,
      "ĠTun": 4820,
      "Ġimposed": 4821,
      "inese": 4822,
      "Ġsustain": 4823,
      "Ġappointed": 4824,
      "Ġlooks": 4825,
      "comp": 4826,
      "gic": 4827,
      "ĠCost": 4828,
      "Ġprosec": 4829,
      "ĠDen": 4830,
      "Ġcohe": 4831,
      "ĠGuatem": 4832,
      "Ġhighest": 4833,
      "Ġreservations": 4834,
      "Ġeasy": 4835,
      "voire": 4836,
      "Ġcity": 4837,
      "Ġarri": 4838,
      "Ġaware": 4839,
      "Ġreforms": 4840,
      "Ġmutual": 4841,
      "Ivoire": 4842,
      "ĠStop": 4843,
      "Ġregret": 4844,
      "Ġwithdraw": 4845,
      "Ġnamely": 4846,
      "Sec": 4847,
      "Ġelabor": 4848,
      "ĠBelg": 4849,
      "Ġworkshop": 4850,
      "fare": 4851,
      "ĠPrime": 4852,
      "Ġurged": 4853,
      "eals": 4854,
      "Ġdire": 4855,
      "Ġà¤ķ": 4856,
      "ĠChairperson": 4857,
      "ĠSing": 4858,
      "Th": 4859,
      "Ġaircraft": 4860,
      "Ġhot": 4861,
      "Ġsecure": 4862,
      "ĠFam": 4863,
      "Ġterritorial": 4864,
      "Ġpsych": 4865,
      "ĠBas": 4866,
      "ĠMorocco": 4867,
      "PT": 4868,
      "ĠGaza": 4869,
      "ensions": 4870,
      "ĠDeputy": 4871,
      "Ġearlier": 4872,
      "igation": 4873,
      "luding": 4874,
      "Ġ1993": 4875,
      "resolution": 4876,
      "Ġcompar": 4877,
      "Ġmedium": 4878,
      "Ġnorms": 4879,
      "Ġreconciliation": 4880,
      "Ã´te": 4881,
      "Ġeat": 4882,
      "Ġrecruitment": 4883,
      "Ġtonight": 4884,
      "asters": 4885,
      "ordan": 4886,
      "Ġshown": 4887,
      "Ġregul": 4888,
      "ĠMrs": 4889,
      "Ġrisks": 4890,
      "Ġder": 4891,
      "Ġthous": 4892,
      "ĠMod": 4893,
      "Ġrepresentation": 4894,
      "Ġsenior": 4895,
      "III": 4896,
      "abitat": 4897,
      "anmar": 4898,
      "Ġ49": 4899,
      "Ġreligion": 4900,
      "Ġreintegration": 4901,
      "ĠYugoslavia": 4902,
      "Ġintegrity": 4903,
      "Ġrise": 4904,
      "Ġcompetition": 4905,
      "Ġ2010": 4906,
      "ties": 4907,
      "ĠMost": 4908,
      "Ġship": 4909,
      "ET": 4910,
      "Ġcompared": 4911,
      "Ġahead": 4912,
      "ĠDef": 4913,
      "____": 4914,
      "yn": 4915,
      "ĠGoverning": 4916,
      "ĠInternet": 4917,
      "Ġhit": 4918,
      "Ġcontributed": 4919,
      "Ġreviewed": 4920,
      "Ġworkshops": 4921,
      "Ġowners": 4922,
      "Ġcondem": 4923,
      "ĠOfficer": 4924,
      "Ġtea": 4925,
      "Ġattend": 4926,
      "Ġincreasingly": 4927,
      "zech": 4928,
      "Ġvers": 4929,
      "iding": 4930,
      "Ġwww": 4931,
      "Ġconform": 4932,
      "ĠBah": 4933,
      "HCHR": 4934,
      "erative": 4935,
      "Ġmach": 4936,
      "ĠIA": 4937,
      "Ġcollection": 4938,
      "Ġtomorrow": 4939,
      "Ġ34": 4940,
      "aijan": 4941,
      "ĠMalays": 4942,
      "erbaijan": 4943,
      "ĠInvest": 4944,
      "Is": 4945,
      "Ġinvent": 4946,
      "Ġparticipating": 4947,
      "ĠEnc": 4948,
      "Ġremaining": 4949,
      "Ġstudents": 4950,
      "Ġvir": 4951,
      "Ġvill": 4952,
      "ĠLib": 4953,
      "ĠPeru": 4954,
      "//": 4955,
      "Rev": 4956,
      "TO": 4957,
      "Ġaccounts": 4958,
      "ĠExperts": 4959,
      "ttp": 4960,
      "pped": 4961,
      "Ġwin": 4962,
      "ze": 4963,
      "ĠTheir": 4964,
      "ĠNever": 4965,
      "Ġadapt": 4966,
      "ĠLDC": 4967,
      "Ġreconstruction": 4968,
      "53": 4969,
      "anz": 4970,
      "enders": 4971,
      "Ġparticipated": 4972,
      "Ġfront": 4973,
      "rig": 4974,
      "Ġcontracts": 4975,
      "ED": 4976,
      "ĠMinisters": 4977,
      "nergy": 4978,
      "ĠHaiti": 4979,
      "Ġfall": 4980,
      "ĠCÃ´te": 4981,
      "Ġoffences": 4982,
      "ĠViol": 4983,
      "ask": 4984,
      "ĠIraqi": 4985,
      "Ġaccepted": 4986,
      "Ġdegra": 4987,
      "ĠMiss": 4988,
      "ĠGive": 4989,
      "ĠGender": 4990,
      "portion": 4991,
      "ĠSubcommittee": 4992,
      "ĠHumanitarian": 4993,
      "www": 4994,
      "Ġreduced": 4995,
      "elt": 4996,
      "://": 4997,
      "WA": 4998,
      "etermination": 4999,
      "lt": 5000,
      "ĠFinally": 5001,
      "Ġhusband": 5002,
      "Ġotherwise": 5003,
      "Ġeyes": 5004,
      "Ġelimination": 5005,
      "Ġracism": 5006,
      "ĠNe": 5007,
      "ĠUganda": 5008,
      "Ġdiv": 5009,
      "Ġvictim": 5010,
      "Ġappointment": 5011,
      "arus": 5012,
      "ental": 5013,
      "Ġendorsed": 5014,
      "fifth": 5015,
      "Ġreducing": 5016,
      "ĠMyanmar": 5017,
      "ĠTraining": 5018,
      "sixth": 5019,
      "Ġflex": 5020,
      "Ġunc": 5021,
      "Ġ61": 5022,
      "enez": 5023,
      "ĠNotes": 5024,
      "ĠTurk": 5025,
      "44": 5026,
      "Ġgross": 5027,
      "uls": 5028,
      "ĠOb": 5029,
      "ailand": 5030,
      "Ġvalues": 5031,
      "Ġorganizational": 5032,
      "Ġfarm": 5033,
      "Ġtransl": 5034,
      "Ġtype": 5035,
      "Ġoptions": 5036,
      "Ġcreating": 5037,
      "BI": 5038,
      "Ġconsent": 5039,
      "ĠPortug": 5040,
      "olerance": 5041,
      "Ġ39": 5042,
      "Ġmulti": 5043,
      "Ġtasks": 5044,
      "arily": 5045,
      "Ġstuff": 5046,
      "Ġprol": 5047,
      "ĠAnother": 5048,
      "Ġdiplomatic": 5049,
      "ĠSan": 5050,
      "ĠWar": 5051,
      "Ġ53": 5052,
      "ĠPartnership": 5053,
      "lades": 5054,
      "endum": 5055,
      "Ġinclusion": 5056,
      "Ġwilling": 5057,
      "Ġmanufact": 5058,
      "ĠExc": 5059,
      "Ġfields": 5060,
      "Ġdestroy": 5061,
      "Ġren": 5062,
      "Ġcontent": 5063,
      "Ġmerc": 5064,
      "Ġgrounds": 5065,
      "Ġdatab": 5066,
      "enezuel": 5067,
      "ĠChap": 5068,
      "Ġ35": 5069,
      "ĠPartic": 5070,
      "ĠGuatemala": 5071,
      "Ġadvisory": 5072,
      "Ġresulted": 5073,
      "Ġestimates": 5074,
      "ladesh": 5075,
      "Ġadvis": 5076,
      "Ġoutcomes": 5077,
      "ĠAlgeria": 5078,
      "Ġsurv": 5079,
      "Ġstructures": 5080,
      "Ġweak": 5081,
      "akh": 5082,
      "Ġauthorized": 5083,
      "Ġstory": 5084,
      "Ġactual": 5085,
      "Ġcommission": 5086,
      "Ġowing": 5087,
      "Ġmot": 5088,
      "ilt": 5089,
      "Ġprotocol": 5090,
      "South": 5091,
      "Ġfailure": 5092,
      "Ġstock": 5093,
      "ĠGeorgia": 5094,
      "ĠPhilippines": 5095,
      "uled": 5096,
      "ritre": 5097,
      "Ġapplications": 5098,
      "Ġregistration": 5099,
      "Ġlosses": 5100,
      "Ġheav": 5101,
      "ĠInternal": 5102,
      "ĠIts": 5103,
      "Ġrealization": 5104,
      "Ġlisten": 5105,
      "ION": 5106,
      "UC": 5107,
      "ĠYear": 5108,
      "ĠJordan": 5109,
      "ophob": 5110,
      "Ġsovereignty": 5111,
      "ĠQuestions": 5112,
      "ĠAzerbaijan": 5113,
      "ĠTunis": 5114,
      "ĠEncoura": 5115,
      "son": 5116,
      "Ġsupports": 5117,
      "Ġ1992": 5118,
      "Ġmainly": 5119,
      "Ġenjoyment": 5120,
      "ĠIN": 5121,
      "Ġtried": 5122,
      "Ġprice": 5123,
      "ĠKenya": 5124,
      "Ġmarriage": 5125,
      "Ġplayed": 5126,
      "Ġstrongly": 5127,
      "Signed": 5128,
      "Ġmal": 5129,
      "Ġintens": 5130,
      "ĠKe": 5131,
      "ĠAustria": 5132,
      "oration": 5133,
      "Ġindicate": 5134,
      "Ġmodern": 5135,
      "time": 5136,
      "wh": 5137,
      "oz": 5138,
      "Ġhar": 5139,
      "ĠSea": 5140,
      "ductive": 5141,
      "Ġanswer": 5142,
      "ĠDocument": 5143,
      "lished": 5144,
      "Ġdad": 5145,
      "etary": 5146,
      "Ġchance": 5147,
      "Ġphone": 5148,
      "alization": 5149,
      "ĠFood": 5150,
      "ĠDeveloping": 5151,
      "ĠCroatia": 5152,
      "este": 5153,
      "determination": 5154,
      "ĠChinese": 5155,
      "ĠStatus": 5156,
      "continued": 5157,
      "Ġcomponent": 5158,
      "aughter": 5159,
      "fourth": 5160,
      "Ġexact": 5161,
      "enses": 5162,
      "ioned": 5163,
      "Ġelement": 5164,
      "ĠProsecutor": 5165,
      "ĠUNO": 5166,
      "ĠGra": 5167,
      "Ġnews": 5168,
      "Ġemphasis": 5169,
      "ĠBelgium": 5170,
      "uses": 5171,
      "Ġgranted": 5172,
      "Ġquite": 5173,
      "Ġpopulations": 5174,
      "Ġpreventing": 5175,
      "Ġeradication": 5176,
      "ĠMalaysia": 5177,
      "Ġfix": 5178,
      "Ġoutstanding": 5179,
      "Ġaffect": 5180,
      "Ġlearned": 5181,
      "haps": 5182,
      "ĠNothing": 5183,
      "ĠVer": 5184,
      "Ġengage": 5185,
      "astern": 5186,
      "ĠSur": 5187,
      "ndering": 5188,
      "Ġrequirement": 5189,
      "Ġprobably": 5190,
      "Ġ77": 5191,
      "Ġseems": 5192,
      "iance": 5193,
      "Ġ1991": 5194,
      "rateful": 5195,
      "Ġscience": 5196,
      "ĠIV": 5197,
      "ĠCzech": 5198,
      "Ġrecorded": 5199,
      "Ġobservers": 5200,
      "ĠRefugees": 5201,
      "Ġtou": 5202,
      "Ġpresident": 5203,
      "ĠSup": 5204,
      "ĠEritre": 5205,
      "ĠLa": 5206,
      "Ġexpenditures": 5207,
      "disc": 5208,
      "ari": 5209,
      "ĠSpanish": 5210,
      "Commission": 5211,
      "iating": 5212,
      "ney": 5213,
      "ĠAngol": 5214,
      "Ġfindings": 5215,
      "Ġencouraging": 5216,
      "aint": 5217,
      "ĠVenezuel": 5218,
      "Ġmeaning": 5219,
      "limin": 5220,
      "Ġfuel": 5221,
      "bur": 5222,
      "Ġwalk": 5223,
      "ĠThus": 5224,
      "ambia": 5225,
      "Ġbeaut": 5226,
      "Ġsevere": 5227,
      "Ġcentre": 5228,
      "Ġpack": 5229,
      "Ġmort": 5230,
      "Ġwaste": 5231,
      "ĠThailand": 5232,
      "Ġ45": 5233,
      "Ġsupplement": 5234,
      "Ġheadquarters": 5235,
      "ĠTechnology": 5236,
      "Ġremin": 5237,
      "ĠWH": 5238,
      "Ġcommand": 5239,
      "ĠVol": 5240,
      "Ġmer": 5241,
      "Ġequitable": 5242,
      "Ġtrends": 5243,
      "Ġmainstreaming": 5244,
      "Ġswe": 5245,
      "epal": 5246,
      "37": 5247,
      "Ġdecide": 5248,
      "Ġmarine": 5249,
      "Ġcompetent": 5250,
      "Ġspeakers": 5251,
      "Ġpi": 5252,
      "airo": 5253,
      "Ġblood": 5254,
      "Ġdirection": 5255,
      "reet": 5256,
      "Ġdeg": 5257,
      "Ġspeaking": 5258,
      "respond": 5259,
      "ĠListen": 5260,
      "Ġcouldn": 5261,
      "iling": 5262,
      "Secret": 5263,
      "greg": 5264,
      "Ġsought": 5265,
      "oted": 5266,
      "Ġsupposed": 5267,
      "Ġsummit": 5268,
      "ifest": 5269,
      "ĠBarb": 5270,
      "Ġfaith": 5271,
      "ournal": 5272,
      "Ġprices": 5273,
      "ply": 5274,
      "ĠCamb": 5275,
      "ĠIndigenous": 5276,
      "Ġinternally": 5277,
      "Ġcategory": 5278,
      "IP": 5279,
      "Ġwind": 5280,
      "ĠEff": 5281,
      "Ġsharing": 5282,
      "Ġwishes": 5283,
      "Ġmid": 5284,
      "Ġ36": 5285,
      "Ġrepe": 5286,
      "Ġexistence": 5287,
      "ĠWelcomes": 5288,
      "Ġbeautiful": 5289,
      "bi": 5290,
      "Ġcontains": 5291,
      "uador": 5292,
      "ĠSure": 5293,
      "Ġcomply": 5294,
      "ĠExcell": 5295,
      "Ġdistin": 5296,
      "ĠForms": 5297,
      "Ġbound": 5298,
      "Ġthirty": 5299,
      "ĠGh": 5300,
      "Ġplaces": 5301,
      "Ġinsolvency": 5302,
      "Ġdefence": 5303,
      "Ġthanks": 5304,
      "Ġdream": 5305,
      "ĠOHCHR": 5306,
      "razy": 5307,
      "Ġsend": 5308,
      "Ġfost": 5309,
      "ĠIM": 5310,
      "Ġlic": 5311,
      "idency": 5312,
      "ections": 5313,
      "ula": 5314,
      "ansion": 5315,
      "ĠDecade": 5316,
      "Ġsustained": 5317,
      "Ġfunctioning": 5318,
      "ĠProject": 5319,
      "ĠPet": 5320,
      "Ġzone": 5321,
      "Ġsatisfaction": 5322,
      "ura": 5323,
      "Ġcult": 5324,
      "Ġdeploy": 5325,
      "ĠControl": 5326,
      "iciary": 5327,
      "ĠBelarus": 5328,
      "Ġnetworks": 5329,
      "ĠChapter": 5330,
      "Ġrecords": 5331,
      "Ġconsidering": 5332,
      "off": 5333,
      "Ġevalu": 5334,
      "IG": 5335,
      "asc": 5336,
      "ĠNic": 5337,
      "Ġslow": 5338,
      "Ġcandidates": 5339,
      "enophob": 5340,
      "ĠHoc": 5341,
      "Ġsocio": 5342,
      "Ġexec": 5343,
      "ĠFac": 5344,
      "Ġgoes": 5345,
      "undred": 5346,
      "Ġdeliver": 5347,
      "ĠBangladesh": 5348,
      "liminary": 5349,
      "asures": 5350,
      "Ġfacing": 5351,
      "ĠSaf": 5352,
      "Ġdepos": 5353,
      "Ġspread": 5354,
      "ĠFinland": 5355,
      "ĠCosta": 5356,
      "Ġresolve": 5357,
      "Ġconsiderable": 5358,
      "38": 5359,
      "ixt": 5360,
      "Ġapproximately": 5361,
      "Ġouter": 5362,
      "Ġhistor": 5363,
      "yan": 5364,
      "Ġnations": 5365,
      "Ġarising": 5366,
      "Ġ32": 5367,
      "iously": 5368,
      "Ġgrave": 5369,
      "Ġworks": 5370,
      "Ġones": 5371,
      "Ġgrateful": 5372,
      "Ġunit": 5373,
      "acement": 5374,
      "Ġbelieves": 5375,
      "Ġcorrect": 5376,
      "Ġlawy": 5377,
      "Ġentered": 5378,
      "oral": 5379,
      "Ġsearch": 5380,
      "Ġhighly": 5381,
      "conflict": 5382,
      "olute": 5383,
      "Ġwhatever": 5384,
      "Ġminorities": 5385,
      "uties": 5386,
      "Ġvital": 5387,
      "Ġfoot": 5388,
      "osing": 5389,
      "Ġunem": 5390,
      "ĠArabia": 5391,
      "Ġhousehold": 5392,
      "ĠRule": 5393,
      "Ġpregn": 5394,
      "Ġpointed": 5395,
      "Ġrespectively": 5396,
      "Ġhighlighted": 5397,
      "Ġtrou": 5398,
      "Ġdispos": 5399,
      "unte": 5400,
      "Ġreservation": 5401,
      "ĠDrugs": 5402,
      "DG": 5403,
      "reen": 5404,
      "Ġworth": 5405,
      "ĠMat": 5406,
      "Ġoffered": 5407,
      "Ġformulation": 5408,
      "ĠIndepend": 5409,
      "ĠVenezuela": 5410,
      "oming": 5411,
      "Ġtransactions": 5412,
      "Ġdeter": 5413,
      "ĠSay": 5414,
      "Ġresponses": 5415,
      "itoring": 5416,
      "Ġlisted": 5417,
      "Ġfailed": 5418,
      "ĠOpen": 5419,
      "friend": 5420,
      "Ġvo": 5421,
      "ĠCongress": 5422,
      "Ġcharge": 5423,
      "Ġundermin": 5424,
      "Ġgovernments": 5425,
      "Ġkids": 5426,
      "atell": 5427,
      "ĠStaff": 5428,
      "Ġ46": 5429,
      "Ġagriculture": 5430,
      "mer": 5431,
      "Ġcentury": 5432,
      "47": 5433,
      "ĠSet": 5434,
      "Ġrelease": 5435,
      "Ġcategories": 5436,
      "aught": 5437,
      "Ġsurvey": 5438,
      "ĠLDCs": 5439,
      "STA": 5440,
      "Ġbed": 5441,
      "ĠHol": 5442,
      "ĠHung": 5443,
      "eared": 5444,
      "Ġintention": 5445,
      "Ġoffence": 5446,
      "Ġsetting": 5447,
      "Ġbecame": 5448,
      "ients": 5449,
      "ĠOnly": 5450,
      "ĠPoland": 5451,
      "Ġtransparent": 5452,
      "law": 5453,
      "Ġcorrespond": 5454,
      "Ġmarried": 5455,
      "Ġmobil": 5456,
      "Ġsubsidiary": 5457,
      "mon": 5458,
      "ĠFourth": 5459,
      "ĠLast": 5460,
      "Ġ38": 5461,
      "Ġtermin": 5462,
      "Ġnationality": 5463,
      "Ġpublished": 5464,
      "ĠPower": 5465,
      "ĠResolution": 5466,
      "Ġbanks": 5467,
      "Ġacknowled": 5468,
      "Secretary": 5469,
      "aging": 5470,
      "Ġamended": 5471,
      "Ġsuperv": 5472,
      "ĠScientific": 5473,
      "Ġconstructive": 5474,
      "Ġtour": 5475,
      "Ġfelt": 5476,
      "Ġ51": 5477,
      "500": 5478,
      "Ġcompletion": 5479,
      "Ġcarrying": 5480,
      "Leste": 5481,
      "Ġtim": 5482,
      "Ġcat": 5483,
      "Ġpict": 5484,
      "ĠIT": 5485,
      "ĠNepal": 5486,
      "ĠRica": 5487,
      "Ġaggress": 5488,
      "ĠEcuador": 5489,
      "Ġradio": 5490,
      "ĠPopulation": 5491,
      "aled": 5492,
      "ĠAN": 5493,
      "amed": 5494,
      "lor": 5495,
      "Ġdied": 5496,
      "cean": 5497,
      "Ġheads": 5498,
      "CCC": 5499,
      "ĠCambod": 5500,
      "Ġstrict": 5501,
      "ĠInsp": 5502,
      "Ġconsiders": 5503,
      "ĠSmall": 5504,
      "ĠSerbia": 5505,
      "Ġnation": 5506,
      "Ġteacher": 5507,
      "ĠUrges": 5508,
      "fect": 5509,
      "Ġgas": 5510,
      "Ġpled": 5511,
      "Ġexplain": 5512,
      "Ġsignificantly": 5513,
      "ĠHar": 5514,
      "ĠArmen": 5515,
      "Ġavailability": 5516,
      "Ġembar": 5517,
      "35": 5518,
      "Ġball": 5519,
      "room": 5520,
      "Ġcommod": 5521,
      "Ġcomput": 5522,
      "Ġliability": 5523,
      "Ġexplos": 5524,
      "iii": 5525,
      "ĠDesp": 5526,
      "Ġ44": 5527,
      "Ġempower": 5528,
      "ressing": 5529,
      "Ġassessed": 5530,
      "Ġlessons": 5531,
      "Ġlegitimate": 5532,
      "Ġcongrat": 5533,
      "Ġ42": 5534,
      "ĠDenmark": 5535,
      "rier": 5536,
      "ĠYOU": 5537,
      "Ġbringing": 5538,
      "Ġchoice": 5539,
      "ĠPromotion": 5540,
      "ĠRomania": 5541,
      "rap": 5542,
      "Ġchair": 5543,
      "Ġassign": 5544,
      "Ġfaced": 5545,
      "Ġanaly": 5546,
      "Ġdetermination": 5547,
      "Ġdangerous": 5548,
      "ĠÂ": 5549,
      "ĠSix": 5550,
      "Ġacting": 5551,
      "Ġdissemination": 5552,
      "Ġste": 5553,
      "Ġthereby": 5554,
      "Ġsched": 5555,
      "Ġcalling": 5556,
      "rators": 5557,
      "uction": 5558,
      "Ġluck": 5559,
      "ĠRem": 5560,
      "Ġadded": 5561,
      "Ġx": 5562,
      "icro": 5563,
      "Ġweb": 5564,
      "Ġwebs": 5565,
      "unicip": 5566,
      "Ġmit": 5567,
      "teenth": 5568,
      "Ġnumbers": 5569,
      "ĠPrinciples": 5570,
      "iri": 5571,
      "theless": 5572,
      "raid": 5573,
      "eline": 5574,
      "UR": 5575,
      "ka": 5576,
      "Ġbriefing": 5577,
      "Ġincorporated": 5578,
      "free": 5579,
      "Ġaccounting": 5580,
      "Ġmaintaining": 5581,
      "ĠGreece": 5582,
      "Ġap": 5583,
      "Ġmeant": 5584,
      "Ġcomponents": 5585,
      "Ġmessage": 5586,
      "Ġconstrain": 5587,
      "erted": 5588,
      "Ġexpansion": 5589,
      "Ġfacilitating": 5590,
      "ĠBoliv": 5591,
      "Ġminute": 5592,
      "Ġobstacles": 5593,
      "LO": 5594,
      "SP": 5595,
      "WG": 5596,
      "Ġratified": 5597,
      "Ã¡": 5598,
      "Ġdim": 5599,
      "ott": 5600,
      "osure": 5601,
      "Ġentity": 5602,
      "Ġseeking": 5603,
      "Ġfrequ": 5604,
      "Ġhuh": 5605,
      "ĠPap": 5606,
      "ĠIAEA": 5607,
      "ĠAngola": 5608,
      "Ġcommissions": 5609,
      "iversity": 5610,
      "ylum": 5611,
      "ĠDespite": 5612,
      "Ġsleep": 5613,
      "Ġconformity": 5614,
      "Ġnames": 5615,
      "ĠFuck": 5616,
      "Ġafford": 5617,
      "Ġcrazy": 5618,
      "inced": 5619,
      "ded": 5620,
      "Ġded": 5621,
      "Ġdign": 5622,
      "ĠLank": 5623,
      "Ġgradu": 5624,
      "ĠFollowing": 5625,
      "ĠRecognizing": 5626,
      "Ġexpenses": 5627,
      "Ġguide": 5628,
      "Ġinterim": 5629,
      "Ġgod": 5630,
      "Ġpresentation": 5631,
      "ĠEritrea": 5632,
      "ĠOF": 5633,
      "à¤Ĥ": 5634,
      "Ġexpression": 5635,
      "ĠMonitoring": 5636,
      "item": 5637,
      "Ġbeg": 5638,
      "terrorism": 5639,
      "Ġthematic": 5640,
      "Ġrace": 5641,
      "ĠSever": 5642,
      "Ġsave": 5643,
      "Ġdetails": 5644,
      "Ġsuffering": 5645,
      "vak": 5646,
      "ware": 5647,
      "Ġshoot": 5648,
      "Ġtransit": 5649,
      "istent": 5650,
      "aundering": 5651,
      "human": 5652,
      "ĠTod": 5653,
      "ĠMom": 5654,
      "ventional": 5655,
      "Ġsaving": 5656,
      "Ġinterpretation": 5657,
      "Ġsometimes": 5658,
      "Ġmargin": 5659,
      "usalem": 5660,
      "Ġmist": 5661,
      "ĠTanz": 5662,
      "ĠEnergy": 5663,
      "apore": 5664,
      "Ġpreliminary": 5665,
      "Ġpurch": 5666,
      "Ġmigrants": 5667,
      "Ġmoving": 5668,
      "Ġgeographical": 5669,
      "enophobia": 5670,
      "eff": 5671,
      "mentioned": 5672,
      "ĠPa": 5673,
      "Ġdrafting": 5674,
      "Ġtroop": 5675,
      "ĠLand": 5676,
      "Ġconstitutional": 5677,
      "**": 5678,
      "39": 5679,
      "Ġdisasters": 5680,
      "Ġprem": 5681,
      "Ġintroduction": 5682,
      "Ġexperiences": 5683,
      "eav": 5684,
      "Chair": 5685,
      "Ġdiversity": 5686,
      "ĠMovement": 5687,
      "Ġtheme": 5688,
      "Ġhundred": 5689,
      "Ġproduced": 5690,
      "Ġsociet": 5691,
      "Ġconcluding": 5692,
      "DI": 5693,
      "Ġpanel": 5694,
      "ĠTaking": 5695,
      "ÃŃ": 5696,
      "Ġexecutive": 5697,
      "minister": 5698,
      "ĠMinisterial": 5699,
      "ĠCorr": 5700,
      "Ġtopic": 5701,
      "Ġamendment": 5702,
      "Ġcompris": 5703,
      "ESCO": 5704,
      "Ġtargeted": 5705,
      "sight": 5706,
      "à¥Ģ": 5707,
      "Ġfigure": 5708,
      "ĠInitiative": 5709,
      "ĠPortugal": 5710,
      "aily": 5711,
      "ĠConsult": 5712,
      "ĠBudgetary": 5713,
      "Ġenabling": 5714,
      "Ġpp": 5715,
      "Ġfifth": 5716,
      "Ġbat": 5717,
      "akers": 5718,
      "Ġpleased": 5719,
      "Ġownership": 5720,
      "ĠSeveral": 5721,
      "Ġgame": 5722,
      "amn": 5723,
      "Ġexplan": 5724,
      "Ġchanged": 5725,
      "Ġtroops": 5726,
      "Ġain": 5727,
      "Ġpreparing": 5728,
      "51": 5729,
      "Ġreve": 5730,
      "Ġhor": 5731,
      "Ġworldwide": 5732,
      "Ġafraid": 5733,
      "ennial": 5734,
      "Ġamounts": 5735,
      "ĠAdditional": 5736,
      "Ġfed": 5737,
      "ĠReaffirming": 5738,
      "ĠLanka": 5739,
      "ster": 5740,
      "Ġproduce": 5741,
      "Ġvalid": 5742,
      "oe": 5743,
      "ĠAIDS": 5744,
      "Ġunilateral": 5745,
      "ĠTherefore": 5746,
      "uable": 5747,
      "ĠPut": 5748,
      "ĠCommunic": 5749,
      "ĠAgric": 5750,
      "Ġamendments": 5751,
      "Ġpath": 5752,
      "ĠPan": 5753,
      "ports": 5754,
      "Ġ52": 5755,
      "Ġattrib": 5756,
      "ĠJerusalem": 5757,
      "ĠExcellency": 5758,
      "Ġhun": 5759,
      "Ġopening": 5760,
      "Ġlearn": 5761,
      "Ġadvantage": 5762,
      "Ġdaughter": 5763,
      "Ġ.": 5764,
      "rey": 5765,
      "Ġhoped": 5766,
      "Al": 5767,
      "Ġshot": 5768,
      "Ġconting": 5769,
      "Ġconcent": 5770,
      "book": 5771,
      "Ġextensive": 5772,
      "house": 5773,
      "Ġpreparatory": 5774,
      "Ġburden": 5775,
      "Ġaims": 5776,
      "Ġleaving": 5777,
      "Ġunp": 5778,
      "Ġ41": 5779,
      "Ġhimself": 5780,
      "Ġnumerous": 5781,
      "Ġbudgetary": 5782,
      "Ġrestrictions": 5783,
      "SR": 5784,
      "ivered": 5785,
      "ĠMus": 5786,
      "Ġpromise": 5787,
      "Ġ62": 5788,
      "enegal": 5789,
      "Ġhurt": 5790,
      "atri": 5791,
      "ibly": 5792,
      "Ġsubprogramme": 5793,
      "rolled": 5794,
      "Ġdrawn": 5795,
      "Ġbelief": 5796,
      "Ġinvestigations": 5797,
      "Ġcontaining": 5798,
      "Ġcopy": 5799,
      "ĠOI": 5800,
      "Ġunable": 5801,
      "Ġemissions": 5802,
      "Ġpayments": 5803,
      "Ġwaiting": 5804,
      "ĠPreparatory": 5805,
      "ĠFamily": 5806,
      "Ġpick": 5807,
      "Ġdispute": 5808,
      "Ġpursue": 5809,
      "Ġidentity": 5810,
      "ĠGuid": 5811,
      "Ġflows": 5812,
      "Ġlinked": 5813,
      "Ġsoldiers": 5814,
      "Ġpil": 5815,
      "ĠCOP": 5816,
      "ĠSri": 5817,
      "ĠHim": 5818,
      "Ġenvis": 5819,
      "Ġmanifest": 5820,
      "Ġidentification": 5821,
      "Ġreasonable": 5822,
      "Ġlatter": 5823,
      "ĠTanzania": 5824,
      "urrent": 5825,
      "ĠExcuse": 5826,
      "Ġreven": 5827,
      "Ġobserved": 5828,
      "Ġstra": 5829,
      "illing": 5830,
      "ĠLebanese": 5831,
      "31": 5832,
      "Ġbegan": 5833,
      "ague": 5834,
      "Ġprincipal": 5835,
      "CON": 5836,
      "Ġidentifying": 5837,
      "46": 5838,
      "ĠCE": 5839,
      "Ġdog": 5840,
      "Ġpartner": 5841,
      "ĠUse": 5842,
      "Ġdepri": 5843,
      "hol": 5844,
      "uro": 5845,
      "ishe": 5846,
      "ĠMain": 5847,
      "ĠPalestinians": 5848,
      "igence": 5849,
      "Ġaward": 5850,
      "XX": 5851,
      "ares": 5852,
      "Ġult": 5853,
      "ĠHaving": 5854,
      "Ġgoverning": 5855,
      "Ġcirculated": 5856,
      "marily": 5857,
      "Ġnormal": 5858,
      "ĠKyoto": 5859,
      "Ġteams": 5860,
      "Ġaccused": 5861,
      "Ġsurve": 5862,
      "Ġshows": 5863,
      "ĠCambodia": 5864,
      "Ġforget": 5865,
      "AO": 5866,
      "EL": 5867,
      "Ã³": 5868,
      "onial": 5869,
      "ingu": 5870,
      "Ġprosp": 5871,
      "ectual": 5872,
      "Ġbelieved": 5873,
      "Ġregistered": 5874,
      "Ġvisits": 5875,
      "Ġfighting": 5876,
      "ĠModel": 5877,
      "Ġsort": 5878,
      "ĠMaced": 5879,
      "ĠDomin": 5880,
      "ĠDoes": 5881,
      "Ġaccomp": 5882,
      "geting": 5883,
      "Ġasylum": 5884,
      "lication": 5885,
      "Ġtrain": 5886,
      "ĠSingapore": 5887,
      "Ġextrad": 5888,
      "ĠTunisia": 5889,
      "))": 5890,
      "ecific": 5891,
      "Ġnotice": 5892,
      "Ġbehav": 5893,
      "Ġexamine": 5894,
      "Ġpattern": 5895,
      "ino": 5896,
      "Ġexceed": 5897,
      "obilization": 5898,
      "Ġsignature": 5899,
      "ĠParis": 5900,
      "rem": 5901,
      "ĠKaz": 5902,
      "Ġsettlements": 5903,
      "ixtieth": 5904,
      "aven": 5905,
      "ked": 5906,
      "atically": 5907,
      "amond": 5908,
      "Ġdro": 5909,
      "Ġinitiated": 5910,
      "Ġprotecting": 5911,
      "Ġdoubt": 5912,
      "Ġimpunity": 5913,
      "ĠGhana": 5914,
      "atar": 5915,
      "Ġsqu": 5916,
      "Ġmus": 5917,
      "oma": 5918,
      "ĠViet": 5919,
      "Ġkeeping": 5920,
      "ruguay": 5921,
      "Ġdelivered": 5922,
      "You": 5923,
      "ĠUp": 5924,
      "Ġsecured": 5925,
      "Ġsecondary": 5926,
      "Ġpressure": 5927,
      "ĠSenegal": 5928,
      "Ġregulation": 5929,
      "Ġrecalled": 5930,
      "Ġdiscrimin": 5931,
      "ĠLeg": 5932,
      "Ġstatistical": 5933,
      "isheries": 5934,
      "SA": 5935,
      "itime": 5936,
      "Ġcertainly": 5937,
      "Ġmaximum": 5938,
      "100": 5939,
      "Ġrob": 5940,
      "Ġbackground": 5941,
      "Ġsentence": 5942,
      "ĠSupreme": 5943,
      "68": 5944,
      "Ġoversight": 5945,
      "ĠStatute": 5946,
      "Ġminority": 5947,
      "ĠAlban": 5948,
      "Ġdifferences": 5949,
      "ĠSalv": 5950,
      "Ġwidely": 5951,
      "ĠParticip": 5952,
      "road": 5953,
      "ĠPR": 5954,
      "ĠOcc": 5955,
      "venia": 5956,
      "Ġquant": 5957,
      "Ġcontributing": 5958,
      "ova": 5959,
      "Ġinstead": 5960,
      "arcot": 5961,
      "Ġhttp": 5962,
      "Ġnine": 5963,
      "ĠRegulations": 5964,
      "crib": 5965,
      "Ġbear": 5966,
      "Ġconsumption": 5967,
      "Ġconfident": 5968,
      "69": 5969,
      "emy": 5970,
      "ĠCamer": 5971,
      "Ġresumed": 5972,
      "ĠCommon": 5973,
      "Ġcourses": 5974,
      "Ġallocation": 5975,
      "Ġdecent": 5976,
      "ĠContract": 5977,
      "Ġinstance": 5978,
      "Ġoriginal": 5979,
      "Ġpowers": 5980,
      "RA": 5981,
      "Ġpoll": 5982,
      "Ġsites": 5983,
      "ĠToday": 5984,
      "hel": 5985,
      "isition": 5986,
      "tered": 5987,
      "istence": 5988,
      "Ġexped": 5989,
      "Ġattended": 5990,
      "Ġdepartments": 5991,
      "ĠBulg": 5992,
      "Ġprotected": 5993,
      "Ġletters": 5994,
      "ĠSaint": 5995,
      "ĠHold": 5996,
      "ĠKh": 5997,
      "Ġinvitation": 5998,
      "Ġcontrols": 5999,
      "ĠCounter": 6000,
      "Ġcease": 6001,
      "Ter": 6002,
      "Ġ43": 6003,
      "Ġshel": 6004,
      "bat": 6005,
      "emen": 6006,
      "à¤¨": 6007,
      "Ġsystematic": 6008,
      "Ġattract": 6009,
      "Ġenterprises": 6010,
      "Ġban": 6011,
      "ĠTask": 6012,
      "aining": 6013,
      "ĠHungary": 6014,
      "ĠOIOS": 6015,
      "aso": 6016,
      "ocal": 6017,
      "Ġfactor": 6018,
      "ĠUniversal": 6019,
      "Ġdignity": 6020,
      "iff": 6021,
      "ĠTog": 6022,
      "ithu": 6023,
      "ĠJam": 6024,
      "orders": 6025,
      "Ġolder": 6026,
      "Ġrunning": 6027,
      "Ġetc": 6028,
      "Ġsil": 6029,
      "Ġboard": 6030,
      "ĠNetwork": 6031,
      "ĠSlovak": 6032,
      "Ġreproductive": 6033,
      "Ġwebsite": 6034,
      "ĠCD": 6035,
      "ĠBet": 6036,
      "ĠInvites": 6037,
      "Ġsize": 6038,
      "Ġcert": 6039,
      "arag": 6040,
      "adequ": 6041,
      "Ġhelping": 6042,
      "Ġelectoral": 6043,
      "ĠAccount": 6044,
      "ocide": 6045,
      "anging": 6046,
      "Ġsubsequently": 6047,
      "ĠMacedonia": 6048,
      "IK": 6049,
      "care": 6050,
      "Ġproportion": 6051,
      "Ġassisting": 6052,
      "Ġ70": 6053,
      "Ġideas": 6054,
      "Ġsocieties": 6055,
      "70": 6056,
      "utr": 6057,
      "Ġlose": 6058,
      "amaica": 6059,
      "Ġoccurred": 6060,
      "Ġsponsors": 6061,
      "Ġsell": 6062,
      "Ġpolit": 6063,
      "Ġreaffirmed": 6064,
      "Ġlatest": 6065,
      "ĠMauritius": 6066,
      "Ġconstraints": 6067,
      "cast": 6068,
      "ĠWould": 6069,
      "Ġproliferation": 6070,
      "ches": 6071,
      "Ġhoc": 6072,
      "licit": 6073,
      "Ġremark": 6074,
      "Ġseriously": 6075,
      "ijing": 6076,
      "Ġupdated": 6077,
      "Ġdeliberations": 6078,
      "ĠTakes": 6079,
      "Ġimpris": 6080,
      "Ġmaintained": 6081,
      "dep": 6082,
      "Ġduties": 6083,
      "ste": 6084,
      "ĠDes": 6085,
      "ĠEastern": 6086,
      "Ġterrorists": 6087,
      "locked": 6088,
      "via": 6089,
      "ican": 6090,
      "à¤ķ": 6091,
      "ĠEncourages": 6092,
      "34": 6093,
      "ĠEach": 6094,
      "ĠJes": 6095,
      "Ġexactly": 6096,
      "Ġacced": 6097,
      "ongol": 6098,
      "agency": 6099,
      "ĠBritish": 6100,
      "OL": 6101,
      "Ġbra": 6102,
      "ivities": 6103,
      "Ġfeed": 6104,
      "ĠSalvador": 6105,
      "?\"": 6106,
      "Ġassigned": 6107,
      "Ġaffecting": 6108,
      "Ġengagement": 6109,
      "Ġpreviously": 6110,
      "ĠAccordingly": 6111,
      "Ġdatabase": 6112,
      "ĠOccup": 6113,
      "ps": 6114,
      "Ġhate": 6115,
      "Ġprimarily": 6116,
      "Ġminister": 6117,
      "Ġsimply": 6118,
      "Ġlearning": 6119,
      "rength": 6120,
      "Ġexcess": 6121,
      "Ġproductive": 6122,
      "Ġallocated": 6123,
      "ĠSlovenia": 6124,
      "Ġsafeguards": 6125,
      "rog": 6126,
      "uration": 6127,
      "ĠIndust": 6128,
      "Ġdifference": 6129,
      "Ġwonder": 6130,
      "Ar": 6131,
      "Ġbud": 6132,
      "unch": 6133,
      "Ġ1373": 6134,
      "Ġlasting": 6135,
      "forced": 6136,
      "80": 6137,
      "ason": 6138,
      "Ġmanage": 6139,
      "Ġpapers": 6140,
      "Ġadverse": 6141,
      "Ġcondition": 6142,
      "Ġreality": 6143,
      "ĠSit": 6144,
      "ĠPur": 6145,
      "Ġinvite": 6146,
      "Ġmatern": 6147,
      "Ġdiseases": 6148,
      "Ġfast": 6149,
      "omic": 6150,
      "Ġenact": 6151,
      "Ġverification": 6152,
      "tes": 6153,
      "Ġrou": 6154,
      "Ġbinding": 6155,
      "Ġsubparagraph": 6156,
      "à¤¤": 6157,
      "Ġsanitation": 6158,
      "Ġdisputes": 6159,
      "Ġabsolute": 6160,
      "akhstan": 6161,
      "airobi": 6162,
      "Ġdaily": 6163,
      "ommod": 6164,
      "ĠUruguay": 6165,
      "Ġachievements": 6166,
      "ĠBeijing": 6167,
      "Ġreiterated": 6168,
      "ata": 6169,
      "ĠLithu": 6170,
      "Ġkept": 6171,
      "Ġprejud": 6172,
      "down": 6173,
      "Ġgap": 6174,
      "Ġadminister": 6175,
      "ĠPeacebuilding": 6176,
      "Ġparliament": 6177,
      "Ġcoverage": 6178,
      "Ġemployees": 6179,
      "Ġ80": 6180,
      "ossible": 6181,
      "ĠArmenia": 6182,
      "ctional": 6183,
      "Ġintolerance": 6184,
      "Ġlooked": 6185,
      "Ġreceiving": 6186,
      "Ġgrand": 6187,
      "DAW": 6188,
      "fortun": 6189,
      "kina": 6190,
      "Ġmunicip": 6191,
      "Ġgives": 6192,
      "Ġregulatory": 6193,
      "RC": 6194,
      "bon": 6195,
      "Ġstation": 6196,
      "Ġmultip": 6197,
      "Ġsolidarity": 6198,
      "SC": 6199,
      "che": 6200,
      "erver": 6201,
      "Ġstrength": 6202,
      "Ġsole": 6203,
      "Ġlie": 6204,
      "fire": 6205,
      "Ġsick": 6206,
      "ulating": 6207,
      "Ġframeworks": 6208,
      "ĠResources": 6209,
      "Ġlay": 6210,
      "Ġarch": 6211,
      "Ġcurren": 6212,
      "Ġspecified": 6213,
      "ĠRussia": 6214,
      "Ġremedies": 6215,
      "Ġmere": 6216,
      "ĠFaso": 6217,
      "sequently": 6218,
      "Ġaccommod": 6219,
      "henomen": 6220,
      "ĠAgain": 6221,
      "Ġdegree": 6222,
      "Ġcell": 6223,
      "imize": 6224,
      "ĠNairobi": 6225,
      "ĠGiven": 6226,
      "Ġnoting": 6227,
      "Ġclosed": 6228,
      "Ġendeav": 6229,
      "ĠAtt": 6230,
      "uk": 6231,
      "ĠEarth": 6232,
      "ĠUNAM": 6233,
      "Ġcoordinate": 6234,
      "Ġrecognizes": 6235,
      "Ġexamination": 6236,
      "Ġwriting": 6237,
      "Ġdesignated": 6238,
      "ĠBulgaria": 6239,
      "ĠProced": 6240,
      "Ġimprovements": 6241,
      "Ġsister": 6242,
      "Ġuses": 6243,
      "Ġofficer": 6244,
      "Ġdin": 6245,
      "pping": 6246,
      "issau": 6247,
      "Ġcoast": 6248,
      "Ġsale": 6249,
      "quid": 6250,
      "Ġserving": 6251,
      "Ġobserver": 6252,
      "Ġembargo": 6253,
      "matic": 6254,
      "ĠSixth": 6255,
      "ĠRome": 6256,
      "Ġvision": 6257,
      "sufficient": 6258,
      "sels": 6259,
      "Ġflow": 6260,
      "ĠCla": 6261,
      "stein": 6262,
      "kind": 6263,
      "Ġhumanity": 6264,
      "Ġanymore": 6265,
      "Ġcycle": 6266,
      "Ġhospital": 6267,
      "Ġdig": 6268,
      "ĠNPT": 6269,
      "ĠChad": 6270,
      "Ġprevail": 6271,
      "Ġamb": 6272,
      "Ġmov": 6273,
      "Ġacad": 6274,
      "Ġsupplies": 6275,
      "Ġsurpr": 6276,
      "ĠKazakhstan": 6277,
      "Ġphenomen": 6278,
      "Ġfunded": 6279,
      "Ġhelped": 6280,
      "à¥ĭ": 6281,
      "ĠCoordinator": 6282,
      "Ġdrive": 6283,
      "Ġign": 6284,
      "Ġbul": 6285,
      "Ġhour": 6286,
      "Ġfocal": 6287,
      "Ġinadequ": 6288,
      "Ġmicro": 6289,
      "oking": 6290,
      "Ġinvestments": 6291,
      "Ġvaluable": 6292,
      "Ġblack": 6293,
      "Ġjoined": 6294,
      "Ġlines": 6295,
      "Ġneither": 6296,
      "Ġpreced": 6297,
      "Ġconfirmed": 6298,
      "ĠForces": 6299,
      "Ġcouple": 6300,
      "like": 6301,
      "Ġacceptance": 6302,
      "Ġexports": 6303,
      "Ġwithdrawal": 6304,
      "atellite": 6305,
      "Ġmilit": 6306,
      "ectoral": 6307,
      "ault": 6308,
      "erce": 6309,
      "Ġinequ": 6310,
      "Ġmount": 6311,
      "Ġep": 6312,
      "ĠStud": 6313,
      "Ġexpanded": 6314,
      "Ġconvened": 6315,
      "Ġdiamond": 6316,
      "ĠComprehensive": 6317,
      "Ġjobs": 6318,
      "Ġallegations": 6319,
      "Ġannounced": 6320,
      "TS": 6321,
      "Ġalive": 6322,
      "Ġexamples": 6323,
      "ĠEmphas": 6324,
      "fin": 6325,
      "Ġresident": 6326,
      "Ġobtained": 6327,
      "eurs": 6328,
      "Ġregularly": 6329,
      "Ġtit": 6330,
      "bek": 6331,
      "Ġcorporate": 6332,
      "Ġaccompan": 6333,
      "Ġmap": 6334,
      "ĠWTO": 6335,
      "Ġneighbour": 6336,
      "Ġscheduled": 6337,
      "43": 6338,
      "Ġcontrary": 6339,
      "Ġfinally": 6340,
      "ĠUNIF": 6341,
      "Ġpull": 6342,
      "Ġstip": 6343,
      "Ġtoler": 6344,
      "Ġattached": 6345,
      "upid": 6346,
      "Ġconsultative": 6347,
      "Ġmodalities": 6348,
      "Ġdealt": 6349,
      "iscal": 6350,
      "ĠRespons": 6351,
      "ox": 6352,
      "Ġmissing": 6353,
      "ĠWas": 6354,
      "ĠDan": 6355,
      "Ġunique": 6356,
      "abled": 6357,
      "Ġinterview": 6358,
      "Ġimpacts": 6359,
      "bourg": 6360,
      "Ġextremely": 6361,
      "ĠSafety": 6362,
      "ĠBolivia": 6363,
      "ĠLithuania": 6364,
      "Ġhy": 6365,
      "ĠOvers": 6366,
      "Ġimped": 6367,
      "rator": 6368,
      "ĠProcess": 6369,
      "Ġadaptation": 6370,
      "rif": 6371,
      "Ġdele": 6372,
      "Ġregards": 6373,
      "Ġtechnological": 6374,
      "Ġprosecution": 6375,
      "ĠFri": 6376,
      "Ġinnovative": 6377,
      "No": 6378,
      "PC": 6379,
      "Ġhol": 6380,
      "ĠTal": 6381,
      "Ġcoordinating": 6382,
      "ranch": 6383,
      "ĠOversight": 6384,
      "Ġargu": 6385,
      "Ġcolle": 6386,
      "Terrorism": 6387,
      "ita": 6388,
      "Ġpending": 6389,
      "ĠILO": 6390,
      "Ġagency": 6391,
      "Ġperfect": 6392,
      "Ġovercome": 6393,
      "Ġ90": 6394,
      "Ġspeed": 6395,
      "ĠQatar": 6396,
      "Ġlinks": 6397,
      "ĠBurkina": 6398,
      "Ġsuffered": 6399,
      "Ġfigures": 6400,
      "Ġhaz": 6401,
      "ĠJamaica": 6402,
      "Ġjudiciary": 6403,
      "Ġpercentage": 6404,
      "Ġtrouble": 6405,
      "Ġpilot": 6406,
      "mail": 6407,
      "Ġrich": 6408,
      "Ġdeclared": 6409,
      "Ġvulnerability": 6410,
      "ĠCameroon": 6411,
      "Am": 6412,
      "Ġpet": 6413,
      "Ġpicture": 6414,
      "ike": 6415,
      "arter": 6416,
      "Ġgets": 6417,
      "Ġselected": 6418,
      "Ġreturned": 6419,
      "Ġperpetrators": 6420,
      "Ġinfluence": 6421,
      "ĠIce": 6422,
      "artial": 6423,
      "Ġprompt": 6424,
      "Ġconsolidated": 6425,
      "cks": 6426,
      "atures": 6427,
      "Ġnationals": 6428,
      "ĠAdvis": 6429,
      "ĠTraffic": 6430,
      "Ġjointly": 6431,
      "aragua": 6432,
      "ĠGuide": 6433,
      "Ġaccomplish": 6434,
      "Ġunemployment": 6435,
      "Ġwarm": 6436,
      "Ġnone": 6437,
      "unction": 6438,
      "Ġturned": 6439,
      "Ġcalc": 6440,
      "Ġsustainability": 6441,
      "Ġthousands": 6442,
      "oms": 6443,
      "oses": 6444,
      "rupt": 6445,
      "ĠIssu": 6446,
      "Ġcompetence": 6447,
      "ĠPeoples": 6448,
      "Ġwitnesses": 6449,
      "ĠJack": 6450,
      "Ġrecip": 6451,
      "rown": 6452,
      "ONUC": 6453,
      "Bissau": 6454,
      "oor": 6455,
      "rah": 6456,
      "ĠField": 6457,
      "Ġinclusive": 6458,
      "Ġreviews": 6459,
      "Ġgreatest": 6460,
      "ĠFriday": 6461,
      "icing": 6462,
      "ication": 6463,
      "Ġdrop": 6464,
      "sement": 6465,
      "vert": 6466,
      "osystem": 6467,
      "ĠThree": 6468,
      "ago": 6469,
      "Ġobjection": 6470,
      "Ġdisease": 6471,
      "raising": 6472,
      "Ġgovernmental": 6473,
      "Ġdisch": 6474,
      "Ġurge": 6475,
      "Ġexamined": 6476,
      "Ġinventory": 6477,
      "Ġsegment": 6478,
      "rugg": 6479,
      "Ġcombined": 6480,
      "Ġprostitution": 6481,
      "ĠMond": 6482,
      "Ġdecade": 6483,
      "Ġrelevance": 6484,
      "ĠSummary": 6485,
      "Ġmobilization": 6486,
      "organiz": 6487,
      "Ġgreen": 6488,
      "urning": 6489,
      "Ġoutlined": 6490,
      "ĠActivities": 6491,
      "Ġhomes": 6492,
      "essment": 6493,
      "ĠAssistant": 6494,
      "Ġprisoners": 6495,
      "Ġsweet": 6496,
      "\".": 6497,
      "back": 6498,
      "gro": 6499,
      "ĠCal": 6500,
      "ĠSimilar": 6501,
      "amm": 6502,
      "uine": 6503,
      "Ġoption": 6504,
      "Ġfishing": 6505,
      "Ġmines": 6506,
      "unk": 6507,
      "Ġlocated": 6508,
      "Ġfinding": 6509,
      "Ġbrok": 6510,
      "Ġkn": 6511,
      "Ġtransform": 6512,
      "Ġcapabilities": 6513,
      "Ġbecoming": 6514,
      "Ġsubstances": 6515,
      "Ġintroduce": 6516,
      "cl": 6517,
      "Ġbomb": 6518,
      "omp": 6519,
      "olonization": 6520,
      "ĠWhich": 6521,
      "Ġadvanced": 6522,
      "Ġchanging": 6523,
      "Ġharmon": 6524,
      "Ġutil": 6525,
      "Ġtrib": 6526,
      "Ġconsum": 6527,
      "Ġcharges": 6528,
      "ĠOuter": 6529,
      "Ġpenalty": 6530,
      "ĠJesus": 6531,
      "oa": 6532,
      "tical": 6533,
      "orand": 6534,
      "ĠUNESCO": 6535,
      "Ġdemobilization": 6536,
      "Ġinnoc": 6537,
      "Ġdecrease": 6538,
      "orandum": 6539,
      "oo": 6540,
      "ĠGot": 6541,
      "Ġasset": 6542,
      "Ġbuilt": 6543,
      "Ġmortality": 6544,
      "pol": 6545,
      "istries": 6546,
      "Ġraising": 6547,
      "Ġextension": 6548,
      "Ġpreventive": 6549,
      "Ġguarantees": 6550,
      "OPS": 6551,
      "ĠAND": 6552,
      "Ġobv": 6553,
      "Ġrealize": 6554,
      "Ġexclud": 6555,
      "ĠInformal": 6556,
      "ĠStatistics": 6557,
      "ĠStrategic": 6558,
      "Ġacquisition": 6559,
      "rd": 6560,
      "oned": 6561,
      "Ġcold": 6562,
      "Ġsuper": 6563,
      "ĠCommittees": 6564,
      "load": 6565,
      "Ġrepresents": 6566,
      "Ġdirected": 6567,
      "orge": 6568,
      "âĢľ": 6569,
      "ĠLuc": 6570,
      "arding": 6571,
      "Ġcommittees": 6572,
      "Ġcovering": 6573,
      "Ġchemicals": 6574,
      "Ġxenophobia": 6575,
      "Ġborders": 6576,
      "iry": 6577,
      "ĠBoth": 6578,
      "We": 6579,
      "reach": 6580,
      "ĠTO": 6581,
      "Ġreflects": 6582,
      "Ġlargely": 6583,
      "Ġbroader": 6584,
      "Ġtransmitted": 6585,
      "CONF": 6586,
      "Ġstations": 6587,
      "Ġstrugg": 6588,
      "Ġantic": 6589,
      "Ġyours": 6590,
      "Ġrestric": 6591,
      "Ġvehicles": 6592,
      "gen": 6593,
      "Ġtack": 6594,
      "ĠFound": 6595,
      "ĠInteg": 6596,
      "ĠStrengthen": 6597,
      "Ġevil": 6598,
      "Ġstanding": 6599,
      "Ġfocusing": 6600,
      "ĠRacial": 6601,
      "ynam": 6602,
      "xem": 6603,
      "entions": 6604,
      "ĠSou": 6605,
      "ĠVI": 6606,
      "ey": 6607,
      "lines": 6608,
      "illions": 6609,
      "Ġvirt": 6610,
      "78": 6611,
      "Ġwall": 6612,
      "Ġabst": 6613,
      "ĠâĢľ(": 6614,
      "dule": 6615,
      "ĠExpert": 6616,
      "Ġlargest": 6617,
      "Ġintellectual": 6618,
      "ga": 6619,
      "Ġplaying": 6620,
      "Ġlimits": 6621,
      "Ġpredict": 6622,
      "Ġseminars": 6623,
      "earing": 6624,
      "Ġpublications": 6625,
      "Ġwarning": 6626,
      "Ġvoting": 6627,
      "Ġcreditors": 6628,
      "Ġcode": 6629,
      "Ġnomin": 6630,
      "ĠMongol": 6631,
      "Ġdoctor": 6632,
      "urate": 6633,
      "Ġye": 6634,
      "Ġdiscipl": 6635,
      "Ġtelling": 6636,
      "ashing": 6637,
      "Ġcomplainant": 6638,
      "ali": 6639,
      "Ġbiological": 6640,
      "Ġmiddle": 6641,
      "Ġprosecut": 6642,
      "ĠEd": 6643,
      "Ġpeacebuilding": 6644,
      "urban": 6645,
      "ĠMart": 6646,
      "ĠThrough": 6647,
      "Ġposed": 6648,
      "ĠReports": 6649,
      "Ġbitch": 6650,
      "Ġseminar": 6651,
      "burg": 6652,
      "tar": 6653,
      "Ġpension": 6654,
      "1998": 6655,
      "ĠTerrorism": 6656,
      "ĠMalta": 6657,
      "Ġcondemn": 6658,
      "Ġrepeated": 6659,
      "ĠNicaragua": 6660,
      "As": 6661,
      "ael": 6662,
      "xts": 6663,
      "ologies": 6664,
      "Ġdemonstrated": 6665,
      "Ġmurder": 6666,
      "Ġcomputer": 6667,
      "Ġinsufficient": 6668,
      "Ġmaster": 6669,
      "Ġanim": 6670,
      "ĠActing": 6671,
      "ĠIntergovernmental": 6672,
      "Ġconclude": 6673,
      "Ġpassed": 6674,
      "Ġappears": 6675,
      "ĠMonday": 6676,
      "xembourg": 6677,
      "What": 6678,
      "zone": 6679,
      "ĠMold": 6680,
      "amas": 6681,
      "Ġtransf": 6682,
      "Ġtransferred": 6683,
      "Ġaggression": 6684,
      "inet": 6685,
      "Ġborn": 6686,
      "stood": 6687,
      "riers": 6688,
      "Ġseat": 6689,
      "Ġtouch": 6690,
      "Ġenvisaged": 6691,
      "AP": 6692,
      "ena": 6693,
      "Ġwors": 6694,
      "Ġended": 6695,
      "ribunals": 6696,
      "Ġtrading": 6697,
      "ĠProfessional": 6698,
      "ĠIssues": 6699,
      "ĠTok": 6700,
      "Ġgrat": 6701,
      "Ġarmy": 6702,
      "Ġsoft": 6703,
      "Ġdanger": 6704,
      "imbab": 6705,
      "ĠConcern": 6706,
      "ĠBenin": 6707,
      "Ġdevoted": 6708,
      "Ġrape": 6709,
      "........": 6710,
      "Ġnearly": 6711,
      "imbabwe": 6712,
      "Ġimag": 6713,
      "Ġeverybody": 6714,
      "ĠChemical": 6715,
      "Ġvoice": 6716,
      "Ġbearing": 6717,
      "ĠNE": 6718,
      "Ġadult": 6719,
      "ourable": 6720,
      "ĠOnce": 6721,
      "Ġengine": 6722,
      "ĠSlovakia": 6723,
      "32": 6724,
      "41": 6725,
      "66": 6726,
      "resh": 6727,
      "Ġdear": 6728,
      "Ġsubstance": 6729,
      "Ġimprisonment": 6730,
      "Ġincidents": 6731,
      "Ġcarrier": 6732,
      "ĠZambia": 6733,
      "Ġkilling": 6734,
      "Ġneighb": 6735,
      "ĠHelp": 6736,
      "Ġversion": 6737,
      "Ġempowerment": 6738,
      "IR": 6739,
      "under": 6740,
      "Ġincreases": 6741,
      "Ġwelfare": 6742,
      "Ġstarting": 6743,
      "ĠOccupied": 6744,
      "Ġanticip": 6745,
      "Ġgenuine": 6746,
      "Ġlaunch": 6747,
      "Ġcustoms": 6748,
      "Ġheaven": 6749,
      "Ġcloser": 6750,
      "real": 6751,
      "ĠTorture": 6752,
      "Ġspent": 6753,
      "visional": 6754,
      "Ġappreciate": 6755,
      "ĠLatvia": 6756,
      "ĠIceland": 6757,
      "IM": 6758,
      "het": 6759,
      "Ġchan": 6760,
      "Ġelig": 6761,
      "Ġprocessing": 6762,
      "ĠMontene": 6763,
      "leb": 6764,
      "asure": 6765,
      "urred": 6766,
      "ĠDel": 6767,
      "ĠChange": 6768,
      "âĢĿ;": 6769,
      "ĠIsland": 6770,
      "Ġpreparations": 6771,
      "ĠTransitional": 6772,
      "rick": 6773,
      "Ġusually": 6774,
      "Ġsimple": 6775,
      "Ġdemands": 6776,
      "iny": 6777,
      "ĠMult": 6778,
      "ĠDav": 6779,
      "uster": 6780,
      "Ġju": 6781,
      "Ġcool": 6782,
      "rible": 6783,
      "Ġsomebody": 6784,
      "Ġshowed": 6785,
      "ĠFrank": 6786,
      "Ġdestroyed": 6787,
      "ped": 6788,
      "entle": 6789,
      "Ġoccupying": 6790,
      "ĠPanama": 6791,
      "Ġhum": 6792,
      "ilation": 6793,
      "ĠBack": 6794,
      "ception": 6795,
      "arsh": 6796,
      "Ġadvocacy": 6797,
      "ĠMusl": 6798,
      "52": 6799,
      "rees": 6800,
      "Ġintervention": 6801,
      "ĠShit": 6802,
      "Ġflag": 6803,
      "ĠAgriculture": 6804,
      "ht": 6805,
      "Ġdynam": 6806,
      "Ġfunctional": 6807,
      "Ġcareful": 6808,
      "Ġdistributed": 6809,
      "Ġconvinced": 6810,
      "dation": 6811,
      "Ġcr": 6812,
      "Ġcod": 6813,
      "Ġpe": 6814,
      "Ġben": 6815,
      "ĠSol": 6816,
      "Ġdecades": 6817,
      "ĠArms": 6818,
      "iversary": 6819,
      "ĠRepresentatives": 6820,
      "Ġdecides": 6821,
      "utrition": 6822,
      "Ġadministering": 6823,
      "Ġnorth": 6824,
      "ĠMark": 6825,
      "Ġecosystem": 6826,
      "Ġadopting": 6827,
      "ahiri": 6828,
      "Ġmigrant": 6829,
      "Ġconstitutes": 6830,
      "AU": 6831,
      "ĠDj": 6832,
      "ĠExt": 6833,
      "Ġtrained": 6834,
      "Ġcompletely": 6835,
      "Ġheavy": 6836,
      "Ġwished": 6837,
      "Ġimpartial": 6838,
      "ĠDeleg": 6839,
      "Ġstructural": 6840,
      "Ġcampaigns": 6841,
      "ĠRecommendation": 6842,
      "ĠObserver": 6843,
      "Ġdeterior": 6844,
      "mun": 6845,
      "irates": 6846,
      "Ġstab": 6847,
      "Ġdeem": 6848,
      "ĠYemen": 6849,
      "Ġroles": 6850,
      "ĠMeasures": 6851,
      "Ġcomplaints": 6852,
      "Ġadvancement": 6853,
      "ĠMongolia": 6854,
      "ĠMoldova": 6855,
      "Ġwat": 6856,
      "urb": 6857,
      "Ġsun": 6858,
      "ĠZimbabwe": 6859,
      "scale": 6860,
      "ĠLuxembourg": 6861,
      "ĠLeague": 6862,
      "ĠLibyan": 6863,
      "ĠPaul": 6864,
      "ĠJamahiri": 6865,
      "ĠJamahiriya": 6866,
      "esty": 6867,
      "Ġaren": 6868,
      "Ġconsc": 6869,
      "Ġcoherence": 6870,
      "300": 6871,
      "eds": 6872,
      "Ġfiscal": 6873,
      "ĠConventions": 6874,
      "Ġtherein": 6875,
      "Ġrose": 6876,
      "Ġsavings": 6877,
      "ĠMoz": 6878,
      "Ġstupid": 6879,
      "ĠDet": 6880,
      "Ġtrack": 6881,
      "Ġmandated": 6882,
      "Ġdecline": 6883,
      "Ġreplace": 6884,
      "ĠMontenegro": 6885,
      "dered": 6886,
      "ictions": 6887,
      "Ġexpresses": 6888,
      "ĠPlatform": 6889,
      "Ġmethodology": 6890,
      "Ġdisappear": 6891,
      "Ġprefer": 6892,
      "Ġintegral": 6893,
      "Ġopened": 6894,
      "Ġproceeds": 6895,
      "kes": 6896,
      "Ġsides": 6897,
      "oud": 6898,
      "ription": 6899,
      "Ġrepatri": 6900,
      "Ġinvites": 6901,
      "ĠLegisl": 6902,
      "rs": 6903,
      "Ġdefend": 6904,
      "ugg": 6905,
      "espread": 6906,
      "ĠMali": 6907,
      "Ġprohibited": 6908,
      "ĠSales": 6909,
      "State": 6910,
      "Ġextradition": 6911,
      "ĠReaffirms": 6912,
      "Ġquickly": 6913,
      "Ġexplanation": 6914,
      "It": 6915,
      "lin": 6916,
      "Ġlegally": 6917,
      "ĠArmed": 6918,
      "BSTA": 6919,
      "Habitat": 6920,
      "isp": 6921,
      "Ġsections": 6922,
      "Ġlocation": 6923,
      "Ġtopics": 6924,
      "ĠWelcoming": 6925,
      "ek": 6926,
      "Ġsouth": 6927,
      "Ġasking": 6928,
      "ĠUz": 6929,
      "Ġpertain": 6930,
      "Ġwrite": 6931,
      "face": 6932,
      "Ġfish": 6933,
      "Ġplant": 6934,
      "Ġfixed": 6935,
      "missions": 6936,
      "ĠCT": 6937,
      "Ġsuc": 6938,
      "ĠGab": 6939,
      "ĠSociety": 6940,
      "Ġwider": 6941,
      "Ġimpossible": 6942,
      "ĠVal": 6943,
      "Ġserved": 6944,
      "Ġperiods": 6945,
      "Ġsouthern": 6946,
      "rip": 6947,
      "Ġstable": 6948,
      "uds": 6949,
      "ĠStock": 6950,
      "iaison": 6951,
      "ĠProvisional": 6952,
      "Ġfunny": 6953,
      "Ġfederal": 6954,
      "Ġow": 6955,
      "ĠMich": 6956,
      "Ġequival": 6957,
      "Ġfacts": 6958,
      "Ġmanagers": 6959,
      "Ġmusic": 6960,
      "Ġconfirm": 6961,
      "Ġclaimant": 6962,
      "Ġorders": 6963,
      "ĠMoh": 6964,
      "Ġsixth": 6965,
      "Ġselection": 6966,
      "Ġassociations": 6967,
      "ĠTeam": 6968,
      "ĠGen": 6969,
      "Ġrelatively": 6970,
      "ĠSouthern": 6971,
      "Ġcomprom": 6972,
      "ĠPropos": 6973,
      "Ġanniversary": 6974,
      "Ġexperienced": 6975,
      "tal": 6976,
      "Ġcities": 6977,
      "uras": 6978,
      "ĠPun": 6979,
      "Ġremote": 6980,
      "ĠUNODC": 6981,
      "count": 6982,
      "ĠIll": 6983,
      "Ġincent": 6984,
      "ressed": 6985,
      "Ġaccession": 6986,
      "anges": 6987,
      "Ġcamps": 6988,
      "ĠNamib": 6989,
      "ĠAdviser": 6990,
      "Ġappeals": 6991,
      "Ġrequesting": 6992,
      "Ġundertaking": 6993,
      "Ġemerg": 6994,
      "Ġassociation": 6995,
      "bound": 6996,
      "Ġsixtieth": 6997,
      "Ġmale": 6998,
      "ĠCross": 6999,
      "ĠVict": 7000,
      "Ġfavor": 7001,
      "ĠViolence": 7002,
      "AD": 7003,
      "RAL": 7004,
      "Ġcry": 7005,
      "ĠPract": 7006,
      "Ġwealth": 7007,
      "Ġmanaged": 7008,
      "haust": 7009,
      "Ġwidespread": 7010,
      "para": 7011,
      "Ġconsiderations": 7012,
      "ĠBefore": 7013,
      "uri": 7014,
      "ĠIS": 7015,
      "ĠMilitary": 7016,
      "acro": 7017,
      "ĠReally": 7018,
      "ondon": 7019,
      "ĠDeveloped": 7020,
      "ĠOrganized": 7021,
      "Ġarrested": 7022,
      "ĠUzbek": 7023,
      "tenstein": 7024,
      "Ġliter": 7025,
      "contrib": 7026,
      "Ġdemonstrate": 7027,
      "Ġbehavi": 7028,
      "que": 7029,
      "Ġperhaps": 7030,
      "aves": 7031,
      "Ġexception": 7032,
      "ĠEstonia": 7033,
      "Ġdeployed": 7034,
      "ĠMozamb": 7035,
      "Ġpresidency": 7036,
      "Ġcounsel": 7037,
      "ĠRelations": 7038,
      "ĠTurkish": 7039,
      "rations": 7040,
      "ented": 7041,
      "ĠPerson": 7042,
      "including": 7043,
      "ĠFinance": 7044,
      "Ġinadequate": 7045,
      "77": 7046,
      "ĠMONUC": 7047,
      "overning": 7048,
      "awi": 7049,
      "Ġprogramming": 7050,
      "Ġvariety": 7051,
      "ĠPlanning": 7052,
      "ITRAL": 7053,
      "fortunately": 7054,
      "Ġinnocent": 7055,
      "Ġsn": 7056,
      "echtenstein": 7057,
      "Ġmedic": 7058,
      "Ġdegradation": 7059,
      "Ġfisheries": 7060,
      "Ġhearing": 7061,
      "ĠVery": 7062,
      "Ġparam": 7063,
      "Ġfeeling": 7064,
      "ĠClimate": 7065,
      "ĠFoundation": 7066,
      "orient": 7067,
      "ĠIm": 7068,
      "Ġremov": 7069,
      "ĠContents": 7070,
      "Ġcharged": 7071,
      "Ġ1980": 7072,
      "Ġdebtor": 7073,
      "ĠBye": 7074,
      "Ġcomplaint": 7075,
      "Ġadjustment": 7076,
      "Ġstraight": 7077,
      "htm": 7078,
      "Ġdisability": 7079,
      "Ġcreditor": 7080,
      "ĠConsideration": 7081,
      "Americ": 7082,
      "36": 7083,
      "99": 7084,
      "ls": 7085,
      "serv": 7086,
      "Ġtenth": 7087,
      "ĠTom": 7088,
      "ĠAir": 7089,
      "Ġresidence": 7090,
      "Ġdisag": 7091,
      "being": 7092,
      "ME": 7093,
      "grading": 7094,
      "Ġbudgets": 7095,
      "ĠDoha": 7096,
      "Ġexplained": 7097,
      "Ġdark": 7098,
      "Ġnar": 7099,
      "Ġvide": 7100,
      "Ġcontinent": 7101,
      "Ġequally": 7102,
      "ĠNevertheless": 7103,
      "ĠKeep": 7104,
      "ales": 7105,
      "ĠBro": 7106,
      "Ġentrust": 7107,
      "Ġdiscl": 7108,
      "Ġbiennial": 7109,
      "Ġexclusive": 7110,
      "ĠForest": 7111,
      "ĠExpresses": 7112,
      "reto": 7113,
      "after": 7114,
      "Pro": 7115,
      "side": 7116,
      "sper": 7117,
      "terday": 7118,
      "Ġstream": 7119,
      "emporary": 7120,
      "ively": 7121,
      "Ġadmit": 7122,
      "Ġinvasion": 7123,
      "ĠMIN": 7124,
      "ographic": 7125,
      "ĠHeads": 7126,
      "ĠWHO": 7127,
      "ĠMc": 7128,
      "Ġunderstood": 7129,
      "Ġguard": 7130,
      "Ġflight": 7131,
      "Ġdisposal": 7132,
      "ĠMozambique": 7133,
      "ĠÌ": 7134,
      "Ġpen": 7135,
      "ĠFAO": 7136,
      "Ġseeks": 7137,
      "ĠShut": 7138,
      "Ġchoose": 7139,
      "Ġworse": 7140,
      "depend": 7141,
      "water": 7142,
      "Ġmad": 7143,
      "ĠAc": 7144,
      "Ġgaps": 7145,
      "urch": 7146,
      "ĠGEF": 7147,
      "ĠHouse": 7148,
      "ĠBer": 7149,
      "Ġuns": 7150,
      "Ġreleased": 7151,
      "Ġdamn": 7152,
      "Ġsuffer": 7153,
      "Ġupdate": 7154,
      "ĠReduction": 7155,
      "ĠSettlements": 7156,
      "Ġsucceed": 7157,
      "acity": 7158,
      "Ġrequiring": 7159,
      "Ġourselves": 7160,
      "Ġperformed": 7161,
      "Ġtreated": 7162,
      "Ġconstant": 7163,
      "Ġhunger": 7164,
      "iterate": 7165,
      "arms": 7166,
      "Ġhom": 7167,
      "usiness": 7168,
      "well": 7169,
      "Ġteachers": 7170,
      "eenth": 7171,
      "erated": 7172,
      "Ġshipp": 7173,
      "Ġfinds": 7174,
      "Ġclaimed": 7175,
      "Ġsuccessfully": 7176,
      "Ġsatisf": 7177,
      "Ġmoved": 7178,
      "Ġfoster": 7179,
      "88": 7180,
      "Ġdup": 7181,
      "ĠMig": 7182,
      "antic": 7183,
      "ĠLes": 7184,
      "ĠLeast": 7185,
      "Ġautom": 7186,
      "Ġenterprise": 7187,
      "Ġtourism": 7188,
      "Ġdinner": 7189,
      "President": 7190,
      "ĠProgram": 7191,
      "Ġstaffing": 7192,
      "Ġindicates": 7193,
      "Ġlaid": 7194,
      "Ġreaffirm": 7195,
      "ados": 7196,
      "ĠInte": 7197,
      "Ġrecognizing": 7198,
      "Ġquestionna": 7199,
      "Ġreaching": 7200,
      "ĠDominican": 7201,
      "cking": 7202,
      "Ġtel": 7203,
      "Ġmental": 7204,
      "Ġlies": 7205,
      "ĠON": 7206,
      "encing": 7207,
      "Ġtransnational": 7208,
      "ĠAdvance": 7209,
      "ĠProtocols": 7210,
      "Ġarbitrary": 7211,
      "Ġprove": 7212,
      "ĠPoverty": 7213,
      "ocational": 7214,
      "Ġshut": 7215,
      "Ġconservation": 7216,
      "ĠVII": 7217,
      "Ġfraud": 7218,
      "Ġlarger": 7219,
      "Ġministerial": 7220,
      "Ġcard": 7221,
      "Ġpill": 7222,
      "Ġunf": 7223,
      "ĠIndian": 7224,
      "ĠUNCITRAL": 7225,
      "Ġtruly": 7226,
      "ĠEstabl": 7227,
      "ĠAuditors": 7228,
      "Ġmachin": 7229,
      "Ġtransfers": 7230,
      "hr": 7231,
      "Ġweapon": 7232,
      "usp": 7233,
      "ĠEmirates": 7234,
      "Ġpunish": 7235,
      "Ġceleb": 7236,
      "Ġphenomenon": 7237,
      "Ġ/": 7238,
      "ĠId": 7239,
      "lled": 7240,
      "izations": 7241,
      "Ġorganize": 7242,
      "Ġinterventions": 7243,
      "Ġdepartment": 7244,
      "Ġfulfilment": 7245,
      "800": 7246,
      "ĠProhib": 7247,
      "Ġpowerful": 7248,
      "ĠSA": 7249,
      "ami": 7250,
      "Ġquarter": 7251,
      "Ġintegrate": 7252,
      "Ġpresidential": 7253,
      "ĠSah": 7254,
      "ĠUm": 7255,
      "ĠLondon": 7256,
      "ĠYet": 7257,
      "aguay": 7258,
      "Ġoccasion": 7259,
      "Ġproperly": 7260,
      "ero": 7261,
      "ani": 7262,
      "any": 7263,
      "Ġ(âĢľ": 7264,
      "ĠWatch": 7265,
      "Ġwhite": 7266,
      "Ġsigning": 7267,
      "ĠRegist": 7268,
      "ĠNamibia": 7269,
      "iot": 7270,
      "Ġlady": 7271,
      "Ġlabor": 7272,
      "ĠNice": 7273,
      "ĠWater": 7274,
      "els": 7275,
      "Ġusers": 7276,
      "Ġcapable": 7277,
      "space": 7278,
      "Ġtalks": 7279,
      "ĠShould": 7280,
      "PAD": 7281,
      "ĠParaguay": 7282,
      "Ġconvening": 7283,
      "ĠBahrain": 7284,
      "Ġvillage": 7285,
      "ĠUzbekistan": 7286,
      "Ġaccident": 7287,
      "Ġvisited": 7288,
      "Ġblock": 7289,
      "Ġcrises": 7290,
      "Ġutilization": 7291,
      "Ġbench": 7292,
      "400": 7293,
      "Ġlif": 7294,
      "advant": 7295,
      "Ġarm": 7296,
      "Ġrock": 7297,
      "Ġfault": 7298,
      "Ġbelonging": 7299,
      "ĠDefence": 7300,
      "WP": 7301,
      "Ġbag": 7302,
      "Ġbeat": 7303,
      "ĠHond": 7304,
      "Ġremo": 7305,
      "bye": 7306,
      "IGH": 7307,
      "tra": 7308,
      "Ġfit": 7309,
      "ĠBa": 7310,
      "Ġrepresenting": 7311,
      "Ġgeneration": 7312,
      "ĠTransnational": 7313,
      "Ġdeeply": 7314,
      "Ġtolerance": 7315,
      "OC": 7316,
      "Self": 7317,
      "you": 7318,
      "Ġgr": 7319,
      "Ġexcell": 7320,
      "Ġsurely": 7321,
      "umbered": 7322,
      "ĠEquality": 7323,
      "Ġflexibility": 7324,
      "Proliferation": 7325,
      "gies": 7326,
      "itch": 7327,
      "iform": 7328,
      "uda": 7329,
      "Ġexplicit": 7330,
      "ĠDecision": 7331,
      "Ġdetain": 7332,
      "ĠLiechtenstein": 7333,
      "Ġadequately": 7334,
      "Ġsensitive": 7335,
      "Ġmanufacture": 7336,
      "OT": 7337,
      "vate": 7338,
      "Ġdrew": 7339,
      "Ġviolated": 7340,
      "ĠArabic": 7341,
      "Ġdetermining": 7342,
      "ĠScience": 7343,
      "Ġbalanced": 7344,
      "ĠGuidelines": 7345,
      "42": 7346,
      "ocation": 7347,
      "oked": 7348,
      "hips": 7349,
      "Ġformulated": 7350,
      "isation": 7351,
      "Ġrational": 7352,
      "Ġoffers": 7353,
      "Ġequity": 7354,
      "ĠEmployment": 7355,
      "Ġacceptable": 7356,
      "ashington": 7357,
      "Governing": 7358,
      "Ġtend": 7359,
      "Ġcommence": 7360,
      "Ġreceip": 7361,
      "Ġinvestigate": 7362,
      "ĠEverything": 7363,
      "Ġsalary": 7364,
      "angible": 7365,
      "Ġmovements": 7366,
      "discrimination": 7367,
      "RWA": 7368,
      "ĠCould": 7369,
      "Ġprop": 7370,
      "lder": 7371,
      "ĠStay": 7372,
      "osen": 7373,
      "Ġrecall": 7374,
      "Ġsigns": 7375,
      "Ġministries": 7376,
      "idding": 7377,
      "Ġbrid": 7378,
      "Ġconsolidation": 7379,
      "Ġschedule": 7380,
      "Ġcommodity": 7381,
      "87": 7382,
      "kh": 7383,
      "Ġsatellite": 7384,
      "icated": 7385,
      "ĠWed": 7386,
      "Ġvotes": 7387,
      "Ġbegun": 7388,
      "contributing": 7389,
      "ommunic": 7390,
      "Ġrid": 7391,
      "Ġoperate": 7392,
      "belie": 7393,
      "ĠPursu": 7394,
      "600": 7395,
      "FP": 7396,
      "ĠRoma": 7397,
      "Ġformed": 7398,
      "ounds": 7399,
      "Ġexplore": 7400,
      "Ġzones": 7401,
      "Ġforums": 7402,
      "urable": 7403,
      "Ġprejudice": 7404,
      "UT": 7405,
      "itage": 7406,
      "itative": 7407,
      "alle": 7408,
      "Ġexhaust": 7409,
      "ĠEC": 7410,
      "Ġadol": 7411,
      "Ġassisted": 7412,
      "specific": 7413,
      "COP": 7414,
      "Ġbox": 7415,
      "Ġsummar": 7416,
      "rigendum": 7417,
      "Ġaccomplishments": 7418,
      "ĠCase": 7419,
      "ĠTob": 7420,
      "ĠThurs": 7421,
      "Ġconducting": 7422,
      "ĠAppro": 7423,
      "Ġemployed": 7424,
      "Ġdenied": 7425,
      "ĠNiger": 7426,
      "Ġmemorandum": 7427,
      "65": 7428,
      "aur": 7429,
      "ĠID": 7430,
      "ĠIP": 7431,
      "Ġapplies": 7432,
      "ĠUNMIK": 7433,
      "ĠAlbania": 7434,
      "ĠTrafficking": 7435,
      "ĠBh": 7436,
      "Ġdesire": 7437,
      "bo": 7438,
      "uct": 7439,
      "Ġproof": 7440,
      "Ġstim": 7441,
      "Ġstreet": 7442,
      "Ġcommend": 7443,
      "Ġcomposition": 7444,
      "Ġassume": 7445,
      "Ġ63": 7446,
      "ĠInterim": 7447,
      "Ġprecise": 7448,
      "ĠAgainst": 7449,
      "90": 7450,
      "ĠSign": 7451,
      "oting": 7452,
      "Ġprosper": 7453,
      "iban": 7454,
      "Ġfinanced": 7455,
      "Ġnegotiation": 7456,
      "Ġdouble": 7457,
      "ĠFormer": 7458,
      "Ġdistinction": 7459,
      "do": 7460,
      "Ġcas": 7461,
      "ico": 7462,
      "otyp": 7463,
      "ĠWow": 7464,
      "Ġdisadvant": 7465,
      "Ġplatform": 7466,
      "Ġpossess": 7467,
      "Ġlists": 7468,
      "Ġà¤¸": 7469,
      "Ġputting": 7470,
      "sharing": 7471,
      "Ġprohibition": 7472,
      "Ġreimb": 7473,
      "Ġliquid": 7474,
      "Ġacknowledged": 7475,
      "Ġbehaviour": 7476,
      "Ġbrain": 7477,
      "ĠGren": 7478,
      "Ġfeas": 7479,
      "valuation": 7480,
      "ography": 7481,
      "Ġunders": 7482,
      "Ġopposition": 7483,
      "Ġmultiple": 7484,
      "munition": 7485,
      "IF": 7486,
      "Ġallowing": 7487,
      "Ġvolume": 7488,
      "Ġreading": 7489,
      "ength": 7490,
      "Ġdrinking": 7491,
      "rating": 7492,
      "Ġcatch": 7493,
      "Ġconj": 7494,
      "ĠDurban": 7495,
      "ĠFCCC": 7496,
      "Ġhappens": 7497,
      "ĠEmer": 7498,
      "ĠSixty": 7499,
      "ĠDjib": 7500,
      "IA": 7501,
      "Ġconventional": 7502,
      "Ġproduc": 7503,
      "terrey": 7504,
      "outi": 7505,
      "à¤¸": 7506,
      "Ġscared": 7507,
      "Ġcurric": 7508,
      "ĠIndependent": 7509,
      "ĠMichael": 7510,
      "Part": 7511,
      "Re": 7512,
      "esides": 7513,
      "Ġindirect": 7514,
      "iodiversity": 7515,
      "ĠAmong": 7516,
      "Ġnecessity": 7517,
      "Ġsubjected": 7518,
      "Ġstronger": 7519,
      "ĠPursuant": 7520,
      "ĠCity": 7521,
      "ĠTaj": 7522,
      "ĠFire": 7523,
      "Ġincident": 7524,
      "Ġcomposed": 7525,
      "Ġoutputs": 7526,
      "Ġbreach": 7527,
      "Ġpertaining": 7528,
      "ĠThursday": 7529,
      "ĠTime": 7530,
      "ĠAS": 7531,
      "ĠAv": 7532,
      "ript": 7533,
      "ĠHon": 7534,
      "Ġjournal": 7535,
      "Ġobjects": 7536,
      "ĠTransport": 7537,
      "Ġrejected": 7538,
      "Ġstages": 7539,
      "Ġhey": 7540,
      "udgetary": 7541,
      "Ġstresses": 7542,
      "Ġdeposit": 7543,
      "Ġpremises": 7544,
      "Ġhazard": 7545,
      "ĠIntegrated": 7546,
      "ĠAdvancement": 7547,
      "called": 7548,
      "Ġcance": 7549,
      "Ġgentle": 7550,
      "udes": 7551,
      "ibid": 7552,
      "ĠRev": 7553,
      "1997": 7554,
      "Ġexclusion": 7555,
      "ĠRecommendations": 7556,
      "Ġforgot": 7557,
      "Ġchannel": 7558,
      ",\"": 7559,
      "ĠSchool": 7560,
      "ille": 7561,
      "quiry": 7562,
      "Ġseized": 7563,
      "ĠTreatment": 7564,
      "Ġmoral": 7565,
      "ĠOperation": 7566,
      "ECD": 7567,
      "unteers": 7568,
      "Ġthereto": 7569,
      "ĠDist": 7570,
      "Ġallev": 7571,
      "ĠMonterrey": 7572,
      "Ã³n": 7573,
      "Ġcurrency": 7574,
      "ĠHonduras": 7575,
      "atible": 7576,
      "Ġbeings": 7577,
      "Ġinteraction": 7578,
      "ĠEnvironmental": 7579,
      "levision": 7580,
      "ĠColl": 7581,
      "Ġgather": 7582,
      "Ġtele": 7583,
      "Ġviolent": 7584,
      "Ġformat": 7585,
      "Ġevol": 7586,
      "Ġ1989": 7587,
      "ĠTogo": 7588,
      "uj": 7589,
      "annes": 7590,
      "Ġrestruct": 7591,
      "Ġhair": 7592,
      "Ġgreatly": 7593,
      "ĠGuy": 7594,
      "Ġmarked": 7595,
      "Ġexecution": 7596,
      "Sub": 7597,
      "ĠBased": 7598,
      "ĠFour": 7599,
      "Ġabol": 7600,
      "Ġworkpl": 7601,
      "iques": 7602,
      "iji": 7603,
      "Ġbarriers": 7604,
      "Ġpregnant": 7605,
      "Ġparent": 7606,
      "icted": 7607,
      "Ġhoney": 7608,
      "ĠInstit": 7609,
      "Ġprocedural": 7610,
      "Ġcovers": 7611,
      "Ġairspace": 7612,
      "Ġhistorical": 7613,
      "cribed": 7614,
      "lie": 7615,
      "mat": 7616,
      "Ġapart": 7617,
      "Ġfill": 7618,
      "Ġhal": 7619,
      "ĠGDP": 7620,
      "ĠRad": 7621,
      "Ġves": 7622,
      "Ġcontra": 7623,
      "anged": 7624,
      "ĠSimilarly": 7625,
      "American": 7626,
      "ectors": 7627,
      "ĠWednes": 7628,
      "ĠTajik": 7629,
      "Ġpropose": 7630,
      "Ġreliable": 7631,
      "ĠStatement": 7632,
      "Ġreviewing": 7633,
      "Ġtransportation": 7634,
      "rates": 7635,
      "itiveness": 7636,
      "orne": 7637,
      "Ġthereof": 7638,
      "Ġpossession": 7639,
      "ĠAssessment": 7640,
      "Ġemphasize": 7641,
      "Ġcustomary": 7642,
      "Ġreiterates": 7643,
      "ĠDavid": 7644,
      "An": 7645,
      "aired": 7646,
      "cer": 7647,
      "idad": 7648,
      "aco": 7649,
      "Ġreply": 7650,
      "Ġdetained": 7651,
      "ĠAtomic": 7652,
      "Ġaccountable": 7653,
      "ĠProcedure": 7654,
      "MP": 7655,
      "ĠPat": 7656,
      "ĠHur": 7657,
      "à¤¯": 7658,
      "ductions": 7659,
      "rabudgetary": 7660,
      "Ġoccas": 7661,
      "Ġinstructions": 7662,
      "Ġillust": 7663,
      "ascar": 7664,
      "laundering": 7665,
      "anim": 7666,
      "Ġrefers": 7667,
      "Ġpromoted": 7668,
      "entials": 7669,
      "regional": 7670,
      "Ġrenewed": 7671,
      "Ġharass": 7672,
      "Ġtitle": 7673,
      "ĠDjibouti": 7674,
      "212": 7675,
      "rgy": 7676,
      "Ġunto": 7677,
      "agascar": 7678,
      "Ġanyway": 7679,
      "overed": 7680,
      "Ġsets": 7681,
      "ĠIncre": 7682,
      "ĠTaliban": 7683,
      "ĠWednesday": 7684,
      "rgyz": 7685,
      "ias": 7686,
      "iver": 7687,
      "ĠMDG": 7688,
      "ĠBill": 7689,
      "Ġapparent": 7690,
      "ĠUNOPS": 7691,
      "ĠReiter": 7692,
      "Ġaccessible": 7693,
      "Ġencoun": 7694,
      "ĠResource": 7695,
      "Ġspeaker": 7696,
      "Ġcorresponding": 7697,
      "Ġequivalent": 7698,
      "Ġtill": 7699,
      "ĠImm": 7700,
      "Ġgold": 7701,
      "ĠMess": 7702,
      "orest": 7703,
      "Ġcoff": 7704,
      "Ġretire": 7705,
      "annesburg": 7706,
      "lining": 7707,
      "ĠCall": 7708,
      "Ġspending": 7709,
      "Ġcoherent": 7710,
      "Ġdiscriminatory": 7711,
      "ĠStrengthening": 7712,
      "].": 7713,
      "Ã¶": 7714,
      "inated": 7715,
      "ĠPenal": 7716,
      "ander": 7717,
      "Ġincurred": 7718,
      "Ġthereon": 7719,
      "Ġprin": 7720,
      "Ġsuggestions": 7721,
      "tieth": 7722,
      "Ġglad": 7723,
      "Islamic": 7724,
      "700": 7725,
      "enger": 7726,
      "ĠMake": 7727,
      "ĠJew": 7728,
      "Ġspend": 7729,
      "onomy": 7730,
      "Ġhandle": 7731,
      "ĠEducational": 7732,
      "Ġpiece": 7733,
      "Ġfru": 7734,
      "Ġlength": 7735,
      "ĠWashington": 7736,
      "ĠBot": 7737,
      "roud": 7738,
      "uthors": 7739,
      "Ġemphasizes": 7740,
      "Ġlinkages": 7741,
      "Ġincorporate": 7742,
      "Ġarbitration": 7743,
      "missibility": 7744,
      "Ġpollution": 7745,
      "Ġmachinery": 7746,
      "Ġtribunal": 7747,
      "onn": 7748,
      "Ġfool": 7749,
      "Ġgain": 7750,
      "Ġgrants": 7751,
      "Ġdeaths": 7752,
      "ĠProcurement": 7753,
      "essor": 7754,
      "Ġcontrolled": 7755,
      "incial": 7756,
      "forcing": 7757,
      "Ġearn": 7758,
      "riginal": 7759,
      "Ġintensify": 7760,
      "Ġstruggle": 7761,
      "Ġbenchmark": 7762,
      "ifies": 7763,
      "Ġseventh": 7764,
      "Ġconfisc": 7765,
      "Ġ75": 7766,
      "Ġguided": 7767,
      "Ġdeclarations": 7768,
      "Ġjudgement": 7769,
      "ĠMadagascar": 7770,
      "ĠBarbados": 7771,
      "Ġcertific": 7772,
      "ĠUNRWA": 7773,
      "income": 7774,
      "Ġending": 7775,
      "dden": 7776,
      "ĠWithin": 7777,
      "Ġpursued": 7778,
      "Ġliberalization": 7779,
      "Ġrapidly": 7780,
      "ĠÌģ": 7781,
      "orough": 7782,
      "Ġdivid": 7783,
      "ceans": 7784,
      "ĠNat": 7785,
      "Ġreinforce": 7786,
      "Ġremind": 7787,
      "97": 7788,
      "Ġpra": 7789,
      "Ġfresh": 7790,
      "Ġpartial": 7791,
      "Ġagents": 7792,
      "def": 7793,
      "Ġordinary": 7794,
      "ky": 7795,
      "Ġbond": 7796,
      "Ġrelate": 7797,
      "TAR": 7798,
      "Ġreaffirms": 7799,
      "Ġscheme": 7800,
      "Ġ,": 7801,
      "olutions": 7802,
      "ĠEnd": 7803,
      "ĠStresses": 7804,
      "Ġregimes": 7805,
      "oyal": 7806,
      "Ġproductivity": 7807,
      "ĠCEDAW": 7808,
      "Ġconfidential": 7809,
      "oriented": 7810,
      "kers": 7811,
      "Ġinputs": 7812,
      "ĠFive": 7813,
      "ĠJim": 7814,
      "uesday": 7815,
      "swana": 7816,
      "Ġadjustments": 7817,
      "Ġfarmers": 7818,
      "ĠTajikistan": 7819,
      "Ġpage": 7820,
      "Ġreiterate": 7821,
      "ecommunic": 7822,
      "Ġlib": 7823,
      "Ġstar": 7824,
      "Ġenemy": 7825,
      "ounded": 7826,
      "Ġepid": 7827,
      "Ġneighbouring": 7828,
      "ĠIllicit": 7829,
      "oured": 7830,
      "Ġarg": 7831,
      "Ġfacility": 7832,
      "exp": 7833,
      "Ġcooperative": 7834,
      "repren": 7835,
      "acroeconomic": 7836,
      "64": 7837,
      "mosp": 7838,
      "rance": 7839,
      "alition": 7840,
      "Ġhat": 7841,
      "umber": 7842,
      "ivation": 7843,
      "Ġoperative": 7844,
      "Ġ2015": 7845,
      "ĠAppeals": 7846,
      "ulsion": 7847,
      "ĠDocumentation": 7848,
      "Ġsad": 7849,
      "oods": 7850,
      "ĠImpro": 7851,
      "Ġforthcoming": 7852,
      "Ġinjured": 7853,
      "Ġpsychological": 7854,
      "ĠCommunications": 7855,
      "osis": 7856,
      "Ġdisabled": 7857,
      "ĠKyrgyz": 7858,
      "Ġannounce": 7859,
      "EE": 7860,
      "Ġdiss": 7861,
      "ĠSch": 7862,
      "ĠAli": 7863,
      "ĠMother": 7864,
      "ĠAbout": 7865,
      "Ġconstituted": 7866,
      "Ġremedy": 7867,
      "ĠJudge": 7868,
      "Ġwage": 7869,
      "Ġseats": 7870,
      "ĠAnt": 7871,
      "Ġcapt": 7872,
      "Ġcontinuous": 7873,
      "CRP": 7874,
      "Ġguaranteed": 7875,
      "ENT": 7876,
      "Ġlegitim": 7877,
      "Ġqualified": 7878,
      "Ġpackage": 7879,
      "Ġauthors": 7880,
      "Ġduration": 7881,
      "ils": 7882,
      "ĠTuesday": 7883,
      "ĠFDI": 7884,
      "ancies": 7885,
      "Ġinteresting": 7886,
      "Ġconjunction": 7887,
      "iates": 7888,
      "orage": 7889,
      "alys": 7890,
      "icious": 7891,
      "Ġlad": 7892,
      "Ġresolved": 7893,
      "Ġunity": 7894,
      "Ġseeing": 7895,
      "lihood": 7896,
      "Ġpray": 7897,
      "Ġbreat": 7898,
      "Ġhuge": 7899,
      "Ġisol": 7900,
      "ĠUs": 7901,
      "Ġnotification": 7902,
      "Ġrespected": 7903,
      "Ġattain": 7904,
      "ĠContin": 7905,
      "Ġhappening": 7906,
      "ĠAnnual": 7907,
      "gregated": 7908,
      "Aligned": 7909,
      "Ġcoastal": 7910,
      "Ġrepatriation": 7911,
      "\"?": 7912,
      "Ġburn": 7913,
      "Ġthorough": 7914,
      "ilty": 7915,
      "ĠMechan": 7916,
      "anks": 7917,
      "ĠStanding": 7918,
      "Ġprospects": 7919,
      "Ġmix": 7920,
      "roc": 7921,
      "Ġnorthern": 7922,
      "âĢĶ": 7923,
      "Ġ1967": 7924,
      "Ġfeet": 7925,
      "Ġcarefully": 7926,
      "ĠWithout": 7927,
      "ĠElection": 7928,
      "Ġsimpl": 7929,
      "Ġresponding": 7930,
      "Ġfat": 7931,
      "Ġuniform": 7932,
      "Ġallows": 7933,
      "Ġcompetitiveness": 7934,
      "Ġprofessionals": 7935,
      "Ġinspection": 7936,
      "Ġinjury": 7937,
      "Ġteaching": 7938,
      "Ġlawyers": 7939,
      "CH": 7940,
      "how": 7941,
      "wards": 7942,
      "Ġproud": 7943,
      "iced": 7944,
      "Ġvocational": 7945,
      "Ġleader": 7946,
      "Ġlawyer": 7947,
      "ĠHoly": 7948,
      "no": 7949,
      "Ġweight": 7950,
      "Ġanybody": 7951,
      "Ġenshr": 7952,
      "Ġbecomes": 7953,
      "Ġnecessarily": 7954,
      "Ġassessing": 7955,
      "Ġdistrict": 7956,
      "Ġ1988": 7957,
      "Ġvehicle": 7958,
      "ĠInspection": 7959,
      "arcotic": 7960,
      "lerate": 7961,
      "Ġpool": 7962,
      "ĠStatements": 7963,
      "Ġrevealed": 7964,
      "Ġwake": 7965,
      "ĠCust": 7966,
      "ĠMic": 7967,
      "ĠBook": 7968,
      "Ġarise": 7969,
      "Ġprivile": 7970,
      "Ġmonthly": 7971,
      "Ġintroducing": 7972,
      "Ġocean": 7973,
      "entieth": 7974,
      "Ġbill": 7975,
      "ĠFiji": 7976,
      "Ġcommended": 7977,
      "mbol": 7978,
      "Ġnewly": 7979,
      "itely": 7980,
      "Ġphot": 7981,
      "Ġallowance": 7982,
      "Ġfreely": 7983,
      "Ġmassive": 7984,
      "Ġloans": 7985,
      "Ġprotocols": 7986,
      "effective": 7987,
      "Ġdischarge": 7988,
      "ectives": 7989,
      "Ġhero": 7990,
      "Ġoverview": 7991,
      "Ġdrawing": 7992,
      "Ġtransaction": 7993,
      "Ġdepends": 7994,
      "Ġà¤¹": 7995,
      "Ġgenocide": 7996,
      "Ġcompetitive": 7997,
      "Ġarrangement": 7998,
      "Ġcruel": 7999,
      "US": 8000,
      "oes": 8001,
      "Ġchosen": 8002,
      "Ġunac": 8003,
      "Ġprojected": 8004,
      "Ġharmonization": 8005,
      "Ġcalm": 8006,
      "bre": 8007,
      "Ġmillions": 8008,
      "Ġexists": 8009,
      "HRC": 8010,
      "Ġcongratulate": 8011,
      "cause": 8012,
      "uries": 8013,
      "ĠHong": 8014,
      "usion": 8015,
      "Ġroot": 8016,
      "Ġentail": 8017,
      "Ġrevision": 8018,
      "Ġpresents": 8019,
      "ĠPrev": 8020,
      "ĠIndustrial": 8021,
      "Ġacademic": 8022,
      "ĠDamn": 8023,
      "Ġchief": 8024,
      "Ġelectric": 8025,
      "Ġdollar": 8026,
      "ĠConstitutional": 8027,
      "ĠCape": 8028,
      "lawful": 8029,
      "Ġreceipt": 8030,
      "NA": 8031,
      "mans": 8032,
      "itted": 8033,
      "stant": 8034,
      "Ġcontinuation": 8035,
      "Ġlivelihood": 8036,
      "Ġschemes": 8037,
      "Ġintelligence": 8038,
      "itals": 8039,
      "etic": 8040,
      "ĠPres": 8041,
      "ĠRay": 8042,
      "ĠES": 8043,
      "Ġunanim": 8044,
      "ĠKim": 8045,
      "ĠProgress": 8046,
      "ĠDecree": 8047,
      "ordinary": 8048,
      "Ġreceiv": 8049,
      "Ġmarry": 8050,
      "ĠPrevent": 8051,
      "Ġinstances": 8052,
      "ĠGeorge": 8053,
      "Ġforests": 8054,
      "ĠConsultative": 8055,
      "Ġdecentral": 8056,
      "Ġentrusted": 8057,
      "ĠBotswana": 8058,
      "Ġabroad": 8059,
      "ĠArbit": 8060,
      "Ġlandlocked": 8061,
      "EAN": 8062,
      "Ġtransmitting": 8063,
      "Ġpermitted": 8064,
      ",âĢĿ": 8065,
      "Sp": 8066,
      "Ġ)": 8067,
      "Ġum": 8068,
      "ternoon": 8069,
      "ĠKong": 8070,
      "Ġrealized": 8071,
      "Ġmaritime": 8072,
      "Ġtotally": 8073,
      "Ġcustody": 8074,
      "ores": 8075,
      "Ġcrop": 8076,
      "ĠIC": 8077,
      "Ġkiss": 8078,
      "Ġunderlying": 8079,
      "ĠMalawi": 8080,
      "ĠSeries": 8081,
      "missible": 8082,
      "Ġarrived": 8083,
      "Ġgratitude": 8084,
      "Ġquestionnaire": 8085,
      "Ġlands": 8086,
      "Ġheaded": 8087,
      "othes": 8088,
      "Ġexecut": 8089,
      "acing": 8090,
      "Ġreflecting": 8091,
      "Ġpleasure": 8092,
      "Ġyesterday": 8093,
      "Ġgenerations": 8094,
      "Ġhouseholds": 8095,
      "Ġtables": 8096,
      "iled": 8097,
      "Ġacceler": 8098,
      "Ġeradicate": 8099,
      "ĠObject": 8100,
      "Ġdedicated": 8101,
      "HP": 8102,
      "hered": 8103,
      "inent": 8104,
      "Ġori": 8105,
      "Ġinhuman": 8106,
      "Ġthrow": 8107,
      "Ġstere": 8108,
      "Ġamounted": 8109,
      "Ġliberty": 8110,
      "border": 8111,
      "ki": 8112,
      "ĠSant": 8113,
      "ĠStrip": 8114,
      "ĠLo": 8115,
      "ĠMonetary": 8116,
      "Ġceasefire": 8117,
      "Ġ=": 8118,
      "Ġwal": 8119,
      "Ġbiodiversity": 8120,
      "ĠMigration": 8121,
      "Ġstocks": 8122,
      "Ġorally": 8123,
      "Ġcollect": 8124,
      "Ġcareer": 8125,
      "Ġfacilitation": 8126,
      "Ġseparation": 8127,
      "ĠJohannesburg": 8128,
      "ĠLao": 8129,
      "ĠICC": 8130,
      "ĠMary": 8131,
      "ĠKar": 8132,
      "Ġblow": 8133,
      "Ġtrials": 8134,
      "Ġreplaced": 8135,
      "Ġflexible": 8136,
      "FC": 8137,
      "cut": 8138,
      "zz": 8139,
      "Ġreserve": 8140,
      "ĠIns": 8141,
      "Ġaband": 8142,
      "Ġpromised": 8143,
      "Ġdefenders": 8144,
      "Ġcontractual": 8145,
      "Ġmanaging": 8146,
      "Ġdiamonds": 8147,
      "allel": 8148,
      "iar": 8149,
      "Ġpark": 8150,
      "Ġsudden": 8151,
      "Ġvast": 8152,
      "Ġorganizing": 8153,
      "ĠAnti": 8154,
      "ĠArticles": 8155,
      "shop": 8156,
      "Ġeye": 8157,
      "ĠGreen": 8158,
      "Ġworst": 8159,
      "ĠPeter": 8160,
      "89": 8161,
      "Ġausp": 8162,
      "ett": 8163,
      "orts": 8164,
      "igate": 8165,
      "Ġguilty": 8166,
      "Ġtexts": 8167,
      "ĠArmy": 8168,
      "ducive": 8169,
      "Ġcorrigendum": 8170,
      "Ġannually": 8171,
      "Ġexpanding": 8172,
      "Ġcontingent": 8173,
      "inter": 8174,
      "Ġdance": 8175,
      "ĠSource": 8176,
      "Ġglo": 8177,
      "Ġconvey": 8178,
      "Ġconducive": 8179,
      "Ġoral": 8180,
      "Ġaspect": 8181,
      "Ġverbal": 8182,
      "Ġmitigation": 8183,
      "Ġpurchase": 8184,
      ")).": 8185,
      "Ġtangible": 8186,
      "Ġpan": 8187,
      "Ġwed": 8188,
      "Ġinput": 8189,
      "mbuds": 8190,
      "reek": 8191,
      "ĠOrganizations": 8192,
      "DR": 8193,
      "ping": 8194,
      "itudes": 8195,
      "Ġrapport": 8196,
      "Ġapplying": 8197,
      "Ġaccordingly": 8198,
      "ĠTwenty": 8199,
      "Ġtesting": 8200,
      "MIS": 8201,
      "rar": 8202,
      "Ġaqu": 8203,
      "omet": 8204,
      "Ġconvers": 8205,
      "erto": 8206,
      "Ġmandatory": 8207,
      "ĠMonaco": 8208,
      "Ġhopes": 8209,
      "Ġsac": 8210,
      "Ġstorage": 8211,
      "Ġregardless": 8212,
      "Ġmarginal": 8213,
      "Ġmerely": 8214,
      "Ġexcellent": 8215,
      "Dec": 8216,
      "RE": 8217,
      "uling": 8218,
      "ourse": 8219,
      "Ġsubmissions": 8220,
      "Ġrevital": 8221,
      "Ġmostly": 8222,
      "Ġ963": 8223,
      "Ġsubjects": 8224,
      "ĠContrib": 8225,
      "Ġratify": 8226,
      "ye": 8227,
      "Ġsch": 8228,
      "Ġdependent": 8229,
      "ulsory": 8230,
      "ĠRemember": 8231,
      "fl": 8232,
      "oug": 8233,
      "Ġfirms": 8234,
      "Ġbott": 8235,
      "otal": 8236,
      "ommy": 8237,
      "aka": 8238,
      "ĠSpe": 8239,
      "liers": 8240,
      "Ġendor": 8241,
      "Ġpossibly": 8242,
      "Ġfoundation": 8243,
      "Ġnegotiating": 8244,
      "ĠConsensus": 8245,
      "Ġdisplacement": 8246,
      "Ġmutually": 8247,
      "Ġcommentary": 8248,
      "Ġbooks": 8249,
      "ĠMauritania": 8250,
      "ĠMontreal": 8251,
      "OW": 8252,
      "Ġmil": 8253,
      "Ġshouldn": 8254,
      "Ġevening": 8255,
      "ĠDisaster": 8256,
      "Ġconsequence": 8257,
      "ĠSuppression": 8258,
      "Ġuncertain": 8259,
      "Ġstereotyp": 8260,
      "itious": 8261,
      "ĠCurrent": 8262,
      "ĠRober": 8263,
      "hers": 8264,
      "ĠHague": 8265,
      "artic": 8266,
      "Ġresist": 8267,
      "Ġviable": 8268,
      "Ġconcerted": 8269,
      "ĠOrgan": 8270,
      "Ġmonetary": 8271,
      "Ġrising": 8272,
      "ĠTrin": 8273,
      "ĠUSD": 8274,
      "ĠCountry": 8275,
      "OV": 8276,
      "par": 8277,
      "ĠCop": 8278,
      "eploy": 8279,
      "Ġattempts": 8280,
      "ĠLastly": 8281,
      "See": 8282,
      "rich": 8283,
      "Ġshar": 8284,
      "Ġkidding": 8285,
      "Ġproved": 8286,
      "Ġoutreach": 8287,
      "Ġmanual": 8288,
      "Ġammunition": 8289,
      "Ġterrible": 8290,
      "Ġtwentieth": 8291,
      "ĠAbd": 8292,
      "itizen": 8293,
      "Ġresponded": 8294,
      "ĠSomething": 8295,
      "Ġundermine": 8296,
      "Wh": 8297,
      "Ġentrepren": 8298,
      "elling": 8299,
      "Ġseemed": 8300,
      "Ġloved": 8301,
      "Ġcontacts": 8302,
      "ĠGrand": 8303,
      "Ġcultures": 8304,
      "Ġcoffee": 8305,
      "Ġauspices": 8306,
      "Ġbast": 8307,
      "ĠAlex": 8308,
      "Ġeuro": 8309,
      "utan": 8310,
      "Ġimperative": 8311,
      "ĠJean": 8312,
      "Ġ300": 8313,
      "Ġtwice": 8314,
      "Ġinterdepend": 8315,
      "Ġafternoon": 8316,
      "Ġcopies": 8317,
      "Ġboss": 8318,
      "Ġrebel": 8319,
      "Ġprograms": 8320,
      "ĠIslam": 8321,
      "Ġrain": 8322,
      "Ġ65": 8323,
      "ĠAtl": 8324,
      "irable": 8325,
      "ĠBasel": 8326,
      "________": 8327,
      "Ġsoftware": 8328,
      "Ġharassment": 8329,
      "Äĩ": 8330,
      "erating": 8331,
      "ĠPu": 8332,
      "Ġnotably": 8333,
      "Ġintent": 8334,
      "Ġremove": 8335,
      "Ġtechniques": 8336,
      "Ġcredibility": 8337,
      "ĠCorre": 8338,
      "CAP": 8339,
      "ĠIMF": 8340,
      "Ġevaluate": 8341,
      "Ġdimension": 8342,
      "Ġsurveys": 8343,
      "ĠProhibition": 8344,
      "Ind": 8345,
      "Ġfif": 8346,
      "Ġgains": 8347,
      "ĠOS": 8348,
      "ĠOcean": 8349,
      "Ġregister": 8350,
      "ĠFranc": 8351,
      "Ġsubregion": 8352,
      "ĠCaptain": 8353,
      "ĠEmergency": 8354,
      "Ã¨": 8355,
      "Ġsong": 8356,
      "ĠCa": 8357,
      "ested": 8358,
      "ĠEle": 8359,
      "that": 8360,
      "Ġtelevision": 8361,
      "Ġextrabudgetary": 8362,
      "Ġdefine": 8363,
      "Ġrelationships": 8364,
      "Ġlimitations": 8365,
      "ĠInvestment": 8366,
      "Ġmaternal": 8367,
      "ĠSahara": 8368,
      "Ġreimbur": 8369,
      "iant": 8370,
      "requ": 8371,
      "Ġlived": 8372,
      "Ġcluster": 8373,
      "Ġquiet": 8374,
      "Ġgenerate": 8375,
      "Ġexceptional": 8376,
      "ĠQuestion": 8377,
      "Ġfiled": 8378,
      "compass": 8379,
      "Ġderived": 8380,
      "Ġeligible": 8381,
      "ĠLegislative": 8382,
      "'.": 8383,
      "wan": 8384,
      "orters": 8385,
      "Ġfalling": 8386,
      "ĠSat": 8387,
      "ided": 8388,
      "ĠErad": 8389,
      "ĠLocal": 8390,
      "ĠVan": 8391,
      "nesses": 8392,
      "Ġeasily": 8393,
      "Ġexpectations": 8394,
      "Ġwillingness": 8395,
      "Ġmobilize": 8396,
      "Ġanticipated": 8397,
      "Ġdetainees": 8398,
      "licated": 8399,
      "Ġconsultants": 8400,
      "Ġpopular": 8401,
      "Ġelaboration": 8402,
      "fted": 8403,
      "ĠCOM": 8404,
      "ĠDialogue": 8405,
      "ĠEv": 8406,
      "acc": 8407,
      "grade": 8408,
      "venile": 8409,
      "Ġformulate": 8410,
      "ĠRegarding": 8411,
      "Ġpreserve": 8412,
      "Ġelsewhere": 8413,
      "Ġsupervision": 8414,
      "Ġenshrined": 8415,
      "Ġcra": 8416,
      "Ġfal": 8417,
      "Ġassum": 8418,
      "Ġdesertification": 8419,
      "Ġdistingu": 8420,
      "Ġinstal": 8421,
      "ĠClosed": 8422,
      "Ġconviction": 8423,
      "Ġsoul": 8424,
      "Ġexcessive": 8425,
      "Ġlegitimacy": 8426,
      "ĠWhatever": 8427,
      "reatment": 8428,
      "Ġfacilitated": 8429,
      "Ġmagn": 8430,
      "Ġdivor": 8431,
      "Ġaccompanied": 8432,
      "ĠIdent": 8433,
      "ĠTobago": 8434,
      "900": 8435,
      "dec": 8436,
      "ĠHabitat": 8437,
      "Ġdescription": 8438,
      "ĠCorruption": 8439,
      "Ġsponsored": 8440,
      "ĠTurkmen": 8441,
      "Ġmalaria": 8442,
      "Ġanalytical": 8443,
      "Ġpatterns": 8444,
      "03": 8445,
      "Ġfile": 8446,
      "Ġreductions": 8447,
      "ulates": 8448,
      "Ġvig": 8449,
      "ĠYouth": 8450,
      "2011": 8451,
      "iciaries": 8452,
      "Ġdelays": 8453,
      "Ġimmigration": 8454,
      "Ġdisseminate": 8455,
      "ĠContracting": 8456,
      "ĠDelegations": 8457,
      "79": 8458,
      "can": 8459,
      "Ġborrow": 8460,
      "ĠST": 8461,
      "ethe": 8462,
      "ĠBusiness": 8463,
      "ĠLight": 8464,
      "ĠConsequently": 8465,
      "Ġremoval": 8466,
      "Ġmouth": 8467,
      "ecture": 8468,
      "Ġatmosp": 8469,
      "ĠInst": 8470,
      "Ġassumed": 8471,
      "ĠKnow": 8472,
      "Ġcausing": 8473,
      "ĠViolations": 8474,
      "Ġsummits": 8475,
      "Ġdimensions": 8476,
      "boundary": 8477,
      "\",": 8478,
      "Ġinhab": 8479,
      "establ": 8480,
      "ĠBearing": 8481,
      "Ġheritage": 8482,
      "Ġcarbon": 8483,
      "Ġsurround": 8484,
      "Ġnormally": 8485,
      "ĠSamoa": 8486,
      "Ġsquare": 8487,
      "ĠUNIFEM": 8488,
      "cies": 8489,
      "Ġrend": 8490,
      "Ġnut": 8491,
      "ĠThink": 8492,
      "Ġscen": 8493,
      "Ġforever": 8494,
      "Ġaspir": 8495,
      "Ġcharacteristics": 8496,
      "ĠVerde": 8497,
      "Ġduplication": 8498,
      "Ġrough": 8499,
      "Ġadj": 8500,
      "Ġfavourable": 8501,
      "Ġeliminating": 8502,
      "Ġmothers": 8503,
      "ĠRelief": 8504,
      "Ġthousand": 8505,
      "post": 8506,
      "Ġcast": 8507,
      "isons": 8508,
      "eck": 8509,
      "aba": 8510,
      "ĠECO": 8511,
      "ĠFine": 8512,
      "Ġran": 8513,
      "Ġunion": 8514,
      "wealth": 8515,
      "Ġconfront": 8516,
      "Ġspecies": 8517,
      "Ġcouncil": 8518,
      "Ġoutset": 8519,
      "Ġinflation": 8520,
      "Ġgenerated": 8521,
      "dam": 8522,
      "voy": 8523,
      "itc": 8524,
      "Ġcamer": 8525,
      "ĠTre": 8526,
      "ĠBob": 8527,
      "Ġaccred": 8528,
      "Ġapprove": 8529,
      "Ġphr": 8530,
      "Ġbroke": 8531,
      "Ġsales": 8532,
      "Ġstockp": 8533,
      "ĠBhutan": 8534,
      "alysis": 8535,
      "mbudsman": 8536,
      "ught": 8537,
      "Ġlab": 8538,
      "Ġliaison": 8539,
      "ĠGrant": 8540,
      "Ġservants": 8541,
      "Ġ64": 8542,
      "Ġ73": 8543,
      "azing": 8544,
      "ĠMaj": 8545,
      "ĠLeave": 8546,
      "Ġcomprising": 8547,
      "Ġshelter": 8548,
      "ĠResponsible": 8549,
      "Ġundersc": 8550,
      "herence": 8551,
      "icide": 8552,
      "ĠPost": 8553,
      "ĠRio": 8554,
      "ĠODA": 8555,
      "Ġspoke": 8556,
      "ĠNobody": 8557,
      "Ġcounse": 8558,
      "Ġslight": 8559,
      "ĠColonial": 8560,
      "Ġwaters": 8561,
      "Ġrestructuring": 8562,
      "ĠTrinidad": 8563,
      "df": 8564,
      "inal": 8565,
      "ĠOECD": 8566,
      "illance": 8567,
      "Ġshift": 8568,
      "Ġthemes": 8569,
      "Ġeighth": 8570,
      "erend": 8571,
      "LA": 8572,
      "sessional": 8573,
      "Ġapport": 8574,
      "iland": 8575,
      "ĠRam": 8576,
      "Ġappeared": 8577,
      "mell": 8578,
      "Ġoffset": 8579,
      "Ġregarded": 8580,
      "ĠCombat": 8581,
      "idden": 8582,
      "Ġbanking": 8583,
      "Ġfrequently": 8584,
      "Ġdeemed": 8585,
      "ĠLim": 8586,
      "Ġrecalls": 8587,
      "Ġtransitional": 8588,
      "Ġsaved": 8589,
      "Ġissuance": 8590,
      "ĠWorkshop": 8591,
      "ĠFinal": 8592,
      "Ġrestoration": 8593,
      "Ġenhancement": 8594,
      "Ġdriving": 8595,
      "Ġconsolidate": 8596,
      "Ġperspectives": 8597,
      "Ġsubstantially": 8598,
      "ĠSerious": 8599,
      "Ġremarks": 8600,
      "Ġincentives": 8601,
      "Ġvideo": 8602,
      "utable": 8603,
      "ĠMos": 8604,
      "ĠMerc": 8605,
      "endix": 8606,
      "Ġencompass": 8607,
      "Ġ1949": 8608,
      "Ġheading": 8609,
      "Ġpreval": 8610,
      "Ġtargeting": 8611,
      "Ġobservance": 8612,
      "Ġultimately": 8613,
      "Original": 8614,
      "Ġfle": 8615,
      "ĠGreek": 8616,
      "ĠHa": 8617,
      "Ġresc": 8618,
      "Ġprovincial": 8619,
      "Ġassure": 8620,
      "âĢĿ)": 8621,
      "Ġpaying": 8622,
      "Ġharmful": 8623,
      "Ġsymbol": 8624,
      "Ġoptim": 8625,
      "Ġconvene": 8626,
      "ĠCapacity": 8627,
      "represent": 8628,
      "Ġmistake": 8629,
      "Ġbroken": 8630,
      "ĠRest": 8631,
      "ĠBig": 8632,
      "Ġsomewhere": 8633,
      "ĠWelcome": 8634,
      "Ġalternatives": 8635,
      "Ġdeny": 8636,
      "Ġlucky": 8637,
      "iy": 8638,
      "war": 8639,
      "ĠTu": 8640,
      "ceived": 8641,
      "rie": 8642,
      "Ġgained": 8643,
      "elau": 8644,
      "ĠConf": 8645,
      "Ġclient": 8646,
      "ypri": 8647,
      "Ġbriefings": 8648,
      "Ġsyn": 8649,
      "Ġmanifestations": 8650,
      ")/": 8651,
      "Ag": 8652,
      "SO": 8653,
      "iability": 8654,
      "Ġreact": 8655,
      "andan": 8656,
      "Ġenorm": 8657,
      "Ġassumption": 8658,
      "Ġunequ": 8659,
      "Ġshowing": 8660,
      "ĠIndependence": 8661,
      "gently": 8662,
      "isite": 8663,
      "ĠUnfortunately": 8664,
      "osh": 8665,
      "Ġkil": 8666,
      "Ġcompulsory": 8667,
      "ĠEnh": 8668,
      "109": 8669,
      "Ġinsec": 8670,
      "ĠDirectorate": 8671,
      "ĠJapanese": 8672,
      "ĠSyria": 8673,
      "Ġutmost": 8674,
      "International": 8675,
      "ĠHurry": 8676,
      "mas": 8677,
      "Ġmacroeconomic": 8678,
      "ĠCO": 8679,
      "ĠCertain": 8680,
      "Ġonline": 8681,
      "ĠHas": 8682,
      "iel": 8683,
      "Ġnobody": 8684,
      "Ġsincere": 8685,
      "Ġboat": 8686,
      "Ġdigital": 8687,
      "Ġremoved": 8688,
      "Ġtick": 8689,
      "ĠCypri": 8690,
      "ĠFather": 8691,
      "Ġcoerc": 8692,
      "forest": 8693,
      "ĠEns": 8694,
      "Ġfees": 8695,
      "ĠKuwaiti": 8696,
      "Ġconcepts": 8697,
      "Ġmeaningful": 8698,
      "orra": 8699,
      "orter": 8700,
      "Ġsake": 8701,
      "laim": 8702,
      "Ġfirmly": 8703,
      "Ġsupplementary": 8704,
      "ĠNEPAD": 8705,
      "ĠInstitutions": 8706,
      "ĠTurkmenistan": 8707,
      "bed": 8708,
      "pri": 8709,
      "icians": 8710,
      "Ġhung": 8711,
      "ĠSBSTA": 8712,
      "ĠBu": 8713,
      "Ġadvances": 8714,
      "Ġtoward": 8715,
      "Ġobservation": 8716,
      "ĠCuban": 8717,
      "ĠEveryone": 8718,
      "Ġdescribe": 8719,
      "Ġarbitral": 8720,
      "Ġacknowledge": 8721,
      "while": 8722,
      "ĠFacility": 8723,
      "Chairman": 8724,
      "Ġendeavour": 8725,
      "ĠPunishment": 8726,
      "inces": 8727,
      "Ġsight": 8728,
      "Ġdrought": 8729,
      "ĠCare": 8730,
      "Ġweird": 8731,
      "illa": 8732,
      "Ġking": 8733,
      "Ġfinish": 8734,
      "Ġwhenever": 8735,
      "Ġsmugg": 8736,
      "Ġspeech": 8737,
      "elled": 8738,
      "Ġclosing": 8739,
      "withstanding": 8740,
      "Ġrevenue": 8741,
      "Af": 8742,
      "from": 8743,
      "zing": 8744,
      "Ġcaught": 8745,
      "alam": 8746,
      "Ġhide": 8747,
      "ĠCC": 8748,
      "ĠMac": 8749,
      "ulf": 8750,
      "Ġrefrain": 8751,
      "Ġparticipatory": 8752,
      "Ġministers": 8753,
      "ĠPerhaps": 8754,
      "Ġbuildings": 8755,
      "month": 8756,
      "ball": 8757,
      "Ġreward": 8758,
      "ĠSen": 8759,
      "ĠTel": 8760,
      "ĠLog": 8761,
      "Ġoffering": 8762,
      "Ġextrem": 8763,
      "ourage": 8764,
      "ĠReporting": 8765,
      "Ġbrings": 8766,
      "Ġcomparative": 8767,
      "Ġexplosive": 8768,
      "Ġmunicipal": 8769,
      "Ġinequality": 8770,
      "96": 8771,
      "mental": 8772,
      "ĠMm": 8773,
      "ĠMet": 8774,
      "irt": 8775,
      "eless": 8776,
      "Ġinvolves": 8777,
      "Ġevaluations": 8778,
      "Ġvillages": 8779,
      "ĠTokelau": 8780,
      "East": 8781,
      "Ĥ¬": 8782,
      "Ġast": 8783,
      "asy": 8784,
      "ĠFreedom": 8785,
      "Ġdismiss": 8786,
      "Ġcontribut": 8787,
      "Ġinvestors": 8788,
      "Ġfrag": 8789,
      "105": 8790,
      "Ġdisturb": 8791,
      "Ġrestore": 8792,
      "Ġpatient": 8793,
      "Ġgranting": 8794,
      "Ġstrike": 8795,
      "Ġcomplementary": 8796,
      "ĠBahamas": 8797,
      "Ġdegrading": 8798,
      "Ġstrictly": 8799,
      "depth": 8800,
      "ĠGuyana": 8801,
      "Agency": 8802,
      "Ġsamp": 8803,
      "Ġresort": 8804,
      "aker": 8805,
      "Ġaccurate": 8806,
      "Ġestimate": 8807,
      "Ġscient": 8808,
      "Ġcorner": 8809,
      "Ġwindow": 8810,
      "ĠMechanism": 8811,
      "FOR": 8812,
      "ĠLou": 8813,
      "awa": 8814,
      "Ġinitiate": 8815,
      "Ġurgently": 8816,
      "Ġbeneficiaries": 8817,
      "Ġinstall": 8818,
      "Ġclarification": 8819,
      "Ġclarify": 8820,
      "vation": 8821,
      "atories": 8822,
      "alien": 8823,
      "ĠSex": 8824,
      "ĠSenior": 8825,
      "erving": 8826,
      "develop": 8827,
      "Ġdefer": 8828,
      "Ġparallel": 8829,
      "Ġkinds": 8830,
      "Ġsummer": 8831,
      "Ġaccelerate": 8832,
      "Ġredeploy": 8833,
      "elfth": 8834,
      "erendum": 8835,
      "Ġwa": 8836,
      "Ġfr": 8837,
      "Ġthou": 8838,
      "ĠWal": 8839,
      "Ġlocations": 8840,
      "Ġstopped": 8841,
      "Ġeastern": 8842,
      "Ġdistinct": 8843,
      "ĠMuslim": 8844,
      "ĠKyrgyzstan": 8845,
      "98": 8846,
      "Ġlaugh": 8847,
      "Ġsuitable": 8848,
      "Ġhonest": 8849,
      "known": 8850,
      "rans": 8851,
      "Ġnav": 8852,
      "ĠPress": 8853,
      "ĠFort": 8854,
      "Ġshop": 8855,
      "Ġimpose": 8856,
      "Ġunderlined": 8857,
      "Ġclothes": 8858,
      "ĠIsn": 8859,
      "Ġinteractive": 8860,
      "2010": 8861,
      "Ġconnected": 8862,
      "ĠStatistical": 8863,
      "Ġindustries": 8864,
      "personnel": 8865,
      "ĠDaddy": 8866,
      "ĠPrior": 8867,
      "ĠMaster": 8868,
      "Ġordered": 8869,
      "Ġmankind": 8870,
      "Ġdelegates": 8871,
      "ĠWhoa": 8872,
      "Ġassociate": 8873,
      "Ġhostilities": 8874,
      "Ġsafeguard": 8875,
      "Ġallegedly": 8876,
      "ĠFacilit": 8877,
      "ĠCommonwealth": 8878,
      "Ġpolitics": 8879,
      "Ġcompromise": 8880,
      "Ġliteracy": 8881,
      "Ġporn": 8882,
      "Ġnamed": 8883,
      "olf": 8884,
      "Ġincons": 8885,
      "ĠConflict": 8886,
      "otho": 8887,
      "Ġurgency": 8888,
      "Ġwarrant": 8889,
      "ĠUpon": 8890,
      "Ġfruit": 8891,
      "Ġfalse": 8892,
      "kok": 8893,
      "orney": 8894,
      "Ġfing": 8895,
      "ota": 8896,
      "Ġenforced": 8897,
      "Ġplanet": 8898,
      "Ġcandidate": 8899,
      "Ġvacancy": 8900,
      "Ġfired": 8901,
      "ĠBiological": 8902,
      "Ġvia": 8903,
      "Ġreplies": 8904,
      "Ġentering": 8905,
      "Ġprogressive": 8906,
      "Ġsensit": 8907,
      "damn": 8908,
      "vin": 8909,
      "Ġpal": 8910,
      "Ġelder": 8911,
      "urances": 8912,
      "ĠRob": 8913,
      "Ġanc": 8914,
      "ĠWeb": 8915,
      "ĠProsec": 8916,
      "ĠRecon": 8917,
      "Ġcollected": 8918,
      "Ġthreatened": 8919,
      "escents": 8920,
      "Ġheavens": 8921,
      "Ġhazardous": 8922,
      "WAS": 8923,
      "gg": 8924,
      "Ġcitizen": 8925,
      "ĠOk": 8926,
      "Ġrelates": 8927,
      "Ġproviders": 8928,
      "Ġscene": 8929,
      "Ġevident": 8930,
      "Ġmobility": 8931,
      "Ġworried": 8932,
      "ĠRecognizes": 8933,
      "ĠGabon": 8934,
      "Ġphrase": 8935,
      "aling": 8936,
      "Ġhang": 8937,
      "ĠPowers": 8938,
      "ĠOman": 8939,
      "Ġ500": 8940,
      "Ġindicator": 8941,
      "ĠRegulation": 8942,
      "Ġpursuit": 8943,
      "ĠCorpor": 8944,
      "Ġwrongful": 8945,
      "ĠSecondly": 8946,
      "Ġhouses": 8947,
      "Ġinnovation": 8948,
      "ĠParticipation": 8949,
      "01": 8950,
      "Ġdivision": 8951,
      "ĠAccess": 8952,
      "ĠJu": 8953,
      "Ġprovince": 8954,
      "Ġpersistent": 8955,
      "Ġrot": 8956,
      "Ġwhereby": 8957,
      "Ġswear": 8958,
      "Ġwatching": 8959,
      "Ġdeprived": 8960,
      "ammad": 8961,
      "lass": 8962,
      "Ġ..": 8963,
      "Ġtight": 8964,
      "ann": 8965,
      "Ġbath": 8966,
      "Ġabuses": 8967,
      "nees": 8968,
      "Ġguideline": 8969,
      "Ġlimitation": 8970,
      "ĠBelize": 8971,
      "Ġmomentum": 8972,
      "Sh": 8973,
      "vest": 8974,
      "ĠEvaluation": 8975,
      "Ġformation": 8976,
      "Ġplane": 8977,
      "ĠMajor": 8978,
      "Ġgreenhouse": 8979,
      "Ġprosperity": 8980,
      "pe": 8981,
      "Ġexpulsion": 8982,
      "phone": 8983,
      "à¤®": 8984,
      "ĠOrder": 8985,
      "Ġload": 8986,
      "Ġcolonial": 8987,
      "Ġattributable": 8988,
      "IU": 8989,
      "ĠDeb": 8990,
      "ĠAdv": 8991,
      "Ġcredible": 8992,
      "Ġdevices": 8993,
      "Ġacquired": 8994,
      "Ġsubsidies": 8995,
      "Ġrenewable": 8996,
      "Ġhundreds": 8997,
      "Ġtackle": 8998,
      "table": 8999,
      "Ġfly": 9000,
      "ĠNeg": 9001,
      "ĠHuh": 9002,
      "ĠOs": 9003,
      "ĠFree": 9004,
      "using": 9005,
      "Ġring": 9006,
      "Ġjustified": 9007,
      "Ġeventually": 9008,
      "ĠRelated": 9009,
      "Ġtranslation": 9010,
      "Ġsurvival": 9011,
      "Ġsurveillance": 9012,
      "Ġobvious": 9013,
      "ĠRegistrar": 9014,
      "Ġenormous": 9015,
      "alienable": 9016,
      ")]": 9017,
      "LL": 9018,
      "Ġdry": 9019,
      "ortion": 9020,
      "Ġweren": 9021,
      "ĠLakes": 9022,
      "Ġattitudes": 9023,
      "ĠCanad": 9024,
      "Ġsignificance": 9025,
      "Ġmethodologies": 9026,
      "Ġseverely": 9027,
      "ĠReiterates": 9028,
[...]
