{
  "version": "1.0",
  "truncation": null,
  "padding": null,
  "added_tokens": [
    {
      "id": 0,
      "content": "<|endoftext|>",
      "single_word": false,
      "lstrip": false,
      "rstrip": false,
      "normalized": false,
      "special": true
    },
    {
      "id": 1,
      "content": "<|padding|>",
      "single_word": false,
      "lstrip": false,
      "rstrip": false,
      "normalized": false,
      "special": true
    }
  ],
  "normalizer": {
    "type": "NFKC"
  },
  "pre_tokenizer": {
    "type": "ByteLevel",
    "add_prefix_space": true,
    "trim_offsets": true,
    "use_regex": true
  },
  "post_processor": {
    "type": "ByteLevel",
    "add_prefix_space": true,
    "trim_offsets": true,
    "use_regex": true
  },
  "decoder": {
    "type": "ByteLevel",
    "add_prefix_space": true,
    "trim_offsets": true,
    "use_regex": true
  },
  "model": {
    "type": "BPE",
    "dropout": null,
    "unk_token": null,
    "continuing_subword_prefix": null,
    "end_of_word_suffix": null,
    "fuse_unk": false,
    "byte_fallback": false,
    "ignore_merges": false,
    "vocab": {
      "<|endoftext|>": 0,
      "<|padding|>": 1,
      "!": 2,
      "\"": 3,
      "#": 4,
      "$": 5,
      "%": 6,
      "&": 7,
      "'": 8,
      "(": 9,
      ")": 10,
      "*": 11,
      "+": 12,
      ",": 13,
      "-": 14,
      ".": 15,
      "/": 16,
      "0": 17,
      "1": 18,
      "2": 19,
      "3": 20,
      "4": 21,
      "5": 22,
      "6": 23,
      "7": 24,
      "8": 25,
      "9": 26,
      ":": 27,
      ";": 28,
      "<": 29,
      "=": 30,
      ">": 31,
      "?": 32,
      "@": 33,
      "A": 34,
      "B": 35,
      "C": 36,
      "D": 37,
      "E": 38,
      "F": 39,
      "G": 40,
      "H": 41,
      "I": 42,
      "J": 43,
      "K": 44,
      "L": 45,
      "M": 46,
      "N": 47,
      "O": 48,
      "P": 49,
      "Q": 50,
      "R": 51,
      "S": 52,
      "T": 53,
      "U": 54,
      "V": 55,
      "W": 56,
      "X": 57,
      "Y": 58,
      "Z": 59,
      "[": 60,
      "\\": 61,
      "]": 62,
      "^": 63,
      "_": 64,
      "`": 65,
      "a": 66,
      "b": 67,
      "c": 68,
      "d": 69,
      "e": 70,
      "f": 71,
      "g": 72,
      "h": 73,
      "i": 74,
      "j": 75,
      "k": 76,
      "l": 77,
      "m": 78,
      "n": 79,
      "o": 80,
      "p": 81,
      "q": 82,
      "r": 83,
      "s": 84,
      "t": 85,
      "u": 86,
      "v": 87,
      "w": 88,
      "x": 89,
      "y": 90,
      "z": 91,
      "{": 92,
      "}": 93,
      "~": 94,
      "¡": 95,
      "¢": 96,
      "£": 97,
      "¤": 98,
      "¥": 99,
      "¦": 100,
      "§": 101,
      "¨": 102,
      "©": 103,
      "ª": 104,
      "«": 105,
      "¬": 106,
      "®": 107,
      "¯": 108,
      "°": 109,
      "±": 110,
      "²": 111,
      "³": 112,
      "´": 113,
      "µ": 114,
      "¶": 115,
      "·": 116,
      "¸": 117,
      "¹": 118,
      "º": 119,
      "»": 120,
      "¼": 121,
      "½": 122,
      "¾": 123,
      "¿": 124,
      "Â": 125,
      "Ã": 126,
      "Ä": 127,
      "Å": 128,
      "Æ": 129,
      "Ç": 130,
      "È": 131,
      "É": 132,
      "Ê": 133,
      "Ë": 134,
      "Ì": 135,
      "Í": 136,
      "Î": 137,
      "Ï": 138,
      "Ð": 139,
      "Ñ": 140,
      "Ò": 141,
      "Ó": 142,
      "Ô": 143,
      "Õ": 144,
      "Ö": 145,
      "×": 146,
      "Ø": 147,
      "Ù": 148,
      "Ú": 149,
      "Û": 150,
      "Ü": 151,
      "Ý": 152,
      "ß": 153,
      "à": 154,
      "á": 155,
      "â": 156,
      "ã": 157,
      "ä": 158,
      "å": 159,
      "æ": 160,
      "ç": 161,
      "è": 162,
      "é": 163,
      "ê": 164,
      "ë": 165,
      "ì": 166,
      "í": 167,
      "î": 168,
      "ï": 169,
      "ð": 170,
      "ñ": 171,
      "ò": 172,
      "ó": 173,
      "ô": 174,
      "Ġ": 175,
      "ġ": 176,
      "Ģ": 177,
      "ģ": 178,
      "Ĥ": 179,
      "ĥ": 180,
      "Ħ": 181,
      "ħ": 182,
      "Ĩ": 183,
      "ĩ": 184,
      "Ī": 185,
      "ī": 186,
      "Ĭ": 187,
      "ĭ": 188,
      "Į": 189,
      "į": 190,
      "İ": 191,
      "ı": 192,
      "Ĳ": 193,
      "ĳ": 194,
      "Ĵ": 195,
      "ĵ": 196,
      "Ķ": 197,
      "ķ": 198,
      "ĸ": 199,
      "Ĺ": 200,
      "ĺ": 201,
      "Ļ": 202,
      "ļ": 203,
      "Ľ": 204,
      "ľ": 205,
      "Ŀ": 206,
      "ŀ": 207,
      "Ł": 208,
      "ł": 209,
      "Ń": 210,
      "ä¸": 211,
      "çļ": 212,
      "çļĦ": 213,
      "äº": 214,
      "ãĢ": 215,
      "ä»": 216,
      "åħ": 217,
      "æľ": 218,
      "åı": 219,
      "å®": 220,
      "åĪ": 221,
      "ãĢĤ": 222,
      "ä½": 223,
      "è¿": 224,
      "åĽ": 225,
      "åĲ": 226,
      "ä¼": 227,
      "è®": 228,
      "æĪ": 229,
      "åĬ": 230,
      "åľ": 231,
      "åĴ": 232,
      "åĴĮ": 233,
      "ç»": 234,
      "å¤": 235,
      "åĽ½": 236,
      "ä¼ļ": 237,
      "æĸ": 238,
      "æĺ": 239,
      "å¹": 240,
      "åľ¨": 241,
      "è¯": 242,
      "å°": 243,
      "ä¹": 244,
      "æĪĳ": 245,
      "ä¸Ģ": 246,
      "è¡": 247,
      "åĳ": 248,
      "æĿ": 249,
      "åĨ": 250,
      "æĺ¯": 251,
      "ãĢģ": 252,
      "çĶ": 253,
      "æľī": 254,
      "æī": 255,
      "äºº": 256,
      "æĹ": 257,
      "åį": 258,
      "äºĨ": 259,
      "éĩ": 260,
      "åº": 261,
      "ä¸į": 262,
      "è®®": 263,
      "æĶ": 264,
      "æ³": 265,
      "è¿Ļ": 266,
      "å¯": 267,
      "æŃ": 268,
      "è¡Į": 269,
      "å·": 270,
      "åĩ": 271,
      "å¾": 272,
      "ä½ł": 273,
      "éĹ": 274,
      "ä¸º": 275,
      "æĬ": 276,
      "ä»¥": 277,
      "é¢": 278,
      "çĽ": 279,
      "åĳĺ": 280,
      "éĻ": 281,
      "ç¬": 282,
      "è§": 283,
      "å±": 284,
      "å¹´": 285,
      "å¼": 286,
      "ä¿": 287,
      "å¥": 288,
      "ç¬¬": 289,
      "è´": 290,
      "éĢ": 291,
      "ä½ľ": 292,
      "¦ģ": 293,
      "ä»¬": 294,
      "çº": 295,
      "ä»ĸ": 296,
      "æ³ķ": 297,
      "ç§": 298,
      "éĿ": 299,
      "00": 300,
      "æĢ": 301,
      "åĮ": 302,
      "æĭ": 303,
      "è¦ģ": 304,
      "æł": 305,
      "èµ": 306,
      "èĢ": 307,
      "æı": 308,
      "å¸": 309,
      "ĥ½": 310,
      "ĠæĪĳ": 311,
      "æķ": 312,
      "åĲĪ": 313,
      "åıĳ": 314,
      "ä¸ª": 315,
      "æĸ¹": 316,
      "å¯¹": 317,
      "åħ³": 318,
      "å®ļ": 319,
      "èģ": 320,
      "æŀ": 321,
      "çī": 322,
      "ä¸Ń": 323,
      "åħ¶": 324,
      "äºİ": 325,
      "æĮ": 326,
      "å®¶": 327,
      "äºĭ": 328,
      "çĲ": 329,
      "æıĲ": 330,
      "é¡": 331,
      "ä¾": 332,
      "åĪ°": 333,
      "æ´": 334,
      "å§": 335,
      "åŁ": 336,
      "æīĢ": 337,
      "å¤§": 338,
      "200": 339,
      "æ¬": 340,
      "âĢ": 341,
      "åŃ": 342,
      "èģĶ": 343,
      "åĩº": 344,
      "å¿": 345,
      "å½": 346,
      "å¦": 347,
      "çİ": 348,
      "ç«": 349,
      "è¿Ľ": 350,
      "æ°": 351,
      "èĥ½": 352,
      "èĩ": 353,
      "æ²": 354,
      "åľ°": 355,
      "åı¯": 356,
      "çĲĨ": 357,
      "æĶ¿": 358,
      "ä¸»": 359,
      "æĥ": 360,
      "æİ": 361,
      "æĦ": 362,
      "åĨ³": 363,
      "åĬ¨": 364,
      "åıĬ": 365,
      "è°": 366,
      "å§Ķ": 367,
      "æ¡": 368,
      "çĶ¨": 369,
      "éģ": 370,
      "æĪĲ": 371,
      "æĿ¥": 372,
      "å·¥": 373,
      "çĶŁ": 374,
      "ä¸Ĭ": 375,
      "ç»Ħ": 376,
      "çº¦": 377,
      "æĹ¥": 378,
      "æĿĥ": 379,
      "..": 380,
      "åĬł": 381,
      "éĹ®": 382,
      "åĪ©": 383,
      "åĽ½å®¶": 384,
      "ä¸İ": 385,
      "å§Ķåĳĺ": 386,
      "é¢ĺ": 387,
      "åħ¨": 388,
      "ä¼ļè®®": 389,
      "å§Ķåĳĺä¼ļ": 390,
      "åİ": 391,
      "æµ": 392,
      "éĺ": 393,
      "çŃ": 394,
      "å±ķ": 395,
      "çī¹": 396,
      "å¹¶": 397,
      "è¿ĩ": 398,
      "ç½": 399,
      "æľĪ": 400,
      "åħ¬": 401,
      "éĥ": 402,
      "åĬĽ": 403,
      "ç»ı": 404,
      "åĵ": 405,
      "éĥ¨": 406,
      "æĹ¶": 407,
      "æ¯": 408,
      "äºĽ": 409,
      "Ġ-": 410,
      "éĻħ": 411,
      "èģĶåĲĪ": 412,
      "è¡¨": 413,
      "æĬ¥": 414,
      "æ¡Ī": 415,
      "Ġä½ł": 416,
      "éĿ¢": 417,
      "è¾": 418,
      "Ł¥": 419,
      "éĹ®é¢ĺ": 420,
      "åĳĬ": 421,
      "ç®": 422,
      "å°±": 423,
      "æľº": 424,
      "ä¿Ŀ": 425,
      "éĩį": 426,
      "åĲĦ": 427,
      "ç¤": 428,
      "åºĶ": 429,
      "é¡¹": 430,
      "ãĢĬ": 431,
      "ãĢĭ": 432,
      "ä¸ĭ": 433,
      "å¾Ĺ": 434,
      "æį": 435,
      "åĪĨ": 436,
      "åĪ¶": 437,
      "æ°ĳ": 438,
      "åĬ¡": 439,
      "æĢ§": 440,
      "åĽ½éĻħ": 441,
      "å®ŀ": 442,
      "éĤ": 443,
      "å»": 444,
      "å°Ĩ": 445,
      "æĸ¯": 446,
      "çľ": 447,
      "å®ī": 448,
      "åĢ": 449,
      "çĽ®": 450,
      "ç¨": 451,
      "å·¥ä½ľ": 452,
      "åĲĮ": 453,
      "åī": 454,
      "åģ": 455,
      "åĪ«": 456,
      "æĦı": 457,
      "å¤ļ": 458,
      "èģĶåĲĪåĽ½": 459,
      "çķ": 460,
      "æĿ¡": 461,
      "èĢĮ": 462,
      "çİ°": 463,
      "èµĦ": 464,
      "éķ": 465,
      "è¯¥": 466,
      "æĬ¥åĳĬ": 467,
      "ä»»": 468,
      "ç¼": 469,
      "å»º": 470,
      "éĿŀ": 471,
      "å¼Ģ": 472,
      "éĹ´": 473,
      "æĪĸ": 474,
      "åĬ©": 475,
      "ç¡": 476,
      "åıĳå±ķ": 477,
      "ä¹Ī": 478,
      "éĢļ": 479,
      "äºļ": 480,
      "æ±": 481,
      "å¢": 482,
      "æľŁ": 483,
      "éķ¿": 484,
      "åĨħ": 485,
      "åĲİ": 486,
      "æĸĩ": 487,
      "æľ¬": 488,
      "ä¹¦": 489,
      "è¯´": 490,
      "å¥³": 491,
      "æĮģ": 492,
      "å¥½": 493,
      "è¿ĺ": 494,
      "å¦Ĥ": 495,
      "ç§į": 496,
      "Ġ1": 497,
      "ä¹ĭ": 498,
      "å½ĵ": 499,
      "åĮº": 500,
      "ç»ĩ": 501,
      "ä¾Ľ": 502,
      "ç»Ħç»ĩ": 503,
      "æģ": 504,
      "æĥħ": 505,
      "éĤ£": 506,
      "ç«ĭ": 507,
      "ç¨ĭ": 508,
      "å¹³": 509,
      "æŃ¤": 510,
      "èĩª": 511,
      "åŁº": 512,
      "æ²¡": 513,
      "ä¸Ģä¸ª": 514,
      "ä»¶": 515,
      "åĿ": 516,
      "è§Ħ": 517,
      "ç¾": 518,
      "åĽł": 519,
      "ä½ĵ": 520,
      "ä»£": 521,
      "ä¹Ł": 522,
      "æľĢ": 523,
      "ä½¿": 524,
      "åįı": 525,
      "éģĵ": 526,
      "å¤Ħ": 527,
      "å¤ĸ": 528,
      "æĺİ": 529,
      "æŃ£": 530,
      "åıĸ": 531,
      "ç¤¾": 532,
      "è®¡": 533,
      "æĭī": 534,
      "æĽ": 535,
      "æĪĳä»¬": 536,
      "èĢħ": 537,
      "ç³": 538,
      "åīį": 539,
      "åħ³äºİ": 540,
      "ç¡®": 541,
      "åºľ": 542,
      "æ¬¡": 543,
      "æĶ¿åºľ": 544,
      "Ġè¿Ļ": 545,
      "éĩĮ": 546,
      "è®¤": 547,
      "æŀĦ": 548,
      "æį®": 549,
      "ä¿¡": 550,
      "è°ĥ": 551,
      "Ġåľ¨": 552,
      "åĨµ": 553,
      "æıĲä¾Ľ": 554,
      "åıĹ": 555,
      "åı·": 556,
      "æĶ¯": 557,
      "éĩĳ": 558,
      "æĸ¹éĿ¢": 559,
      "æ®": 560,
      "ç®¡": 561,
      "è½": 562,
      "19": 563,
      "ä½Ĩ": 564,
      "éļ": 565,
      "å®¡": 566,
      "ç³»": 567,
      "éľ": 568,
      "æĸ½": 569,
      "æŀľ": 570,
      "æĸ°": 571,
      "çĶ±": 572,
      "æ´»": 573,
      "ä»¥åıĬ": 574,
      "åķ": 575,
      "åĽ¢": 576,
      "å¼º": 577,
      "åħ±": 578,
      "åĮħ": 579,
      "ä¹ī": 580,
      "âĢľ": 581,
      "ä¸ļ": 582,
      "äº¤": 583,
      "å·²": 584,
      "éĥ½": 585,
      "çĤ": 586,
      "ç©": 587,
      "åĨ³è®®": 588,
      "ç»Ń": 589,
      "ç¤¾ä¼ļ": 590,
      "å°Ķ": 591,
      "å®ĥ": 592,
      "ç¾İ": 593,
      "åħĪ": 594,
      "æī§": 595,
      "å¿ħ": 596,
      "åĲĳ": 597,
      "é«": 598,
      "è®¾": 599,
      "åŁŁ": 600,
      "åĮĸ": 601,
      "é«ĺ": 602,
      "çĦ": 603,
      "ä»Ģ": 604,
      "åħ¶ä»ĸ": 605,
      "ä»ĸä»¬": 606,
      "é¢Ĩ": 607,
      "éľĢ": 608,
      "è¡ĮåĬ¨": 609,
      "è§£": 610,
      "çŁ¥": 611,
      "âĢĿ": 612,
      "è¯·": 613,
      "åº¦": 614,
      "è¢": 615,
      "éĽ": 616,
      "ä»£è¡¨": 617,
      "ç§ĺ": 618,
      "çī¹åĪ«": 619,
      "èį": 620,
      "æĥħåĨµ": 621,
      "éĢļè¿ĩ": 622,
      "æ±Ĥ": 623,
      "æī§è¡Į": 624,
      "åŃĲ": 625,
      "åİ»": 626,
      "æķ°": 627,
      "å·´": 628,
      "çĦ¶": 629,
      "Ġ(": 630,
      "æŁ¥": 631,
      "å®īåħ¨": 632,
      "æĭ¬": 633,
      "æĮĩ": 634,
      "åħ¥": 635,
      "å°ı": 636,
      "è¨": 637,
      "è®º": 638,
      "åįģ": 639,
      "é©": 640,
      "åĦ": 641,
      "çĿ": 642,
      "åĮħæĭ¬": 643,
      "æľīåħ³": 644,
      "æľºæŀĦ": 645,
      "æł·": 646,
      "åĦ¿": 647,
      "çŃī": 648,
      "è¿Ľè¡Į": 649,
      "ç»Ł": 650,
      "è§ģ": 651,
      "çĽ¸": 652,
      "æĸ¹æ¡Ī": 653,
      "ç§ĺä¹¦": 654,
      "éĩĩ": 655,
      "...": 656,
      "æĽ´": 657,
      "è£": 658,
      "ä»İ": 659,
      "æµİ": 660,
      "æłĩ": 661,
      "ä»Ģä¹Ī": 662,
      "ç´": 663,
      "è¿ĻäºĽ": 664,
      "æĥ³": 665,
      "èµ·": 666,
      "ĠæĪĳä»¬": 667,
      "å¾Ī": 668,
      "è¢«": 669,
      "åĬŀ": 670,
      "åĩĨ": 671,
      "æ¯Ķ": 672,
      "æ´²": 673,
      "ç»ĵ": 674,
      "äº§": 675,
      "è¨Ģ": 676,
      "åħĭ": 677,
      "çľĭ": 678,
      "æ²¡æľī": 679,
      "èī": 680,
      "æł¹": 681,
      "åģļ": 682,
      "æīĢæľī": 683,
      "¥¿": 684,
      "è·": 685,
      "åħ¬çº¦": 686,
      "æ¶": 687,
      "å¥¹": 688,
      "åŃ¦": 689,
      "å¦ĩ": 690,
      "äººæĿĥ": 691,
      "èĤ": 692,
      "åĪĻ": 693,
      "èĩ³": 694,
      "çĬ": 695,
      "çĤ¹": 696,
      "ç±": 697,
      "å¿ĥ": 698,
      "è¥¿": 699,
      "ç»ıæµİ": 700,
      "æķĻ": 701,
      "è¶": 702,
      "åĪĹ": 703,
      "è¾¾": 704,
      "åĪĴ": 705,
      "é¢Ħ": 706,
      "åĲĹ": 707,
      "çĲĨäºĭ": 708,
      "æ®µ": 709,
      "æ³¨": 710,
      "ä¸ĵ": 711,
      "å¼ı": 712,
      "Ġ2": 713,
      "ä½ķ": 714,
      "ç»Ļ": 715,
      "æº": 716,
      "åĲį": 717,
      "å¦ĩå¥³": 718,
      "éĺ¿": 719,
      "æ¸": 720,
      "çķĮ": 721,
      "å¤§ä¼ļ": 722,
      "çĲĨäºĭä¼ļ": 723,
      "æĪĺ": 724,
      "çĪ": 725,
      "ä¸¾": 726,
      "æĻ": 727,
      "ä¸¤": 728,
      "åĲĪä½ľ": 729,
      "æ´»åĬ¨": 730,
      "åıĤ": 731,
      "ä¸ĸ": 732,
      "æ¬¾": 733,
      "å»ºè®®": 734,
      "æĬ¤": 735,
      "å¸¸": 736,
      "çī©": 737,
      "äºĮ": 738,
      "ä¸ī": 739,
      "å¾ĭ": 740,
      "ç¼Ķ": 741,
      "æºĲ": 742,
      "å°¼": 743,
      "çľŁ": 744,
      "æĹł": 745,
      "æķĪ": 746,
      "å£": 747,
      "æİª": 748,
      "ç«¥": 749,
      "çł": 750,
      "èİ": 751,
      "å¢ĥ": 752,
      "éľĢè¦ģ": 753,
      "é¡¹çĽ®": 754,
      "Ġä¸į": 755,
      "åıį": 756,
      "èĲ": 757,
      "å±Ĭ": 758,
      "ç¼Ķçº¦": 759,
      "å¢ŀ": 760,
      "äººåĳĺ": 761,
      "10": 762,
      "é¡»": 763,
      "åĽŀ": 764,
      "è§Ħå®ļ": 765,
      "ç»´": 766,
      "åıª": 767,
      "æ²»": 768,
      "åĨ³å®ļ": 769,
      "èĭ": 770,
      "å¤©": 771,
      "ä¿ĥ": 772,
      "æĢ»": 773,
      "èĻ": 774,
      "æĶ¹": 775,
      "åı¯èĥ½": 776,
      "12": 777,
      "å¸Ń": 778,
      "æł¹æį®": 779,
      "åĴĮå¹³": 780,
      "çĿĢ": 781,
      "åı¯ä»¥": 782,
      "199": 783,
      "an": 784,
      "æŃ¦": 785,
      "åħ°": 786,
      "çº§": 787,
      "éĩĩåıĸ": 788,
      "Ġä»ĸ": 789,
      "éĹ¨": 790,
      "éĻ¤": 791,
      "åİŁ": 792,
      "é©¬": 793,
      "åĪĩ": 794,
      "å¡": 795,
      "æĬĢ": 796,
      "åĮºåŁŁ": 797,
      "âĢĶ": 798,
      "è´£": 799,
      "åĸ": 800,
      "åĦ¿ç«¥": 801,
      "æıĲåĩº": 802,
      "æľ¯": 803,
      "ç§ĳ": 804,
      "å¿ħé¡»": 805,
      "ä¸»ä¹ī": 806,
      "å°ĳ": 807,
      "er": 808,
      "è¯ģ": 809,
      "è¿Ļä¸Ģ": 810,
      "æİ¥": 811,
      "on": 812,
      "in": 813,
      "æł¸": 814,
      "æ»": 815,
      "çŁ¥éģĵ": 816,
      "åĲ§": 817,
      "è®¡åĪĴ": 818,
      "çĸ": 819,
      "è¿Ĳ": 820,
      "Ġ3": 821,
      "åķĨ": 822,
      "èĪ": 823,
      "åħ·": 824,
      "åľŁ": 825,
      "æĿĥåĪ©": 826,
      "ä¼Ĭ": 827,
      "çŃĸ": 828,
      "æİªæĸ½": 829,
      "ç§ĺä¹¦éķ¿": 830,
      "æŃ¢": 831,
      "åħĪçĶŁ": 832,
      "åı¸": 833,
      "æĶ¶": 834,
      "Ġt": 835,
      "åĭ": 836,
      "èįī": 837,
      "ä¸ĸçķĮ": 838,
      "ç®Ĺ": 839,
      "ä½į": 840,
      "çĹ": 841,
      "å±Ģ": 842,
      "ç¤º": 843,
      "ç»§": 844,
      "å®³": 845,
      "åĻ": 846,
      "å¸ĥ": 847,
      "æ³ķå¾ĭ": 848,
      "è´¹": 849,
      "è§Ĩ": 850,
      "çĬ¯": 851,
      "éĩįè¦ģ": 852,
      "ç±»": 853,
      "æĪĲåĳĺ": 854,
      "åĨĽ": 855,
      "æĬĬ": 856,
      "åı·åĨ³è®®": 857,
      "æĶ¯æĮģ": 858,
      "è®¸": 859,
      "æľª": 860,
      "åĬª": 861,
      "åı£": 862,
      "æĬĢæľ¯": 863,
      "æľį": 864,
      "ç®¡çĲĨ": 865,
      "è®©": 866,
      "åħĥ": 867,
      "æŃ¥": 868,
      "æī¿": 869,
      "ç½ª": 870,
      "ç»§ç»Ń": 871,
      "å¯¼": 872,
      "æı´": 873,
      "éĢĤ": 874,
      "è®¤ä¸º": 875,
      ")ãĢĤ": 876,
      "éħ": 877,
      "é¦": 878,
      "è¯ī": 879,
      "å½±": 880,
      "Ġ200": 881,
      "çĻ": 882,
      "éĢī": 883,
      "éļ¾": 884,
      "ä¸»å¸Ń": 885,
      "åĬªåĬĽ": 886,
      "éĩı": 887,
      "é£": 888,
      "Ġç¬¬": 889,
      "çħ": 890,
      "çģ": 891,
      "åĻ¨": 892,
      "ä¸Ķ": 893,
      "å±Ĭä¼ļè®®": 894,
      "æĺĵ": 895,
      "çĽĳ": 896,
      "å¤ĩ": 897,
      "å¦Ĥæŀľ": 898,
      "ä¾ĭ": 899,
      "ä¿ĿæĬ¤": 900,
      "ç½²": 901,
      "ç¥": 902,
      "è¦ģæ±Ĥ": 903,
      "ç¦": 904,
      "éĶ": 905,
      "éĴ": 906,
      "åºŃ": 907,
      "ä»»ä½ķ": 908,
      "åĵį": 909,
      "æıĲäº¤": 910,
      "Â·": 911,
      "æ¬§": 912,
      "è¯Ŀ": 913,
      "æĦŁ": 914,
      "äºĶ": 915,
      "æ³¨æĦı": 916,
      "æīĵ": 917,
      "çĲĥ": 918,
      "è¯Ħ": 919,
      "åĬłå¼º": 920,
      "Ġä½Ĩ": 921,
      "æģ¯": 922,
      "åŁºéĩĳ": 923,
      "èģĮ": 924,
      "æ´¾": 925,
      "çļĦäºº": 926,
      "çħ§": 927,
      "çª": 928,
      "éĺ²": 929,
      "ä¿ĥè¿Ľ": 930,
      "èįīæ¡Ī": 931,
      "ç½Ĺ": 932,
      "æĶ¿çŃĸ": 933,
      "åĴĮåĽ½": 934,
      "è®°": 935,
      "è¡Įä¸º": 936,
      "é¢Ŀ": 937,
      "æµ·": 938,
      "è¯Ĩ": 939,
      "Ġ4": 940,
      "å½±åĵį": 941,
      "èĤ²": 942,
      "æĸĻ": 943,
      "çº³": 944,
      "or": 945,
      "èµĦæºĲ": 946,
      "çļĦä¸Ģ": 947,
      "åĿ¦": 948,
      "å¨": 949,
      "èĢĥ": 950,
      "ä¸ľ": 951,
      "çİ¯": 952,
      "ç³»ç»Ł": 953,
      "åĨį": 954,
      "æŁ": 955,
      "ç¼Ķçº¦åĽ½": 956,
      "è®¨": 957,
      "èĥ": 958,
      "å¾·": 959,
      "èĦ": 960,
      "åħ±åĴĮåĽ½": 961,
      "çĭ": 962,
      "11": 963,
      "ä¾¿": 964,
      "çłĶ": 965,
      "æīĭ": 966,
      "å¹²": 967,
      "åįĹ": 968,
      "ar": 969,
      "éĢł": 970,
      "é»": 971,
      "åıĺ": 972,
      "æı´åĬ©": 973,
      "æ¶Ī": 974,
      "å¤į": 975,
      "å·²ç»ı": 976,
      "ä¸įæĺ¯": 977,
      "çĽ®æłĩ": 978,
      "åĢĳ": 979,
      "éĽĨ": 980,
      "åĽłä¸º": 981,
      "æ£": 982,
      "å¯Ł": 983,
      "çĹħ": 984,
      "åĵģ": 985,
      "éĺŁ": 986,
      "æĶ¾": 987,
      "at": 988,
      "åľº": 989,
      "åĽĽ": 990,
      "ç¡®ä¿Ŀ": 991,
      "å®ĺ": 992,
      "èİ·": 993,
      "æł¼": 994,
      "éĻ¢": 995,
      "çĽŁ": 996,
      "èĮ": 997,
      "åĩı": 998,
      "æļ": 999,
      "en": 1000,
      "ä»Ĭ": 1001,
      "æĸĩä»¶": 1002,
      "è®¢": 1003,
      "è´¸": 1004,
      "å¡ŀ": 1005,
      "éĻĦ": 1006,
      "å®Į": 1007,
      "èĩ´": 1008,
      "Ġ5": 1009,
      "æĹı": 1010,
      "Ġæĺ¯": 1011,
      "ç¾İåħĥ": 1012,
      "å®£": 1013,
      "æŃ¦åĻ¨": 1014,
      "çªģ": 1015,
      "å»ºç«ĭ": 1016,
      "å¤±": 1017,
      "åĵ¥": 1018,
      "ĠéĤ£": 1019,
      "åį³": 1020,
      "çĽ´": 1021,
      "æĸ¯åĿ¦": 1022,
      "å¤Ł": 1023,
      "çķ¥": 1024,
      "çİ¯å¢ĥ": 1025,
      "åįķ": 1026,
      "å£«": 1027,
      "æģĲ": 1028,
      "æľįåĬ¡": 1029,
      "çİ°åľ¨": 1030,
      "çļĦæĬ¥åĳĬ": 1031,
      "éĻĲ": 1032,
      "èĥ½åĬĽ": 1033,
      "é¦ĸ": 1034,
      "ä½ľä¸º": 1035,
      "å®¡è®®": 1036,
      "éª": 1037,
      "åħħ": 1038,
      "æ¯ı": 1039,
      "åĪ¤": 1040,
      "ç´¢": 1041,
      "éĥ¨åĪĨ": 1042,
      "ä¸¾è¡Į": 1043,
      "è¿°": 1044,
      "çĶµ": 1045,
      "è´¢": 1046,
      "åĲĦåĽ½": 1047,
      "æµģ": 1048,
      "éĿŀæ´²": 1049,
      "ä¿¡æģ¯": 1050,
      "æĢİ": 1051,
      "æľĽ": 1052,
      "åĭĴ": 1053,
      "ou": 1054,
      "æķĻèĤ²": 1055,
      "çĵ": 1056,
      "ä»½": 1057,
      "åŃĺ": 1058,
      "ç¼ĸ": 1059,
      "åįıè°ĥ": 1060,
      "ä½ľåĩº": 1061,
      "èº": 1062,
      "æŃ»": 1063,
      "he": 1064,
      "èĻĳ": 1065,
      "çĶ³": 1066,
      "è°¢": 1067,
      "al": 1068,
      "è£ģ": 1069,
      "20": 1070,
      "å®īåħ¨çĲĨäºĭä¼ļ": 1071,
      "åħ¨çĲĥ": 1072,
      "åºı": 1073,
      "çĽĬ": 1074,
      "åĪĳ": 1075,
      "ç©¶": 1076,
      "æĶ¿æ²»": 1077,
      "èĬ": 1078,
      "ĠA": 1079,
      "æ°´": 1080,
      "è¿Ļä¸ª": 1081,
      "æĮī": 1082,
      "å°½": 1083,
      "15": 1084,
      "åĢĻ": 1085,
      "è§£åĨ³": 1086,
      "åĽłæŃ¤": 1087,
      "æĭħ": 1088,
      "å¤ª": 1089,
      "å®¡æŁ¥": 1090,
      "å®ŀçİ°": 1091,
      "èŃ": 1092,
      "è½¬": 1093,
      "èĢĥèĻĳ": 1094,
      "ä¹ĭéĹ´": 1095,
      "åıĳè¨Ģ": 1096,
      "è¾¹": 1097,
      "å¸Į": 1098,
      "ä¸»è¦ģ": 1099,
      "è®Ń": 1100,
      "å²": 1101,
      "éĥ¨éĹ¨": 1102,
      "èī²": 1103,
      "ä½¿çĶ¨": 1104,
      "è°Ī": 1105,
      "æ¬¢": 1106,
      "æŀģ": 1107,
      "ç©º": 1108,
      "çļĦå·¥ä½ľ": 1109,
      "åıĤä¸İ": 1110,
      "è¿Ļç§į": 1111,
      "äºī": 1112,
      "äººæ°ĳ": 1113,
      "äºĭåĬ¡": 1114,
      "å¿«": 1115,
      "èĮĥ": 1116,
      "ä¸ĢäºĽ": 1117,
      "èº«": 1118,
      "æľīæķĪ": 1119,
      "åķĬ": 1120,
      "Ġå§Ķåĳĺä¼ļ": 1121,
      "è´¨": 1122,
      "ä¼Ļ": 1123,
      "æĳ": 1124,
      "å¾ĹåĪ°": 1125,
      "åħ³ç³»": 1126,
      "çļĦæĺ¯": 1127,
      "çłĶç©¶": 1128,
      "åĨ²": 1129,
      "æ·": 1130,
      "ä¼ł": 1131,
      "ç¦»": 1132,
      "åĩł": 1133,
      "åľ°åĮº": 1134,
      "Ġå¥½": 1135,
      "ä¼°": 1136,
      "è¿ĳ": 1137,
      "è®¨è®º": 1138,
      "å¨ģ": 1139,
      "æİĴ": 1140,
      "æĬķ": 1141,
      "è§Ĥ": 1142,
      "æĪĳçļĦ": 1143,
      "ä»·": 1144,
      "è´Ł": 1145,
      "æĪĺçķ¥": 1146,
      "é¢ĨåŁŁ": 1147,
      "å°ıç»Ħ": 1148,
      "èŃ¦": 1149,
      "åĲ¦": 1150,
      "æľŁéĹ´": 1151,
      "çı": 1152,
      "ç²": 1153,
      "éº": 1154,
      "è®®ç¨ĭ": 1155,
      "çķĻ": 1156,
      "èµ°": 1157,
      "å½¢": 1158,
      "),": 1159,
      "æ³¨æĦıåĪ°": 1160,
      "å¸Ĥ": 1161,
      "Ġ6": 1162,
      "åĩ»": 1163,
      "ä¸¥": 1164,
      "æķ´": 1165,
      "æŀ¶": 1166,
      "æĮģç»Ń": 1167,
      "ä»£è¡¨åĽ¢": 1168,
      "è±": 1169,
      "å§ĭ": 1170,
      "åħ¶ä¸Ń": 1171,
      "æģĲæĢ": 1172,
      "èĳ": 1173,
      "çī¹åĪ«æĺ¯": 1174,
      "æĴ": 1175,
      "äººçļĦ": 1176,
      "ä½ľçĶ¨": 1177,
      "ä½łçļĦ": 1178,
      "å·±": 1179,
      "ä½ı": 1180,
      "åħŃ": 1181,
      "çİĩ": 1182,
      "es": 1183,
      "è¡¨ç¤º": 1184,
      "è¿Ļæł·": 1185,
      "è£ħ": 1186,
      "æĮĩåĩº": 1187,
      "æģĲæĢĸ": 1188,
      "æĸ¹éĿ¢çļĦ": 1189,
      "å¼Ģå±ķ": 1190,
      "é¢Ħç®Ĺ": 1191,
      "åĨ²çªģ": 1192,
      "å°±æĺ¯": 1193,
      "è¯Ń": 1194,
      "åį±": 1195,
      "Ġå¯¹": 1196,
      "ä¸´": 1197,
      "èĩªå·±": 1198,
      "éĵ": 1199,
      "å¢ŀåĬł": 1200,
      "è¡¥": 1201,
      "è¯º": 1202,
      "ç¢": 1203,
      "å®ŀæĸ½": 1204,
      "Ġæľī": 1205,
      "æĦ¿": 1206,
      "è´¸æĺĵ": 1207,
      "åĳ½": 1208,
      "ç¬¬äºĮ": 1209,
      "å®¹": 1210,
      "èī¾": 1211,
      "çĪ±": 1212,
      "2001": 1213,
      "âĢĶâĢĶ": 1214,
      "Ġä¸º": 1215,
      "æĿ¡çº¦": 1216,
      "ç¨ĭåºı": 1217,
      "åĬ¿": 1218,
      "æĢİä¹Ī": 1219,
      "å¸®": 1220,
      "ä¸ĢæŃ¥": 1221,
      "ä»į": 1222,
      "åĥ": 1223,
      "å¿ħè¦ģ": 1224,
      "å¸¦": 1225,
      "å®ĥä»¬": 1226,
      "æ¸ħ": 1227,
      "æĦıè§ģ": 1228,
      "èİ·å¾Ĺ": 1229,
      "çĵ¦": 1230,
      "åĲ¬": 1231,
      "æļ´": 1232,
      "å¾ħ": 1233,
      "æµĭ": 1234,
      "åıĳå±ķä¸Ń": 1235,
      "ä¸įèĥ½": 1236,
      "æ³ķéĻ¢": 1237,
      "ä»¤": 1238,
      "2005": 1239,
      "Ġå¥¹": 1240,
      "ä»ĺ": 1241,
      "çĥ": 1242,
      "ä¿®": 1243,
      "çĬ¯ç½ª": 1244,
      "æ¬§æ´²": 1245,
      "çĽ¸åħ³": 1246,
      "ĠI": 1247,
      "åı¦": 1248,
      "it": 1249,
      "2002": 1250,
      "éĻ©": 1251,
      "13": 1252,
      "is": 1253,
      "å¼ºè°ĥ": 1254,
      "çļĦéĹ®é¢ĺ": 1255,
      "èĥ½å¤Ł": 1256,
      "å°¼äºļ": 1257,
      "ä¾Ŀ": 1258,
      "èµĦæĸĻ": 1259,
      "åºĶè¯¥": 1260,
      "åıĸå¾Ĺ": 1261,
      "èĢģ": 1262,
      "æŃ£åľ¨": 1263,
      "çī¹æ´¾": 1264,
      "æī¾": 1265,
      "æĶ¯åĬ©": 1266,
      "æ°Ķ": 1267,
      "2000": 1268,
      "ä¼¯": 1269,
      "ç§ĺä¹¦å¤Ħ": 1270,
      "ä»»åĬ¡": 1271,
      "ä»¥ä¾¿": 1272,
      "å¤ĦçĲĨ": 1273,
      "ä¸ŃçļĦ": 1274,
      "æ¯Ĵ": 1275,
      "ç«ł": 1276,
      "å½ķ": 1277,
      "ä¸ĩ": 1278,
      "æ¨": 1279,
      "çļĦæĥħåĨµ": 1280,
      "è¿Ľç¨ĭ": 1281,
      "èµŀ": 1282,
      "èĢĮä¸Ķ": 1283,
      "çī¹æ´¾åĽ¢": 1284,
      "åİŁåĪĻ": 1285,
      "è¶³": 1286,
      "ç¡®å®ļ": 1287,
      "æ¶ī": 1288,
      "ç¡Ģ": 1289,
      "åŁºç¡Ģ": 1290,
      "æĻ®": 1291,
      "Ġ7": 1292,
      "åıĤåĬł": 1293,
      "åĽ´": 1294,
      "è¿Ľä¸ĢæŃ¥": 1295,
      "Ġå¦Ĥæŀľ": 1296,
      "ç¾İåĽ½": 1297,
      "ç§»": 1298,
      "åıĪ": 1299,
      "è·¯": 1300,
      "çļĦåĽ½å®¶": 1301,
      "æīį": 1302,
      "é¡¾": 1303,
      "åģ¥": 1304,
      "ä¼´": 1305,
      "æŃ§": 1306,
      "14": 1307,
      "åıĳå±ķä¸ŃåĽ½å®¶": 1308,
      "çŁ": 1309,
      "å¸ĮæľĽ": 1310,
      "æİ¨": 1311,
      "å®¤": 1312,
      "åį«": 1313,
      "å¼Ģå§ĭ": 1314,
      "äºĪ": 1315,
      "éĹ®é¢ĺçļĦ": 1316,
      "è´£ä»»": 1317,
      "æī©": 1318,
      "ä¸Ģé¡¹": 1319,
      "æĹ¥ç¬¬": 1320,
      "åŁ¹": 1321,
      "åĬŀæ³ķ": 1322,
      "çĽ®åīį": 1323,
      "æĹ¶éĹ´": 1324,
      "ĠC": 1325,
      "æİ§": 1326,
      "åıĬåħ¶": 1327,
      "åįł": 1328,
      "åĥı": 1329,
      "ç½ĳ": 1330,
      "åĨľ": 1331,
      "é¼": 1332,
      "æ°ĳä¸»": 1333,
      "ç¦ģ": 1334,
      "2004": 1335,
      "åĪ©äºļ": 1336,
      "åį¡": 1337,
      "åħ±åĲĮ": 1338,
      "çĶ·": 1339,
      "è°ĥæŁ¥": 1340,
      "è´«": 1341,
      "è¡ĮæĶ¿": 1342,
      "ä¸Ńå¿ĥ": 1343,
      "çĭ¬": 1344,
      "30": 1345,
      "ĠS": 1346,
      "åį°": 1347,
      "èģĶçĽŁ": 1348,
      "åĪļ": 1349,
      "2003": 1350,
      "åĴĮåħ¶ä»ĸ": 1351,
      "æŀĹ": 1352,
      "è¯¢": 1353,
      "è·Ł": 1354,
      "åıĳçĶŁ": 1355,
      "æĭŁ": 1356,
      "çıŃ": 1357,
      "åĳ¢": 1358,
      "ä¸ĵå®¶": 1359,
      "æıĲé«ĺ": 1360,
      "åŃ©": 1361,
      "åħħåĪĨ": 1362,
      "æŁĲ": 1363,
      "çļĦåĲĦ": 1364,
      "æŃ§è§Ĩ": 1365,
      "è¿İ": 1366,
      "Ġä¸Ģ": 1367,
      "å·¥ä½ľç»Ħ": 1368,
      "Ġä»ĸä»¬": 1369,
      "è±¡": 1370,
      "æľºåĪ¶": 1371,
      "å·´åĭĴ": 1372,
      "è¯´æĺİ": 1373,
      "å·´åĭĴæĸ¯åĿ¦": 1374,
      "æĸ¹å¼ı": 1375,
      "çĶ±äºİ": 1376,
      "èŀ": 1377,
      "æļ´åĬĽ": 1378,
      "æĤ": 1379,
      "Ĩæŀ¶": 1380,
      "åĲĮæĹ¶": 1381,
      "è½½": 1382,
      "Ġw": 1383,
      "ä½łä»¬": 1384,
      "åĵª": 1385,
      "å¤´": 1386,
      "éĻĦä»¶": 1387,
      "ä¼Ļä¼´": 1388,
      "ä¸Ģæ¬¡": 1389,
      "Ġs": 1390,
      "Ġå": 1391,
      "æ»ĭ": 1392,
      "æī¹": 1393,
      "åŁ¹è®Ń": 1394,
      "åĪ©çĶ¨": 1395,
      "æĿĢ": 1396,
      "åĴ¨": 1397,
      "æľºä¼ļ": 1398,
      "æĭ¿": 1399,
      "èª": 1400,
      "è®¸å¤ļ": 1401,
      "16": 1402,
      "æ¡Ĩæŀ¶": 1403,
      "å¤«": 1404,
      "é²": 1405,
      "é¼ĵ": 1406,
      "èŀį": 1407,
      "å¯Į": 1408,
      "2006": 1409,
      "éĥ¨éĺŁ": 1410,
      "ä¼ĺ": 1411,
      "æ»ĭçĹħ": 1412,
      "18": 1413,
      "å®īçĲĨ": 1414,
      "å¦Ī": 1415,
      "æģĲæĢĸä¸»ä¹ī": 1416,
      "åĪ¶å®ļ": 1417,
      "èĩªçĶ±": 1418,
      "è½¦": 1419,
      "ä»¥èī²": 1420,
      "ä»¥èī²åĪĹ": 1421,
      "èĲ¥": 1422,
      "å£°": 1423,
      "èī¾æ»ĭçĹħ": 1424,
      "ä¼ļåĳĺ": 1425,
      "åĵĪ": 1426,
      "åĬŀäºĭ": 1427,
      "å¼ķ": 1428,
      "æłĩåĩĨ": 1429,
      "åĪ¶åº¦": 1430,
      "èĭ±": 1431,
      "ä¼Ĺ": 1432,
      "æ¬¢è¿İ": 1433,
      "å®¶åºŃ": 1434,
      "Ġè¿ĺ": 1435,
      "å±ŀ": 1436,
      "èĳĹ": 1437,
      "åĨ³è®®èįīæ¡Ī": 1438,
      "re": 1439,
      "åı¸æ³ķ": 1440,
      "Ġè¯¥": 1441,
      "æĸĩåĮĸ": 1442,
      "åħį": 1443,
      "Ġthe": 1444,
      "åħ¨éĿ¢": 1445,
      "äººåı£": 1446,
      "çĮ": 1447,
      "å®īçĲĨä¼ļ": 1448,
      "ä¾µ": 1449,
      "éĿ©": 1450,
      "åĬŀäºĭå¤Ħ": 1451,
      "ç»´æĮģ": 1452,
      "Ġ8": 1453,
      "ä¼ļåĳĺåĽ½": 1454,
      "å¹³çŃī": 1455,
      "åĽ¾": 1456,
      "åħ·ä½ĵ": 1457,
      "çļĦç¬¬": 1458,
      "ç§°": 1459,
      "è¯Ħä¼°": 1460,
      "éĢĤå½ĵ": 1461,
      "è¶Ĭ": 1462,
      "èĮĥåĽ´": 1463,
      "åĩıå°ĳ": 1464,
      "....": 1465,
      "åĸĦ": 1466,
      "åŃĹ": 1467,
      "éĺ¿æĭī": 1468,
      "å®ª": 1469,
      "åľ°æĸ¹": 1470,
      "éļ¾æ°ĳ": 1471,
      "å±ħ": 1472,
      "åĬ±": 1473,
      "Ġåħ³äºİ": 1474,
      "17": 1475,
      "åįıå®ļ": 1476,
      "ç§¯": 1477,
      "æĸ°çļĦ": 1478,
      "åı¯æĮģç»Ń": 1479,
      "25": 1480,
      "å¹¿": 1481,
      "è®®å®ļ": 1482,
      "æĺŁ": 1483,
      "ä»ħ": 1484,
      "Ġ19": 1485,
      "ä½İ": 1486,
      "æķ°æį®": 1487,
      "å»ºè®¾": 1488,
      "ç¾¤": 1489,
      "åŀ": 1490,
      "æľĢåĲİ": 1491,
      "çĶ¨äºİ": 1492,
      "æ¶ĪéĻ¤": 1493,
      "åĢ¼": 1494,
      "åľ¨è¿Ļ": 1495,
      "æŃ£å¼ı": 1496,
      "æī¿è¯º": 1497,
      "ç¼Ķçº¦æĸ¹": 1498,
      "ä¹īåĬ¡": 1499,
      "çĬ¶": 1500,
      "çŃ¹": 1501,
      "ä¿Ħ": 1502,
      "Ġa": 1503,
      "å°¤": 1504,
      "åĢº": 1505,
      "æĮīçħ§": 1506,
      "æĿ¡ä»¶": 1507,
      "é«ĺçº§": 1508,
      "çŃ¾": 1509,
      "çĳ": 1510,
      "åºĶå½ĵ": 1511,
      "äººéģĵ": 1512,
      "ç´§": 1513,
      "çĶŁæ´»": 1514,
      "è¿Ľå±ķ": 1515,
      "åĴ¨è¯¢": 1516,
      "å¼Ģåıĳ": 1517,
      "æķĳ": 1518,
      "èµĶ": 1519,
      "ion": 1520,
      "Ġè¯·": 1521,
      "æĿŁ": 1522,
      "åŁºæľ¬": 1523,
      "æ»¡": 1524,
      "ä¸¥éĩį": 1525,
      "å¾Ģ": 1526,
      "ĠæŃ¤": 1527,
      "éªĮ": 1528,
      "èĬĤ": 1529,
      "è®®å®ļä¹¦": 1530,
      "ĠâĢľ": 1531,
      "éĽ·": 1532,
      "åĲģ": 1533,
      "æĺ¾": 1534,
      "æįĲ": 1535,
      "æ¬¡ä¼ļè®®": 1536,
      "èĪ¬": 1537,
      "æĺ¯åĲ¦": 1538,
      "Ġd": 1539,
      "åŃĺåľ¨": 1540,
      "ĠåĽłæŃ¤": 1541,
      "æ¼": 1542,
      "éĢłæĪĲ": 1543,
      "éĺ¿æĭīä¼¯": 1544,
      "Ġè¿Ļæĺ¯": 1545,
      "æīĺ": 1546,
      "ç¼º": 1547,
      "ä¸įä¼ļ": 1548,
      "å¯Ĩ": 1549,
      "æĸ¹æ³ķ": 1550,
      "å·¥ä½ľäººåĳĺ": 1551,
      "éļľ": 1552,
      "2007": 1553,
      "ĠB": 1554,
      "åħ¬åı¸": 1555,
      "è®¤è¯Ĩ": 1556,
      "é¼ĵåĬ±": 1557,
      "äº«": 1558,
      "æĪ¿": 1559,
      "ĠM": 1560,
      "èĦĳ": 1561,
      "æĪĲä¸º": 1562,
      "è®¾ç«ĭ": 1563,
      "ä¸įåĲĮ": 1564,
      "Ġ9": 1565,
      "æİ¥åıĹ": 1566,
      "éħį": 1567,
      "çīĻ": 1568,
      "åĽ°": 1569,
      "ĠãĢĬ": 1570,
      "é¢ĨåľŁ": 1571,
      "åĮ»": 1572,
      "è¿Ŀ": 1573,
      "å®Ī": 1574,
      "åĶ": 1575,
      "åĬ³": 1576,
      "ĠèģĶåĲĪåĽ½": 1577,
      "å°¤åħ¶": 1578,
      "è§ĦåĪĻ": 1579,
      "ic": 1580,
      "è´Łè´£": 1581,
      "èĲ¨": 1582,
      "ä¼Ĭæĸ¯": 1583,
      "è§ī": 1584,
      "Ġo": 1585,
      "åįıåĬ©": 1586,
      "ä¸ªäºº": 1587,
      "åįĥ": 1588,
      "ç»ĵæŀľ": 1589,
      "æĭīåħĭ": 1590,
      "çļĦäºĭ": 1591,
      "23": 1592,
      "æ´ĭ": 1593,
      "äº²": 1594,
      "æ£Ģ": 1595,
      "æĹ¥èĩ³": 1596,
      "å®£è¨Ģ": 1597,
      "åĪ°äºĨ": 1598,
      "ãĢĭ,": 1599,
      "åĽ½éĻħç¤¾ä¼ļ": 1600,
      "èµĦéĩĳ": 1601,
      "åĳ¼": 1602,
      "ä¼Ĭæĸ¯åħ°": 1603,
      "Ġä½Ĩæĺ¯": 1604,
      "åģļæ³ķ": 1605,
      "åıªæĺ¯": 1606,
      "çĻ½": 1607,
      "è´¹çĶ¨": 1608,
      "æĹ¶åĢĻ": 1609,
      "æĬķèµĦ": 1610,
      "äºĴ": 1611,
      "èį¯": 1612,
      "ç»Ŀ": 1613,
      "åħ·æľī": 1614,
      "åĪĽ": 1615,
      "ing": 1616,
      "ç§ģ": 1617,
      "Ġå°±": 1618,
      "è´§": 1619,
      "æĮĳ": 1620,
      "el": 1621,
      "ed": 1622,
      "Ġc": 1623,
      "å¹¶ä¸Ķ": 1624,
      "è¯ķ": 1625,
      "è¿ª": 1626,
      "æįŁ": 1627,
      "å¦Ĥä½ķ": 1628,
      "éĶĻ": 1629,
      ");": 1630,
      "æ³ķåºŃ": 1631,
      "æ¨¡": 1632,
      "ç¬¬ä¸ī": 1633,
      "ä¸¹": 1634,
      "éĢĻ": 1635,
      "é£Ł": 1636,
      "æ´Ľ": 1637,
      "éĿŀå¸¸": 1638,
      "æĶ¹éĿ©": 1639,
      "åľ°ä½į": 1640,
      "æ¦": 1641,
      "éģµ": 1642,
      "å½¢å¼ı": 1643,
      "ç´ł": 1644,
      "æķ£": 1645,
      "as": 1646,
      "éĿŀæĶ¿åºľ": 1647,
      "ä¼Ĭæĭīåħĭ": 1648,
      "æŃ¦è£ħ": 1649,
      "ç»Ī": 1650,
      "çĿ£": 1651,
      "å©": 1652,
      "äººéģĵä¸»ä¹ī": 1653,
      "äº§çĶŁ": 1654,
      "ĠçĦ¶": 1655,
      "æĸŃ": 1656,
      "ä»ĭ": 1657,
      "åĬŁ": 1658,
      "å®īæİĴ": 1659,
      "éĩįçĶ³": 1660,
      "åŀĭ": 1661,
      "é¢Ħéĺ²": 1662,
      "ç±³": 1663,
      "éĵ¶": 1664,
      "22": 1665,
      "Ġp": 1666,
      "æ³¢": 1667,
      "å¸®åĬ©": 1668,
      "ä¹ĭéĹ´çļĦ": 1669,
      "æĭ©": 1670,
      "å¤§çļĦ": 1671,
      ")ãĢģ": 1672,
      "ç¬¬äºĶ": 1673,
      "éĥ¨éķ¿": 1674,
      "åģľ": 1675,
      "éĴĪ": 1676,
      "éļı": 1677,
      "æ¯Ķäºļ": 1678,
      "ä»ĸçļĦ": 1679,
      "å²Ľ": 1680,
      "Ġè¿ĻäºĽ": 1681,
      "éŁ": 1682,
      "å±¥": 1683,
      "åıĹåĪ°": 1684,
      "åĿĩ": 1685,
      "ç§įæĹı": 1686,
      "åŁĥ": 1687,
      "é©»": 1688,
      "çĽĳæµĭ": 1689,
      "åĲī": 1690,
      "è°ģ": 1691,
      "æħ": 1692,
      "è°ĪåĪ¤": 1693,
      "åĪĿ": 1694,
      "2008": 1695,
      "ĠæŃ¤å¤ĸ": 1696,
      "åĨĻ": 1697,
      "ä¸¤ä¸ª": 1698,
      "ç§¯æŀģ": 1699,
      "æĮ¥": 1700,
      "åĲĦç§į": 1701,
      "Ġm": 1702,
      "åįĪ": 1703,
      "ä¹ĭåīį": 1704,
      "ä¸Ģç§į": 1705,
      "èħ": 1706,
      "æ¶īåıĬ": 1707,
      "dd": 1708,
      "ä¼¤": 1709,
      "åĽ½å®¶çļĦ": 1710,
      "èĴ": 1711,
      "é»İ": 1712,
      "æıĲåĩºçļĦ": 1713,
      "æ·±": 1714,
      "èĲ½": 1715,
      "åħ´": 1716,
      "åĽ½åĨħ": 1717,
      "åº·": 1718,
      "çł´": 1719,
      "åĿļ": 1720,
      "é£İ": 1721,
      "éĿŀæĶ¿åºľç»Ħç»ĩ": 1722,
      "ä¹ł": 1723,
      "ç¥ŀ": 1724,
      "and": 1725,
      "å®ŀéĻħ": 1726,
      "èĭı": 1727,
      "om": 1728,
      "åģ¿": 1729,
      "åĳĬè¯ī": 1730,
      "çĳŀ": 1731,
      "æĢ§åĪ«": 1732,
      "æĢģ": 1733,
      "åĮĹ": 1734,
      "æĹ©": 1735,
      "ä¸ĥ": 1736,
      "åĳ¨": 1737,
      "å®Ĺ": 1738,
      "å½ĵå±Ģ": 1739,
      "Ġæł¹æį®": 1740,
      "24": 1741,
      "åįıåķĨ": 1742,
      "éĵ¶è¡Į": 1743,
      "ç»į": 1744,
      "ä¹ħ": 1745,
      "å±Ĥ": 1746,
      "å¸Ī": 1747,
      "éĤ£äºĽ": 1748,
      "åħ»": 1749,
      "æĢ¥": 1750,
      "åĽ½çļĦ": 1751,
      "è®²": 1752,
      "å°Ĭ": 1753,
      "ä¹ĭåĲİ": 1754,
      "æľīåħ³çļĦ": 1755,
      "26": 1756,
      "åĸľ": 1757,
      "æ¦Ĥ": 1758,
      "æī¹åĩĨ": 1759,
      "åı¤": 1760,
      "ç¨³": 1761,
      "il": 1762,
      "éĴ±": 1763,
      "Ġb": 1764,
      "åħ¬åħ±": 1765,
      "å±¥è¡Į": 1766,
      "ç½®": 1767,
      "ĠD": 1768,
      "æ²Ļ": 1769,
      "ĠT": 1770,
      "å°½ç®¡": 1771,
      "çĭ¬ç«ĭ": 1772,
      "è¿ľ": 1773,
      "çĶŁäº§": 1774,
      "éĢŁ": 1775,
      "ä¼ĺåħĪ": 1776,
      "æĿ¥çļĦ": 1777,
      "åł": 1778,
      "åıĮ": 1779,
      "çĸ¾": 1780,
      "ĠP": 1781,
      "æĮĳæĪĺ": 1782,
      "å¹´çļĦ": 1783,
      "ä¾ĭå¦Ĥ": 1784,
      "è®°å½ķ": 1785,
      "ĠæīĢ": 1786,
      "é²ģ": 1787,
      "Ġå½ĵ": 1788,
      "ä¹Į": 1789,
      "éĤ¦": 1790,
      "éĢīä¸¾": 1791,
      "ä¸ĬçļĦ": 1792,
      "æĬ¥åĳĬåĳĺ": 1793,
      "ç¥¨": 1794,
      "ä¸´æĹ¶": 1795,
      "å¿µ": 1796,
      "æĺ¯åľ¨": 1797,
      "æĪĲæŀľ": 1798,
      "ä¸ĢåĪĩ": 1799,
      "ĠæĪĳä¸į": 1800,
      "æĢ§çļĦ": 1801,
      "Ġf": 1802,
      "28": 1803,
      "å®ĮæĪĲ": 1804,
      "ç¬¬ä¸Ģ": 1805,
      "çİĭ": 1806,
      "æĻļ": 1807,
      "æľĢè¿ĳ": 1808,
      "è®®ç¨ĭé¡¹çĽ®": 1809,
      "1999": 1810,
      "åıĭ": 1811,
      "æĲ": 1812,
      "éĻį": 1813,
      "éĩĬ": 1814,
      "å¡Ķ": 1815,
      "èŃ¦å¯Ł": 1816,
      "è¾ĥ": 1817,
      "Ġof": 1818,
      "æīĵåĩ»": 1819,
      "000": 1820,
      "åŁİ": 1821,
      "é»ĳ": 1822,
      "è®¾æĸ½": 1823,
      "å§Ķåĳĺä¼ļçļĦ": 1824,
      "ha": 1825,
      "åİħ": 1826,
      "ç»ĵæĿŁ": 1827,
      "æİ§åĪ¶": 1828,
      "Ġå®ĥ": 1829,
      "ç»Ĩ": 1830,
      "Add": 1831,
      "åĪ©çĽĬ": 1832,
      "çĪ¸": 1833,
      "æ£®": 1834,
      "éĿŀæ³ķ": 1835,
      "ç«ĭæ³ķ": 1836,
      "éĽĨåĽ¢": 1837,
      "é¢Ĩå¯¼": 1838,
      "çļĦåĽ½éĻħ": 1839,
      "ä¸Ģèµ·": 1840,
      "27": 1841,
      "éĩĳèŀį": 1842,
      "å¥¥": 1843,
      "çģ«": 1844,
      "åĨĽäºĭ": 1845,
      "ä¸¤å¹´": 1846,
      "éģŃ": 1847,
      "è´¢æĶ¿": 1848,
      "çĽĳçĿ£": 1849,
      "åĪĳäºĭ": 1850,
      "é¦ĸèĦĳ": 1851,
      "åĳ¼åĲģ": 1852,
      "çĻ»": 1853,
      "å¸Ĥåľº": 1854,
      "è¿Ļæĺ¯": 1855,
      "åħ³æ³¨": 1856,
      "Ġy": 1857,
      "ä»įçĦ¶": 1858,
      "äºĭé¡¹": 1859,
      "æĢĿ": 1860,
      "ä¼ģ": 1861,
      "åı«": 1862,
      "çļĦæĿĥåĪ©": 1863,
      "æŀĲ": 1864,
      "ç²¾": 1865,
      "åħ³åĪĩ": 1866,
      "ç®Ģ": 1867,
      "åħ«": 1868,
      "åį°åº¦": 1869,
      "ç¦ģæŃ¢": 1870,
      "åĤ": 1871,
      "è§ĦåĪĴ": 1872,
      "åį«çĶŁ": 1873,
      "ä¼¼": 1874,
      "çľŁä¸»": 1875,
      "éĺ²æŃ¢": 1876,
      "çŃĶ": 1877,
      "åºķ": 1878,
      "çĬ¶åĨµ": 1879,
      "ä¸Ģèĩ´": 1880,
      "æĽ´å¤ļ": 1881,
      "21": 1882,
      "åĪĨæŀĲ": 1883,
      "60": 1884,
      "è½»": 1885,
      "èĥģ": 1886,
      "et": 1887,
      "å¯¹äºİ": 1888,
      "ä¼ļè®®çļĦ": 1889,
      "ä»¥ä¸ĭ": 1890,
      "æ®ĭ": 1891,
      "è¿ĩåİ»": 1892,
      "29": 1893,
      "è¡¨æĺİ": 1894,
      "åľŁèĳĹ": 1895,
      "ä»Ĭå¤©": 1896,
      "ç½Ĺæĸ¯": 1897,
      "ç©ºéĹ´": 1898,
      "ä¸ĢçĽ´": 1899,
      "ç©·": 1900,
      "Ġåĵ": 1901,
      "å·®": 1902,
      "è¿«": 1903,
      "åĲĮæĦı": 1904,
      "åľ¨åħ¶": 1905,
      "åıĺåĮĸ": 1906,
      "ç¨³å®ļ": 1907,
      "çº¿": 1908,
      "è£ģåĨĽ": 1909,
      "åİĨ": 1910,
      "èĢĥèĻĳåĪ°": 1911,
      "åĢ¡": 1912,
      "çģ¾": 1913,
      "åį¢": 1914,
      "æĹłæ³ķ": 1915,
      "åĩĨå¤ĩ": 1916,
      "æĳ©": 1917,
      "èģĶéĤ¦": 1918,
      "çĽ®çļĦ": 1919,
      "çĽ´æİ¥": 1920,
      "ä¸ĢèĪ¬": 1921,
      "åĬŀåħ¬": 1922,
      "è´©": 1923,
      "å¸Ŀ": 1924,
      "Ġ10": 1925,
      "èģĶç³»": 1926,
      "):": 1927,
      "åıĳè¾¾": 1928,
      "æĪ·": 1929,
      "ä¸ĵåĳĺ": 1930,
      "éĻĲåĪ¶": 1931,
      "50": 1932,
      "éĺ¶": 1933,
      "çľŁçļĦ": 1934,
      "ä»¥æĿ¥": 1935,
      "31": 1936,
      "éĢģ": 1937,
      "ä¸ŃåĽ½": 1938,
      "åıªæľī": 1939,
      "å¢ŀéķ¿": 1940,
      "è´Ŀ": 1941,
      "æł¡": 1942,
      "è§Ħå®ļçļĦ": 1943,
      "å¥³å£«": 1944,
      "åĿĽ": 1945,
      "æĪĲåĳĺåĽ½": 1946,
      "ä¿Ŀè¯ģ": 1947,
      "åĺ": 1948,
      "äºĨè§£": 1949,
      "å¯¹è¯Ŀ": 1950,
      "éĹ»": 1951,
      "è¶ħ": 1952,
      "æ³Ľ": 1953,
      "å¨ģèĥģ": 1954,
      "èĭ¥": 1955,
      "å±ĢåĬ¿": 1956,
      "Ġyou": 1957,
      "æĪĲåĬŁ": 1958,
      "åĨħçļĦ": 1959,
      "âĢĿãĢĤ": 1960,
      "æķ¦": 1961,
      "æĹ¨": 1962,
      "åıĳæĮ¥": 1963,
      "ä»ĭç»į": 1964,
      "åħ¬æ°ĳ": 1965,
      "ç»´æĮģåĴĮå¹³": 1966,
      "ç»¼": 1967,
      "åģ¥åº·": 1968,
      "åĿı": 1969,
      "æĽ¾": 1970,
      "æī§è¡ĮæĥħåĨµ": 1971,
      "æĶ¶åħ¥": 1972,
      "ä¹İ": 1973,
      "ä¿Ħç½Ĺæĸ¯": 1974,
      "Ġ\"": 1975,
      "Ġto": 1976,
      "ç¬¦": 1977,
      "ç»ıè´¹": 1978,
      "55": 1979,
      "è®ºåĿĽ": 1980,
      "èµ·æĿ¥": 1981,
      "éģĩ": 1982,
      "ç¢į": 1983,
      "çİ°æľī": 1984,
      "åıĹå®³": 1985,
      "æĦŁè°¢": 1986,
      "ç»ľ": 1987,
      "ä¸Ģæł·": 1988,
      "ĠH": 1989,
      "åºĵ": 1990,
      "éĩįæĸ°": 1991,
      "èĻ½": 1992,
      "ä¸ĵéĹ¨": 1993,
      "çī¹åĪ«æĬ¥åĳĬåĳĺ": 1994,
      "è¿ĩç¨ĭ": 1995,
      "å®Įåħ¨": 1996,
      "ä¹Ŀ": 1997,
      "è´Ń": 1998,
      "æī¿è®¤": 1999,
      "é£ŀ": 2000,
      "ç»Ħç»ĩçļĦ": 2001,
      "Ġçİ°åľ¨": 2002,
      "æŁĲäºĽ": 2003,
      "çļĦè§Ħå®ļ": 2004,
      "å¤ĸäº¤": 2005,
      "çŁ¥è¯Ĩ": 2006,
      "å»¶": 2007,
      "Ġæľ¬": 2008,
      "ä¸ºäºĨ": 2009,
      "æĿ¡æ¬¾": 2010,
      "ä¹°": 2011,
      "ç§ĳåŃ¦": 2012,
      "è¿Ŀåıį": 2013,
      "æ¡Īä»¶": 2014,
      "ĠR": 2015,
      "ä¿Ŀéļľ": 2016,
      "ç¤¾åĮº": 2017,
      "æİĪ": 2018,
      "ĠåĪ«": 2019,
      "åĲĦé¡¹": 2020,
      "è¥¿äºļ": 2021,
      "éģµå®Ī": 2022,
      "åĽŀé¡¾": 2023,
      "ç¦ı": 2024,
      "æĶ¹åĸĦ": 2025,
      "æĺİç¡®": 2026,
      "ĠE": 2027,
      "ç¬¬åįģ": 2028,
      "åĴĮåĽ½éĻħ": 2029,
      "çļĦä¸Ģä¸ª": 2030,
      "å«": 2031,
      "Ġæ²¡": 2032,
      "åĬŀåħ¬å®¤": 2033,
      "åįıè®®": 2034,
      "åī¯": 2035,
      "æ¯į": 2036,
      "åĩºçİ°": 2037,
      "çĸĹ": 2038,
      "le": 2039,
      "ä¸Ģä»½": 2040,
      "ent": 2041,
      "çºª": 2042,
      "éĴĪå¯¹": 2043,
      "ä»ĸåĢĳ": 2044,
      "åĪ¶è®¢": 2045,
      "çļĦæīĢæľī": 2046,
      "ä¼Ļä¼´åħ³ç³»": 2047,
      "ä¸¾è¡ĮçļĦ": 2048,
      "éģį": 2049,
      "ãĢĭ(": 2050,
      "æĿ¡ç¬¬": 2051,
      "æĢ»ç»Ł": 2052,
      "åı¯æĮģç»Ńåıĳå±ķ": 2053,
      "ä¸ļåĬ¡": 2054,
      "çľĭåĪ°": 2055,
      "ç»¼åĲĪ": 2056,
      "éĥ½æĺ¯": 2057,
      "æĪĳä»¬çļĦ": 2058,
      "äººä»¬": 2059,
      "æĮĩå¯¼": 2060,
      "Ġth": 2061,
      "çĮ®": 2062,
      "åĬłåħ¥": 2063,
      "ä¼ģä¸ļ": 2064,
      "è¿Ķ": 2065,
      "æ¯ģ": 2066,
      "çļĦéĩįè¦ģ": 2067,
      "è¾©": 2068,
      "åĲĥ": 2069,
      "è¾ĵ": 2070,
      "å¹¿æ³Ľ": 2071,
      "éº¼": 2072,
      "éĿĴ": 2073,
      "æł¸æŃ¦åĻ¨": 2074,
      "æĺŁæľŁ": 2075,
      "us": 2076,
      "åİŁåĽł": 2077,
      "åįĸ": 2078,
      "åĢĭ": 2079,
      "é¥": 2080,
      "èĻ½çĦ¶": 2081,
      "Ġå¤§": 2082,
      "åŃ©åŃĲ": 2083,
      "ä¿ĿçķĻ": 2084,
      "åĨħå®¹": 2085,
      "æĸĩä¹¦": 2086,
      "un": 2087,
      "åľ£": 2088,
      "åıįå¯¹": 2089,
      "ä¹Łæĺ¯": 2090,
      "äººç±»": 2091,
      "è¯·æ±Ĥ": 2092,
      "æĿĳ": 2093,
      "ç²®": 2094,
      "å¼¹": 2095,
      "ĠæĪĳæĥ³": 2096,
      "è§Ĥå¯Ł": 2097,
      "ç½ļ": 2098,
      "ä¾Ĩ": 2099,
      "åĴĮç¬¬": 2100,
      "çº³åħ¥": 2101,
      "å¥½çļĦ": 2102,
      "æĸ°éĹ»": 2103,
      "èĤ¯": 2104,
      "å§Ĩ": 2105,
      "åįĥå¹´": 2106,
      "éģĹ": 2107,
      "å¤§ä¼ļç¬¬": 2108,
      "çĸĳ": 2109,
      "èģĶåĲĪåĽ½ç³»ç»Ł": 2110,
      "ç«Ļ": 2111,
      "å°Ĭéĩį": 2112,
      ")(": 2113,
      "ä¼¦": 2114,
      "æ±Ĺ": 2115,
      "æ¢": 2116,
      "éĺ¶æ®µ": 2117,
      "éĶ®": 2118,
      "æıĲä¾ĽçļĦ": 2119,
      "ç¬¦åĲĪ": 2120,
      "40": 2121,
      "å¼ł": 2122,
      "çĪ¶": 2123,
      "æ±ĩ": 2124,
      "çļĦåĬªåĬĽ": 2125,
      "éĩĩçĶ¨": 2126,
      "æķ´ä¸ª": 2127,
      "å¼±": 2128,
      "ä¸ľè¥¿": 2129,
      "èĢħçļĦ": 2130,
      "åĹ": 2131,
      "éĢĤçĶ¨": 2132,
      "ec": 2133,
      "æĿĲ": 2134,
      "am": 2135,
      "æ¥": 2136,
      "os": 2137,
      "ĠW": 2138,
      "åĸľæ¬¢": 2139,
      "æįĲåĬ©": 2140,
      "å©ļ": 2141,
      "æĹħ": 2142,
      "çļĦå½±åĵį": 2143,
      "æģ¢": 2144,
      "æī©å¤§": 2145,
      "è®¿": 2146,
      "éĶĢ": 2147,
      "åı¬": 2148,
      "ä½Ĩæĺ¯": 2149,
      "éĩĩåıĸçļĦ": 2150,
      "èı": 2151,
      "ç»ĦæĪĲ": 2152,
      "æģ¢å¤į": 2153,
      "ç¿": 2154,
      "æĪĸèĢħ": 2155,
      "éĨ": 2156,
      "åĪļæŀľ": 2157,
      "åŁºéĩĳä¼ļ": 2158,
      "åĩĨåĪĻ": 2159,
      "åĽłç´ł": 2160,
      "éģ¿": 2161,
      "Ġåľ¨è¿Ļ": 2162,
      "57": 2163,
      "ä¸¤å¹´æľŁ": 2164,
      "è´¢åĬ¡": 2165,
      "å®¡è®¡": 2166,
      "éķ¿æľŁ": 2167,
      "æ°ĳæĹı": 2168,
      "åħ³éĶ®": 2169,
      "å°¤åħ¶æĺ¯": 2170,
      "ä¸Ĭè¿°": 2171,
      "ä¸ĭåĪĹ": 2172,
      "åģĩ": 2173,
      "ä»ĸä»¬çļĦ": 2174,
      "å®ĹæķĻ": 2175,
      "çĽ¸ä¿¡": 2176,
      "ĠL": 2177,
      "åĢ¡è®®": 2178,
      "çº²": 2179,
      "ac": 2180,
      "ĠN": 2181,
      "éĺ¿å¯Į": 2182,
      "å²ģ": 2183,
      "Ġä½łä»¬": 2184,
      "çĻ¾": 2185,
      "ä¸Ģçº§": 2186,
      "è¯Ħä»·": 2187,
      "æıĲä¾ĽäºĨ": 2188,
      "ol": 2189,
      "ç»ıéªĮ": 2190,
      "éĺ¿å¯Įæ±Ĺ": 2191,
      "æ¸¡": 2192,
      "éĢļè¿ĩçļĦ": 2193,
      "éĢīæĭ©": 2194,
      "çļĦæ´»åĬ¨": 2195,
      "èĥĮ": 2196,
      "æĭľ": 2197,
      "äº¿": 2198,
      "ç»ĵè®º": 2199,
      "å°ļ": 2200,
      "èªª": 2201,
      "æİ¨åĬ¨": 2202,
      "é¦ĸèĦĳä¼ļè®®": 2203,
      "ç´¢èµĶ": 2204,
      "æ²ĥ": 2205,
      "ä¾µçĬ¯": 2206,
      "ç«ŀ": 2207,
      "Ġä»Ģä¹Ī": 2208,
      "ç¨ĭåº¦": 2209,
      "å¤ļæķ°": 2210,
      "æĻ®éģį": 2211,
      "åįłé¢Ĩ": 2212,
      "ĠæĪĳçļĦ": 2213,
      "å·¥ä½ľçļĦ": 2214,
      "è¿ĺæĺ¯": 2215,
      "åĨħéĥ¨": 2216,
      "80": 2217,
      "ä¿Ŀåģ¥": 2218,
      "Ġåĵ¦": 2219,
      "çŁ³": 2220,
      "Ġand": 2221,
      "æĭ¥": 2222,
      "äº¡": 2223,
      "åĴĮå¹³ä¸İ": 2224,
      "Ġä¸İ": 2225,
      "æ¾": 2226,
      "å¯»": 2227,
      "è¯Ńåıĳè¨Ģ": 2228,
      "ĠæīĢä»¥": 2229,
      "ht": 2230,
      "Ġå¾Ī": 2231,
      "æ³ķå®ĺ": 2232,
      "æıĲäº¤äºº": 2233,
      "è¾¾æĪĲ": 2234,
      "ä¹ĭä¸Ģ": 2235,
      "åį±æľº": 2236,
      "è¿Ļä¹Ī": 2237,
      "ç¬¬äºĶåįģ": 2238,
      "åĲĪåĲĮ": 2239,
      "è´¡": 2240,
      "åħ¨åĽ½": 2241,
      "ä¹Ĳ": 2242,
      "é¾": 2243,
      "è§£éĩĬ": 2244,
      "ä½łåĢĳ": 2245,
      "éĢĲ": 2246,
      "åĴĮç¤¾ä¼ļ": 2247,
      "ĠG": 2248,
      "ç»Łè®¡": 2249,
      "56": 2250,
      "æĹ¥æľ¬": 2251,
      "Ġl": 2252,
      "ä¸Ģä¸ĭ": 2253,
      "Ġin": 2254,
      "åĪ°çļĦ": 2255,
      "ç®¡åĪ¶": 2256,
      "ä¸įåı¯": 2257,
      "æĩ": 2258,
      "è§īå¾Ĺ": 2259,
      "ĠF": 2260,
      "ç¬¬åĽĽ": 2261,
      "åıĳè¾¾åĽ½å®¶": 2262,
      "58": 2263,
      "æľĹ": 2264,
      "Ġçľĭ": 2265,
      "æĴŃ": 2266,
      "éĿ¢ä¸´": 2267,
      "im": 2268,
      "ation": 2269,
      "ç¾¤ä½ĵ": 2270,
      "æī©æķ£": 2271,
      "Ġä¹Ł": 2272,
      "59": 2273,
      "å®ļçļĦ": 2274,
      "æĿĥåĬĽ": 2275,
      "éĢĢ": 2276,
      "å®¢": 2277,
      "å°±ä¸ļ": 2278,
      "åį´": 2279,
      "è¿Ļé¡¹": 2280,
      "ä»İèĢĮ": 2281,
      "ç»ĵæŀĦ": 2282,
      "è´¡çĮ®": 2283,
      "è¦": 2284,
      "å¯¼èĩ´": 2285,
      "ç¡®è®¤": 2286,
      "èī¾æ»ĭçĹħæ¯Ĵ": 2287,
      "ç»ıå¸¸": 2288,
      "äºĭå®ŀ": 2289,
      "åĳĺé¢Ŀ": 2290,
      "æľĭ": 2291,
      "æµ·æ´ĭ": 2292,
      "ot": 2293,
      "åĬ©äºİ": 2294,
      "è¿ĲåĬ¨": 2295,
      "éĢļçŁ¥": 2296,
      "ay": 2297,
      "è¿ŀ": 2298,
      "Ġ000": 2299,
      "å¾ģ": 2300,
      "æ´»åĬ¨çļĦ": 2301,
      "èĩªçĦ¶": 2302,
      "åį±éĻ©": 2303,
      "Ġä¸»å¸Ń": 2304,
      "éĽĩ": 2305,
      "Ġg": 2306,
      "æľĭåıĭ": 2307,
      "å£°æĺİ": 2308,
      "æį¢": 2309,
      "æľºæŀĦçļĦ": 2310,
      "åĢºåĬ¡": 2311,
      "åĲĮæł·": 2312,
      "å¹´åº¦": 2313,
      "ĠæĪĳæĺ¯": 2314,
      "è®¡åĪĴç½²": 2315,
      "Ġ199": 2316,
      "åįĬ": 2317,
      "å®ªæ³ķ": 2318,
      "æĹ¥åľ¨": 2319,
      "æīĭæ®µ": 2320,
      "åįĩ": 2321,
      "å®ļæľŁ": 2322,
      "åı²": 2323,
      "åľŁåľ°": 2324,
      "é£İéĻ©": 2325,
      "èĩªå·±çļĦ": 2326,
      "ĠåĹ": 2327,
      "æģ©": 2328,
      "ä»¤äºº": 2329,
      "çļĦæĥħåĨµä¸ĭ": 2330,
      "åıĳçİ°": 2331,
      "ä¿ĿæĮģ": 2332,
      "è¯¦": 2333,
      "æŁĵ": 2334,
      "è´«ç©·": 2335,
      "ig": 2336,
      "çŃ¾ç½²": 2337,
      "Ġå¿«": 2338,
      "ww": 2339,
      "æīĢéľĢ": 2340,
      "æĦŁåĪ°": 2341,
      "ĠçĦ¶èĢĮ": 2342,
      "Ġè¦ģ": 2343,
      "éī": 2344,
      "éĢı": 2345,
      "æĻ¯": 2346,
      "è§Ĵ": 2347,
      "Ġ[": 2348,
      "ç»ĻäºĪ": 2349,
      "èİ±": 2350,
      "è°¢è°¢": 2351,
      "åħ¸": 2352,
      "ĠåĽłä¸º": 2353,
      "åĪĹåħ¥": 2354,
      "æģ¶": 2355,
      "éĩįè¦ģçļĦ": 2356,
      "çīĪ": 2357,
      "çļĦåĲĦé¡¹": 2358,
      "çļĦæľĢ": 2359,
      "åħģ": 2360,
      "éī´": 2361,
      "æ¸¸": 2362,
      "ĠæĪĳè¦ģ": 2363,
      "é¢ĺä¸º": 2364,
      "æĽ´åĬł": 2365,
      "è¿ĺæľī": 2366,
      "çĲĨçĶ±": 2367,
      "CN": 2368,
      "æĭ¥æľī": 2369,
      "éľĢæ±Ĥ": 2370,
      "çº½": 2371,
      "æĥħåĨµä¸ĭ": 2372,
      "èĢ³": 2373,
      "âĢĿ,": 2374,
      "Ġn": 2375,
      "å®ªç«ł": 2376,
      "ç¾İæ´²": 2377,
      "éº¦": 2378,
      "ev": 2379,
      "æ½": 2380,
      "Ġå¤§ä¼ļ": 2381,
      "æĹ¨åľ¨": 2382,
      "Ġh": 2383,
      "æİ¢": 2384,
      "å¥ĩ": 2385,
      "62": 2386,
      "çĤº": 2387,
      "è´¥": 2388,
      "æĿ¥èĩª": 2389,
      "çļĦä¿¡": 2390,
      "æľīåĬ©äºİ": 2391,
      "é¡µ": 2392,
      "åħµ": 2393,
      "fs": 2394,
      "ä¸įè¦ģ": 2395,
      "èĸ": 2396,
      "Ġè®©": 2397,
      "çļĦæ³ķå¾ĭ": 2398,
      "æıĲè®®": 2399,
      "æ³ķåĽ½": 2400,
      "ç¨İ": 2401,
      "éĩįå¤§": 2402,
      "æ²¹": 2403,
      "çļĦèĥ½åĬĽ": 2404,
      "éĩįçĤ¹": 2405,
      "çĶµè¯Ŀ": 2406,
      "Ġä»İ": 2407,
      "çīĩ": 2408,
      "å¦ĤæŃ¤": 2409,
      "ad": 2410,
      "èī¯": 2411,
      "å¤ļè¾¹": 2412,
      "èµĦäº§": 2413,
      "ç¼ĸåĨĻ": 2414,
      "å¤ĸåĽ½": 2415,
      "èĪ¹": 2416,
      "èĽ": 2417,
      "Ġæ²¡æľī": 2418,
      "æıĲæ¡Ī": 2419,
      "èĴĻ": 2420,
      "çĻ»è®°": 2421,
      "æĶ¹è¿Ľ": 2422,
      "ä¸įæĸŃ": 2423,
      "æīĢä½ľ": 2424,
      "çĶŁçī©": 2425,
      "æīĢè¿°": 2426,
      "ä¹ı": 2427,
      "è¡¡": 2428,
      "çģŃ": 2429,
      "çļĦå»ºè®®": 2430,
      "åħģè®¸": 2431,
      "çİ°è±¡": 2432,
      "ä»·åĢ¼": 2433,
      "2009": 2434,
      "çĽ¸äºĴ": 2435,
      "è¿Ĳè¾ĵ": 2436,
      "è¡ĮåĬ¨è®¡åĪĴ": 2437,
      "å½ĵåľ°": 2438,
      "id": 2439,
      "ç»ĻæĪĳ": 2440,
      "ç´§æĢ¥": 2441,
      "æĿĲæĸĻ": 2442,
      "Ġ...": 2443,
      "63": 2444,
      "è·¨": 2445,
      "åĪĨéħį": 2446,
      "åŁİå¸Ĥ": 2447,
      "ow": 2448,
      "ä¸ĩç¾İåħĥ": 2449,
      "è¯ģæĺİ": 2450,
      "åı°": 2451,
      "è§Ħæ¨¡": 2452,
      "å®ŀä½ĵ": 2453,
      "ç£": 2454,
      "åĲ«": 2455,
      "äºĭä»¶": 2456,
      "æĿ¥äºĨ": 2457,
      "è®¤è¯ĨåĪ°": 2458,
      "çİ©": 2459,
      "éĢĶ": 2460,
      "åıĬç¤¾ä¼ļ": 2461,
      "åĨľä¸ļ": 2462,
      "é¡¿": 2463,
      "æ®ĭçĸ¾": 2464,
      "çİĭåĽ½": 2465,
      "è¸": 2466,
      "å±±": 2467,
      "åĽ½éĻħæ³ķ": 2468,
      "Ġ13": 2469,
      "èĭıä¸¹": 2470,
      "ä»¥åīį": 2471,
      "åĲİç»Ń": 2472,
      "åı·åĨ³å®ļ": 2473,
      "éļĨ": 2474,
      "åŃ¦æł¡": 2475,
      "ç²®é£Ł": 2476,
      "198": 2477,
      "ä½Ļ": 2478,
      "æ°ĶåĢĻ": 2479,
      "æ¼Ķ": 2480,
      "åĲ¸": 2481,
      "èµĶåģ¿": 2482,
      "åĩºåı£": 2483,
      "ç«¯": 2484,
      "å°Ĩåľ¨": 2485,
      "èĤ¡": 2486,
      "åħī": 2487,
      "æĺ¯ä¸Ģä¸ª": 2488,
      "æ¯Ľ": 2489,
      "æĵ": 2490,
      "éĩĮäºļ": 2491,
      "æ¬§æ´²èģĶçĽŁ": 2492,
      "å®ŀè´¨": 2493,
      "1998": 2494,
      "æĪĺäºī": 2495,
      "è¿Ľè¡ĮçļĦ": 2496,
      "è¿Ľè¡ĮäºĨ": 2497,
      "æĺł": 2498,
      "åºĶå¯¹": 2499,
      "è¯¥åĽ½": 2500,
      "æķ¦ä¿ĥ": 2501,
      "éĿł": 2502,
      "Ġæĺ¯çļĦ": 2503,
      "è´¢äº§": 2504,
      ",ãĢĬ": 2505,
      "éĤ£ä¹Ī": 2506,
      "Ġå¥½åĲ§": 2507,
      "å¸¸é©»": 2508,
      "åĬłæĭ¿": 2509,
      "æŀĦæĪĲ": 2510,
      "ä¸ªæľĪ": 2511,
      "è´©è¿Ĳ": 2512,
      "åĲĦæĸ¹": 2513,
      ";(": 2514,
      "çĶµåŃĲ": 2515,
      "æĸĹ": 2516,
      "æķħ": 2517,
      "å¹¶åľ¨": 2518,
      "æľĥ": 2519,
      "èµı": 2520,
      "æ°ĳéĹ´": 2521,
      "çº½çº¦": 2522,
      "å¿į": 2523,
      "æŀª": 2524,
      "è¡ĮåĬ¨çº²": 2525,
      "å®£å¸ĥ": 2526,
      "ĠåĴĮ": 2527,
      "çļĦä¸»è¦ģ": 2528,
      "Ġç§ĺä¹¦éķ¿": 2529,
      "åĨįæ¬¡": 2530,
      "ç»ıæµİåıĬç¤¾ä¼ļ": 2531,
      "çĶļ": 2532,
      "ur": 2533,
      "éĤĢ": 2534,
      "éģ£": 2535,
      "éĺ»": 2536,
      "åģļåĩº": 2537,
      "åĬłä»¥": 2538,
      "å¾Īå¤ļ": 2539,
      "éħ·": 2540,
      "æĽ¼": 2541,
      "Ġä¸ºäºĨ": 2542,
      "61": 2543,
      "æ²Ĵ": 2544,
      "è¿½": 2545,
      "éĢļè¿ĩäºĨ": 2546,
      "çĶ³è¯·": 2547,
      "æĮĩæłĩ": 2548,
      "åıįæĺł": 2549,
      "çļĦæĸ¹å¼ı": 2550,
      "ç½ĳç»ľ": 2551,
      "%ãĢĤ": 2552,
      "Ġåı¦": 2553,
      "å«©": 2554,
      "æįķ": 2555,
      "åıĳå±ķçĽ®æłĩ": 2556,
      "ĠJ": 2557,
      "åħŃåįģ": 2558,
      "èĪª": 2559,
      "ç¦»å¼Ģ": 2560,
      "æĿ¥è¯´": 2561,
      "çľģ": 2562,
      "ĠO": 2563,
      "ĠçĶ±äºİ": 2564,
      "åĬłæĭ¿å¤§": 2565,
      "é«ĺçº§ä¸ĵåĳĺ": 2566,
      "å®£ä¼ł": 2567,
      "ç»ĥ": 2568,
      "äº«æľī": 2569,
      "çļĦæĹ¶åĢĻ": 2570,
      "ve": 2571,
      "æ°ĳä¸»åħ±åĴĮåĽ½": 2572,
      "ä»ĬåĲİ": 2573,
      "å¹¶ä¸į": 2574,
      "æľĢä¸į": 2575,
      "åĴĮåıĳå±ķ": 2576,
      "çĤ¸": 2577,
      "Ġåľ¨è¿Ļæĸ¹éĿ¢": 2578,
      "åª": 2579,
      "å°Ħ": 2580,
      "åĪĽéĢł": 2581,
      "ä¸ºä»Ģä¹Ī": 2582,
      "ĠâĢ": 2583,
      "ç¼ºä¹ı": 2584,
      "æĭŁè®¢": 2585,
      "ä¼°è®¡": 2586,
      "åħļ": 2587,
      "åħ¨ä½ĵ": 2588,
      "æľ¬åĽ½": 2589,
      "æīĢè½½": 2590,
      "å·´å«©": 2591,
      "é»İå·´å«©": 2592,
      "æĶ¹åıĺ": 2593,
      "èĲ½å®ŀ": 2594,
      "åĹİ": 2595,
      "ä¸ģ": 2596,
      "é©¬éĩĮ": 2597,
      "ä¸ĭçļĦ": 2598,
      "ä¸Ģå®ļ": 2599,
      "'s": 2600,
      "è®¿éĹ®": 2601,
      "ç»´äºļ": 2602,
      "æĸ¹æ¡ĪçļĦ": 2603,
      "è¯ģæį®": 2604,
      "å¾·åĽ½": 2605,
      "æİĪæĿĥ": 2606,
      "å±ŀäºİ": 2607,
      "ä¸įå¾Ĺ": 2608,
      "Ġåĺ": 2609,
      "åĦ¿ç«¥åŁºéĩĳä¼ļ": 2610,
      "Ġ14": 2611,
      "åĲĦåĽ½æĶ¿åºľ": 2612,
      "çĽĸ": 2613,
      "æĬ±": 2614,
      "æ®ĸ": 2615,
      "ç»ıæµİåıĬç¤¾ä¼ļçĲĨäºĭä¼ļ": 2616,
      "å¢ĥåĨħ": 2617,
      "è¿ĻéĩĮ": 2618,
      "æŃ»äº¡": 2619,
      "ä¸ĵä¸ļ": 2620,
      "è®®ä¼ļ": 2621,
      "FF": 2622,
      "èĭ¥å¹²": 2623,
      "ĠéĢļè¿ĩ": 2624,
      "çµ": 2625,
      "èĥ½æºĲ": 2626,
      "åī¥": 2627,
      "æī¾åĪ°": 2628,
      "å®ŀè¡Į": 2629,
      "å¹³æ°ĳ": 2630,
      "ä¸ĭåįĪ": 2631,
      "æĹ¥åĨħ": 2632,
      "åĽº": 2633,
      "è¿Ľåħ¥": 2634,
      "ç©Ĩ": 2635,
      "äºĨä¸Ģä¸ª": 2636,
      "ç´¢æ²ĥ": 2637,
      "æĽ¿": 2638,
      "å·¥åħ·": 2639,
      "è¡¥åħħ": 2640,
      "æĪĲç«ĭ": 2641,
      "æĿ¥æºĲ": 2642,
      "ç§ĳç´¢æ²ĥ": 2643,
      "è´«åĽ°": 2644,
      "åįļ": 2645,
      "çľ¼": 2646,
      "åĳ³": 2647,
      "åĨĮ": 2648,
      "ç¬ĳ": 2649,
      "æĶ¿åºľéĹ´": 2650,
      "Ġä½łæĺ¯": 2651,
      "ç²¾ç¥ŀ": 2652,
      "åıĸå¾ĹçļĦ": 2653,
      "åı¬å¼Ģ": 2654,
      "æĢ»éĥ¨": 2655,
      "çŁŃ": 2656,
      "å¯¹å¦ĩå¥³": 2657,
      "å¿ħè¦ģçļĦ": 2658,
      "ç»Ħç»ĩåĴĮ": 2659,
      "éº»": 2660,
      "æ°¸": 2661,
      "Ġ11": 2662,
      "å¼Ģåıĳè®¡åĪĴç½²": 2663,
      "å¯ĨåĪĩ": 2664,
      "éĿŀæŃ£å¼ı": 2665,
      "æĿĤ": 2666,
      "å®ĺåĳĺ": 2667,
      "ĠåıĪ": 2668,
      "èı²": 2669,
      "ç«ŀäºī": 2670,
      "è°¨": 2671,
      "å¥³åŃ©": 2672,
      "åı¤å·´": 2673,
      "æī¿æĭħ": 2674,
      "åıĻ": 2675,
      "åıĳè¡¨": 2676,
      "54": 2677,
      "å¼ĥ": 2678,
      "çŃ¹å¤ĩ": 2679,
      "èĦ±": 2680,
      "éĻĨ": 2681,
      "ä¸įçŁ¥éģĵ": 2682,
      "éĺ¿å°Ķ": 2683,
      "å°ĳæķ°": 2684,
      "æĶ¯ä»ĺ": 2685,
      "æĹ¥åĨħçĵ¦": 2686,
      "ĠèĢĮ": 2687,
      "å¢¨": 2688,
      "è¥¿çıŃ": 2689,
      "ter": 2690,
      "åįģå¹´": 2691,
      "è¥¿çıŃçīĻ": 2692,
      "ä¼ĬæľĹ": 2693,
      "æ··": 2694,
      "Ġä¸Ĭ": 2695,
      "ãĢĤâĢĿ": 2696,
      "èĬ±": 2697,
      "æĭĺ": 2698,
      "åįıä¼ļ": 2699,
      "éª¤": 2700,
      "åĽ°éļ¾": 2701,
      "ä¸»ç®¡": 2702,
      "ä¿®æŃ£": 2703,
      "çļĦä»»ä½ķ": 2704,
      "æĿ¡ä¾ĭ": 2705,
      "æįŁå¤±": 2706,
      "è¡¨åĨ³": 2707,
      "ĠæĿ¥": 2708,
      "æ¿": 2709,
      "å¿ĺ": 2710,
      "æĭħä»»": 2711,
      "æ¬¡ä¼ļè®®ä¸Ĭ": 2712,
      "æĦıæĢĿ": 2713,
      "åİĦ": 2714,
      "åİĭ": 2715,
      "ç¼ĸåĪ¶": 2716,
      "èį·": 2717,
      "ĠæĬĬ": 2718,
      "å¿Ĺ": 2719,
      "ç¬¬äºĮåįģ": 2720,
      "Ġå°½ç®¡": 2721,
      "çł´åĿı": 2722,
      "åºŁ": 2723,
      "æĴ¤": 2724,
      "ç§»æ°ĳ": 2725,
      "æĤ¨": 2726,
      "èİ«": 2727,
      "éĤĢè¯·": 2728,
      "çļĦåĨ³å®ļ": 2729,
      "äºĨä¸Ģ": 2730,
      "ç§ģèĲ¥": 2731,
      "éŁ³": 2732,
      "æĪĳåĽ½": 2733,
      "åħ¬å¹³": 2734,
      "å°ļæľª": 2735,
      "å¹¸": 2736,
      "è¯į": 2737,
      "ir": 2738,
      "éĹŃ": 2739,
      "ĠéĻ¤": 2740,
      "ut": 2741,
      "åĢŁ": 2742,
      "æŃ¥éª¤": 2743,
      "éĤ£ä¸ª": 2744,
      "ç»Łä¸Ģ": 2745,
      "ç½ªè¡Į": 2746,
      "æ°´å¹³": 2747,
      "çĪĨ": 2748,
      "è´¸åıĳ": 2749,
      "ä¸įä»ħ": 2750,
      "æ£®æŀĹ": 2751,
      "æ±¶": 2752,
      "Ġåı¯": 2753,
      "éĤ£éĩĮ": 2754,
      "ç»´æĮģåĴĮå¹³è¡ĮåĬ¨": 2755,
      "æµģç¦»": 2756,
      "åĨľæĿĳ": 2757,
      "åıĹå®³èĢħ": 2758,
      "çľŁæŃ£": 2759,
      "éĤ£æł·": 2760,
      "åĴĮæĬĢæľ¯": 2761,
      "å¤±æīĢ": 2762,
      "æ¯Ĵåĵģ": 2763,
      "è¿Ł": 2764,
      "åħ¬å¼Ģ": 2765,
      "ä¸¾åĬŀ": 2766,
      "è¾©è®º": 2767,
      "å¤§åŃ¦": 2768,
      "å®Ŀ": 2769,
      "è¯¸": 2770,
      "æĴĴ": 2771,
      "å¸Ŀæ±¶": 2772,
      "æĺĤ": 2773,
      "II": 2774,
      "çļĦçĽ®æłĩ": 2775,
      "çĵľ": 2776,
      "ä¼łç»Ł": 2777,
      "ĠæĪĳçŁ¥éģĵ": 2778,
      "æĢ§åĴĮ": 2779,
      "åīĬ": 2780,
      "çļĦåħ¶ä»ĸ": 2781,
      "Ġ12": 2782,
      "æµģç¦»å¤±æīĢ": 2783,
      "ĠæľĢåĲİ": 2784,
      "äº¤æĺĵ": 2785,
      "äº¤æµģ": 2786,
      "ĠçŃī": 2787,
      "Ġåĺ¿": 2788,
      "çļĦè¯Ŀ": 2789,
      "é¦ĸåħĪ": 2790,
      "è¯¾": 2791,
      "åĨ³çŃĸ": 2792,
      "åŁºäºİ": 2793,
      "å½Ĵ": 2794,
      "è°ĥæķ´": 2795,
      "åĴ¨è¯¢å§Ķåĳĺä¼ļ": 2796,
      "èģĮèĥ½": 2797,
      "çĥŃ": 2798,
      "å¾ĭå¸Ī": 2799,
      "æĶ¶åĪ°": 2800,
      "åĤ¨": 2801,
      "æİī": 2802,
      "èº«ä»½": 2803,
      "éĩĩè´Ń": 2804,
      "çļĦä½ľçĶ¨": 2805,
      "æ°ĳéĹ´ç¤¾ä¼ļ": 2806,
      "ç±į": 2807,
      "Ġä¸įè¿ĩ": 2808,
      "ãĢĭãĢĤ": 2809,
      "èµŀèµı": 2810,
      "èĩªæĦ¿": 2811,
      "æ»¡è¶³": 2812,
      "æ£ĢæŁ¥": 2813,
      "æľīäºº": 2814,
      "çĶ³è¯ī": 2815,
      "æĻº": 2816,
      "ä¿®è®¢": 2817,
      "èĢĮè¨Ģ": 2818,
      "åĬ³åĬ¨": 2819,
      "äºĨåĲĹ": 2820,
      "ä½ĵåĪ¶": 2821,
      "ĠâĢ¢": 2822,
      "è©": 2823,
      "Ġä½łçŁ¥éģĵ": 2824,
      "ä»¥èĭ±": 2825,
      "éĩĩåıĸè¡ĮåĬ¨": 2826,
      "æĭŁè®®": 2827,
      "éĢıæĺİ": 2828,
      "åĶ®": 2829,
      "ĠK": 2830,
      "è¿ĩæ¸¡": 2831,
      "çļĦç»ıæµİ": 2832,
      "éħĴ": 2833,
      "éī´äºİ": 2834,
      "å¢¨è¥¿": 2835,
      "æľªæĿ¥": 2836,
      "æ¬§çĽŁ": 2837,
      "ä¼ĳ": 2838,
      "å·¥ä¸ļ": 2839,
      "è½¬è®©": 2840,
      "è´·": 2841,
      "å¢¨è¥¿åĵ¥": 2842,
      "è¡ĮåĬ¨çº²é¢Ĩ": 2843,
      "ä¸įèµ·": 2844,
      "âĢķ": 2845,
      "æŃ¦è£ħåĨ²çªģ": 2846,
      "é¾Ħ": 2847,
      "çļĦåŁºç¡Ģ": 2848,
      "ä½³": 2849,
      "èģĶåĲĪçİĭåĽ½": 2850,
      "67": 2851,
      "æĬĹ": 2852,
      "äº¿ç¾İåħĥ": 2853,
      "åķĨä¸ļ": 2854,
      "æļĤ": 2855,
      "ä¼ļè®®ä¸Ĭ": 2856,
      "å¦ĩå¥³åĴĮ": 2857,
      "å¾Ļ": 2858,
      "æ®Ĭ": 2859,
      "ç»©": 2860,
      "éģ¿åħį": 2861,
      "åľ°æ³¨æĦıåĪ°": 2862,
      "æ¿Ģ": 2863,
      "ĠåĽ½éĻħ": 2864,
      "æĹ¢": 2865,
      "73": 2866,
      "ç»Ļä½ł": 2867,
      "åĿĲ": 2868,
      "æĢķ": 2869,
      "å¤§éĩı": 2870,
      "æĭĴ": 2871,
      "æĹº": 2872,
      "æ¡ĳ": 2873,
      "Ġè°¢è°¢": 2874,
      "åľ¨è¿ĻéĩĮ": 2875,
      "åįģåĪĨ": 2876,
      "49": 2877,
      "æĭħä¿Ŀ": 2878,
      "å¸ģ": 2879,
      "ä»¥èĭ±è¯Ńåıĳè¨Ģ": 2880,
      "è¯¯": 2881,
      "æ¡Īæĸĩ": 2882,
      "æ¾³": 2883,
      "è®¾å¤ĩ": 2884,
      "è§ĤçĤ¹": 2885,
      "æĶ»": 2886,
      "ä¸ľå¸Ŀæ±¶": 2887,
      "éĿĴå¹´": 2888,
      "åĲĪæ³ķ": 2889,
      "æĢĢ": 2890,
      "æľĢé«ĺ": 2891,
      "åĨ·": 2892,
      "ä¾ĽåºĶ": 2893,
      "åħ¶ä¸ŃåĮħæĭ¬": 2894,
      "äºĪä»¥": 2895,
      "æľīæķĪçļĦ": 2896,
      "æĦ¿æĦı": 2897,
      "èĮĥåĽ´åĨħ": 2898,
      "çŃĶå¤į": 2899,
      "åĩºçīĪ": 2900,
      "ä¸įæī©æķ£": 2901,
      "Ġè¿Ļä¸ª": 2902,
      "åĮĸåŃ¦": 2903,
      "çļĦåĲĦç§į": 2904,
      "ä¸ĢåĲį": 2905,
      "å·¨": 2906,
      "è§Ĥå¯Łåĳĺ": 2907,
      "æįŁå®³": 2908,
      "äººæĿĥå§Ķåĳĺä¼ļ": 2909,
      "è¾¾åĪ°": 2910,
      "è¾ĸ": 2911,
      "ĠY": 2912,
      "ç»´æĬ¤": 2913,
      "äººæķ°": 2914,
      "ä¸ĵé¢ĺ": 2915,
      "æľºæŀĦåĴĮ": 2916,
      "ä¸īä¸ª": 2917,
      "çī¹æ®Ĭ": 2918,
      "æ½ľ": 2919,
      "äº§åĵģ": 2920,
      "æł¸å¿ĥ": 2921,
      "ä¼ĹåĽ½": 2922,
      "Ġon": 2923,
      "éĢļä¿¡": 2924,
      "åĪļæŀľæ°ĳä¸»åħ±åĴĮåĽ½": 2925,
      "äºļæ´²": 2926,
      "èĭ¦": 2927,
      "ä»»åĳ½": 2928,
      "çĶļèĩ³": 2929,
      "Ġè§ģ": 2930,
      "åĬĽçļĦ": 2931,
      "äº¬": 2932,
      "æĦıä¹ī": 2933,
      "åĮ»çĸĹ": 2934,
      "ĠçĦ¶åĲİ": 2935,
      "å¼Ł": 2936,
      "ä¸¤æĢ§": 2937,
      "æĪĳåĢĳ": 2938,
      "33": 2939,
      "Ġ17": 2940,
      "çļĦä¸»": 2941,
      "ç¥Ŀ": 2942,
      "å°ıç»Ħå§Ķåĳĺä¼ļ": 2943,
      "æĶ¯åĩº": 2944,
      "é«ĺåħ´": 2945,
      "éĥ¨ç½²": 2946,
      "æĿ¥æĸĩ": 2947,
      "åħ¬æŃ£": 2948,
      "ç«ĭåį³": 2949,
      "æŃī": 2950,
      "èĩ³å°ĳ": 2951,
      "ĠèĻ½çĦ¶": 2952,
      "ç§»å¾Ļ": 2953,
      "Ġå°ı": 2954,
      "æĺİçĻ½": 2955,
      "ä¾Ŀçħ§": 2956,
      "åĴĮå¹³ä¸İå®īåħ¨": 2957,
      "èµĽ": 2958,
      "éħ·åĪĳ": 2959,
      "è¸ª": 2960,
      "åªĴ": 2961,
      "è¿ħ": 2962,
      "åĳĢ": 2963,
      "äººåĴĮ": 2964,
      "å·´è¥¿": 2965,
      "è¶ĭ": 2966,
      "åĴĮä¿ĿæĬ¤": 2967,
      "è¶ħè¿ĩ": 2968,
      "è¶£": 2969,
      "è´¦": 2970,
      "çļĦä¸į": 2971,
      "æĥ©": 2972,
      "éĸ": 2973,
      "æıĲåĩºäºĨ": 2974,
      "ä¼łæĴŃ": 2975,
      "æľīæĿĥ": 2976,
      "èĢ¶": 2977,
      "ä»İäºĭ": 2978,
      "Ġ20": 2979,
      "å¯»æ±Ĥ": 2980,
      "æĹºè¾¾": 2981,
      "è´¨éĩı": 2982,
      "48": 2983,
      "æī¬": 2984,
      "ä¹Łä¸į": 2985,
      "å¤ļæł·": 2986,
      "Ġ18": 2987,
      "åħ¹": 2988,
      "Ġ15": 2989,
      "å¥¹ä»¬": 2990,
      "Ġä¸Ģä¸ª": 2991,
      "åį¢æĹºè¾¾": 2992,
      "æ¯ıä¸ª": 2993,
      "ç®¡è¾ĸ": 2994,
      "æĶ¿çŃĸåĴĮ": 2995,
      "ĠçľŁ": 2996,
      "è¡Įä½¿": 2997,
      "å·¥ç¨ĭ": 2998,
      "æĬ¥åĳĬçļĦ": 2999,
      "Ġè¿Ļä¸Ģ": 3000,
      "çģµ": 3001,
      "æĿ°": 3002,
      "çĲĨè§£": 3003,
      "ä»Ģéº¼": 3004,
      "ord": 3005,
      "æīįèĥ½": 3006,
      "è¯¦ç»Ĩ": 3007,
      "èĽĭ": 3008,
      "éģŃåıĹ": 3009,
      "åĩºå¸Ń": 3010,
      "%,": 3011,
      "è¿ħéĢŁ": 3012,
      "æĪª": 3013,
      "ä¼ļèĢħ": 3014,
      "çļĦåıĳå±ķ": 3015,
      "å¼Ĥ": 3016,
      "æĢ§è´¨": 3017,
      "å¨ģçī¹": 3018,
      "æł¸åĩĨ": 3019,
      "çĭ±": 3020,
      "çĽ®çļĦæĺ¯": 3021,
      "è´´": 3022,
      "èį¯çī©": 3023,
      "èħĲ": 3024,
      "æĹ¦": 3025,
      "è®¼": 3026,
      "æľĢä¸įåıĳè¾¾åĽ½å®¶": 3027,
      "ç§ĳå¨ģçī¹": 3028,
      "å§Ĳ": 3029,
      "æĬ¥åĳĬä¸Ń": 3030,
      "Ġè¿ĺæľī": 3031,
      "æ¥ļ": 3032,
      "èĴĤ": 3033,
      "èģĮä¸ļ": 3034,
      "45": 3035,
      "Ġæ³¨æĦıåĪ°": 3036,
      "è¯īè®¼": 3037,
      "ĠåĨį": 3038,
      "æľĿ": 3039,
      "Ġä¸įæĺ¯": 3040,
      "éĩįè§Ĩ": 3041,
      "æ´Ĺ": 3042,
      "æ£Ģå¯Ł": 3043,
      "ç¤¾ä¼ļåĴĮ": 3044,
      "å®¡åĪ¤": 3045,
      "åİĨåı²": 3046,
      "ä¸»ä»»": 3047,
      "æĺ¾ç¤º": 3048,
      "éĢĤå½ĵçļĦ": 3049,
      "ch": 3050,
      "å¦Ĥä¸ĭ": 3051,
      "1997": 3052,
      "çļĦè¡Įä¸º": 3053,
      "éŃ": 3054,
      "åĬ³å·¥": 3055,
      "ĠæĢİä¹Ī": 3056,
      "ä½ıæĪ¿": 3057,
      "çģ¾å®³": 3058,
      "åıįåºĶ": 3059,
      "æĶ¶éĽĨ": 3060,
      "ä¸įåĪ°": 3061,
      "çĶŁæķĪ": 3062,
      "æĭĺçķĻ": 3063,
      "çĶ·å¥³": 3064,
      "Ġ{": 3065,
      "Ġ16": 3066,
      "åĲįåįķ": 3067,
      "ro": 3068,
      "è¿Ļç±»": 3069,
      "çĹĽ": 3070,
      "å¥Ĺ": 3071,
      "37": 3072,
      "å¾Ħ": 3073,
      "éĺģ": 3074,
      "çļĦä»»åĬ¡": 3075,
      "èĥ½åĬĽå»ºè®¾": 3076,
      "æľīåĪ©": 3077,
      "åľ°çĤ¹": 3078,
      "è¿ĩç¨ĭä¸Ń": 3079,
      "æľºåħ³": 3080,
      "åī§": 3081,
      "æŃ¤ç§į": 3082,
      "è§¦": 3083,
      "åĬłåĭĴ": 3084,
      "æķ°éĩı": 3085,
      "éĢĤçĶ¨äºİ": 3086,
      "å¡ŀå°Ķ": 3087,
      "æĺ¯ä¸ª": 3088,
      "æĨ": 3089,
      "æĥ³è¦ģ": 3090,
      "__": 3091,
      "åĽ¢ä½ĵ": 3092,
      "ĠæĪĳä¼ļ": 3093,
      "åįĥå¹´åıĳå±ķçĽ®æłĩ": 3094,
      "æ¸ħæ¥ļ": 3095,
      "åĺĽ": 3096,
      "å·ŀ": 3097,
      "æıĲåĪ°": 3098,
      "åĽ½æ°ĳ": 3099,
      "org": 3100,
      "è¡Ģ": 3101,
      "å¦Īå¦Ī": 3102,
      "ul": 3103,
      "èĵ": 3104,
      "çĥĪ": 3105,
      "ĠåĲ¬": 3106,
      "æĳĬ": 3107,
      "å°į": 3108,
      "Ġä¸įè¦ģ": 3109,
      "çļĦä¿¡æģ¯": 3110,
      "ä¹±": 3111,
      ",âĢľ": 3112,
      "å¤§åĪ©": 3113,
      "é¡¾éĹ®": 3114,
      "è®¡ç®Ĺ": 3115,
      "è°ĭ": 3116,
      "æ¸ħåįķ": 3117,
      "åįİ": 3118,
      "çĶŁåĳ½": 3119,
      "è¿Ĳä½ľ": 3120,
      "æ³°": 3121,
      "Ġä½łçļĦ": 3122,
      "æł¹æľ¬": 3123,
      "åľŁèĢ³": 3124,
      "åľ¨åĵª": 3125,
      "å®ŀè´¨æĢ§": 3126,
      "åľŁèĢ³åħ¶": 3127,
      "èĪŀ": 3128,
      "è´§å¸ģ": 3129,
      "æ¾³å¤§": 3130,
      "è®Ńç»ĥ": 3131,
      "æ¾³å¤§åĪ©äºļ": 3132,
      "Ġä¼ļè®®": 3133,
      "äººåĬĽ": 3134,
      "47": 3135,
      "Ġè¿Ļç§į": 3136,
      "äººæĿĥäºĭåĬ¡": 3137,
      "æ°ĶåĢĻåıĺåĮĸ": 3138,
      "åĬłåĭĴæ¯Ķ": 3139,
      "åıĻåĪ©äºļ": 3140,
      "åĬĽéĩı": 3141,
      "æľĢç»Ī": 3142,
      "è®©æĪĳ": 3143,
      "è´¸åıĳä¼ļè®®": 3144,
      "å°Ĩåħ¶": 3145,
      "æĦıå¤§åĪ©": 3146,
      "æ¦Ĥå¿µ": 3147,
      "æĬµ": 3148,
      "å°Ķåħ°": 3149,
      "æ¯«": 3150,
      "åĲĪçĲĨ": 3151,
      "èµĦåĬ©": 3152,
      "çĪ±å°Ķåħ°": 3153,
      "èĸª": 3154,
      "ä¿Ħç½Ĺæĸ¯èģĶéĤ¦": 3155,
      "åĲ¯": 3156,
      "åįĹéĿŀ": 3157,
      "åľŃ": 3158,
      "æľīäºĽ": 3159,
      "å¡ŀæĭī": 3160,
      "35": 3161,
      "åģľæŃ¢": 3162,
      "æīĢæ¶ī": 3163,
      "åķ¦": 3164,
      "all": 3165,
      "æĥ¯": 3166,
      "å§Ķä¼ļ": 3167,
      "å½ĵäºĭ": 3168,
      "è®²ä¹ł": 3169,
      "é±": 3170,
      "åľ¨è¿Ļæĸ¹éĿ¢": 3171,
      "æľīå¿ħè¦ģ": 3172,
      "åĨħäºļ": 3173,
      "Ġåİ»": 3174,
      "èµ«": 3175,
      "åĪ»": 3176,
      "æĪĳè¦ģ": 3177,
      "å¯¹åħ¶": 3178,
      "éļľç¢į": 3179,
      "ç½Ĺé©¬": 3180,
      "åĩłåĨħäºļ": 3181,
      "æĸ¯æ´Ľ": 3182,
      "åĦ¿ç«¥æĿĥåĪ©": 3183,
      "åį·": 3184,
      "åĲİç»Ńè¡ĮåĬ¨": 3185,
      "çļĦéĩįè¦ģæĢ§": 3186,
      "ç£ĭ": 3187,
      "å¥½äºĨ": 3188,
      "ç«ĭåľº": 3189,
      "ab": 3190,
      "æīĵç®Ĺ": 3191,
      "åĸĿ": 3192,
      "ä¾Ŀæį®": 3193,
      "èĩ´åĬĽ": 3194,
      "å¤º": 3195,
      "å·´åŁº": 3196,
      "çļĦèµĦæĸĻ": 3197,
      "éĢłæĪĲçļĦ": 3198,
      "ç£ĭåķĨ": 3199,
      "æ¯ıå¹´": 3200,
      "å±ħæ°ĳ": 3201,
      "æįĲæ¬¾": 3202,
      "åĽ½éĻħåħ¬çº¦": 3203,
      "¯ä¸Ģ": 3204,
      "åİŁåŃĲ": 3205,
      "å·´åŁºæĸ¯åĿ¦": 3206,
      "ĠåĽŀé¡¾": 3207,
      "æľ¬èº«": 3208,
      "å¤§å¤ļæķ°": 3209,
      "ç§ģèĲ¥éĥ¨éĹ¨": 3210,
      "æĭĴç»Ŀ": 3211,
      "Ġå°Ĩ": 3212,
      "å¹²äºĭ": 3213,
      "ç©¿": 3214,
      "æĭ¨": 3215,
      "é±¼": 3216,
      "åĴĮèģĶåĲĪåĽ½": 3217,
      "åı¦ä¸Ģ": 3218,
      "ĠåĹ¯": 3219,
      "çĪ¸çĪ¸": 3220,
      "èĹ": 3221,
      "ç±»ä¼¼": 3222,
      "æĢª": 3223,
      "æķĪçİĩ": 3224,
      "èħĲè´¥": 3225,
      "æĻĤ": 3226,
      "é¢ĦæľŁ": 3227,
      "Ġéĺ¿": 3228,
      "æ¹": 3229,
      "è´§çī©": 3230,
      "åŁºç¡Ģè®¾æĸ½": 3231,
      "Ġç¼Ķçº¦åĽ½": 3232,
      "é¸": 3233,
      "åĲİæŀľ": 3234,
      "æĽ´å¥½": 3235,
      "å°¼è¥¿äºļ": 3236,
      "å®ļä¹ī": 3237,
      "çŃ¹èµĦ": 3238,
      "æĭīå¤«": 3239,
      "å»·": 3240,
      "èµ·è¯ī": 3241,
      "34": 3242,
      "åħ¶å®ĥ": 3243,
      "çļĦä¸Ģéĥ¨åĪĨ": 3244,
      "å¼ķèµ·": 3245,
      "çļĦè¡ĮåĬ¨": 3246,
      "é©¬æĭī": 3247,
      "ah": 3248,
      "ä¿ĿéĻ©": 3249,
      "æĬ±æŃī": 3250,
      "ä¹ĭå¤ĸ": 3251,
      "æŃ¤ç±»": 3252,
      "ak": 3253,
      "åģļçļĦ": 3254,
      "çī¹åĪ«ä»£è¡¨": 3255,
      "Ġèĩª": 3256,
      "æ±¡": 3257,
      "è®²ä¹łçıŃ": 3258,
      "ä¸ĢçĤ¹": 3259,
      "ä¸ĸçºª": 3260,
      "oc": 3261,
      "å°¼æĹ¥": 3262,
      "èĩ³åħ³": 3263,
      "Ġ2006": 3264,
      "åıĮæĸ¹": 3265,
      "åıĳåĩº": 3266,
      "åĪ¶è£ģ": 3267,
      "åĪĨåŃĲ": 3268,
      "ç³»åĪĹ": 3269,
      "ä»»æĭ©": 3270,
      "äººæĿĥåĴĮ": 3271,
      "39": 3272,
      "æĿ¥è¶Ĭ": 3273,
      "Ġç¬¬äºĮ": 3274,
      "CC": 3275,
      "ä¼ĺåħĪäºĭé¡¹": 3276,
      "åħĭæĸ¯åĿ¦": 3277,
      "é«ĺçº§åĪ«": 3278,
      "é¢Ĩå¯¼äºº": 3279,
      "ä¸¤æĢ§å¹³çŃī": 3280,
      "ç´¢é©¬éĩĮ": 3281,
      "æĮĩæİ§": 3282,
      "å¢ŀå¼º": 3283,
      "åĩºæĿ¥": 3284,
      "ãĥ": 3285,
      "å¤®": 3286,
      "em": 3287,
      "éĩįå»º": 3288,
      "çļĦæī§è¡ĮæĥħåĨµ": 3289,
      "éĢļæĬ¥": 3290,
      "åıĮè¾¹": 3291,
      "è¶ĬæĿ¥è¶Ĭ": 3292,
      "ä»¥ç¡®ä¿Ŀ": 3293,
      "å¥³æĢ§": 3294,
      "ä¸½": 3295,
      "åĬłæĭī": 3296,
      "Ġå®īåħ¨çĲĨäºĭä¼ļ": 3297,
      "197": 3298,
      "Ġä¸ºä»Ģä¹Ī": 3299,
      "å¾ħéģĩ": 3300,
      "å®¾": 3301,
      "åħ¨éĥ¨": 3302,
      "åıªè¦ģ": 3303,
      "è¢Ń": 3304,
      "éĨĴ": 3305,
      "ĠæīĢæľī": 3306,
      "å¤įæĿĤ": 3307,
      "æĺ¯ä»Ģä¹Ī": 3308,
      "åĽ½å®¶åĴĮ": 3309,
      "1996": 3310,
      "çĩ": 3311,
      "ĠéĢĻ": 3312,
      "ä¸įè¶³": 3313,
      "å¾®": 3314,
      "åĭ¤": 3315,
      "çļĦä¸ĢäºĽ": 3316,
      "um": 3317,
      "éĴŁ": 3318,
      "æĦıåĳ³": 3319,
      "90": 3320,
      "ĠæŃ£": 3321,
      "é¦Ĩ": 3322,
      "æ¯Ķä¾ĭ": 3323,
      "æ¸©": 3324,
      "åĪ©æĺĤ": 3325,
      "éģİ": 3326,
      "åĪĨåıĳ": 3327,
      "had": 3328,
      "ä»»æĭ©è®®å®ļä¹¦": 3329,
      "è¶³å¤Ł": 3330,
      "çļĦè¦ģæ±Ĥ": 3331,
      "æĸ¹æ¡ĪåĴĮ": 3332,
      "æķ°åŃĹ": 3333,
      "åıĬæĹ¶": 3334,
      "è¶ĭåĬ¿": 3335,
      "æľīåı¯èĥ½": 3336,
      "ä¸Ńä¸ľ": 3337,
      "Ġ*": 3338,
      "çŀ": 3339,
      "åħ¬ä¼Ĺ": 3340,
      "åĢĴ": 3341,
      "åł¡": 3342,
      "44": 3343,
      "æĦıè¯Ĩ": 3344,
      "ç¼Ķçº¦æĸ¹ä¼ļè®®": 3345,
      "çĨ": 3346,
      "æĭĽ": 3347,
      "å¡ŀæĭīåĪ©æĺĤ": 3348,
      "Ġå½ĵçĦ¶": 3349,
      "çº¢": 3350,
      "åľ°åĮºçļĦ": 3351,
      "çķ¶": 3352,
      "åŁĥåıĬ": 3353,
      "åªĴä½ĵ": 3354,
      "åħĦ": 3355,
      "å¿ĥçĲĨ": 3356,
      "åįķä½į": 3357,
      "ä»¥ä¸º": 3358,
      "åĲģè¯·": 3359,
      "ĠåĲĮ": 3360,
      "è¿Ļä¸ĢçĤ¹": 3361,
      "çļĦæĸ°": 3362,
      "èĤ¯å®ļ": 3363,
      "ä¸Ĭè¯ī": 3364,
      "éħĮ": 3365,
      "Ġ2005": 3366,
      "æĹłè®º": 3367,
      "53": 3368,
      "ĠèĢĮä¸Ķ": 3369,
      "å¤§è§Ħæ¨¡": 3370,
      "ĠçĽ®åīį": 3371,
      "Ġæ¬¢è¿İ": 3372,
      "è¯´çļĦ": 3373,
      "Ġit": 3374,
      "å°±ä¼ļ": 3375,
      "ä¿®æĶ¹": 3376,
      "åİŁåŃĲèĥ½": 3377,
      "æ´¥": 3378,
      "åŃ¦çĶŁ": 3379,
      "ä¼¼ä¹İ": 3380,
      "èĩ´åĬĽäºİ": 3381,
      "çļĦåĲĪä½ľ": 3382,
      "ä¸ªåĽ½å®¶": 3383,
      "èį·åħ°": 3384,
      "åľ°éĽ·": 3385,
      "å®¡è®®äºĨ": 3386,
      "æĹ¥æľŁ": 3387,
      "æĮģä¹ħ": 3388,
      "å¦ĪçļĦ": 3389,
      "ĠéĩįçĶ³": 3390,
      "è¯»": 3391,
      "èĻĲ": 3392,
      "å¦ĩå¥³çļĦ": 3393,
      "æĬ¼": 3394,
      "CO": 3395,
      "èĢĮä¸įæĺ¯": 3396,
      "ä»¥åĲİ": 3397,
      "èģĮè´£": 3398,
      "æĭħå¿ĥ": 3399,
      "ä¸ĵå®¶ç»Ħ": 3400,
      "è¡Įä¸ºçļĦ": 3401,
      "ç¤¼": 3402,
      "ç¦ıåĪ©": 3403,
      "æľīéĻĲ": 3404,
      "Ġ2004": 3405,
      "è¿ĩæĿ¥": 3406,
      "ç¼ĵ": 3407,
      "è¿Ļæł·çļĦ": 3408,
      "åĶ¯ä¸Ģ": 3409,
      "åĪĨåĪ«": 3410,
      "çľĭçľĭ": 3411,
      "........": 3412,
      "å½»": 3413,
      "Ġ2002": 3414,
      "åĸĢ": 3415,
      "èµ°äºĨ": 3416,
      "äº«åıĹ": 3417,
      "è§Ĩä¸º": 3418,
      "åħ¨çĲĥåĮĸ": 3419,
      "éļıåĲİ": 3420,
      "éĢļå¸¸": 3421,
      "Ġ2003": 3422,
      "Ġä¾ĭå¦Ĥ": 3423,
      "é©±": 3424,
      "ere": 3425,
      "æ¤": 3426,
      "51": 3427,
      "æĪĲæľ¬": 3428,
      "Ġå¥½çļĦ": 3429,
      "æĸ¯æĭīå¤«": 3430,
      "åĨ³è®®èįīæ¡ĪA": 3431,
      "1995": 3432,
      "é¡º": 3433,
      "å¦¨": 3434,
      "od": 3435,
      "åľ¨ä¸Ģèµ·": 3436,
      "ç§įæĹıæŃ§è§Ĩ": 3437,
      "éĢĥ": 3438,
      "Ġî": 3439,
      "æĦıåĳ³çĿĢ": 3440,
      "åĪĩå®ŀ": 3441,
      "ä»²": 3442,
      "è®¯": 3443,
      "åľ¨ç¬¬": 3444,
      "op": 3445,
      "èģĺ": 3446,
      "åĪ©åĿļ": 3447,
      "è·ĳ": 3448,
      "è·Ŀ": 3449,
      "éĤĦ": 3450,
      "æĶ»åĩ»": 3451,
      "fn": 3452,
      "Ġå¦Ĥ": 3453,
      "åľ¨åĨħçļĦ": 3454,
      "åĦ¿ç«¥çļĦ": 3455,
      "ç¾İåĪ©åĿļ": 3456,
      "é£ŀæľº": 3457,
      "æľīæīĢ": 3458,
      "æĽ´å¤ļçļĦ": 3459,
      "ä¸İåıĳå±ķ": 3460,
      "hat": 3461,
      "çļĦä»£è¡¨": 3462,
      "ie": 3463,
      "ä»²è£ģ": 3464,
      "é¬": 3465,
      "åĩºåİ»": 3466,
      "å¢ŀè¿Ľ": 3467,
      "æıĲåıĬ": 3468,
      "Ġfor": 3469,
      "æıĲäº¤çļĦ": 3470,
      "æħ¢": 3471,
      "åįĹæĸ¯æĭīå¤«": 3472,
      "åĪ¤åĨ³": 3473,
      "ç¾İåĪ©åĿļåĲĪ": 3474,
      "ä»¥ä¸Ĭ": 3475,
      "å¤ªå¹³": 3476,
      "æ»¡æĦı": 3477,
      "46": 3478,
      "æĺ¯æĪĳ": 3479,
      "ä¼¤å®³": 3480,
      "Ġè®®ç¨ĭé¡¹çĽ®": 3481,
      "ä»ĩ": 3482,
      "çļĦé¡¹çĽ®": 3483,
      "ãĢĭãĢģ": 3484,
      "å»ºè®¾åĴĮå¹³": 3485,
      "fsc": 3486,
      "çļĦåİŁåĪĻ": 3487,
      "çĿ¡": 3488,
      "åĴĮæī§è¡Į": 3489,
      "æĲŀ": 3490,
      "Ġ2001": 3491,
      "38": 3492,
      "åį°åº¦å°¼è¥¿äºļ": 3493,
      "å¼Ĺ": 3494,
      "æĹ¥çĽĬ": 3495,
      "çļĦå®īåħ¨": 3496,
      "å¥½åĲĹ": 3497,
      "Ġ2000": 3498,
      "ãĢĮ": 3499,
      "æ¯ķ": 3500,
      "å°ģ": 3501,
      "å½¢å¼ıçļĦ": 3502,
      "ç¶": 3503,
      "ä¸ºæŃ¤": 3504,
      "ĠèĢģ": 3505,
      "èµĸ": 3506,
      "ä¸ĭæĿ¥": 3507,
      "è¥¿åħ°": 3508,
      "å¥¹çļĦ": 3509,
      "å¤ªå¹³æ´ĭ": 3510,
      "äºĭè§ĦåĪĻ": 3511,
      "åį³ä½¿": 3512,
      "æĬķç¥¨": 3513,
      "çļĦæİªæĸ½": 3514,
      "æĹ¥æĺŁæľŁ": 3515,
      "çļĦä¸Ģé¡¹": 3516,
      "è´µ": 3517,
      "è®¾è®¡": 3518,
      "åĪ¶æŃ¢": 3519,
      "åĽ½éĻħç»Ħç»ĩ": 3520,
      "æĺİæĺ¾": 3521,
      "tr": 3522,
      "ĠU": 3523,
      "ç¼´": 3524,
      "é¤": 3525,
      "ä½ľäºĨ": 3526,
      "åĩłä¹İ": 3527,
      "ä¿¡æģ¯åĴĮ": 3528,
      "æ¨£": 3529,
      "çļĦæĶ¿æ²»": 3530,
      "è¡¨çİ°": 3531,
      "åħĭåħ°": 3532,
      "é¢ĨåŁŁçļĦ": 3533,
      "æĸ°è¥¿åħ°": 3534,
      "è£Ķ": 3535,
      "çĳŀå£«": 3536,
      "çĽ¸å½ĵ": 3537,
      "Ġå¤©": 3538,
      "æľīä¸Ģ": 3539,
      "æĬĢæľ¯æı´åĬ©": 3540,
      "å®ĺæĸ¹": 3541,
      "ĠäºĮ": 3542,
      "çļĦæľºä¼ļ": 3543,
      "åľŁèĳĹäººæ°ĳ": 3544,
      "èĥĮæĻ¯": 3545,
      "ĠåĲĦ": 3546,
      "çļ®": 3547,
      "äººåľ¨": 3548,
      "çī¹è®¾": 3549,
      "ä¾¿åĪ©": 3550,
      "ç§įæĹıä¸»ä¹ī": 3551,
      "Ġæį®": 3552,
      "ç¢º": 3553,
      "åºĶåľ¨": 3554,
      "ãĢį": 3555,
      "åĮ»çĶŁ": 3556,
      "Ġä½łè¦ģ": 3557,
      "Ġä¸ī": 3558,
      "ä»·æł¼": 3559,
      "å¤§å®¶": 3560,
      "éľ²": 3561,
      "ç»´ä¹Ł": 3562,
      "ag": 3563,
      "åĽ¢ç»ĵ": 3564,
      "èµŀæī¬": 3565,
      "ç»´ä¹Łçº³": 3566,
      "ä¸»æĮģ": 3567,
      "çī¹åĪ«æĺ¯åľ¨": 3568,
      "æīĢä½ľçļĦ": 3569,
      "æķ°é¢Ŀ": 3570,
      "åĩłä¸ª": 3571,
      "åĳĬè¯īæĪĳ": 3572,
      "åı·æĸĩä»¶": 3573,
      "å°ıæĹ¶": 3574,
      "çĪ±çļĦ": 3575,
      "æĿĥçļĦ": 3576,
      "ç¾İåĪ©åĿļåĲĪä¼ĹåĽ½": 3577,
      "å´": 3578,
      "ç¹": 3579,
      "æĭīä¸ģ": 3580,
      "æ¨¡å¼ı": 3581,
      "å¸¸é©»èģĶåĲĪåĽ½": 3582,
      "å®¹å¿į": 3583,
      "æĥł": 3584,
      "æĹ¥çļĦ": 3585,
      "70": 3586,
      "é¢ģ": 3587,
      "Ġåħ¶": 3588,
      "çłĶè®¨": 3589,
      "çī©è´¨": 3590,
      "æ¯Ķè¾ĥ": 3591,
      "åĵ¥ä¼¦": 3592,
      "çī¹åĪ«å§Ķåĳĺä¼ļ": 3593,
      "é²ľ": 3594,
      "éĿĻ": 3595,
      "æľīæķĪåľ°": 3596,
      "æĥħæĬ¥": 3597,
      "åĽŀæĿ¥": 3598,
      "art": 3599,
      "ä¸Ģå±Ĭä¼ļè®®": 3600,
      "è¡£": 3601,
      "åº§": 3602,
      "æĮª": 3603,
      "Ġå¦Ĥæŀľä½ł": 3604,
      "èĦĨ": 3605,
      "ä¸ĭéĻį": 3606,
      "æ¸Ķ": 3607,
      "è¯·ç§ĺä¹¦éķ¿": 3608,
      "äººåı£åŁºéĩĳ": 3609,
      "Ġ2007": 3610,
      "æ®ĸæ°ĳ": 3611,
      "å¾ª": 3612,
      "éĺģä¸ĭ": 3613,
      "ä»¥åıĬåľ¨": 3614,
      "çī¹åĪ«ä¼ļè®®": 3615,
      "åĽŃ": 3616,
      "åĲĦçº§": 3617,
      "éŁ©": 3618,
      "å¸ĥéļĨ": 3619,
      "æĦŁè§ī": 3620,
      "è¿Ļæł·åģļ": 3621,
      "ä¸İä¼ļèĢħ": 3622,
      "ç¼©": 3623,
      "æĨ¾": 3624,
      "åĵ¥ä¼¦æ¯Ķäºļ": 3625,
      "32": 3626,
      "Ġre": 3627,
      "è¯Ħè®º": 3628,
      "ĠIn": 3629,
      "è¡ĮæĶ¿åĴĮ": 3630,
      "éħĮæĥħ": 3631,
      "ä»¥å¤ĸ": 3632,
      "åĲĦèĩª": 3633,
      "îĵ": 3634,
      "åĴĮé»ĳ": 3635,
      "å¤§ä½¿": 3636,
      "èģĶåĲĪåĽ½å®ªç«ł": 3637,
      "éĿŀæ´²èģĶçĽŁ": 3638,
      "èĻĲå¾ħ": 3639,
      "æĬĵ": 3640,
      "çļĦä¸ĢåĪĩ": 3641,
      "å¸ĥéļĨè¿ª": 3642,
      "åĪ©æ¯Ķ": 3643,
      "ä¸Ńå¤®": 3644,
      "æł¹å»·": 3645,
      "åķĨå®ļ": 3646,
      "çľĭæ³ķ": 3647,
      "îĹ": 3648,
      "è¡¥æķĳ": 3649,
      "æ¸¯": 3650,
      "è®°å¾Ĺ": 3651,
      "æĿĥåĪ©åĴĮ": 3652,
      "Ġè°ģ": 3653,
      "æķĮ": 3654,
      "ä¿¡ä»»": 3655,
      "æĮĩåįĹ": 3656,
      "æŃ»äºĨ": 3657,
      "ĠåĨ³å®ļ": 3658,
      "å®ŀéĻħä¸Ĭ": 3659,
      "åĪ©æ¯ĶéĩĮäºļ": 3660,
      "ä½ĵç³»": 3661,
      "çĽ¸åħ³çļĦ": 3662,
      "äºĭå®ŀä¸Ĭ": 3663,
      "ĠæĪĳåľ¨": 3664,
      "è§ĦåĪĴç½²": 3665,
      "è¢Ńåĩ»": 3666,
      "aH": 3667,
      "æıĲè¯·": 3668,
      "æķĳæµİ": 3669,
      "ä¹Ŀå±Ĭä¼ļè®®": 3670,
      "è·¨åĽ½": 3671,
      "çłĶè®¨ä¼ļ": 3672,
      "æĸ¹æ¡Īé¢Ħç®Ĺ": 3673,
      "åĮºåŁŁåĴĮ": 3674,
      "ä¸¾æİª": 3675,
      "æīĢåĪĹ": 3676,
      "è²": 3677,
      "ill": 3678,
      "éĺĲ": 3679,
      "ç¾¤å²Ľ": 3680,
      "æĭĸ": 3681,
      "åŃķ": 3682,
      "ä½¿åħ¶": 3683,
      "åĽ½éĻħåĲĪä½ľ": 3684,
      "åı·åĨ³è®®ç¬¬": 3685,
      "éģĹæĨ¾": 3686,
      "éĤ»": 3687,
      "æ£Ģå¯Łå®ĺ": 3688,
      "èģĮä½į": 3689,
      "shad": 3690,
      "æŁ¥æĺİ": 3691,
      "æ²»çĸĹ": 3692,
      "ers": 3693,
      "bord": 3694,
      "Ġr": 3695,
      "é¢Ħè®¡": 3696,
      "åıįæģĲ": 3697,
      "éĹ®é¢ĺåĽ½éĻħ": 3698,
      "æĭīä¸ģç¾İæ´²": 3699,
      "è°ħ": 3700,
      "èĢħåĴĮ": 3701,
      "åĩ¯": 3702,
      "åĲįåŃĹ": 3703,
      "åı¯èĥ½ä¼ļ": 3704,
      "å¾Į": 3705,
      "åľ¨è¯¥": 3706,
      "ä¸»é¢ĺ": 3707,
      "æ¶Īè´¹": 3708,
      "ä¸Ģå¹´": 3709,
      "äºĭæĥħ": 3710,
      "1990": 3711,
      "è¯Ńè¨Ģ": 3712,
      "å¿Ļ": 3713,
      "çļĦæĶ¿çŃĸ": 3714,
      "å°Ĩç»§ç»Ń": 3715,
      "å¤ļå°ĳ": 3716,
      "è½®": 3717,
      "å¤ĸåľ°": 3718,
      "36": 3719,
      "åĴĮç»ıæµİ": 3720,
      "éĽĨä¸Ń": 3721,
      "äººåĬĽèµĦæºĲ": 3722,
      "'t": 3723,
      "åĴĮå»ºè®®": 3724,
      "çļĦæĶ¯æĮģ": 3725,
      "èµ·èįī": 3726,
      "è½½äºİ": 3727,
      "Ġå°±æĺ¯": 3728,
      "ight": 3729,
      "åĩºäºĨ": 3730,
      "æľīä¸Ģä¸ª": 3731,
      "çĶ¨çļĦ": 3732,
      "æĹ¶æľŁ": 3733,
      "å§Ķåĳĺä¼ļä¸»å¸Ń": 3734,
      "åĩĢ": 3735,
      "å°Ĩä¼ļ": 3736,
      "ä½ľåĩºçļĦ": 3737,
      "åĴĮè§£": 3738,
      "çĩĥ": 3739,
      "æ»¥": 3740,
      "æĪĳæĺ¯": 3741,
      "......": 3742,
      "ĠåºĶ": 3743,
      "ĠåĪ°": 3744,
      "çļĦæĹ¶éĹ´": 3745,
      "å»ºç«ĭä¸Ģä¸ª": 3746,
      "é¬¼": 3747,
      "å¤Ħäºİ": 3748,
      "åħĭç½Ĺ": 3749,
      "è¿Ī": 3750,
      "Ġè¡¨": 3751,
      "ĠæĪĳä¸įçŁ¥éģĵ": 3752,
      "èĬ¬": 3753,
      "Ġä¼ļ": 3754,
      "å±¿": 3755,
      "ĠæĪĳä¹Ł": 3756,
      "ä¸Ĭæĸĩ": 3757,
      "åĳ½ä»¤": 3758,
      "è¯¾ç¨ĭ": 3759,
      "çļĦåľ°æĸ¹": 3760,
      "æĿľ": 3761,
      "æĪĳä¸į": 3762,
      "å¾Īå¥½": 3763,
      "ä¸įåºĶ": 3764,
      "å²Ľå±¿": 3765,
      "Ġè¿Ļæł·": 3766,
      "çĪĨçĤ¸": 3767,
      "æľĢä½³": 3768,
      "Ġç¬¬äºĶ": 3769,
      "Ġis": 3770,
      ":âĢľ": 3771,
      "æĺ¯ä¸į": 3772,
      "æľªèĥ½": 3773,
      "åħ±åĲĮä½ĵ": 3774,
      "å¹ħ": 3775,
      "Ġbe": 3776,
      "æīĢä»¥": 3777,
      "å¦ĩå¥³åľ°ä½į": 3778,
      "æī°": 3779,
      "åĢºæĿĥ": 3780,
      "Ġä½ľä¸º": 3781,
      "èį£": 3782,
      "åıĸå¾ĹäºĨ": 3783,
      "çĸ¾çĹħ": 3784,
      "æİĮ": 3785,
      "çĳŀåħ¸": 3786,
      "æ²³": 3787,
      "è®¸åı¯": 3788,
      "å®¹æĺĵ": 3789,
      "åį°åıĳ": 3790,
      "è¾¾å°Ķ": 3791,
      "1994": 3792,
      "éł": 3793,
      "æĹ¥åĴĮ": 3794,
      "æİ¥è§¦": 3795,
      "100": 3796,
      "æĪĪ": 3797,
      "æĪĳè¯´": 3798,
      "èĦĨå¼±": 3799,
      "Ġæ¯ı": 3800,
      "å¼Ħ": 3801,
      "çĪ¶æ¯į": 3802,
      "åİ»äºĨ": 3803,
      "åľ¨èģĶåĲĪåĽ½": 3804,
      "å¹´é¾Ħ": 3805,
      "ãĥ»": 3806,
      "ia": 3807,
      "è¾Ĩ": 3808,
      "åĪ¶éĢł": 3809,
      "Ġthat": 3810,
      "ell": 3811,
      "42": 3812,
      "å¤ľ": 3813,
      "è¬": 3814,
      "Ġå¥½äºĨ": 3815,
      "æĮªå¨ģ": 3816,
      "éĢĴ": 3817,
      "ç§ĳçī¹": 3818,
      "çĶ·åŃĲ": 3819,
      "åĽ½ç±į": 3820,
      "å¸ķ": 3821,
      "Ġ2008": 3822,
      "å¸¦æĿ¥": 3823,
      "æŃ¦åĻ¨åĴĮ": 3824,
      "æµ¦": 3825,
      "å¾Ĵ": 3826,
      "ä¼ļè®®å®¤": 3827,
      "åĻ¢": 3828,
      "ce": 3829,
      "Ġä»Ĭå¤©": 3830,
      "æĢ»ä½ĵ": 3831,
      "è¿Ļä¸ªéĹ®é¢ĺ": 3832,
      "77": 3833,
      "åľ¨åĽ½å®¶": 3834,
      "å·¥ä½ľéĺŁ": 3835,
      "æ³¢æĸ¯": 3836,
      "çļĦæĦıè§ģ": 3837,
      "äºīåıĸ": 3838,
      "éĻįä½İ": 3839,
      "è´¦æĪ·": 3840,
      "Ġé©¬": 3841,
      "äº®": 3842,
      "æĪĳæĥ³": 3843,
      "åĨ°": 3844,
      "æĶ¿åºľåĴĮ": 3845,
      "æĵį": 3846,
      "if": 3847,
      "åĽŀå®¶": 3848,
      "æĢİæł·": 3849,
      "å°±æŃ¤": 3850,
      "åŃ¦ä¹ł": 3851,
      "ç½ĳç«Ļ": 3852,
      "Ġä¸ĢäºĽ": 3853,
      "æĪªèĩ³": 3854,
      "åħ¨ä¸ĸçķĮ": 3855,
      "æīĢæľīåĽ½å®¶": 3856,
      "è¾¹çķĮ": 3857,
      "52": 3858,
      "èįĴ": 3859,
      "åŁĥå¡ŀ": 3860,
      "å¹³è¡¡": 3861,
      "å·´åĭĴæĸ¯åĿ¦äººæ°ĳ": 3862,
      "éĽĨä½ĵ": 3863,
      "ä¸İèģĶåĲĪåĽ½": 3864,
      "æĺ¾çĦ¶": 3865,
      "Ġ21": 3866,
      "éĻ·": 3867,
      "æĮĩç¤º": 3868,
      "åİŁåŃĲèĥ½æľºæŀĦ": 3869,
      "Ġéī´äºİ": 3870,
      "æ£Ĵ": 3871,
      "æĥĬ": 3872,
      "Ġå¼ºè°ĥ": 3873,
      "æ¬¡çº§": 3874,
      "ä¿Ħæ¯Ķäºļ": 3875,
      "æ³ķæ²»": 3876,
      "AC": 3877,
      "Ġä½łåľ¨": 3878,
      "çļĦç»ĵæŀľ": 3879,
      "æĽ´æŃ£": 3880,
      "èµŀæĪĲ": 3881,
      "éĻĦä»¶ä¸Ģ": 3882,
      "åŁĥå¡ŀä¿Ħæ¯Ķäºļ": 3883,
      "çĽĳçĭ±": 3884,
      "åĨ³å¿ĥ": 3885,
      "ĠåĽ½å®¶": 3886,
      "éĢĤåºĶ": 3887,
      "ä¹Įåħĭåħ°": 3888,
      "ä»ĭç»įäºĨ": 3889,
      "ä¸ºæŃ¢": 3890,
      "è£ģåĨ³": 3891,
      ":(": 3892,
      "æķĻèĤ²åĴĮ": 3893,
      "çĪ¶äº²": 3894,
      "ãģ": 3895,
      "ç¡®å®ŀ": 3896,
      "ç»´åĴĮ": 3897,
      "å¤ĸäº¤éĥ¨éķ¿": 3898,
      "ub": 3899,
      "èģĶç»ľ": 3900,
      "å¥³äºº": 3901,
      "ä¸´æĹ¶è®®ç¨ĭ": 3902,
      "åħ¼": 3903,
      "ĠæĪĳåĢĳ": 3904,
      "è§ĦèĮĥ": 3905,
      "ç§ģäºº": 3906,
      "Ġåħ¶ä»ĸ": 3907,
      "ç»ıæµİåĴĮç¤¾ä¼ļ": 3908,
      "Ġä¹Łè®¸": 3909,
      "çĭĹ": 3910,
      "ov": 3911,
      "éĢ®": 3912,
      "å¦»": 3913,
      "æµģåĬ¨": 3914,
      "éĺ¿å°ĶåıĬ": 3915,
      "ä¸įåıĹ": 3916,
      "è´¯": 3917,
      "åĲĦä¸ª": 3918,
      "å¤§çº¦": 3919,
      "å°¼æĸ¯": 3920,
      "æ¡Ĩæŀ¶åĨħ": 3921,
      "ç»ıè¿ĩ": 3922,
      "èµĦæł¼": 3923,
      "éķĩ": 3924,
      "è·¯æĸ¯": 3925,
      "41": 3926,
      "åķĨåĵģ": 3927,
      "Ġå¯¹äºİ": 3928,
      "å¹´æĿ¥": 3929,
      "Ġ30": 3930,
      "åħ´è¶£": 3931,
      "åĩºçļĦ": 3932,
      "é¡¹çĽ®çļĦ": 3933,
      "å¡ŀæµ¦": 3934,
      "å¡ŀæµ¦è·¯æĸ¯": 3935,
      "è°´": 3936,
      "å°¼æĹ¥åĪ©äºļ": 3937,
      "ä¸»æĿĥ": 3938,
      "æ´¾éģ£": 3939,
      "Ġme": 3940,
      "åĩºçīĪçī©": 3941,
      "è¯ĳ": 3942,
      "åģı": 3943,
      "Ġä½łä¸į": 3944,
      "åıªèĥ½": 3945,
      "éħ¬": 3946,
      "çĶ·äºº": 3947,
      "Ġæľīäºº": 3948,
      "æĪĸåħ¶ä»ĸ": 3949,
      "æŃ£å¸¸": 3950,
      "æ¯ĶåĪ©": 3951,
      "æĻ®éĢļ": 3952,
      "Ð¸": 3953,
      "å¯¹æŃ¤": 3954,
      "åĿĹ": 3955,
      "å¹ķ": 3956,
      "st": 3957,
      "ä¸¥æł¼": 3958,
      "æĳ©æ´Ľ": 3959,
      "åĩ½": 3960,
      "ç¬¬ä¸Ģæ¬¡": 3961,
      "å¥ĸ": 3962,
      "å¼ĢæĶ¾": 3963,
      "Ġè¯´": 3964,
      "ä»¥æľŁ": 3965,
      "ä¾ĿçĦ¶": 3966,
      "orr": 3967,
      "çİĽ": 3968,
      "Ġ27": 3969,
      "çļĦåĦ¿ç«¥": 3970,
      "èµĭ": 3971,
      "æľ¬æĬ¥åĳĬ": 3972,
      "åħ«å±Ĭä¼ļè®®": 3973,
      "Ġå¯¹ä¸įèµ·": 3974,
      "äººéģĵä¸»ä¹īæ³ķ": 3975,
      "Ġ22": 3976,
      "æĭīåľŃ": 3977,
      "ä¸ĸçķĮéĵ¶è¡Į": 3978,
      "åºĶçĶ¨": 3979,
      "çĽ¸åĲĮ": 3980,
      "ç³»ç»ŁçļĦ": 3981,
      "Ġæĺ¯åķĬ": 3982,
      "åī¥å¤º": 3983,
      "çĸ¯": 3984,
      "å¾Ģå¾Ģ": 3985,
      "æ±¡æŁĵ": 3986,
      "åĢĻéĢī": 3987,
      "å»¶éķ¿": 3988,
      "è°´è´£": 3989,
      "è§£åĨ³åĬŀæ³ķ": 3990,
      "å§Ķåĳĺä¼ļåľ¨": 3991,
      "ç¨¿": 3992,
      "å¯Įå°Ķ": 3993,
      "çłĶç©¶æīĢ": 3994,
      "Ġ29": 3995,
      "ç¤ºèĮĥ": 3996,
      "æµ·åľ°": 3997,
      "å®īåħ¨çĲĨäºĭä¼ļç¬¬": 3998,
      "çł´äº§": 3999,
      "å¹´æľŁéĹ´": 4000,
      "å¸¸è®¾": 4001,
      "èµŀåĲĮ": 4002,
      "å½ĵåīį": 4003,
      "æĶ¿åºľçļĦ": 4004,
      "è·Łä½ł": 4005,
      "ä¸ĥå±Ĭä¼ļè®®": 4006,
      "çİ°å®ŀ": 4007,
      "æī§è¡Įå±Ģ": 4008,
      "åĴĮå¹³è¿Ľç¨ĭ": 4009,
      "æľīçļĦ": 4010,
      "éĩĩåıĸæİªæĸ½": 4011,
      "çļĦæľīåħ³": 4012,
      "çļĦåģļæ³ķ": 4013,
      "ç¬Ķ": 4014,
      "æ³¢æĸ¯å°¼äºļ": 4015,
      "æ¶ĪéĻ¤å¯¹å¦ĩå¥³": 4016,
      "æĭį": 4017,
      "æĳ©æ´Ľåĵ¥": 4018,
      "43": 4019,
      "ĠæĪĳè¿ĺ": 4020,
      "å®Įæķ´": 4021,
      "Ġå·¥ä½ľç»Ħ": 4022,
      "ä¹¦éĿ¢": 4023,
      "äººæĿĥäºĭåĬ¡é«ĺçº§ä¸ĵåĳĺ": 4024,
      "åĲ¯åĬ¨": 4025,
      "Ġ.": 4026,
      "æ³ķä»¤": 4027,
      "ant": 4028,
      "çļĦä¹īåĬ¡": 4029,
      "åģ·": 4030,
      "è¿ªçĵ¦": 4031,
      "å¹´è½»": 4032,
      "åľ°äºļ": 4033,
      "è½¬ç§»": 4034,
      "è¾¾å°Ķå¯Įå°Ķ": 4035,
      "2010": 4036,
      "æľ¨": 4037,
      "è¯ļ": 4038,
      "ç§Ł": 4039,
      "æĸ¹éĴĪ": 4040,
      "ä¸¾è¡ĮäºĨ": 4041,
      "ç§ĳçī¹è¿ªçĵ¦": 4042,
      "Ġå¤ª": 4043,
      "ç¬¬åħŃ": 4044,
      "çİ»": 4045,
      "éļĶ": 4046,
      "å·´å¸ĥ": 4047,
      "èĩ³åħ³éĩįè¦ģ": 4048,
      "ä¸ŃæīĢ": 4049,
      "åįıè°ĥåĳĺ": 4050,
      "é¢Ħéĺ²çĬ¯ç½ª": 4051,
      "nd": 4052,
      "Ġå®ī": 4053,
      "æľįåĬ¡çļĦ": 4054,
      "åĪĿæŃ¥": 4055,
      "è¿¹": 4056,
      "ess": 4057,
      "çłģ": 4058,
      "åľ¨äºİ": 4059,
      "é¤Ĳ": 4060,
      "åħ±è¯Ĩ": 4061,
      "æĿĢäºĨ": 4062,
      "ç¿°": 4063,
      "åıĸå¾ĹçļĦè¿Ľå±ķ": 4064,
      "å¤ĸå±Ĥ": 4065,
      "æĽ´å¥½åľ°": 4066,
      "æĺ¯å¯¹": 4067,
      "îĢ": 4068,
      "èĥľ": 4069,
      "ep": 4070,
      "è§£éĻ¤": 4071,
      "çļĦæī§è¡Į": 4072,
      "èµĦæľ¬": 4073,
      "ld": 4074,
      "æį·": 4075,
      "éĥ½ä¸į": 4076,
      "çĿĢéĩį": 4077,
      "ĠéĤ£ä¹Ī": 4078,
      "å®ľ": 4079,
      "å¹´ä»¥æĿ¥": 4080,
      "our": 4081,
      "æ¢ħ": 4082,
      "æĿ¾": 4083,
      "å¤ĸå±Ĥç©ºéĹ´": 4084,
      "èİī": 4085,
      "æ²Ļçī¹": 4086,
      "ik": 4087,
      "Ġ28": 4088,
      "th": 4089,
      "çī¹å®ļ": 4090,
      "åıĳå±ķçļĦ": 4091,
      "åĮĸçļĦ": 4092,
      "å¾Īå¤§": 4093,
      "ä¼Ĳ": 4094,
      "èı²å¾ĭ": 4095,
      "èħĬ": 4096,
      "www": 4097,
      "èı²å¾ĭå®¾": 4098,
      "ä¾µå®³": 4099,
      "ĠæĢ»": 4100,
      "åı¥": 4101,
      "ä»°": 4102,
      "Ġ23": 4103,
      "æ¯įäº²": 4104,
      "å¹¶å°Ĩ": 4105,
      "ç§ĺä¹¦éķ¿åħ³äºİ": 4106,
      "å½¢æĪĲ": 4107,
      "äº§çĶŁçļĦ": 4108,
      "æ¥¼": 4109,
      "è¡Ĺ": 4110,
      "çŃĳ": 4111,
      "æ¯ĽéĩĮ": 4112,
      "éĻĦå±ŀ": 4113,
      "éĺ¿æł¹å»·": 4114,
      "è¿Ļä¸ĢéĹ®é¢ĺ": 4115,
      "é»ĺ": 4116,
      "æİĴæĶ¾": 4117,
      "è£¡": 4118,
      "ĠæĪĳå¾Ī": 4119,
      "åıĬåħ¶ä»ĸ": 4120,
      "æ²¡äºĭ": 4121,
      "æĬĢæľ¯åĲĪä½ľ": 4122,
      "è¡¥ç¼ĸ": 4123,
      "ç¼ħ": 4124,
      "Ġ#": 4125,
      "ĠçļĦ": 4126,
      "æľĢå¤§": 4127,
      "éĥ½æľī": 4128,
      "éŁ¦": 4129,
      "éĢ®æįķ": 4130,
      "å¼ºåĪ¶": 4131,
      "éĢĶå¾Ħ": 4132,
      "Ġåı¦å¤ĸ": 4133,
      "è®¢æŃ£": 4134,
      "éļıçĿĢ": 4135,
      "ç¿»": 4136,
      "æľŁéĻĲ": 4137,
      "åĮħæĭ¬åľ¨": 4138,
      "æī§æ³ķ": 4139,
      "æ¤į": 4140,
      "å·¥äºº": 4141,
      "è¡ĮçļĦ": 4142,
      "å¹³åĿĩ": 4143,
      "æł¸æŁ¥": 4144,
      "éĩĩåıĸäºĨ": 4145,
      "æĩĤ": 4146,
      "çµ¦": 4147,
      "èĹı": 4148,
      "è¡ĮåĬ¨çļĦ": 4149,
      "è·³": 4150,
      "æĻºåĪ©": 4151,
      "å®ĥçļĦ": 4152,
      "é¢Ŀå¤ĸ": 4153,
      "æĶ¾åľ¨": 4154,
      "æĥ©ç½ļ": 4155,
      "æĽ´ä¸º": 4156,
      "çĶ¸": 4157,
      "æķ¬": 4158,
      "Ġ26": 4159,
      "å½ĵæĹ¶": 4160,
      "é«ĺåº¦": 4161,
      "æķĪåĬĽ": 4162,
      "å¨ľ": 4163,
      "æĸĹäºī": 4164,
      "æľīä»Ģä¹Ī": 4165,
      "åģļäºĨ": 4166,
      "å±ħä½ı": 4167,
      "ä¸įåĨį": 4168,
      "è¾±": 4169,
      "åıĳå±ķæı´åĬ©": 4170,
      "çĸĨ": 4171,
      "ĠéĤ£æĺ¯": 4172,
      "ä¹Įå¹²": 4173,
      "ä¸ĬåįĪ": 4174,
      "çº¦æĿŁ": 4175,
      "éĻ¤äºĨ": 4176,
      "æĸĩåĮĸæĿĥåĪ©": 4177,
      "äººåĳĺçļĦ": 4178,
      "ä¹Įå¹²è¾¾": 4179,
      "ä¸ĢèĪ¬æĢ§": 4180,
      "å®ģ": 4181,
      "çļĦèģĶåĲĪåĽ½": 4182,
      "çĥ¦": 4183,
      "ç¬¬ä¸īåįģ": 4184,
      "æ°¸è¿ľ": 4185,
      "çĦ¶åĲİ": 4186,
      "åĦ¿åŃĲ": 4187,
      "iv": 4188,
      "èĳ¡": 4189,
      "Ġde": 4190,
      "è¯Ńæĸĩ": 4191,
      "è½½æľī": 4192,
      "è¿ĶåĽŀ": 4193,
      "ĠåĻ¢": 4194,
      "æķ¢": 4195,
      "ä¸įåĲĮçļĦ": 4196,
      "çº¦ç¿°": 4197,
      "å°ĳå¹´": 4198,
      "ç»ĦæĪĲéĥ¨åĪĨ": 4199,
      "Ġåĸ": 4200,
      "å°½åı¯èĥ½": 4201,
      "åŃ£": 4202,
      "å¯¹è¯¥": 4203,
      "Ġè¿ĻéĩĮ": 4204,
      "æĽ¿ä»£": 4205,
      "éĺ¿å°ĶåıĬåĪ©äºļ": 4206,
      "è«": 4207,
      "ä¸ºåŁºç¡Ģ": 4208,
      "å±ķå¼Ģ": 4209,
      "æľ¬ç»Ħç»ĩ": 4210,
      "Ġå®īçĲĨä¼ļ": 4211,
      "åĴĮç®¡çĲĨ": 4212,
      "åºĹ": 4213,
      "Ġä½łå¥½": 4214,
      "Ġ24": 4215,
      "äºīç«¯": 4216,
      "ra": 4217,
      "éĻĪ": 4218,
      "åĪĨéĴŁ": 4219,
      "åĲĳå¤§ä¼ļ": 4220,
      "åĢ¼å¾Ĺ": 4221,
      "è¿Ħ": 4222,
      "å·¥åıĳ": 4223,
      "éĥ¨éĹ¨çļĦ": 4224,
      "åıĸæ¶Ī": 4225,
      "è¯¸å¦Ĥ": 4226,
      "åħĦå¼Ł": 4227,
      "ä¿¡æīĺ": 4228,
      "ç®¡çĲĨåĴĮ": 4229,
      "åī¥åīĬ": 4230,
      "cH": 4231,
      "éĿ¢åīį": 4232,
      "Ġk": 4233,
      "æľºæŀĦéĹ´": 4234,
      "Ġ25": 4235,
      "åŁºåľ°": 4236,
      "ä¸İåħ¶ä»ĸ": 4237,
      "Ġä½ĨæĪĳ": 4238,
      "åıĳå±ķä¸ŃåĽ½å®¶çļĦ": 4239,
      "å²¸": 4240,
      "ĠåĹ¨": 4241,
      "ç¼ħçĶ¸": 4242,
      "åĪĳäºĭåı¸æ³ķ": 4243,
      "ç´¯": 4244,
      "Ġç¬¬ä¸ī": 4245,
      "çŁ³æ²¹": 4246,
      "ex": 4247,
      "åı¯èĥ½æĢ§": 4248,
      "åĵªäºĽ": 4249,
      "éĽ¶": 4250,
      "ä¸įåĪ©": 4251,
      "æľªç»ı": 4252,
      "ç¬¬åĽĽåįģ": 4253,
      "ä¹Ķ": 4254,
      "åĲĦåľ°": 4255,
      "âĢĿ(": 4256,
      "åĳĬè¯īä½ł": 4257,
      "åıĳäºĨ": 4258,
      "è¢«åĳĬ": 4259,
      "çļĦèµĦæºĲ": 4260,
      "ust": 4261,
      "ĠæĶ¿åºľ": 4262,
      "ä¼Ĭæĸ¯åħ°ä¼ļè®®": 4263,
      "æµģç¦»å¤±æīĢèĢħ": 4264,
      "é½": 4265,
      "åįĹéĥ¨": 4266,
      "è®¨è®ºä¼ļ": 4267,
      "è¿Ħä»Ĭ": 4268,
      "åħ¬åĬ¡": 4269,
      "å½ĵçĦ¶": 4270,
      "èĲĦ": 4271,
      "èİ·åıĸ": 4272,
      "ES": 4273,
      "éģŃåĪ°": 4274,
      "èĳ¡èĲĦ": 4275,
      "çļĦå¤§": 4276,
      "å®¶ä¼Ļ": 4277,
      "å»ºçŃĳ": 4278,
      "å®īåħ¨åĴĮ": 4279,
      "å¸ĮèħĬ": 4280,
      "äº²çĪ±çļĦ": 4281,
      "æĢģåº¦": 4282,
      "ä¸ŃæľŁ": 4283,
      "Ġä½łæĥ³": 4284,
      "åıĳå±ķåĴĮ": 4285,
      "å¡ŀåĵ¥": 4286,
      "æľīç»Ħç»ĩ": 4287,
      "æ¯ģçģŃ": 4288,
      "Ġå®ĥä»¬": 4289,
      "Ġä¸ĭ": 4290,
      "åľ°åĪ©": 4291,
      "ä¹ĭä¸Ń": 4292,
      "é¦Ļ": 4293,
      "æļ´åĬĽè¡Įä¸º": 4294,
      "å¡ŀåĵ¥ç»´": 4295,
      "åĪĳæ³ķ": 4296,
      "éļ¾ä»¥": 4297,
      "é¢ł": 4298,
      "ä»Ĭå¹´": 4299,
      "Ġè¯·ç§ĺä¹¦éķ¿": 4300,
      "å¥¥åľ°åĪ©": 4301,
      "ĠæĮīçħ§": 4302,
      "çļĦç¤¾ä¼ļ": 4303,
      "å¥³ç«¥": 4304,
      "åįıä½ľ": 4305,
      "è®©ä½ł": 4306,
      "æł¼é²ģ": 4307,
      "est": 4308,
      "Ġé¡¹çĽ®": 4309,
      "åħĭç½Ĺåľ°äºļ": 4310,
      "è¡¥ç¼ĸç¬¬": 4311,
      "éģĵè·¯": 4312,
      "å¤ĸéĥ¨": 4313,
      "æĮĩå®ļ": 4314,
      "æ³¢æĸ¯å°¼äºļåĴĮé»ĳ": 4315,
      "çļĦæĮĳæĪĺ": 4316,
      "pp": 4317,
      "çĽ´åĪ°": 4318,
      "çı¾": 4319,
      "æ³¢æĸ¯å°¼äºļåĴĮé»ĳå¡ŀåĵ¥ç»´": 4320,
      "Ã©": 4321,
      "éĹ®é¢ĺä¸ĸçķĮ": 4322,
      "æ¬§åħĥ": 4323,
      "ĠæĪĳåĽ½": 4324,
      "æľĿé²ľ": 4325,
      "è´·æ¬¾": 4326,
      "é¢ģå¸ĥ": 4327,
      "è¿·": 4328,
      "æķ°çĽ®": 4329,
      "æĢİä¹Īæł·": 4330,
      "åıĹçĽĬ": 4331,
      "æĸ¼": 4332,
      "æ¼ł": 4333,
      "ä¿ĥè¯·": 4334,
      "ĠYou": 4335,
      "ĠçĲĨäºĭä¼ļ": 4336,
      "åĴĮçĬ¯ç½ª": 4337,
      ":ãĢĮ": 4338,
      "ä½łæĺ¯": 4339,
      "èĩªæ²»": 4340,
      "ç¹ģ": 4341,
      "å¹¶æ²¡æľī": 4342,
      "çŃ¹æİª": 4343,
      "ä¸Ŀ": 4344,
      "æ²Ĵæľī": 4345,
      "æĬĢèĥ½": 4346,
      "æ¯ĶåĪ©æĹ¶": 4347,
      "æĪı": 4348,
      "æģ¤": 4349,
      "å¡ŀæĭľ": 4350,
      "èģļ": 4351,
      "å¡ŀæĭľçĸĨ": 4352,
      "æľ«": 4353,
      "æ³Ĭ": 4354,
      "ä»£çĲĨ": 4355,
      "åıĹçĲĨ": 4356,
      "Ġå¤ļ": 4357,
      "åŃĲå¥³": 4358,
      "èĭ±åĽ½": 4359,
      "å¹²é¢Ħ": 4360,
      "ĠæĪĳæľī": 4361,
      "è´Łæĭħ": 4362,
      "Ġä½łè¯´": 4363,
      "è¢«åįłé¢Ĩ": 4364,
      "åħ¨ä½ĵä¼ļè®®": 4365,
      "Ġæĥ³": 4366,
      "åĲīäºļ": 4367,
      "æ±ĩç¼ĸ": 4368,
      "åĺ´": 4369,
      "èµĦæºĲçļĦ": 4370,
      "äºĭåĬ¡åİħ": 4371,
      "åĽ½éĽĨåĽ¢": 4372,
      "çļĦä¸ĢèĪ¬": 4373,
      "äºĭåĬ¡éĥ¨": 4374,
      "æĿ¥è¥¿äºļ": 4375,
      "ä¸ĭåİ»": 4376,
      "æĬķåħ¥": 4377,
      "æł¼é²ģåĲīäºļ": 4378,
      "æľĢå¥½": 4379,
      "Ġä»¥": 4380,
      "è®®äºĭè§ĦåĪĻ": 4381,
      "éĿ¢å¯¹": 4382,
      "ç³Ł": 4383,
      "åį«æĺŁ": 4384,
      "çļĦäºĭæĥħ": 4385,
      "åĿļæĮģ": 4386,
      "æ³¢æĸ¯å°¼äºļåĴĮé»ĳå¡ŀåĵ¥ç»´éĤ£": 4387,
      "é¢Ħæµĭ": 4388,
      "1993": 4389,
      "éĸĭ": 4390,
      "å·¥ä½ľæĸ¹æ¡Ī": 4391,
      "ä¾ĽèµĦ": 4392,
      "éĢıæĺİåº¦": 4393,
      "æĿ¿": 4394,
      "out": 4395,
      "ĠV": 4396,
      "ĠæĬ¥åĳĬ": 4397,
      "--": 4398,
      "Ġé¼ĵåĬ±": 4399,
      "åı¦ä¸Ģä¸ª": 4400,
      "èĦļ": 4401,
      "æĿ¯": 4402,
      "åĬ©çĲĨ": 4403,
      "æį·åħĭ": 4404,
      "Ġå¿ħé¡»": 4405,
      "åĢį": 4406,
      "äººéĥ½": 4407,
      "åŃŁ": 4408,
      "å°Ĩäºİ": 4409,
      "åıĤåĬłäºĨ": 4410,
      "å¤ļæł·æĢ§": 4411,
      "æ³ķæ¡Ī": 4412,
      "é£Łçī©": 4413,
      "çļĦè¯´æĺİ": 4414,
      "å³": 4415,
      "æĺİå¤©": 4416,
      "åĨĽéĺŁ": 4417,
      "å¼Ģåıĳç½²": 4418,
      "è´©åįĸ": 4419,
      "æĤ²": 4420,
      "çļĦæĸ¹æ³ķ": 4421,
      "çİ»åĪ©": 4422,
      "ä¸§": 4423,
      "æīİ": 4424,
      "ä»»æľŁ": 4425,
      "ä¸¹éº¦": 4426,
      "1992": 4427,
      "ith": 4428,
      "è½¯": 4429,
      "å¤±ä¸ļ": 4430,
      "Ġä¸ºæŃ¤": 4431,
      "èĴĻçī¹": 4432,
      "è°ĵ": 4433,
      "ä»¶äºĭ": 4434,
      "çļĦæĸĩä»¶": 4435,
      "è¿Ľåı£": 4436,
      "èĢĮæĺ¯": 4437,
      "çļĦåŁºæľ¬": 4438,
      "Ġ,": 4439,
      "ä¸įåı¯èĥ½": 4440,
      "åīįåįĹæĸ¯æĭīå¤«": 4441,
      "åıĺæĪĲ": 4442,
      "ack": 4443,
      "å·¥èµĦ": 4444,
      "åī©": 4445,
      "éĽħ": 4446,
      "èĨ": 4447,
      "æ³¢åħ°": 4448,
      "èĤ¯å°¼äºļ": 4449,
      "æľīç»Ħç»ĩçĬ¯ç½ª": 4450,
      "å¼ºè¿«": 4451,
      "1991": 4452,
      "åįķçĭ¬": 4453,
      "çļĦåħ·ä½ĵ": 4454,
      "çŁ¿": 4455,
      "æ¢¦": 4456,
      "çļĦåĨ³è®®èįīæ¡Ī": 4457,
      "ect": 4458,
      "è·ŁæĪĳ": 4459,
      "ĠThe": 4460,
      "æ¬¡çº§æĸ¹æ¡Ī": 4461,
      "ä½Ľ": 4462,
      "ĠæĪĳå°±": 4463,
      "è¿ĺåľ¨": 4464,
      "ä¼Ĭæĸ¯åħ°åħ±åĴĮåĽ½": 4465,
      "æŃ£ç¡®": 4466,
      "äºĮå±Ĭä¼ļè®®": 4467,
      "éĶĻè¯¯": 4468,
      "å¤§ä¼ļç¬¬åħŃåįģ": 4469,
      "å¦¨ç¢į": 4470,
      "ĠåĲĳ": 4471,
      "æĸ¹åĲĳ": 4472,
      "å½¼": 4473,
      "è¯ķéªĮ": 4474,
      "çļĦæī¿è¯º": 4475,
      "è¥¿éĿŀ": 4476,
      "èµĭäºĪ": 4477,
      "èīº": 4478,
      "é»ŀ": 4479,
      "èµ¶": 4480,
      "åĿ¡": 4481,
      "æĳĨ": 4482,
      "å·¥ç¨ĭå¤Ħ": 4483,
      "å¹¶éĿŀ": 4484,
      "é©±éĢĲ": 4485,
      "å¿½": 4486,
      "ç«Ł": 4487,
      "åľ°çĲĥ": 4488,
      "çļĦè´£ä»»": 4489,
      "ĠæĪĳåıªæĺ¯": 4490,
      "ä¿¡éģĵ": 4491,
      "äººåĳĺåĴĮ": 4492,
      "ĠæĶ¾": 4493,
      "æ®µä¸Ń": 4494,
      "çªģå°¼æĸ¯": 4495,
      "æķ°æį®åºĵ": 4496,
      "çļĦæĸ¹æ¡Ī": 4497,
      "ä¸Ģä½į": 4498,
      "æļĹ": 4499,
      "çİ°è¡Į": 4500,
      "æľīåĪ©äºİ": 4501,
      "èĬ¬åħ°": 4502,
      "è³": 4503,
      "æĭŁå®ļ": 4504,
      "æŃ£å¼ıè®°å½ķ": 4505,
      "âĢķâĢķ": 4506,
      "çļĦå¦ĩå¥³": 4507,
      "è¿ĩå¢ĥ": 4508,
      "æĹħæ¸¸": 4509,
      "åĴĮåĮºåŁŁ": 4510,
      "åºĬ": 4511,
      "ä½łåľ¨": 4512,
      "ä»ĺæ¬¾": 4513,
      "æĹħè¡Į": 4514,
      "Ġåı¯ä»¥": 4515,
      "Ġç§ĺä¹¦å¤Ħ": 4516,
      "Ġåıªæľī": 4517,
      "éĩİ": 4518,
      "ä¸įäºĨ": 4519,
      "è§Ĵåº¦": 4520,
      "æĩī": 4521,
      "åĪĨäº«": 4522,
      "åıĳçĶŁçļĦ": 4523,
      "å¹´ä»£": 4524,
      "ä¿¡ä»°": 4525,
      "å¤±è¸ª": 4526,
      "è´º": 4527,
      "æ¬ł": 4528,
      "ard": 4529,
      "ä»ĬæĻļ": 4530,
      "68": 4531,
      "éĹ®è´£": 4532,
      "æľĢä½İ": 4533,
      "ç¬¬ä¸ĥ": 4534,
      "å§Ķåĳĺä¼ļçļĦæĬ¥åĳĬ": 4535,
      "åıĳè¨ĢèĢħ": 4536,
      "ç¬¬äºĮæ¬¡": 4537,
      "è¿Ļæ¬¡": 4538,
      "åĬłæ²Ļ": 4539,
      "åħ¬å¸ĥ": 4540,
      "åıĺå¾Ĺ": 4541,
      "èĳ¡èĲĦçīĻ": 4542,
      "æŃĮ": 4543,
      "åĲĮä¸Ģ": 4544,
      "åıįæģĲæĢĸä¸»ä¹ī": 4545,
      "å°½å¿«": 4546,
      "æı¡": 4547,
      "åīĤ": 4548,
      "ç´§å¼ł": 4549,
      "éĺ»æŃ¢": 4550,
      "å·©": 4551,
      "å¼¹èį¯": 4552,
      "å±ĭ": 4553,
      "æģ°": 4554,
      "ç§ĺé²ģ": 4555,
      "æ²¿": 4556,
      "æľĪåľ¨": 4557,
      "å·©åĽº": 4558,
      "Ġâ": 4559,
      "ä¸įè¿ĩ": 4560,
      "å¦¹": 4561,
      "æĹ¥æľŁéĹ´": 4562,
      "ort": 4563,
      "æ¶Īæģ¯": 4564,
      "åłĤ": 4565,
      "åı³": 4566,
      "åľ¨æŃ¤": 4567,
      "ob": 4568,
      "æĪĺæĸĹ": 4569,
      "ä¸»å¸ŃåĽ¢": 4570,
      "æĹıè£Ķ": 4571,
      "åı¦å¤ĸ": 4572,
      "ĠéĻ¤äºĨ": 4573,
      "ä¼ļçļĦ": 4574,
      "æ´ģ": 4575,
      "ä¹Łè®¸": 4576,
      "ĠAl": 4577,
      "ä¾Ŀèµĸ": 4578,
      "çİ°ä»£": 4579,
      "æķĻç§ĳ": 4580,
      "ment": 4581,
      "æĺ¨": 4582,
      "ä¸»æµģ": 4583,
      "å¾ĹåĪ°äºĨ": 4584,
      "æ¯«æĹł": 4585,
      "Ġå§Ķåĳĺä¼ļè¿ĺ": 4586,
      "èµ¢": 4587,
      "æĪĲå°±": 4588,
      "Ġä½łçľĭ": 4589,
      "å¡ŀå°Ķç»´äºļ": 4590,
      "åį³å°Ĩ": 4591,
      "åľ°é©¬æĭī": 4592,
      "éĨī": 4593,
      "ä¿¡æīĺåŁºéĩĳ": 4594,
      "Ġèµ°": 4595,
      "æĥħåĨµçļĦ": 4596,
      "åį±åľ°é©¬æĭī": 4597,
      "éĺµ": 4598,
      "éĥ¨éķ¿çº§": 4599,
      "ä¸ĢåĪĩå½¢å¼ı": 4600,
      "è§ģA": 4601,
      "æ¸Ķä¸ļ": 4602,
      "å§Ķåĳĺä¼ļåĴĮ": 4603,
      "åıĳçĶŁäºĨ": 4604,
      "èĶ": 4605,
      "æĦıæĦ¿": 4606,
      "èµ¤": 4607,
      "åİĭåĬĽ": 4608,
      "éĩįè¿Ķ": 4609,
      "æıĲåĩºæĬ¥åĳĬ": 4610,
      "æ¼Ĥ": 4611,
      "çļĦåŁºç¡Ģä¸Ĭ": 4612,
      "åĽ½éĻħåĴĮå¹³ä¸İå®īåħ¨": 4613,
      "éĤ®": 4614,
      "ational": 4615,
      "æ³°åĽ½": 4616,
      "è¿°äºĨ": 4617,
      "æĺ¯åĽłä¸º": 4618,
      "æĪĸè®¸": 4619,
      "åħ»æģ¤": 4620,
      "åģļä»Ģä¹Ī": 4621,
      "éĺ»ç¢į": 4622,
      "ial": 4623,
      "åĩ¡": 4624,
      "æ¯ĴåĵģåĴĮçĬ¯ç½ª": 4625,
      "æ°ĳåĽ½": 4626,
      "å¼ºçĥĪ": 4627,
      "äº¤æį¢": 4628,
      "åĪĨæĳĬ": 4629,
      "åĲİçļĦ": 4630,
      "Ġv": 4631,
      "äººå£«": 4632,
      "å½±åĵįçļĦ": 4633,
      "åĩıè½»": 4634,
      "åľĨ": 4635,
      "æĦŁæŁĵ": 4636,
      "æ»¥çĶ¨": 4637,
      "çĹĽèĭ¦": 4638,
      "å·¦": 4639,
      "çħ§é¡¾": 4640,
      "çĶ¨éĢĶ": 4641,
      "å½»åºķ": 4642,
      "Ġç¾İåĽ½": 4643,
      "åŃ¤": 4644,
      "åĮħåĲ«": 4645,
      "æĢ»é¢Ŀ": 4646,
      "Ġç¬¬ä¸Ģ": 4647,
      "//": 4648,
      "ä¸įéĶĻ": 4649,
      "æłĳ": 4650,
      "çº¦æĹ¦": 4651,
      "Ġè¿Ļå°±æĺ¯": 4652,
      "çĶµè§Ĩ": 4653,
      "å¸Ĳ": 4654,
      "è¯ģä¹¦": 4655,
      "åĬ³å·¥ç»Ħç»ĩ": 4656,
      "éĺ²æ²»": 4657,
      "å¢ŀåĬłäºĨ": 4658,
      "çĳŀæĭī": 4659,
      "ĠçľŁçļĦ": 4660,
      "æķı": 4661,
      "ĠæĪĳä»¬è¿ĺ": 4662,
      "éĶĢåĶ®": 4663,
      "ĠäººæĿĥ": 4664,
      "å§ĶåĨħ": 4665,
      "ä½¿å¾Ĺ": 4666,
      "å®¡çĲĨ": 4667,
      "åĮĸåŃ¦åĵģ": 4668,
      "åºĩ": 4669,
      "åıĸåĨ³": 4670,
      "çĨŁ": 4671,
      "Ġha": 4672,
      "è°ĥè§£": 4673,
      "å§ĶåĨħçĳŀæĭī": 4674,
      "è£Ĥ": 4675,
      "åŃŁåĬłæĭī": 4676,
      "ä½łäºĨ": 4677,
      "è®®é¢ĺ": 4678,
      "ä¼ļè®®åĴĮ": 4679,
      "æ²»çĲĨ": 4680,
      "ä¿ĿæĬ¤åĴĮ": 4681,
      "æ¯ĴåĵģåĴĮçĬ¯ç½ªéĹ®é¢ĺ": 4682,
      "æĪĳä¼ļ": 4683,
      "æĺ¯ä½ł": 4684,
      "å®ŀåľ°": 4685,
      "èģĶåĲĪåĽ½çļĦ": 4686,
      "ä½ľåĩºäºĨ": 4687,
      "èī¯å¥½": 4688,
      "éŃĶ": 4689,
      "åıĸåĨ³äºİ": 4690,
      "çĶŁæĢģ": 4691,
      "ä¸Ĭå¸Ŀ": 4692,
      "èģĶåĲĪåĽ½åĲĦ": 4693,
      "æĽ¾ç»ı": 4694,
      "tern": 4695,
      "å·®è·Ŀ": 4696,
      "æĪĳå°±": 4697,
      "è·µ": 4698,
      "èĮ¨": 4699,
      "æĸ¯æ´Ľæĸĩ": 4700,
      "çİ°éĩĳ": 4701,
      "æ¬¡åĮºåŁŁ": 4702,
      "æĸ¯æ´Ľæĸĩå°¼äºļ": 4703,
      "Ġåıªæĺ¯": 4704,
      "ç»ĵå©ļ": 4705,
      "è¿ĻäºĽåĽ½å®¶": 4706,
      "å¦ĩå¥³åľ¨": 4707,
      "æŃ»åĪĳ": 4708,
      "çĽĳæµĭåĴĮ": 4709,
      "Ġhe": 4710,
      "å¤ļçļĦ": 4711,
      "ä¼ļè®¡": 4712,
      "çĶ»": 4713,
      "åıĳèµ·": 4714,
      "ä¹Łæ²¡æľī": 4715,
      "03": 4716,
      "çĻ½ä¿Ħç½Ĺæĸ¯": 4717,
      "æıĲæ¡ĪåĽ½": 4718,
      "ee": 4719,
      "Ġéĥ½": 4720,
      "å¾Ĺä»¥": 4721,
      "ä¼ĬæľĹä¼Ĭæĸ¯åħ°åħ±åĴĮåĽ½": 4722,
      "æľŁå¾ħ": 4723,
      "ç»Ŀå¯¹": 4724,
      "æ±ī": 4725,
      "åľ¨åĽ½éĻħ": 4726,
      "åĿĢ": 4727,
      "æł¸åı¯": 4728,
      "å¹¿æ³ĽçļĦ": 4729,
      "å·¥åıĳç»Ħç»ĩ": 4730,
      "æĬĢæľ¯åĴĮ": 4731,
      "çĬ¶æĢģ": 4732,
      "è¯ķåĽ¾": 4733,
      "ĠåĽĽ": 4734,
      "æŃ»çļĦ": 4735,
      "îĢĻ": 4736,
      "aw": 4737,
      "ey": 4738,
      "è¿ĽæŃ¥": 4739,
      "ç¶ĵ": 4740,
      "æĬĺ": 4741,
      "åŁºæľ¬èĩªçĶ±": 4742,
      "éĺħ": 4743,
      "è¾ŀ": 4744,
      "æ²Ļçī¹éĺ¿æĭīä¼¯": 4745,
      "ç¯": 4746,
      "ç«ĭçī¹": 4747,
      "å®īåħ¨çĲĨäºĭä¼ļä¸»å¸Ń": 4748,
      "çģµæ´»": 4749,
      "åıĽ": 4750,
      "å¾ŀ": 4751,
      "æĶ¾å¼ĥ": 4752,
      "çļĦåİŁåĽł": 4753,
      "çĬ¹": 4754,
      "æŀģç«¯": 4755,
      "ä¸Ģä½ĵ": 4756,
      "åĩºåĶ®": 4757,
      "æĢ»çĲĨ": 4758,
      "åĵ¥æĭī": 4759,
      "éĢĲæŃ¥": 4760,
      "è°ħè§£": 4761,
      "ä¼Ĭæĸ¯åħ°ä¼ļè®®ç»Ħç»ĩ": 4762,
      "åĴĮåĬłåĭĴæ¯Ķ": 4763,
      "åľ¨æī§è¡Į": 4764,
      "ä¸Ģéģĵ": 4765,
      "éĻ¤åħ¶ä»ĸ": 4766,
      "tp": 4767,
      "æĪĳåľ¨": 4768,
      "æĶ¿æ²»æĿĥåĪ©": 4769,
      "qu": 4770,
      "ľĩ": 4771,
      "è¡¨è¾¾": 4772,
      "æĤ£": 4773,
      "éĻª": 4774,
      "å®ĹæĹ¨": 4775,
      "ç®Ģåįķ": 4776,
      "Ġæī§è¡Į": 4777,
      "éĶģ": 4778,
      "é¥Ń": 4779,
      "åĴĮéĿŀ": 4780,
      "ĠæŃ£å¦Ĥ": 4781,
      "ä¸ŃéĿŀ": 4782,
      "æ¡Į": 4783,
      "å¹¶åĲĳ": 4784,
      "Ġä½łæľī": 4785,
      "å¤ļå°Ķ": 4786,
      "ä¹ĭä¸ĭ": 4787,
      "éĺ¿å¡ŀæĭľçĸĨ": 4788,
      "é©¬æĿ¥è¥¿äºļ": 4789,
      "æĭīæĸ¯": 4790,
      "åĪĹé¢ł": 4791,
      "éŁ©æ°ĳåĽ½": 4792,
      "çīĽ": 4793,
      "çŃ¾åĲį": 4794,
      "ç½Ĺé©¬å°¼äºļ": 4795,
      "69": 4796,
      "æĿ¡è§Ħå®ļ": 4797,
      "è¦ĭ": 4798,
      "å°ĩ": 4799,
      "æİ¢è®¨": 4800,
      "è¯¥åĮºåŁŁ": 4801,
      "éĿŀæ´²åĽ½å®¶": 4802,
      "åħŃå±Ĭä¼ļè®®": 4803,
      "è®¾ç«ĭä¸Ģä¸ª": 4804,
      "å®½": 4805,
      "åľ¨æľ¬": 4806,
      "æĸĩæľ¬": 4807,
      "è½»æŃ¦åĻ¨": 4808,
      "èł": 4809,
      "Ġæ¯Ķ": 4810,
      "å£°ç§°": 4811,
      "åİĦç«ĭçī¹": 4812,
      "èĢĹ": 4813,
      "åĩıè´«": 4814,
      "æĢĢçĸĳ": 4815,
      "éĢļä¿¡æĬĢæľ¯": 4816,
      "çļĦèµĦéĩĳ": 4817,
      "çĶ¨æĿ¥": 4818,
      "ist": 4819,
      "åİĦç«ĭçī¹éĩĮäºļ": 4820,
      "åĲĪå¹¶": 4821,
      "ä¸ĢçĽ´åľ¨": 4822,
      "ä¾µçĬ¯äººæĿĥ": 4823,
      "çĩĥæĸĻ": 4824,
      "ri": 4825,
      "Ġåĳ": 4826,
      "éļ¾æ°ĳç½²": 4827,
      "åĮ»éĻ¢": 4828,
      "çļĦä¸ľè¥¿": 4829,
      "å¤§éĥ¨åĪĨ": 4830,
      "Rev": 4831,
      "æĢ»æĺ¯": 4832,
      "äººå±ħ": 4833,
      "çļĦå·¥ä½ľäººåĳĺ": 4834,
      "çĥŁ": 4835,
      "65": 4836,
      "ĠåĲĮæĹ¶": 4837,
      "ĠæıĲäº¤äºº": 4838,
      "ĠåĲĮæł·": 4839,
      "èĥ¡": 4840,
      "æ¬£": 4841,
      "æĮĩæĮ¥": 4842,
      "åºĩæĬ¤": 4843,
      "æĪ´": 4844,
      "æ²ī": 4845,
      "ä¸īå±Ĭä¼ļè®®": 4846,
      "Ġä»ĸè¯´": 4847,
      "ä¿®æŃ£æ¡Ī": 4848,
      "ãĢĭãĢģãĢĬ": 4849,
      "å¹²ä»Ģä¹Ī": 4850,
      "çļĦåīį": 4851,
      "ä¸įåĪĹé¢ł": 4852,
      "æ¶µ": 4853,
      "ä¼Ļè®¡": 4854,
      "è°ĥåĬ¨": 4855,
      "ç»ĵåĲĪ": 4856,
      "Ġ37": 4857,
      "äººæ°ĳçļĦ": 4858,
      "æ³Ĭå°Ķ": 4859,
      "çĹĩ": 4860,
      "å¼ķæ¸¡": 4861,
      "ç®±": 4862,
      "å°¼æ³Ĭå°Ķ": 4863,
      "åī¯ä¸»å¸Ń": 4864,
      "æ½ľåľ¨": 4865,
      "è¿ĻäºĽéĹ®é¢ĺ": 4866,
      "æ®ĭçĸ¾äºº": 4867,
      "å¿ĹæĦ¿": 4868,
      "ĠæĪĳè§īå¾Ĺ": 4869,
      "æŁ¬": 4870,
      "are": 4871,
      "ç¨ĭåº¦ä¸Ĭ": 4872,
      "åĴĮä¸į": 4873,
      "åĴĮå®īåħ¨": 4874,
      "http": 4875,
      "æ´ĹéĴ±": 4876,
      "åĤ¨åŃĺ": 4877,
      "çĽĺ": 4878,
      "Ġä½łæĢİä¹Ī": 4879,
      "èŀįåħ¥": 4880,
      "èľ": 4881,
      "ä¸ĢåĢĭ": 4882,
      "å¼ĢæĶ¯": 4883,
      "æıĲä¾Ľæı´åĬ©": 4884,
      "å®ļäºİ": 4885,
      "èĪªç©º": 4886,
      "å¹²åĺĽ": 4887,
      "å·¨å¤§": 4888,
      "æĬ¥è¡¨": 4889,
      "è®¤çľŁ": 4890,
      "åĲįä¹ī": 4891,
      "ç§ĳæĬĢ": 4892,
      "æĿĥåĪ©çļĦ": 4893,
      "åĮĹçĪ±å°Ķåħ°": 4894,
      "è§£æĶ¾": 4895,
      "Ġå»ºè®®": 4896,
      "://": 4897,
      "åĮĸåĴĮ": 4898,
      "æŁĲç§į": 4899,
      "å®īä¿Ŀ": 4900,
      "éĴ»": 4901,
      "çļĦçİ¯å¢ĥ": 4902,
      "å¿Ĩ": 4903,
      "åĲİåĭ¤": 4904,
      "Ġ39": 4905,
      "åį±å®³": 4906,
      "FFFF": 4907,
      "åİĦçĵľ": 4908,
      "Ġå¹¶": 4909,
      "åĴĮä½ł": 4910,
      "æ³ķè§Ħ": 4911,
      "æķĻç§ĳæĸĩ": 4912,
      "ä¸Ī": 4913,
      "Ġ38": 4914,
      "åİĦçĵľå¤ļå°Ķ": 4915,
      "åĽŀåİ»": 4916,
      "ãĢĤãĢį": 4917,
      "è®ĵ": 4918,
      "Ġä½łä¼ļ": 4919,
      "è¾ħ": 4920,
      "æĳĺ": 4921,
      "çĮľ": 4922,
      "æĦıè¯ĨåĪ°": 4923,
      "ä¸Ńæľī": 4924,
      "ç¤¾ä¼ļåıĳå±ķ": 4925,
      "ĠæľīäºĽ": 4926,
      "æ°§": 4927,
      "èĩªåĨ³": 4928,
      "é½Ĳ": 4929,
      "è¡ĮæĶ¿åĴĮé¢Ħç®Ĺ": 4930,
      "NF": 4931,
      "çļĦåħ³éĶ®": 4932,
      "åĴĮåĽ½å®¶": 4933,
      "ä¾§": 4934,
      "åĵªéĩĮ": 4935,
      "ä¸¥éĩįçļĦ": 4936,
      "æµª": 4937,
      "æ¸Ĳ": 4938,
      "ä¿ĥä½¿": 4939,
      "å¥ī": 4940,
      "å¤Ħç½ļ": 4941,
      "Ġ31": 4942,
      "åĲ¬åıĸ": 4943,
      "æīĢåľ¨": 4944,
      "æĽ´æĸ°": 4945,
      "éĿŀæŃ£å¼ıåįıåķĨ": 4946,
      "ç©Ĩæĸ¯": 4947,
      "çļĦåĬŀæ³ķ": 4948,
      "éĽĩåĳĺ": 4949,
      "äºļç¾İ": 4950,
      "ĠçŃīçŃī": 4951,
      "çļĦå°ı": 4952,
      "å§»": 4953,
      "åı£å¤´": 4954,
      "äºĮåįģ": 4955,
      "åĽŀçŃĶ": 4956,
      "Ġ40": 4957,
      "ok": 4958,
      "çļĦæĿ¡ä»¶": 4959,
      "æĺ¯è°ģ": 4960,
      "å¥¶": 4961,
      "è±ģ": 4962,
      "æĲľ": 4963,
      "äºļç¾İå°¼äºļ": 4964,
      "çļĦä¼ļè®®": 4965,
      "éĩįè¦ģçļĦæĺ¯": 4966,
      "æĸ°éĹ»éĥ¨": 4967,
      "æ´¥è´´": 4968,
      "ct": 4969,
      "åĪ¥": 4970,
      "åĽ½éĺ²": 4971,
      "æľīçĤ¹": 4972,
      "Ġä»ĸåĢĳ": 4973,
      "å¨ĺ": 4974,
      "åŃŁåĬłæĭīåĽ½": 4975,
      "æ¼Ĥäº®": 4976,
      "Ġå¯¼": 4977,
      "ĠåĬłå¼º": 4978,
      "ç¡®ç«ĭ": 4979,
      "æīĢæľīçļĦ": 4980,
      "éĻ¤éĿŀ": 4981,
      "åºŁçī©": 4982,
      "66": 4983,
      "çĽ¸åºĶ": 4984,
      "çĸ«": 4985,
      "å±¥è¡Įåħ¶": 4986,
      "æĤī": 4987,
      "å¹´åºķ": 4988,
      "æ°¯": 4989,
      "æŀģä¸º": 4990,
      "ome": 4991,
      "ĠåĲĮä¸Ĭ": 4992,
      "ĠåħĪçĶŁ": 4993,
      "ä½łä¸į": 4994,
      "æģ¨": 4995,
      "åĽłèĢĮ": 4996,
      "ĠæĪĳä»¬è®¤ä¸º": 4997,
      "ä½ıåĮº": 4998,
      "çļĦäººéģĵ": 4999,
      "è±ģåħį": 5000,
      "çĶŁæ®ĸ": 5001,
      "åħĭæĸ¯": 5002,
      "åķĨå®ļçļĦ": 5003,
      "å¤«äºº": 5004,
      "çļĦç¨ĭåºı": 5005,
      "åĴĮåĬłå¼º": 5006,
      "åįľ": 5007,
      "æĢİéº¼": 5008,
      "Ġst": 5009,
      "RC": 5010,
      "ä¸Ĭåįĩ": 5011,
      "å¥¸": 5012,
      "åı¯éĿł": 5013,
      "åĽŀåºĶ": 5014,
      "åĢĻéĢīäºº": 5015,
      "åħĪçĶŁéĺģä¸ĭ": 5016,
      "å®ŀè·µ": 5017,
      "è¦Ĩ": 5018,
      "çļĦåħ³äºİ": 5019,
      "å¯¨": 5020,
      "åħ³å¿ĥ": 5021,
      "åºĶä»ĺ": 5022,
      "æķĻè®Ń": 5023,
      "åĦ¿ç«¥åĴĮ": 5024,
      "äºĶå±Ĭä¼ļè®®": 5025,
      "ä¸Īå¤«": 5026,
      "æĸ¯è¾¾": 5027,
      "ä»¥åıĬåħ¶ä»ĸ": 5028,
      "è¯ģå®ŀ": 5029,
      "å½¹": 5030,
      "éĹ®é¢ĺä¸Ĭ": 5031,
      "æķħäºĭ": 5032,
      "èįĴæ¼ł": 5033,
      "çļĦå¿ħè¦ģ": 5034,
      "å¹¶å¯¹": 5035,
      "å°Ĩæĺ¯": 5036,
      "éĥ½åľ¨": 5037,
      "è®¾æĥ³": 5038,
      "å¸¦æĿ¥çļĦ": 5039,
      "æį·åħĭåħ±åĴĮåĽ½": 5040,
      "ly": 5041,
      "å¹¶ä¸º": 5042,
      "åĽ½éĻħäººéģĵä¸»ä¹īæ³ķ": 5043,
      "å¡«": 5044,
      "åĲİæĿ¥": 5045,
      "ç¡®æĺ¯": 5046,
      "å±ĤéĿ¢": 5047,
      "ĠéĻĦä»¶": 5048,
      "åŁĶ": 5049,
      "åĪ°åºķ": 5050,
      "åĽ½éĻħäººæĿĥ": 5051,
      "Ġ32": 5052,
      "å®¡è¯Ħ": 5053,
      "ä¸ĸçķĮä¸Ĭ": 5054,
      "ä¸ľéģĵ": 5055,
      "ä¸Ĭæĸĩç¬¬": 5056,
      "æŃ¦åĻ¨åĴĮè½»æŃ¦åĻ¨": 5057,
      "îĽ": 5058,
      "çļĦåħ¨çĲĥ": 5059,
      "åĴĮæĪĳ": 5060,
      "ç»ĳ": 5061,
      "ç§©": 5062,
      "åĬłå°Ķ": 5063,
      "æĿ¡èįīæ¡Ī": 5064,
      "åĽŀäºĭ": 5065,
      "æ¶µçĽĸ": 5066,
      "îĻ": 5067,
      "åĪº": 5068,
      "å¥³åĦ¿": 5069,
      "åįĥå¹´å®£è¨Ģ": 5070,
      "ç§©åºı": 5071,
      "Corr": 5072,
      "Ġè®¸å¤ļ": 5073,
      "Ġçī¹åĪ«æĬ¥åĳĬåĳĺ": 5074,
      "æ·«": 5075,
      "å®ĥä»¬çļĦ": 5076,
      "é¥¿": 5077,
      "æĶ¶åĪ°çļĦ": 5078,
      "éĶĢæ¯ģ": 5079,
      "ç¥Ŀè´º": 5080,
      "æŁ¬åŁĶ": 5081,
      "æŁ¬åŁĶå¯¨": 5082,
      "ä»¥å¾Ģ": 5083,
      "ä½¿çĶ¨çļĦ": 5084,
      "Ġwh": 5085,
      "èŀįèµĦ": 5086,
      "åī²": 5087,
      "å¢Ļ": 5088,
      "ĠéĤ£ä¸ª": 5089,
      "åĲ¬åĪ°": 5090,
      "æĻļä¸Ĭ": 5091,
      "å»ºç«ĭäºĨ": 5092,
      "å®¶åºŃæļ´åĬĽ": 5093,
      "Ġ0": 5094,
      "å¡Ķå°Ķ": 5095,
      "æįĲåĬ©èĢħ": 5096,
      "éļĲ": 5097,
      "èİİ": 5098,
      "ä¾ĭåŃĲ": 5099,
      "ĠSt": 5100,
      "å®Ŀè´Ŀ": 5101,
      "åħ°åį¡": 5102,
      "å¦»åŃĲ": 5103,
      "åĲĵ": 5104,
      "å¹´äºº": 5105,
      "ä»ĸåľ¨": 5106,
      "å®ļå±ħ": 5107,
      "ä»£è¡¨çļĦ": 5108,
      "çľŁæĺ¯": 5109,
      "æŁĲä¸Ģ": 5110,
      "é»İåĬł": 5111,
      "ä¸İåĲĪä½ľ": 5112,
      "åĵ¥æĸ¯è¾¾": 5113,
      "Ġä½łè¿ĺ": 5114,
      "æİªæĸ½çļĦ": 5115,
      "è½¬åŀĭ": 5116,
      "ä»ħä»ħ": 5117,
      "ä¸ĢèĪ¬äºĭåĬ¡": 5118,
      "åħ¬åĬ¡åĳĺ": 5119,
      "äºĨæĪĳ": 5120,
      "æĸ¯éĩĮ": 5121,
      "çĭĤ": 5122,
      "æĥ¯ä¾ĭ": 5123,
      "åĵ¥æĸ¯è¾¾é»İåĬł": 5124,
      "îħ": 5125,
      "éģĵå¾·": 5126,
      "ç©Ĩæĸ¯æŀĹ": 5127,
      "åĪł": 5128,
      "å¹´åīį": 5129,
      "å¦¥": 5130,
      "æŃ£ä¹ī": 5131,
      "è®¨è®ºäºĨ": 5132,
      "æıĲé«ĺå¦ĩå¥³åľ°ä½į": 5133,
      "èªĵ": 5134,
      "çļĦäººéģĵä¸»ä¹ī": 5135,
      "åģ¶": 5136,
      "ĠåĵĪ": 5137,
      "éĿŀæ´²åıĳå±ķ": 5138,
      "Ġè®©æĪĳ": 5139,
      "æĭīä¸ģç¾İæ´²åĴĮåĬłåĭĴæ¯Ķ": 5140,
      "è¬Ŀ": 5141,
      "æĬ¥éģĵ": 5142,
      "ang": 5143,
      "çī¹æ´¾åĽ¢çļĦ": 5144,
      "å¯¹è¿ĻäºĽ": 5145,
      "æĹłæł¸æŃ¦åĻ¨": 5146,
      "Ġæĸ°": 5147,
      "äº§æĿĥ": 5148,
      "ç¢°": 5149,
      "æ¾Ħ": 5150,
      "Ġèĥ½": 5151,
      "åĬłåĿ¡": 5152,
      "åĪĨç±»": 5153,
      "åĪĽæĸ°": 5154,
      "åıĬåĮĹçĪ±å°Ķåħ°": 5155,
      "éĵģ": 5156,
      "ä»ĩå¤ĸ": 5157,
      "çļĦæķ°æį®": 5158,
      "æī£": 5159,
      "æ¬²": 5160,
      "ç»ĨåĪĻ": 5161,
      "ç¼ĺ": 5162,
      "èĪį": 5163,
      "Ġä¸ĭåįĪ": 5164,
      "ĠæĤ¨": 5165,
      "æĹ§": 5166,
      "åĽĽå±Ĭä¼ļè®®": 5167,
      "ä¸ĵéĹ¨æľºæŀĦ": 5168,
      "ä¸įåĪĹé¢łåıĬåĮĹçĪ±å°Ķåħ°": 5169,
      "å§Ķåĳĺä¼ļæĪĲåĳĺ": 5170,
      "ä¹Łæľī": 5171,
      "Ġè¿Ļé¡¹": 5172,
      "ç»ıåİĨ": 5173,
      "é«ĺçŃī": 5174,
      "ä¸¤é¡¹": 5175,
      "Ġä½łåı¯ä»¥": 5176,
      "èĩªèº«": 5177,
      "å¤įåĳĺ": 5178,
      "è¿Ļæĸ¹éĿ¢çļĦ": 5179,
      "å¥´": 5180,
      "èĲ¨å°Ķ": 5181,
      "è©±": 5182,
      "çİ¯å¢ĥè§ĦåĪĴç½²": 5183,
      "æ·±åħ¥": 5184,
      "æ¾Ħæ¸ħ": 5185,
      "åĩºçĶŁ": 5186,
      "åĬłçº³": 5187,
      "åĪ©æ¯Ķäºļ": 5188,
      "åĢºæĿĥäºº": 5189,
      "éĮ": 5190,
      "éĺ³": 5191,
      "æĢ§æŃ¦åĻ¨": 5192,
      "æĸ¯çī¹": 5193,
      "å¥½å¤Ħ": 5194,
      "ç»ĪæŃ¢": 5195,
      "ST": 5196,
      "è§Ħçº¦": 5197,
      "åĮĪ": 5198,
      "å¤§éŁ©æ°ĳåĽ½": 5199,
      "åĢ¾": 5200,
      "èĤī": 5201,
      "Ġdo": 5202,
      "éĥ½ä¼ļ": 5203,
      "çĽĳçĿ£åİħ": 5204,
      "å¸¸é©»èģĶåĲĪåĽ½ä»£è¡¨": 5205,
      "åľ¨åĨħ": 5206,
      "åıĳå¸ĥ": 5207,
      "å¸¸è§Ħ": 5208,
      "Ġ35": 5209,
      "end": 5210,
      "èĲ¥åħ»": 5211,
      "éģµå¾ª": 5212,
      "ç»ıèĲ¥": 5213,
      "ä¸Ģä¸ªäºº": 5214,
      "çĽ¸æ¯Ķ": 5215,
      "ä»İæĿ¥": 5216,
      "æ³¨éĩį": 5217,
      "Ġåħ¶ä¸Ń": 5218,
      "æ°ĳä¼Ĺ": 5219,
      "åĽŀåĪ°": 5220,
      "ç±»åŀĭ": 5221,
      "äººæ°ĳåħ±åĴĮåĽ½": 5222,
      "çĺ": 5223,
      "è°·": 5224,
      "Ġè¢«": 5225,
      "æ¯ıä¸Ģ": 5226,
      "ĠçĶ±": 5227,
      "å¿ħé¡»åľ¨": 5228,
      "Ġä¸Ń": 5229,
      "ĠæľĢ": 5230,
      "éĢļè®¯": 5231,
      "é«ĺä¸ĵ": 5232,
      "é¥®": 5233,
      "èĩªçĦ¶èµĦæºĲ": 5234,
      "æģ¶åĮĸ": 5235,
      "æĸ¯éĩĮåħ°åį¡": 5236,
      "ä¿©": 5237,
      "ĠæĪĳåı¯ä»¥": 5238,
      "è®¤åı¯": 5239,
      "è®¾æ³ķ": 5240,
      "Ġj": 5241,
      "èģĶåĲĪä¼ļ": 5242,
      "å°±åĥı": 5243,
      "æľŁæľĽ": 5244,
      "å¤ĩå¿ĺ": 5245,
      "çİ¯å¢ĥç½²": 5246,
      "å°ıå§Ĳ": 5247,
      "æīĵçĶµè¯Ŀ": 5248,
      "çĽ®åīįçļĦ": 5249,
      "æ¬º": 5250,
      "éĻ¤åħ¶ä»ĸå¤ĸ": 5251,
      "åĮĪçīĻ": 5252,
      "åī¯ç§ĺä¹¦éķ¿": 5253,
      "å¤ĩå¿ĺå½ķ": 5254,
      "åĮĪçīĻåĪ©": 5255,
      "CE": 5256,
      "çļĦå®¡è®®": 5257,
      "Ġä»ĸæĺ¯": 5258,
      "æ³ķå¾ĭåĴĮ": 5259,
      "çĽĳå¯Ł": 5260,
      "åĨ²çªģåĲİ": 5261,
      "ĠãĢĤ": 5262,
      "Ġæľīåħ³": 5263,
      "ĠäºĶ": 5264,
      "æ¡£": 5265,
      "ä¸īå¹´": 5266,
      "64": 5267,
      "åĴĮæľīåħ³": 5268,
      "Ġ33": 5269,
      "å©ļå§»": 5270,
      "ĠæľĢè¿ĳ": 5271,
      "çļĦæĪĺçķ¥": 5272,
      "ä¸įåľ¨": 5273,
      "ä»ĸå¦ĪçļĦ": 5274,
      "çľĭè§ģ": 5275,
      "å¯»æī¾": 5276,
      "ff": 5277,
      "è¿ģ": 5278,
      "åĴĮæĸ¹æ¡Ī": 5279,
      "éĻ¶": 5280,
      "å®īåĵ¥æĭī": 5281,
      "åĲ¸å¼ķ": 5282,
      "è¡ĮæĶ¿åĴĮé¢Ħç®ĹéĹ®é¢ĺ": 5283,
      "ä¸įåĪĹé¢łåıĬåĮĹçĪ±å°Ķåħ°èģĶåĲĪçİĭåĽ½": 5284,
      "æĥħå½¢": 5285,
      "çĽ¸å¯¹": 5286,
      "çĻ¼": 5287,
      "æķĻç§ĳæĸĩç»Ħç»ĩ": 5288,
      "Ġå·´": 5289,
      "ä½łè¦ģ": 5290,
      "æıı": 5291,
      "åħ±ä½ĵ": 5292,
      "æĪĳä»¬åľ¨": 5293,
      "éľĩ": 5294,
      "ara": 5295,
      "åĶ±": 5296,
      "ĠæĬ±æŃī": 5297,
      "æĶ¸": 5298,
      "ä»¥æ³ķ": 5299,
      "è¾ĳ": 5300,
      "ç»ıæµİå¢ŀéķ¿": 5301,
      "æŃ¦è£ħéĥ¨éĺŁ": 5302,
      "çİ°æľīçļĦ": 5303,
      "éĽ¨": 5304,
      "æĸ¯æ´Ľä¼Ĳ": 5305,
      "æĸ¯æ´Ľä¼Ĳåħĭ": 5306,
      "åĪļåĪļ": 5307,
      "åĵĪæĭī": 5308,
      "åŃĺåľ¨çļĦ": 5309,
      "æĪ¿åŃĲ": 5310,
      "è£ģåĨĽè°ĪåĪ¤": 5311,
      "é«ĺä¸ĵåĬŀ": 5312,
      "æĶ¸åħ³": 5313,
      "CP": 5314,
      "Ġä»¥èī²åĪĹ": 5315,
      "æĮ¯": 5316,
      "å°ıå²Ľå±¿": 5317,
      "éĩĩåıĸçļĦè¡ĮåĬ¨": 5318,
      "ä½©": 5319,
      "äºĨä¸Ģé¡¹": 5320,
      "çºł": 5321,
      "æ¬¾é¡¹": 5322,
      "äººéģĵä¸»ä¹īæı´åĬ©": 5323,
      "æ¡ĳå°¼äºļ": 5324,
      "æŃ¤åĲĮæĹ¶": 5325,
      "åħĴ": 5326,
      "æĺ¯ä¸ºäºĨ": 5327,
      "å·®å¼Ĥ": 5328,
      "äººæĿĥçĲĨäºĭä¼ļ": 5329,
      "åĿ¦æ¡ĳå°¼äºļ": 5330,
      "Ġwith": 5331,
      "ĠTh": 5332,
      "Ġåĥı": 5333,
      "èµł": 5334,
      "æīĢè°ĵ": 5335,
      "å¤±åİ»": 5336,
      "éĺ¿æĭīä¼¯åıĻåĪ©äºļ": 5337,
      "æľ¬åĨ³è®®": 5338,
      "è¯´è¿ĩ": 5339,
      "å¾Īéļ¾": 5340,
      "çľŁæŃ£çļĦ": 5341,
      "Ġ34": 5342,
      "åıĸå¾Ĺè¿Ľå±ķ": 5343,
      "èĸªéĩĳ": 5344,
      "æĥ³æ³ķ": 5345,
      "æķĪæŀľ": 5346,
      "up": 5347,
      "èĢĮä¸į": 5348,
      "è¯ģäºº": 5349,
      "åħĥé¦ĸ": 5350,
      "å¹¶ä¸įæĺ¯": 5351,
      "ä¸ĸè´¸": 5352,
      "è®²è¯Ŀ": 5353,
      "éĩĬæĶ¾": 5354,
      "ain": 5355,
      "ĠçĶ¨": 5356,
      "éĩĮçļĦ": 5357,
      "éĵŃ": 5358,
      "éĩĳèŀįæľºæŀĦ": 5359,
      "ä¸»åĬ¨": 5360,
      "ç¢³": 5361,
      "å°Ĭä¸¥": 5362,
      "åİĤ": 5363,
      "å»ºè®®çļĦ": 5364,
      "Ġå·²": 5365,
      "å°ıæŃ¦åĻ¨åĴĮè½»æŃ¦åĻ¨": 5366,
      "ç¼ĸåı·": 5367,
      "é¾Ļ": 5368,
      "ç»ıå¸¸é¢Ħç®Ĺ": 5369,
      "éĺ¿æĭīä¼¯åıĻåĪ©äºļåħ±åĴĮåĽ½": 5370,
      "åĲĳå§Ķåĳĺä¼ļ": 5371,
      "æł¸è£ģåĨĽ": 5372,
      "Ġwe": 5373,
      "å¦®": 5374,
      "éķ¿å®ĺ": 5375,
      "çĽĽ": 5376,
      "è´¾": 5377,
      "åı·åĨ³è®®æīĢ": 5378,
      "ä¹łæĥ¯": 5379,
      "75": 5380,
      "ç»ıæµİåĴĮ": 5381,
      "ib": 5382,
      "Ġan": 5383,
      "ä¸ļç»©": 5384,
      "Ġå¿«çĤ¹": 5385,
      "'m": 5386,
      "Ġåį¡": 5387,
      "é¢ĳ": 5388,
      "å¹´åľ¨": 5389,
      "ç±»åĪ«": 5390,
      "åĲ¦åĪĻ": 5391,
      "Ġwas": 5392,
      "ä¼°è®¡æķ°": 5393,
      "æķıæĦŁ": 5394,
      "å§ĵ": 5395,
      "åıĤèĢĥ": 5396,
      "éĢĤåĲĪ": 5397,
      "éļ¾éģĵ": 5398,
      "èģĮåĬ¡": 5399,
      "1373": 5400,
      "éĩĩåıĸçļĦæİªæĸ½": 5401,
      "å¯ĨåĪĩåĲĪä½ľ": 5402,
      "çļĦéľĢè¦ģ": 5403,
      "æīĢæľīäºº": 5404,
      "è§Ĥå¿µ": 5405,
      "çģŃç»Ŀ": 5406,
      "èģĮçŃī": 5407,
      "æµ·åħ³": 5408,
      "å¡ŀåĨħ": 5409,
      "Ġnot": 5410,
      "Ġç»Ļ": 5411,
      "åħĭæľį": 5412,
      "çºªå¿µ": 5413,
      "ĠåºĶè¯¥": 5414,
      "ç¬¬åħŃåįģ": 5415,
      "åĲĦåĮºåŁŁ": 5416,
      "åĽĽä¸ª": 5417,
      "ä¿¡æģ¯æĬĢæľ¯": 5418,
      "fscx": 5419,
      "fscy": 5420,
      "åĴĮA": 5421,
      "åı¯è¡Į": 5422,
      "éĹ®é¢ĺåĴĮ": 5423,
      "æĸĩæĺİ": 5424,
      "è´Ńä¹°": 5425,
      "è¹": 5426,
      "Ġåıªè¦ģ": 5427,
      "çļĦçĶŁæ´»": 5428,
      "æ±Ĥæĸ¯": 5429,
      "èģĮæĿĥ": 5430,
      "åĴĮä¿ĿæĬ¤äººæĿĥ": 5431,
      "éĩįè¿Ķç¤¾ä¼ļ": 5432,
      "çļĦèĮĥåĽ´": 5433,
      "åĩºäºİ": 5434,
      "å¹¶ç¡®ä¿Ŀ": 5435,
      "å¸®æĪĳ": 5436,
      "åħįè´¹": 5437,
      "____": 5438,
      "çį": 5439,
      "éªĹ": 5440,
      "ä¾µçķ¥": 5441,
      "æ¯ĽéĩĮæ±Ĥæĸ¯": 5442,
      "ä¹¡": 5443,
      "ç§ĺå¯Ĩ": 5444,
      "ate": 5445,
      "æĻĤåĢĻ": 5446,
      "ä½łçŁ¥éģĵ": 5447,
      "å·´åĭĴæĸ¯åĿ¦é¢ĨåľŁ": 5448,
      "è¶ĬåįĹ": 5449,
      "å®¡è®¡å§Ķåĳĺä¼ļ": 5450,
      "äººæĿĥåĴĮåŁºæľ¬èĩªçĶ±": 5451,
      "å¡ŀåĨħåĬłå°Ķ": 5452,
      "ĠéľĢè¦ģ": 5453,
      "åĪĨåºŃ": 5454,
      "å¼Ģä¼ļ": 5455,
      "ä¸¤åĽ½": 5456,
      "èº«ä½ĵ": 5457,
      "è®¾ç«ĭçļĦ": 5458,
      "Ġgo": 5459,
      "å¤ı": 5460,
      "è¡£æľį": 5461,
      "av": 5462,
      "äºĨå¯¹": 5463,
      "èĩŃ": 5464,
      "è¿ĺå°Ĩ": 5465,
      "Ġæ²¡éĶĻ": 5466,
      "äºĨåħ³äºİ": 5467,
      "ä½ĵçİ°": 5468,
      "ç»ĵçĽŁ": 5469,
      "Ġå¾Īå¥½": 5470,
      "é¢Ħéĺ²çĬ¯ç½ªåĴĮ": 5471,
      "åĬ«": 5472,
      "æ±½": 5473,
      "è¿Ļä¸¤ä¸ª": 5474,
      "Ġä½łèĥ½": 5475,
      "å½ĵéĢī": 5476,
      "æ²¡æľīä»»ä½ķ": 5477,
      "æīĭåĨĮ": 5478,
      "èį¯åĵģ": 5479,
      "ud": 5480,
      "çļĦè´¹çĶ¨": 5481,
      "æĺ¯çļĦ": 5482,
      "åľºæīĢ": 5483,
      "8080": 5484,
      "å¯¹å¾ħ": 5485,
      "è§ģåĪ°": 5486,
      "ĠCh": 5487,
      "åį«çĶŁç»Ħç»ĩ": 5488,
      "Ġthis": 5489,
      "çĶ²": 5490,
      "æıĲéĨĴ": 5491,
      "çĽĳç¦ģ": 5492,
      "Ġ?": 5493,
      "éĩįå¤į": 5494,
      "åĪĨåĮºåŁŁ": 5495,
      "åı¯èĥ½æĺ¯": 5496,
      "çļĦæľīæķĪ": 5497,
      "åı¯åľ¨": 5498,
      "æĿ¥çľĭ": 5499,
      "æĸ°ä¼Ļä¼´åħ³ç³»": 5500,
      "Ġä»ĸçļĦ": 5501,
      "è£ħå¤ĩ": 5502,
      "èªī": 5503,
      "ä¹ĮæĭīåľŃ": 5504,
      "æĪĳåĽ½ä»£è¡¨åĽ¢": 5505,
      "åľ¨åĵªéĩĮ": 5506,
      "ä¹į": 5507,
      "ternational": 5508,
      "å®īåħ¨çļĦ": 5509,
      "çĽ¸åıį": 5510,
      "ĠæĪĳä»¬è¦ģ": 5511,
      "ä½įç½®": 5512,
      "Ġ500": 5513,
      "è¯´è¯Ŀ": 5514,
      "éĩĮéĿ¢": 5515,
      "çĦ¡": 5516,
      "æ¯ıå¤©": 5517,
      "åĿļå®ļ": 5518,
      "Ġyour": 5519,
      "éĻĲäºİ": 5520,
      "åıĳäºĨè¨Ģ": 5521,
      "åľ¨éĤ£": 5522,
      "ä¸Ģå¤©": 5523,
      "æīĵåĩ»æģĲæĢĸä¸»ä¹ī": 5524,
      "Ġæľ¬æĬ¥åĳĬ": 5525,
      "88": 5526,
      "çļĦçĽ®çļĦ": 5527,
      "è¿ĽæĿ¥": 5528,
      "Ġ50": 5529,
      "omm": 5530,
      "åĪĳäºĭæ³ķéĻ¢": 5531,
      "èĢ¶è·¯": 5532,
      "å´ĩ": 5533,
      "å¤§å¤§": 5534,
      "æĸ¹éĿ¢åıĳæĮ¥": 5535,
      "æĴĴåĨ·": 5536,
      "æĬ½": 5537,
      "åŃ¦éĻ¢": 5538,
      "Ġäºĭå®ŀä¸Ĭ": 5539,
      "ä¼į": 5540,
      "æľīæľºä¼ļ": 5541,
      "èģĬ": 5542,
      "å¤§ä¸įåĪĹé¢łåıĬåĮĹçĪ±å°Ķåħ°èģĶåĲĪçİĭåĽ½": 5543,
      "ä¸İåħ¶": 5544,
      "è¨Ģè®º": 5545,
      "ä¸¾è¡ĮçļĦç¬¬": 5546,
      "èĢ¶è·¯æĴĴåĨ·": 5547,
      "çļĦçłĶç©¶": 5548,
      "æĺ¯çĶ±": 5549,
      "ä¸įå¥½": 5550,
      "åĨĽå¤ĩ": 5551,
      "å½ĵäºĭæĸ¹": 5552,
      "éĵŃè®°": 5553,
      "éķ¿çļĦ": 5554,
      "è¢«è§Ĩä¸º": 5555,
      "æİĴéĻ¤": 5556,
      "äººç±»ä½ıåĮº": 5557,
      "Ġå°ıç»Ħ": 5558,
      "ĠåĴ¨è¯¢å§Ķåĳĺä¼ļ": 5559,
      "åĽļ": 5560,
      "äºĶå¹´": 5561,
      "æµ·æ´ĭæ³ķ": 5562,
      "å¹´åº¦æĬ¥åĳĬ": 5563,
      "æ··èĽĭ": 5564,
      "æİĮæı¡": 5565,
      "na": 5566,
      "ä¸ĢæĿ¡": 5567,
      "æĹ¥èµ·": 5568,
      "ç¤ºèĮĥæ³ķ": 5569,
      "åĴĮå¯¹": 5570,
      "å¹´åĴĮ": 5571,
      "å°ĳæķ°ç¾¤ä½ĵ": 5572,
      "è¡Įä¸ļ": 5573,
      "å¤§å¹ħ": 5574,
      "è¯´äºĨ": 5575,
      "åĲįé¢Ŀ": 5576,
      "èĦ¸": 5577,
      "èĳ£": 5578,
      "åŁºç¡Ģä¸Ĭ": 5579,
      "é£Łåĵģ": 5580,
      "ä»įçĦ¶æĺ¯": 5581,
      "å®ĺæĸ¹åıĳå±ķæı´åĬ©": 5582,
      "Ġæīĵ": 5583,
      "åįģåŃĹ": 5584,
      "Ġå§Ķåĳĺä¼ļå»ºè®®": 5585,
      "ĠèĢĥèĻĳåĪ°": 5586,
      "çº¸": 5587,
      "è¯´ä»Ģä¹Ī": 5588,
      "å¤§è§Ħæ¨¡æ¯ģçģŃ": 5589,
      "æĪĲç»©": 5590,
      "ä½łä»¬çļĦ": 5591,
      "éº»çĥ¦": 5592,
      "ĠåķĬ": 5593,
      "çļĦäººæĿĥ": 5594,
      "åĴĮåľ¨": 5595,
      "æ´ª": 5596,
      "æĳĬæ¬¾": 5597,
      "è§Ĩå¯Ł": 5598,
      "çļĦæłĩåĩĨ": 5599,
      "æĮº": 5600,
      "æĶ¿åħļ": 5601,
      "è´¸æĺĵæ³ķ": 5602,
      "çĥ§": 5603,
      "çĶŁæ´»åľ¨": 5604,
      "çļĦä¸Ģç§į": 5605,
      "åįļå£«": 5606,
      "se": 5607,
      "çļĦåĮºåŁŁ": 5608,
      "éĻĦè¿ĳ": 5609,
      "ĠCon": 5610,
      "ies": 5611,
      "çĶ·åŃ©": 5612,
      "æħĪ": 5613,
      "ä¸Ģç³»åĪĹ": 5614,
      "è¿Ľåİ»": 5615,
      "äº¤ç»Ļ": 5616,
      "æµģè¡Į": 5617,
      "éļıæĹ¶": 5618,
      "ĠæĿ¥åĲ§": 5619,
      "ä¿¡æģ¯åĴĮéĢļä¿¡æĬĢæľ¯": 5620,
      "Ġç»§ç»Ń": 5621,
      "è¦ģç´ł": 5622,
      "åĬłåĪ©äºļ": 5623,
      "äºļå¤ª": 5624,
      "æĽ²": 5625,
      "Ġ36": 5626,
      "åįĸæ·«": 5627,
      "å¾ģèģĺ": 5628,
      "ĠåĬł": 5629,
      "åħ¶ä»ĸåĽ½å®¶": 5630,
      "XX": 5631,
      "åĴĮå¤ļ": 5632,
      "èĭ±æĸĩ": 5633,
      "åįıåķĨä¸Ģèĩ´": 5634,
      "ĠåĲ¬çĿĢ": 5635,
      "éĴ»çŁ³": 5636,
      "Ġäºº": 5637,
      "çļĦè®¨è®º": 5638,
      "çĶŁèĤ²": 5639,
      "å·´é»İ": 5640,
      "é©¬ä¸Ĭ": 5641,
      "110": 5642,
      "åĴĮä¿ĥè¿Ľ": 5643,
      "åľ¨è¿Ļä¸Ģ": 5644,
      "åħ¶é¡¿": 5645,
      "ä»ĩå¤ĸå¿ĥçĲĨ": 5646,
      "ä¿Ĺ": 5647,
      "ä»ĸæĺ¯": 5648,
      "éĻĦåĬł": 5649,
      "ä¿ĿåĬłåĪ©äºļ": 5650,
      "ç¢İ": 5651,
      "åĪ©çĽĬæĶ¸åħ³": 5652,
      "ä¸įå¯¹": 5653,
      "æĮĤ": 5654,
      "è¿ĺè¦ģ": 5655,
      "æĶ¶çĽĬ": 5656,
      "ä»»ä½ķäºº": 5657,
      "ä¸»è¦ģæĺ¯": 5658,
      "å¼ºå¥¸": 5659,
      "ine": 5660,
      "åĪ¤ä¾ĭ": 5661,
      "'re": 5662,
      "è¾Ľ": 5663,
      "å°Ķå¤ļ": 5664,
      "ä»Ģä¹Īäºĭ": 5665,
      "çĪ±ä½ł": 5666,
      "Ġèĩ³": 5667,
      "çļĦç»ıéªĮ": 5668,
      "æŃ£è§Ħ": 5669,
      "éľĢè¦ģçļĦ": 5670,
      "å¤ĩéĢī": 5671,
      "æī«": 5672,
      "ä¸įæĥ³": 5673,
      "ä»»æĦı": 5674,
      "çīĻä¹°": 5675,
      "è¿«åĪĩ": 5676,
      "çĬ¹å¤ª": 5677,
      "åĴĮæĶ¿åºľ": 5678,
      "è§ģè¿ĩ": 5679,
      "é£ŀè¡Į": 5680,
      "æķĻå¸Ī": 5681,
      "åħ»æģ¤éĩĳ": 5682,
      "Ġèī¾": 5683,
      "æł¹æį®ç¬¬": 5684,
      "çīĻä¹°åĬł": 5685,
      "æ©": 5686,
      "æī§è¡Įä¸»ä»»": 5687,
      "è¡¥è´´": 5688,
      "ä¸ĵåĳĺåĬŀäºĭå¤Ħ": 5689,
      "æľīæĹ¶": 5690,
      "ç³ķ": 5691,
      "æĸ¹éĿ¢æīĢ": 5692,
      "å¾Īå¿«": 5693,
      "å¢ĥåĨħçļĦ": 5694,
      "Ġ48": 5695,
      "åĪĿçº§": 5696,
      "Ġå¸ĥ": 5697,
      "ç¥ĸ": 5698,
      "æİ¨è¿Ł": 5699,
      "ç®¡è¾ĸæĿĥ": 5700,
      "çļĦçĲĨçĶ±": 5701,
      "æĹ±": 5702,
      "çī¹çĤ¹": 5703,
      "éĿĴå°ĳå¹´": 5704,
      "äº¬éĥ½": 5705,
      "åĨ»": 5706,
      "åĽ½éĻħæ³ķéĻ¢": 5707,
      "çī©åĵģ": 5708,
      "ç¼Ķç»ĵ": 5709,
      "çħ§çīĩ": 5710,
      "åįķæĸ¹éĿ¢": 5711,
      "éĢĢä¼ĳ": 5712,
      "åı¯ä»¥åľ¨": 5713,
      "åŃĺåľ¨çĿĢ": 5714,
      "Ġå¤§å®¶": 5715,
      "III": 5716,
      "ĠéĿŀ": 5717,
      "ĠéĿŀæ´²": 5718,
      "èµ¦": 5719,
      "äºĭåħĪ": 5720,
      "å¤ļå¹´": 5721,
      "æ±¤": 5722,
      "çı¾åľ¨": 5723,
      "åĴĮåįıè°ĥ": 5724,
      "æľīçĽĬ": 5725,
      "ä½ľåĩºåĨ³å®ļ": 5726,
      "èī°": 5727,
      "å®³æĢķ": 5728,
      "å«Į": 5729,
      "ä¸°": 5730,
      "çļĦåĨħå®¹": 5731,
      "çļĦåı¯èĥ½æĢ§": 5732,
      "çī¢": 5733,
      "éľį": 5734,
      "èİ·å¾ĹéĢļè¿ĩ": 5735,
      "Ġæ²¡äºĭ": 5736,
      "å¹¶é¼ĵåĬ±": 5737,
      "æ»ļ": 5738,
      "è¡ĮæĶ¿å½ĵå±Ģ": 5739,
      "ä¸įæī©æķ£æĿ¡çº¦": 5740,
      "æĭĸå»¶": 5741,
      "ew": 5742,
      "Ġæĭľ": 5743,
      "å¹¶æľª": 5744,
      "ä»ĸä»¬åľ¨": 5745,
      "Ġè°¢è°¢ä½ł": 5746,
      "å¤§ä¼ļç¬¬äºĶåįģ": 5747,
      "èĲ¨åħĭæĸ¯åĿ¦": 5748,
      "ç®Ģè¦ģ": 5749,
      "çģ¾éļ¾": 5750,
      "Ġç»ı": 5751,
      "äºĨä¸ĢäºĽ": 5752,
      "éĹ®é¢ĺçī¹åĪ«æĬ¥åĳĬåĳĺ": 5753,
      "åı¯èĥ½çļĦ": 5754,
      "ç±³å°¼": 5755,
      "è¾¾æĪĲçļĦ": 5756,
      "æĽ´å¥½çļĦ": 5757,
      "åĩĨç¡®": 5758,
      "è¿Ĳäºº": 5759,
      "man": 5760,
      "æĸ°åĬłåĿ¡": 5761,
      "åħ¥ä¾µ": 5762,
      "å¸¸å¸¸": 5763,
      "èĴĻåı¤": 5764,
      "çİ»åĪ©ç»´äºļ": 5765,
      "äºĨåĲ§": 5766,
      "ä½łä¼ļ": 5767,
      "æ¡Īä¾ĭ": 5768,
      "æĪĳä»¬å¿ħé¡»": 5769,
      "æ¬¡æĬ¥åĳĬ": 5770,
      "æİĴéĽ·": 5771,
      "åĮĹäº¬": 5772,
      "78": 5773,
      "Ġä¸ĸçķĮ": 5774,
      "æľīä¹īåĬ¡": 5775,
      "çĶ¨æĪ·": 5776,
      "åıĸä»£": 5777,
      "ç§ĺä¹¦éķ¿çļĦæĬ¥åĳĬ": 5778,
      "èĵĦ": 5779,
      "äººæĿĥäºĭåĬ¡é«ĺçº§ä¸ĵåĳĺåĬŀäºĭå¤Ħ": 5780,
      "Ġä¿ĥè¿Ľ": 5781,
      "å¹´èĩ³": 5782,
      "åľ°çĲĨ": 5783,
      "æĿ¡æĸĩ": 5784,
      "é©¬åħ¶é¡¿": 5785,
      "æľĢé«ĺæ³ķéĻ¢": 5786,
      "ä¿¡è´·": 5787,
      "ind": 5788,
      "åħ·å¤ĩ": 5789,
      "çļĦäººåı£": 5790,
      "æģĲæĢĸåĪĨåŃĲ": 5791,
      "çĽ®åīįæŃ£åľ¨": 5792,
      "éĢŁåº¦": 5793,
      "SR": 5794,
      "ap": 5795,
      "æī¶": 5796,
      "ĠæĪĳçİ°åľ¨": 5797,
      "å·¥ä¼ļ": 5798,
      "åĲĦæĪĲåĳĺåĽ½": 5799,
      "éĩįè¦ģä½ľçĶ¨": 5800,
      "æ¸ħæ´ģ": 5801,
      "è¿Ľå±ķæĥħåĨµ": 5802,
      "çŁ¥è¯Ĩäº§æĿĥ": 5803,
      "éĿ¢ä¸´çļĦ": 5804,
      "Ġç§ĺä¹¦éķ¿åħ³äºİ": 5805,
      "Ġæķ¦ä¿ĥ": 5806,
      "çļĦéĤ£": 5807,
      "åĪ«äºº": 5808,
      "åĨħéĻĨ": 5809,
      "ĠNo": 5810,
      "èĩªçĦ¶çģ¾å®³": 5811,
      "çŁŃæľŁ": 5812,
      "è§£éĻ¤æŃ¦è£ħ": 5813,
      "ĠæĪªèĩ³": 5814,
      "æľĢæĸ°": 5815,
      "äº¤éĢļ": 5816,
      "è¡¡éĩı": 5817,
      "æĴĴåĵĪæĭī": 5818,
      "Ġhave": 5819,
      "99": 5820,
      "å¹¶è¯·": 5821,
      "ç»ıå§Ķä¼ļ": 5822,
      "åĭŁ": 5823,
      "æĬĬå®ĥ": 5824,
      "åĩłå¹´": 5825,
      "Ġmy": 5826,
      "å®¢æĪ·": 5827,
      "éº¦éļĨ": 5828,
      "ä¸Ģä½ĵåĮĸ": 5829,
      "èª°": 5830,
      "Ġè®¤è¯ĨåĪ°": 5831,
      "è®¡åĪĴçļĦ": 5832,
      "ä¾ĭå¤ĸ": 5833,
      "çĶµå½±": 5834,
      "æīĢéľĢçļĦ": 5835,
      "Ġä¸ĬåįĪ": 5836,
      "åĸĢéº¦éļĨ": 5837,
      "ity": 5838,
      "å¯¹ä»ĺ": 5839,
      "çĲĮ": 5840,
      "ä¸¤åĲį": 5841,
      "ert": 5842,
      "è®¾ç«ĭäºĨ": 5843,
      "Ġkn": 5844,
      "Ġäººä»¬": 5845,
      "å®Ľ": 5846,
      "å¿§": 5847,
      "åĲĪä½ľçļĦ": 5848,
      "æĶ¹ä¸º": 5849,
      "ç½Ĺæ¯ķ": 5850,
      "Ġç¬¬äºĶåįģ": 5851,
      "ĠæĪĳä¸įæĺ¯": 5852,
      "è¡¥åģ¿": 5853,
      "æľĢä½³åģļæ³ķ": 5854,
      "98": 5855,
      "uc": 5856,
      "ä½ĵèĤ²": 5857,
      "æĲ¬": 5858,
      "çļĦéĤ£æł·": 5859,
      "æĪĴ": 5860,
      "åĴĮçĽ¸åħ³": 5861,
      "åľ¨éĤ£éĩĮ": 5862,
      "ä¸ºåħ¶": 5863,
      "ä»¥åıĬå¯¹": 5864,
      "å±Ĭä¼ļ": 5865,
      "è°Īè°Ī": 5866,
      "Ġå§Ķåĳĺä¼ļæ³¨æĦıåĪ°": 5867,
      "ll": 5868,
      "ĠæĪĳå¸ĮæľĽ": 5869,
      "é¡¶": 5870,
      "çĶŁåŃĺ": 5871,
      "ä¹Łä¼ļ": 5872,
      "æĿĢå®³": 5873,
      "ä»Ķ": 5874,
      "ç®¡çĲĨå±Ģ": 5875,
      "Ġ47": 5876,
      "å£«åħµ": 5877,
      "ç§ĳåŃ¦åĴĮæĬĢæľ¯": 5878,
      "iz": 5879,
      "ãĦ": 5880,
      "Ġå¦Īå¦Ī": 5881,
      "æł¼çļĦ": 5882,
      "ran": 5883,
      "èģ½": 5884,
      "è°İ": 5885,
      "Ġ42": 5886,
      "åĦ¿ç«¥æĿĥåĪ©åħ¬çº¦": 5887,
      "æĭ¨æ¬¾": 5888,
      "ĠåĲģè¯·": 5889,
      "è¯Ĭ": 5890,
      "æĪĳçŁ¥éģĵ": 5891,
      "æĬ¢": 5892,
      "Ġåľ¨æŃ¤": 5893,
      "æĶ¿çŃĸçļĦ": 5894,
      "æĳĺè¦ģ": 5895,
      "è®®åĳĺ": 5896,
      "çĽ²": 5897,
      "ä¹Łåľ¨": 5898,
      "å®ļæľŁæĬ¥åĳĬ": 5899,
      "ä¸ľéģĵåĽ½": 5900,
      "çĿĢæīĭ": 5901,
      "è·¯çº¿": 5902,
      "ĠæĪĳä¸įæĥ³": 5903,
      "éº»éĨī": 5904,
      "èīºæľ¯": 5905,
      "æĸ¥": 5906,
      "éĢĨ": 5907,
      "é©¬å°Ķ": 5908,
      "çĻ¾åĪĨ": 5909,
      "çļĦæĪĲåĳĺ": 5910,
      "åĬ¨çī©": 5911,
      "æķ´ä½ĵ": 5912,
      "ĠæĪĸèĢħ": 5913,
      "ãĢĭ;": 5914,
      "Ġå°±åĥı": 5915,
      "Ġcon": 5916,
      "ç¢ºæĺ¯": 5917,
      "è¿¹è±¡": 5918,
      "éĻ¶å®Ľ": 5919,
      "ç«ĭéĻ¶å®Ľ": 5920,
      "éĩĮæĸ¯": 5921,
      "è¨±": 5922,
      "ĠéĤ£äºĽ": 5923,
      "Ġé¦ĸåħĪ": 5924,
      "æ³ķç´¢": 5925,
      "å°±èĥ½": 5926,
      "åŁºåĩĨ": 5927,
      "Ġ1999": 5928,
      "èĲ¨å°Ķçĵ¦": 5929,
      "å¤§è§Ħæ¨¡æ¯ģçģŃæĢ§æŃ¦åĻ¨": 5930,
      "ive": 5931,
      "çĽ¾": 5932,
      "å¤§éĻĨ": 5933,
      "æĽ´å¤§çļĦ": 5934,
      "Ġ43": 5935,
      "è¡¨ç¤ºåħ³åĪĩ": 5936,
      "æľĢå¤§çļĦ": 5937,
      "åĨ³å®ļèįīæ¡Ī": 5938,
      "åįĹåįĹ": 5939,
      "å°¸": 5940,
      "åĬłéĢŁ": 5941,
      "èģĶåĲĪåĽ½åľ¨": 5942,
      "æİ¨è¿Ľ": 5943,
      "ĠåĸĤ": 5944,
      "ä¸įå¤Ł": 5945,
      "å±ģ": 5946,
      "å¤ļç§į": 5947,
      "åģļåĪ°": 5948,
      "éĩĩåıĸä¸ĢåĪĩ": 5949,
      "åįĹäºļ": 5950,
      "ould": 5951,
      "åĨ²çªģçļĦ": 5952,
      "é¹": 5953,
      "åĪ¸": 5954,
      "çľĭæĿ¥": 5955,
      "å°¤åħ¶æĺ¯åľ¨": 5956,
      "äº¬éĥ½è®®å®ļä¹¦": 5957,
      "ip": 5958,
      "éĥ¨çļĦ": 5959,
      "éļĶç¦»": 5960,
      "åºĦ": 5961,
      "æıĲåĲį": 5962,
      "æıĲåĪ°çļĦ": 5963,
      "æĹ¶ä»£": 5964,
      "äº¤ä»ĺ": 5965,
      "åĬ³åĬ¨åĬĽ": 5966,
      "Ġå·²ç»ı": 5967,
      "åıĶ": 5968,
      "ä¼ª": 5969,
      "åĵ¦": 5970,
      "çİ¯å¢ĥåŁºéĩĳ": 5971,
      "æŃ»äº¡çİĩ": 5972,
      "åħĪåīį": 5973,
      "ä½ķç§į": 5974,
      "ç§°ä¸º": 5975,
      "çīĮ": 5976,
      "æĪĸæľī": 5977,
      "èŃ¦åĳĬ": 5978,
      "åĴ¨è¯¢æĦıè§ģ": 5979,
      "ä¾ĽåºĶåķĨ": 5980,
      "æ¹¾": 5981,
      "Ġçľĭçľĭ": 5982,
      "eg": 5983,
      "åİĮ": 5984,
      "éĻĦä»¶äºĮ": 5985,
      "èµŀèµıåľ°æ³¨æĦıåĪ°": 5986,
      "è®¢ç«ĭ": 5987,
      "æļ´åĬĽä¾µå®³": 5988,
      "è§Ĵèī²": 5989,
      "æ°¸ä¹ħ": 5990,
      "Ġè·Ł": 5991,
      "åĴĮCorr": 5992,
      "çŃīçŃī": 5993,
      "è¯¢éĹ®": 5994,
      "å£°éŁ³": 5995,
      "é¢Ħéĺ²çĬ¯ç½ªåĴĮåĪĳäºĭåı¸æ³ķ": 5996,
      "èĳ£äºĭ": 5997,
      "çĲĨäºĭä¼ļç¬¬": 5998,
      "æĪ¿éĹ´": 5999,
      "çļĦåħ¨éĿ¢": 6000,
      "å®ı": 6001,
      "åıĳåŁºéĩĳ": 6002,
      "æĿĥåĴĮ": 6003,
      "åĵĪé©¬": 6004,
      "æ¶ĪéĻ¤è´«ç©·": 6005,
      "éĻĪè¿°": 6006,
      "Ġ100": 6007,
      "ç¡®å®ļçļĦ": 6008,
      "å©´": 6009,
      "æ¦Ĥç®Ĺ": 6010,
      "èįĴæ¼łåĮĸ": 6011,
      "og": 6012,
      "åıĳå°Ħ": 6013,
      "æĢ§åĪ«è§ĤçĤ¹": 6014,
      "çĽ´æİ¥æĬķèµĦ": 6015,
      "èĲ¨å°Ķçĵ¦å¤ļ": 6016,
      "ä¸¤æ¬¡": 6017,
      "å°¼åĬłæĭī": 6018,
      "è¾¹å¢ĥ": 6019,
      "ĠæĪĳæ²¡": 6020,
      "è½¨": 6021,
      "ĠæĪĳä»¬çļĦ": 6022,
      "ĠåĨįè§ģ": 6023,
      "ä¸ĸè´¸ç»Ħç»ĩ": 6024,
      "ä¹įå¾Ĺ": 6025,
      "å°¼åĬłæĭīçĵľ": 6026,
      "å»ºéĢł": 6027,
      "åı·åĨ³è®®ä¸Ń": 6028,
      "Ġå®¡æŁ¥": 6029,
      "ä»¥æŃ¤": 6030,
      "ç»ıç¤¾ä¼ļ": 6031,
      "æŃ£å¦Ĥ": 6032,
      "æ¯Ķç»į": 6033,
      "ä¸ĵéĹ¨çŁ¥è¯Ĩ": 6034,
      "æ½ľåĬĽ": 6035,
      "ä¸įè®º": 6036,
      "ä»»èģĮ": 6037,
      "é¥¥": 6038,
      "æ··åĲĪ": 6039,
      "ç»ĳæŀ¶": 6040,
      "æİ¨å¹¿": 6041,
      "å®£è¨ĢåĴĮ": 6042,
      "97": 6043,
      "å°Ŀ": 6044,
      "æĺ¯ä¸Ģ": 6045,
      "å®¶äºº": 6046,
      "ä¸Ĭåİ»": 6047,
      "åħ¬æ°ĳæĿĥåĪ©åĴĮ": 6048,
      "Ġå¼Ģ": 6049,
      "Ġal": 6050,
      "æĬ¥åĳĬç¬¬": 6051,
      "åħ±æľī": 6052,
      "å¯¼å¼¹": 6053,
      "éªļ": 6054,
      "å°½éĩı": 6055,
      "iss": 6056,
      "åĿļåĨ³": 6057,
      "çĶŁçī©å¤ļæł·æĢ§": 6058,
      "æīĢè¿°æľŁéĹ´": 6059,
      "è®¸åı¯è¯ģ": 6060,
      "çļĦåħ³ç³»": 6061,
      "è¿ĺæ²¡æľī": 6062,
      "è½¦è¾Ĩ": 6063,
      "Ġäº²çĪ±çļĦ": 6064,
      "è§Ħå®ļäºĨ": 6065,
      "åįķä¸Ģ": 6066,
      "çİ©ç¬ĳ": 6067,
      "çļĩ": 6068,
      "åĬłå¿«": 6069,
      "åºĶæĢ¥": 6070,
      "åīįå¾Ģ": 6071,
      "æıĲä¾ĽæĶ¯åĬ©": 6072,
      "å¾Īæľī": 6073,
      "æıĲåĩºå»ºè®®": 6074,
      "èµŀæ¯Ķäºļ": 6075,
      "åĪļæīį": 6076,
      "04": 6077,
      "æĺ¯æł¹æį®": 6078,
      "ĠæĪĳè®¤ä¸º": 6079,
      "æľĪä»½": 6080,
      "æŃ§è§Ĩåħ¬çº¦": 6081,
      "çľŁä¸»çļĦ": 6082,
      "åħ¨åĬĽ": 6083,
      "å·´å°¼äºļ": 6084,
      "éĻĲåº¦": 6085,
      "æĢİä¹ĪåĬŀ": 6086,
      "èį¯çī©ç®¡åĪ¶": 6087,
      "æ¹ĸ": 6088,
      "çļĦåĨ³è®®": 6089,
      "å®ŀéªĮ": 6090,
      "æĪĲåĳĺåĲįé¢Ŀ": 6091,
      "Ġas": 6092,
      "è¢ĭ": 6093,
      "å½±åĵįåĪ°": 6094,
      "éĺ¿æĭīä¼¯åĽ½å®¶": 6095,
      "ç´¢èµĶäºº": 6096,
      "éŁ³ä¹Ĳ": 6097,
      "éĤ»åĽ½": 6098,
      "ĠæĿ°": 6099,
      "ä»¥ä¿ĥè¿Ľ": 6100,
      "å±Ĭçī¹åĪ«ä¼ļè®®": 6101,
      "ä¸ĸçķĮäººæĿĥ": 6102,
      "Ġæĺ¯åĲĹ": 6103,
      "å¤±è´¥": 6104,
      "ç¡¬": 6105,
      "åŁºçº³": 6106,
      "é¢Ħéĺ²åĴĮ": 6107,
      "æĦŁåħ´è¶£": 6108,
      "å¼Ģå±ķçļĦ": 6109,
      "ĠIt": 6110,
      "å©Ĩ": 6111,
      "éĹ®è´£åĪ¶": 6112,
      "æľīå®³": 6113,
      "åĮºåĪ«": 6114,
      "æĭīèĦ±": 6115,
      "æİ¥è¿ĳ": 6116,
      "çĽĳç®¡": 6117,
      "Ġ44": 6118,
      "æĹ©ä¸Ĭ": 6119,
      "è´§å¸ģåŁºéĩĳ": 6120,
      "ĠçĪ¸çĪ¸": 6121,
      "æľīäºĨ": 6122,
      "èģĶç½ĳ": 6123,
      "å¤ĦåĨ³": 6124,
      "æıĲäº¤äºĨ": 6125,
      "åĳ¨æľŁ": 6126,
      "her": 6127,
      "è§Ī": 6128,
      "å®ļä¸º": 6129,
      "å¥½åĥı": 6130,
      "ç½ªçĬ¯": 6131,
      "åŁ¹è®ŃåĴĮ": 6132,
      "çļĦäºĭä»¶": 6133,
      "æł¼æŀĹ": 6134,
      "ç»ıè´¹çļĦ": 6135,
      "æĭīèĦ±ç»´äºļ": 6136,
      "æĹ¶èĩ³": 6137,
      "åŁºçº³æ³ķç´¢": 6138,
      "èł¢": 6139,
      "æķĪçĽĬ": 6140,
      "DP": 6141,
      "ĠçĽ®": 6142,
      "Ġat": 6143,
      "ĠæĪĳä¸įèĥ½": 6144,
      "äº§åĩº": 6145,
      "87": 6146,
      "æĸ¹çļĦ": 6147,
      "æĸ¯åħĪçĶŁ": 6148,
      "ä½¿æĪĳä»¬": 6149,
      "éĥ½æ²¡æľī": 6150,
      "è£ħç½®": 6151,
      "å¼ºè°ĥäºĨ": 6152,
      "éĹ®é¢ĺä¸ĸçķĮé¦ĸèĦĳä¼ļè®®": 6153,
      "æĶ¿æ²»æĿĥåĪ©åĽ½éĻħåħ¬çº¦": 6154,
      "åľ¨æĪĳ": 6155,
      "æĹĭ": 6156,
      "æ°ĳä¸»ä¸»ä¹ī": 6157,
      "äºĴåĬ¨": 6158,
      "ian": 6159,
      "Ġå¸ĮæľĽ": 6160,
      "ĠÐ¸": 6161,
      "å¯¹æĪĳ": 6162,
      "ä¸»åĬŀ": 6163,
      "åĮºçļĦ": 6164,
      "å¿«éĢŁ": 6165,
      "æįĲåĬ©åĽ½": 6166,
      "æľīä¸ª": 6167,
      "åıĳæĶ¾": 6168,
      "æĽ´å¤§": 6169,
      "äºĶä¸ª": 6170,
      "Ġ45": 6171,
      "è£ģåĨĽè°ĪåĪ¤ä¼ļè®®": 6172,
      "Ġç»ĻæĪĳ": 6173,
      "çļĦä¸ĸçķĮ": 6174,
      "ç»ıæµİåıĳå±ķ": 6175,
      "æĶ¶åĪ°äºĨ": 6176,
      "çļĦäººæķ°": 6177,
      "é»Ħ": 6178,
      "ĠéĤ£ä½ł": 6179,
      "é¦ĸæ¬¡": 6180,
      "IS": 6181,
      "ĠæĹł": 6182,
      "çļĦæĬĢæľ¯": 6183,
      "åºĨ": 6184,
      "ä¸ĭæĸĩ": 6185,
      "å·²åľ¨": 6186,
      "ç»Ļç§ĺä¹¦éķ¿": 6187,
      "è®©æĪĳä»¬": 6188,
      "éĺ¿å°Ķå·´å°¼äºļ": 6189,
      "åĩłåĨħäºļæ¯Ķç»į": 6190,
      "åĲĦä¼ļåĳĺåĽ½": 6191,
      "éĻĲæĪĲåĳĺåĲįé¢Ŀ": 6192,
      "çĻ¾ä¸ĩ": 6193,
      "ary": 6194,
      "çĶ·æĢ§": 6195,
      "Ġä¸ĢèĪ¬": 6196,
      "ĠæĪĳèĥ½": 6197,
      "å¤Ħå¢ĥ": 6198,
      "æĺ¾èĳĹ": 6199,
      "éĢģäº¤": 6200,
      "ĠèģĶ": 6201,
      "åĴĮå®ŀæĸ½": 6202,
      "å§Ķåĳĺä¼ļçļĦå·¥ä½ľ": 6203,
      "èĥİ": 6204,
      "è¡¥åĬ©": 6205,
      "ä¼ģåĽ¾": 6206,
      "è´Ŀå®ģ": 6207,
      "Ġåĳĥ": 6208,
      "çļĦåħ±åĲĮ": 6209,
      "åĴĮAdd": 6210,
      "æĺ¯ä¸Ģç§į": 6211,
      "åħ¬æĬ¥": 6212,
      "è¿ĿèĥĮ": 6213,
      "å°ĳæķ°æ°ĳæĹı": 6214,
      "ĠæĢİä¹ĪäºĨ": 6215,
      "ä¸»å¼ł": 6216,
      "åĬłåī§": 6217,
      "çŃīå¾ħ": 6218,
      "è¢«è®¤ä¸º": 6219,
      "èº«ä¸Ĭ": 6220,
      "ick": 6221,
      "è´¢åĬ¡æĬ¥è¡¨": 6222,
      "çļĦç®¡çĲĨ": 6223,
      "æĿ¡çļĦ": 6224,
      "é©¬åħ¶é¡¿åħ±åĴĮåĽ½": 6225,
      "ä¸ĸçķĮåĲĦåľ°": 6226,
      "æĪĲåĳĺçļĦ": 6227,
      "æľĿé²ľæ°ĳä¸»ä¸»ä¹ī": 6228,
      "Ġç¡®ä¿Ŀ": 6229,
      "æĿĢä¼¤": 6230,
      "éģĩåĪ°": 6231,
      "è¡¥æķĳåĬŀæ³ķ": 6232,
      "åĴĮçİ¯å¢ĥ": 6233,
      "åĴĮæľįåĬ¡": 6234,
      "è¿ĩäºĨ": 6235,
      "ç»ıæµİä½ĵ": 6236,
      "ç²®åĨľ": 6237,
      "çº¢åįģåŃĹ": 6238,
      "ä¾§éĩį": 6239,
      "æīĢè§Ħå®ļçļĦ": 6240,
      "å¼Ģåıĳéĵ¶è¡Į": 6241,
      "åģľçģ«": 6242,
      "åıįæĺłäºĨ": 6243,
      "å½ĵäºĭäºº": 6244,
      "åĴĮæĶ¯æĮģ": 6245,
      "åĲĦä½į": 6246,
      "ĠæĪĳä»¬å¿ħé¡»": 6247,
      "å¼Ģå±ķå·¥ä½ľ": 6248,
      "ä¸ĵå®¶å°ıç»Ħ": 6249,
      "æĭ¿é©¬": 6250,
      "æľĿé²ľæ°ĳä¸»ä¸»ä¹īäººæ°ĳåħ±åĴĮåĽ½": 6251,
      "ĠåĲĦåĽ½": 6252,
      "çĲĨè®º": 6253,
      "çªģåĩº": 6254,
      "å¥ĩæĢª": 6255,
      "èĩªæĪĳ": 6256,
      "Ġknow": 6257,
      "äººäºº": 6258,
      "å¼Ģå¹ķ": 6259,
      "æıĲäº¤ç»Ļ": 6260,
      "åį¡å¡Ķå°Ķ": 6261,
      "ake": 6262,
      "è¦ĨçĽĸ": 6263,
      "å°±åı¯ä»¥": 6264,
      "æĶ¿åºľåľ¨": 6265,
      "è®¾åľ¨": 6266,
      "çľĭèµ·æĿ¥": 6267,
      "Ġ41": 6268,
      "å¾·éĩĮ": 6269,
      "è´Łæľī": 6270,
      "æĿ¡çº¦æľºæŀĦ": 6271,
      "å·´åĭĴæĸ¯åĿ¦äºº": 6272,
      "è¾©æĬ¤": 6273,
      "åĬłæĸ¯": 6274,
      "çķı": 6275,
      "ä½İäºİ": 6276,
      "èĵĿ": 6277,
      "è®®äºĭè§ĦåĪĻç¬¬": 6278,
      "72": 6279,
      "å·§": 6280,
      "ĠæĪĳå¾Ĺ": 6281,
      "åħ¶åľ¨": 6282,
      "äººæĿĥçļĦ": 6283,
      "è©²": 6284,
      "ĠåĨ³è®®èįīæ¡Ī": 6285,
      "åİī": 6286,
      "èģĶåĲĪåħ±åĴĮåĽ½": 6287,
      "çº³ç±³": 6288,
      "è¿ĻåĦ¿": 6289,
      "é¡¹ä¸ĭ": 6290,
      "ä½¿ä¹ĭ": 6291,
      "åĪĹçļĦ": 6292,
      "ä»įåľ¨": 6293,
      "ç¹ģèį£": 6294,
      "ä¼ļä¸Ĭ": 6295,
      "åĬłä¸Ĭ": 6296,
      "ä½¿ä»ĸä»¬": 6297,
      "çķĻä¸ĭ": 6298,
      "æ£®åł¡": 6299,
      "è¿ĿåıįäºĨ": 6300,
      "åīĬåĩı": 6301,
      "ä¿ĿåŃĺ": 6302,
      "åĪĨæ®µ": 6303,
      "æľ¬å±Ĭä¼ļè®®": 6304,
      "éħĭ": 6305,
      "äºīè®®": 6306,
      "Ġcan": 6307,
      "ä½£": 6308,
      "æķĻæİĪ": 6309,
      "æĢģåıĳå±ķ": 6310,
      "éģĹäº§": 6311,
      "åĪłéĻ¤": 6312,
      "Ġçī¹åĪ«": 6313,
      "ĠçŁ¥éģĵ": 6314,
      "æľºåľº": 6315,
      "åıĹå½±åĵį": 6316,
      "è´¸æĺĵåĴĮåıĳå±ķ": 6317,
      "çĳŁ": 6318,
      "æĢĿæĥ³": 6319,
      "èĢ³ä»ĸ": 6320,
      "å°ıå²Ľå±¿åıĳå±ķä¸ŃåĽ½å®¶": 6321,
      "ry": 6322,
      "éĹ®é¢ĺæĺ¯": 6323,
      "å¤ļç±³å°¼": 6324,
      "é«ĺçļĦ": 6325,
      "æł¹æºĲ": 6326,
      "åĲīå°Ķ": 6327,
      "åĿ¦æ¡ĳå°¼äºļèģĶåĲĪåħ±åĴĮåĽ½": 6328,
      "çļĦåĲĮæĹ¶": 6329,
      "ä»ĸè¯´": 6330,
      "é©³": 6331,
      "åĭĩ": 6332,
      "è»": 6333,
      "åĨĴ": 6334,
      "æľªæĿ¥çļĦ": 6335,
      "ore": 6336,
      "åį¢æ£®åł¡": 6337,
      "é¡ºåĪ©": 6338,
      "ä¸¢": 6339,
      "çļĦä¸ªäºº": 6340,
      "å¹¼": 6341,
      "å®īç½®": 6342,
      "è¢ĸ": 6343,
      "çĽ®æłĩæĺ¯": 6344,
      "éļ¾æ°ĳä¸ĵåĳĺåĬŀäºĭå¤Ħ": 6345,
      "æļĤåģľ": 6346,
      "å°Ķå¤ļçĵ¦": 6347,
      "å¤ļäºĨ": 6348,
      "è¯¥åĨ³è®®": 6349,
      "æ²¡æĶ¶": 6350,
      "æľīåħ³åĽ½å®¶": 6351,
      "æĳĦ": 6352,
      "å½¢åĬ¿": 6353,
      "Ġare": 6354,
      "æĪĳä¹Ł": 6355,
      "çĪµ": 6356,
      "æ°Ķä½ĵ": 6357,
      "ä»¥ä¾¿åľ¨": 6358,
      "åĪ¶å®ļäºĨ": 6359,
      "çĶ³è¯īäºº": 6360,
      "å·¨å¤§çļĦ": 6361,
      "89": 6362,
      "ĠéĿŀå¸¸": 6363,
      "çļĦåħ¬çº¦": 6364,
      "æ³ķå®ļ": 6365,
      "æĦĽ": 6366,
      "åĽ½å®¶ä¸Ģçº§": 6367,
      "èĦı": 6368,
      "åĵĪèĲ¨åħĭæĸ¯åĿ¦": 6369,
      "å½¼æŃ¤": 6370,
      "Ġå¯¼è¨Ģ": 6371,
      "æĪĳçİ°åľ¨": 6372,
      "æŃ¦åĬĽ": 6373,
      "ç§¯æŀģåıĤä¸İ": 6374,
      "ations": 6375,
      "å¦ĩå¥³åĴĮåĦ¿ç«¥": 6376,
      "çļĦçĽ¸åħ³": 6377,
      "åıĳå±ķçŃ¹èµĦ": 6378,
      "åı·åĴĮ": 6379,
      "Ġ57": 6380,
      "ç©ºç¼º": 6381,
      "Ġè®©æĪĳä»¬": 6382,
      "å¿ĺäºĨ": 6383,
      "ä¹ĭäºĮ": 6384,
      "åĨħéĥ¨çĽĳçĿ£": 6385,
      "Ġé¡µ": 6386,
      "æľīç½ª": 6387,
      "åįıåĲĮ": 6388,
      "è£ģå®ļ": 6389,
      "è¿ĳä¸ľ": 6390,
      "å§ĭç»Ī": 6391,
      "çĵ¦å°Ķ": 6392,
      "ç¬¬ä¸Ģä¸ª": 6393,
      "æī¿åĮħ": 6394,
      "ç»§ç»ŃåĬªåĬĽ": 6395,
      "æ´¾éģ£åĽ½": 6396,
      "å¯¹è±¡": 6397,
      "åıĹä¼¤": 6398,
      "åı·åĴĮç¬¬": 6399,
      "æ¯Ķåħĭ": 6400,
      "Ġ49": 6401,
      "åĪ¶åº¦çļĦ": 6402,
      "æĳ©å°Ķå¤ļçĵ¦": 6403,
      "åĨ°å²Ľ": 6404,
      "æ²Ł": 6405,
      "æĬ¤çĲĨ": 6406,
      "æıĲäº¤æĬ¥åĳĬ": 6407,
      "éĽĩä¸»": 6408,
      "éĽĩçĶ¨": 6409,
      "éĹ®é¢ĺåĽ½éĻħæ³ķåºŃ": 6410,
      "åĨħç½Ĺæ¯ķ": 6411,
      "Ġ46": 6412,
      "ç»´æĮģåĴĮå¹³è¡ĮåĬ¨éĥ¨": 6413,
      "çļĦæľºæŀĦ": 6414,
      "åŃ¦å®¶": 6415,
      "åıįèħĲè´¥": 6416,
      "ĠAnd": 6417,
      "æĭħä¿ĿæĿĥ": 6418,
      "ãĤ": 6419,
      "æľ¬åħ¬çº¦": 6420,
      "85": 6421,
      "çļĦç¼Ķçº¦åĽ½": 6422,
      "çļĦåįıè°ĥ": 6423,
      "çī²": 6424,
      "éģĹæĨ¾çļĦæĺ¯": 6425,
      "Ġæ¬§æ´²èģĶçĽŁ": 6426,
      "çļĦæļ´åĬĽ": 6427,
      "ä»ª": 6428,
      "åĴ±": 6429,
      "åħ³éĹŃ": 6430,
      "è¯¥åľ°åĮº": 6431,
      "ä¼¯åĪ©": 6432,
      "åľ¨è¿ĻåĦ¿": 6433,
      "æ´¥å·´å¸ĥ": 6434,
      "åĬ¨åĬĽ": 6435,
      "å¥½åĲ§": 6436,
      "æĪĲåĬŁåľ°": 6437,
      "çľ¼çĿ": 6438,
      "æ´¥å·´å¸ĥéŁ¦": 6439,
      "Ġåħĭ": 6440,
      "Ġæµ·": 6441,
      "Ġæĭ¿": 6442,
      "åĪĢ": 6443,
      "èĢĮå·²": 6444,
      "çļĦäºĭå®ŀ": 6445,
      "ä¹ĭéĹ´çļĦåħ³ç³»": 6446,
      "åıĹå®³äºº": 6447,
      "è·¨åĽ½æľīç»Ħç»ĩçĬ¯ç½ª": 6448,
      "è¯¥æĬ¥åĳĬ": 6449,
      "æİ¥åıĹçļĦ": 6450,
      "ĠPr": 6451,
      "è§Ĥå¯ŁåĽ¢": 6452,
      "è°ĭæĿĢ": 6453,
      "Ġä»»ä½ķ": 6454,
      "æĿİ": 6455,
      "çĸŁ": 6456,
      "ç¤¾ä¼ļåĴĮæĸĩåĮĸæĿĥåĪ©": 6457,
      "éĹ´æİ¥": 6458,
      "çłĶç©¶åĴĮ": 6459,
      "çĪ±æ²Ļ": 6460,
      "ĠæĪĳåĽ½ä»£è¡¨åĽ¢": 6461,
      "ĠæĮī": 6462,
      "åĮħå®¹": 6463,
      "è½¬éĢĴ": 6464,
      "éĵ¾": 6465,
      "ç¬¬ä¸īæ¬¡": 6466,
      "é¸¡": 6467,
      "éŀ": 6468,
      "çļĦæŃ§è§Ĩ": 6469,
      "åľ¨è¿ĩåİ»": 6470,
      "å¯¹ä½ł": 6471,
      "éĽĦ": 6472,
      "åħħåĪĨçļĦ": 6473,
      "æ®ĭå¿į": 6474,
      "åıĳè¾¾åĽ½å®¶çļĦ": 6475,
      "Ġæĸĩä»¶": 6476,
      "ä¸Ńå°ı": 6477,
      "è¯¥é¡¹": 6478,
      "éĥ¨åĪĨç¬¬": 6479,
      "2011": 6480,
      "ä¸ĢäºĽåĽ½å®¶": 6481,
      "è¦º": 6482,
      "è´¸æĺĵæ³ķå§Ķåĳĺä¼ļ": 6483,
      "çĪ±æ²Ļå°¼äºļ": 6484,
      "éģ¥": 6485,
      "è¿ŀç»Ń": 6486,
      "æ®ĸæ°ĳåĮĸ": 6487,
      "ber": 6488,
      "Ġåħ¨": 6489,
      "æľīèĥ½åĬĽ": 6490,
      "ä»¥åĬłå¼º": 6491,
      "è¢«åįł": 6492,
      "èĻļ": 6493,
      "çŃ¾è®¢": 6494,
      "ç»ĪäºĨ": 6495,
      "æıĲåĩºçļĦå»ºè®®": 6496,
      "åĤ»": 6497,
      "èģĶåĲĪåĽ½ç³»ç»ŁåĲĦ": 6498,
      "çļĦè°ĥæŁ¥": 6499,
      "çļĦå¨ģèĥģ": 6500,
      "æĢ»æķ°": 6501,
      "åİŁåĽłæĺ¯": 6502,
      "Ø§": 6503,
      "æıĲäº¤çļĦæĬ¥åĳĬ": 6504,
      "Ġ60": 6505,
      "èªį": 6506,
      "ç¼ºå°ĳ": 6507,
      "å·¥ä½ľäººåĳĺçļĦ": 6508,
      "ĠInternational": 6509,
      "åĲ¨": 6510,
      "å¯¦": 6511,
      "ä½łæĥ³": 6512,
      "çĽĹ": 6513,
      "å»ºç«ĭä¿¡ä»»": 6514,
      "é¼ĵèĪŀ": 6515,
      "éĺ¿æĭīä¼¯åĪ©æ¯Ķäºļ": 6516,
      "åĴĸ": 6517,
      "ä¸Ģæĸ¹éĿ¢": 6518,
      "ä¾¦": 6519,
      "éĺ´": 6520,
      "æĪĳä»¬è¦ģ": 6521,
      "Ġä»ĸåľ¨": 6522,
      "å®ĪåĪĻ": 6523,
      "ä¹Įåħ¹": 6524,
      "æ±ĩæĬ¥": 6525,
      "èİ«æ¡ĳ": 6526,
      "ĠåĽŀé¡¾åħ¶": 6527,
      "ä¸§å¤±": 6528,
      "èİ«æ¡ĳæ¯Ķåħĭ": 6529,
      "å¹¶éĢļè¿ĩ": 6530,
      "æ°ĳä¼ĹåĽ½": 6531,
      "å¤§ä¼ļçļĦ": 6532,
      "çģ¯": 6533,
      "åĮĹéĥ¨": 6534,
      "Ġåıª": 6535,
      "ä¼Ł": 6536,
      "ä¸Ģéĥ¨åĪĨ": 6537,
      "ĠæĪĳåİ»": 6538,
      "ĠæĪĳå·²ç»ı": 6539,
      "æĦ¿æľĽ": 6540,
      "å¹¿æĴŃ": 6541,
      "ä¸įå¾Ĺä¸į": 6542,
      "ike": 6543,
      "Ġåĳ¼åĲģ": 6544,
      "åľ°å¸¦": 6545,
      "æ°ĳäºĭ": 6546,
      "å¸ĥåŁºçº³æ³ķç´¢": 6547,
      "çªģçĦ¶": 6548,
      "éĻĦå±ŀæľºæŀĦ": 6549,
      "çļĦæĿ¡æ¬¾": 6550,
      "åĴĮç¨ĭåºı": 6551,
      "ĠæĪĳä¸įä¼ļ": 6552,
      "å¯¹èģĶåĲĪåĽ½": 6553,
      "èĩªåĬ¨": 6554,
      "è´¸æĺĵåĴĮ": 6555,
      "æĢĢåŃķ": 6556,
      "ä¹Įåħ¹åĪ«": 6557,
      "èŁ": 6558,
      "Ġè¡Į": 6559,
      "äºĭä¸ļ": 6560,
      "ä¸İåĽ½éĻħ": 6561,
      "å°±è¦ģ": 6562,
      "æĿ¡çļĦè§Ħå®ļ": 6563,
      "æľĢåĪĿ": 6564,
      "é¦ĸéķ¿": 6565,
      "ä½ľåĩºè´¡çĮ®": 6566,
      "å¸®ä½ł": 6567,
      "åı¬éĽĨ": 6568,
      "ä¸ĵä¸ļäººåĳĺ": 6569,
      "ãģĥ": 6570,
      "Ġåįģ": 6571,
      "æĪĸåľ¨": 6572,
      "å¤ĸéĿ¢": 6573,
      "ä½Ĩåľ¨": 6574,
      "Ġä¸įçĶ¨": 6575,
      "éģ£è¿Ķ": 6576,
      "æļĤè¡Į": 6577,
      "Ġ!": 6578,
      "Ġè¿ĩåİ»": 6579,
      "è¦ģæ±ĤçļĦ": 6580,
      "å¿ħè¦ģæİªæĸ½": 6581,
      "æĸĩåĮĸåĴĮ": 6582,
      "éħĭéķ¿": 6583,
      "æĪĳè°¨": 6584,
      "ä¸įä¹ħ": 6585,
      "æįį": 6586,
      "ä¼łæŁĵ": 6587,
      "æĢ§åĪ«éĹ®é¢ĺ": 6588,
      "è¶³å¤ŁçļĦ": 6589,
      "çļĦå®ļä¹ī": 6590,
      "ä¸ºä½ķ": 6591,
      "ĠæĪĳæ²¡æľī": 6592,
      "ä¸ĬäºĨ": 6593,
      "ong": 6594,
      "ç®ĢæĬ¥": 6595,
      "åĮĸåŃ¦æŃ¦åĻ¨": 6596,
      "WG": 6597,
      "ure": 6598,
      "åķ¡": 6599,
      "Ġ54": 6600,
      "ä»½æĬ¥åĳĬ": 6601,
      "ice": 6602,
      "ever": 6603,
      "å¤ĸåĽ½çĽ´æİ¥æĬķèµĦ": 6604,
      "æľªç»ıè¡¨åĨ³": 6605,
      "PR": 6606,
      "pos": 6607,
      "åºĶçĶ±": 6608,
      "éĽ£": 6609,
      "æķĻåŃ¦": 6610,
      "èĻ«": 6611,
      "æŀģåħ¶": 6612,
      "åģ¿è¿ĺ": 6613,
      "äº¦": 6614,
      "æĥ§": 6615,
      "çĶ·å¥³å¹³çŃī": 6616,
      "æ¶ĪéĻ¤å¯¹å¦ĩå¥³ä¸ĢåĪĩå½¢å¼ı": 6617,
      ",(": 6618,
      "95": 6619,
      "å°ĨæĿ¥": 6620,
      "æıĲä¾ĽèµĦéĩĳ": 6621,
      "ä»İæľª": 6622,
      "çļĦæ¡Īä»¶": 6623,
      "åĲĮä¸Ĭ": 6624,
      "å¿ħéľĢ": 6625,
      "æ¸ł": 6626,
      "æĬĬæĪĳ": 6627,
      "çĽ®æłĩåĴĮ": 6628,
      "è¾¹ç¼ĺ": 6629,
      "åĳ¨å¹´": 6630,
      "æĮĩæķ°": 6631,
      "Ġä¸įç®¡": 6632,
      "Ġ51": 6633,
      "ĠåĶ": 6634,
      "åħ¨éĿ¢çļĦ": 6635,
      "éĸĵ": 6636,
      "è¡ĮæĶ¿åĴĮé¢Ħç®ĹéĹ®é¢ĺåĴ¨è¯¢å§Ķåĳĺä¼ļ": 6637,
      "çľ¼çĿĽ": 6638,
      "åĪĬ": 6639,
      "ä½łèĥ½": 6640,
      "æĢ§åī¥åīĬ": 6641,
      "ç¨®": 6642,
      "æħİ": 6643,
      "æļĤæĹ¶": 6644,
      "æīŃ": 6645,
      "ä¸įå¹³çŃī": 6646,
      "åķĨåĬ¡": 6647,
      "ä¸ŃéĿŀåħ±åĴĮåĽ½": 6648,
      "åĴĮå·¥ä½ľ": 6649,
      "è¡Įäºĭ": 6650,
      "æ´ŀ": 6651,
      "å¾Īå°ĳ": 6652,
      "æ¬¾çļĦ": 6653,
      "å§Ķåĳĺä¼ļçļĦå»ºè®®": 6654,
      "éĺĲè¿°": 6655,
      "åĨ»ç»ĵ": 6656,
      "Ġç½Ĺ": 6657,
      "ä¸ĢæĹ¦": 6658,
      "è§Ħç«ł": 6659,
      "åħ³äºİåľ¨": 6660,
      "é¦ĸè¦ģ": 6661,
      "ä¼ĺåĬ¿": 6662,
      "çĭ¬ç«ĭä¸ĵå®¶": 6663,
      "å®Ŀè´µ": 6664,
      "çº³ç±³æ¯Ķäºļ": 6665,
      "ä¸Ģè¯į": 6666,
      "ä¸ªåĪ«": 6667,
      "æŃ£å½ĵ": 6668,
      "1967": 6669,
      "è®¸å¤ļåĽ½å®¶": 6670,
      "éĺĲæĺİ": 6671,
      "å¿½è§Ĩ": 6672,
      "æįįåį«": 6673,
      "Ġæ¬§æ´²": 6674,
      "åľ°åŁŁ": 6675,
      "Ġä½łè§īå¾Ĺ": 6676,
      "ä¸ĭæĶ¾": 6677,
      "å¤ļä¸ª": 6678,
      "åĲİèĢħ": 6679,
      "è§ģç¬¬": 6680,
      "æĥ³çŁ¥éģĵ": 6681,
      "ä¸»å¸ŃçļĦ": 6682,
      "è¿Ľç¨ĭçļĦ": 6683,
      "åĪļçī¹æ´¾åĽ¢": 6684,
      "çļĦäºĭé¡¹": 6685,
      "åº·å¤į": 6686,
      "è¾±äºº": 6687,
      "rom": 6688,
      "åıĳåĬ¨": 6689,
      "å·´æĭ¿é©¬": 6690,
      "èĭ¯": 6691,
      "éĩıçļĦ": 6692,
      "çŃ¹å¤ĩå§Ķåĳĺä¼ļ": 6693,
      "å¤§åĬĽ": 6694,
      "çī¹å¾ģ": 6695,
      "Ġä½łä¸ºä»Ģä¹Ī": 6696,
      "æĢ§æļ´åĬĽ": 6697,
      "ä¹¦è®°": 6698,
      "æŃ£æĺ¯": 6699,
      "åĲĪä½ľä¼Ļä¼´": 6700,
      "èį¡": 6701,
      "ç´§è¿«": 6702,
      "åħ³åĪĩåľ°æ³¨æĦıåĪ°": 6703,
      "ç²®åĨľç»Ħç»ĩ": 6704,
      "Ġç¡®è®¤": 6705,
      "çī§": 6706,
      "è®¤å®ļ": 6707,
      "åĽ¾ä¹¦": 6708,
      "ä¸įç®¡": 6709,
      "å¯Ħ": 6710,
      "å¥ĭ": 6711,
      "ä¸Ńå¿ĥçļĦ": 6712,
      "æĺ¨å¤©": 6713,
      "96": 6714,
      "ĠæĪĳè¯´": 6715,
      "æģĭ": 6716,
      "åĮºåŁŁåĴĮåĽ½éĻħ": 6717,
      "è¯Ī": 6718,
      "å¾Ĺåĩº": 6719,
      "ä¹ŁéĹ¨": 6720,
      "çĿĢæĪĳ": 6721,
      "Ġ58": 6722,
      "çļĦç»ĵè®º": 6723,
      "ä¸įçĶ¨": 6724,
      "éĢ»": 6725,
      "æīĢåģļ": 6726,
      "èĢĮåľ¨": 6727,
      "ä¼Ĭæĸ¯åħ°å¤ĸäº¤éĥ¨éķ¿": 6728,
      "çŀ§": 6729,
      "CONF": 6730,
      "CR": 6731,
      "æĬ«": 6732,
      "åĲĳèģĶåĲĪåĽ½": 6733,
      "ä¸¤ç§į": 6734,
      "itt": 6735,
      "ç¬¬ä¸Ģç«ł": 6736,
      "æĦıæĢĿæĺ¯": 6737,
      "åĴĸåķ¡": 6738,
      "Ġå¦ĩå¥³": 6739,
      "æ¬¡åħ¨ä½ĵä¼ļè®®": 6740,
      "ä½ľä¸ºä¸Ģä¸ª": 6741,
      "ä¿¡æģ¯ç³»ç»Ł": 6742,
      "Ġdon": 6743,
      "îĹ¬": 6744,
      "ĠåĽ½éĻħç¤¾ä¼ļ": 6745,
      "ãĢĤ]": 6746,
      "æĺ¯æľī": 6747,
      "Ġå¤©åķĬ": 6748,
      "çĴ": 6749,
      "åĪĨæķ£": 6750,
      "å¤ļåĵĪ": 6751,
      "Ġä»ĸè¿ĺ": 6752,
      "é©¬èĢ³ä»ĸ": 6753,
      "èĥ½å¤Łåľ¨": 6754,
      "æ±½è½¦": 6755,
      "åĴĮæķĻèĤ²": 6756,
      "ä¸ªP": 6757,
      "Ġåľ¨åĲĮ": 6758,
      "çľŁå®ŀ": 6759,
      "è®©ä»ĸ": 6760,
      "åĵªåĦ¿": 6761,
      "æķĮå¯¹": 6762,
      "åīįåįĹæĸ¯æĭīå¤«çļĦ": 6763,
      "å®īåħ¨çĲĨäºĭä¼ļä¸»å¸ŃçļĦä¿¡": 6764,
      "±ä¹Ĳ": 6765,
      "å¤§ä¼ļæŃ£å¼ıè®°å½ķ": 6766,
      "æĬĬä½ł": 6767,
      "è®°èĢħ": 6768,
      "èĸĦ": 6769,
      "ĠéĢļè¿ĩè®®ç¨ĭ": 6770,
      "å¿ĹæĦ¿äººåĳĺ": 6771,
      "åĴĮéĩįè¿Ķç¤¾ä¼ļ": 6772,
      "ä¸ĬéĿ¢": 6773,
      "æĬ¥éħ¬": 6774,
      "è¾ľ": 6775,
      "è¿ĺåºĶ": 6776,
      "å·²æľī": 6777,
      "è¿Ľè¡ĮåĲĪä½ľ": 6778,
      "ç¼Ķçº¦åĽ½åľ¨": 6779,
      "éĺ²æŃ¢åĴĮ": 6780,
      "ä¹Įåħ¹åĪ«åħĭæĸ¯åĿ¦": 6781,
      "å¦³": 6782,
      "å°Ĩå¯¹": 6783,
      "æĬ¥åĳĬè¯´": 6784,
      "åİ»å¹´": 6785,
      "åŃ¦æľ¯": 6786,
      "éª¨": 6787,
      "å®¡æŁ¥åĴĮ": 6788,
      "æīįæĺ¯": 6789,
      "åħ¬åı¸çļĦ": 6790,
      "æĬĵä½ı": 6791,
      "Ġåīį": 6792,
      "Ġæ³¨": 6793,
      "çķĮå®ļ": 6794,
      "ç»´å°Ķ": 6795,
      "Ġ56": 6796,
      "ä»¥ä½¿": 6797,
      "æīĢå¾Ĺ": 6798,
      "å°ĨæľīåĬ©äºİ": 6799,
      "åĪĹæĶ¯": 6800,
      "é¡¹çĽ®æłĩ": 6801,
      "Ġ52": 6802,
      "è´¨çĸĳ": 6803,
      "æ¸łéģĵ": 6804,
      "åĲİéĿ¢": 6805,
      "å¿ħå®ļ": 6806,
      "æľīåħ³åĨ³è®®": 6807,
      "ĠæĪĳä»¬ä¼ļ": 6808,
      "äººæĿĥé«ĺä¸ĵåĬŀ": 6809,
      "ä½įäºİ": 6810,
      "Ġ55": 6811,
      "è¿Ļç§įæĥħåĨµ": 6812,
      "å®ıè§Ĥ": 6813,
      "çļĦåıĳè¨Ģ": 6814,
      "ä¸Ģäºº": 6815,
      "çĶ°": 6816,
      "ç¨į": 6817,
      "åĽłçĤº": 6818,
      "æĪĳä»¬è®¤ä¸º": 6819,
      "ass": 6820,
      "åĬŁèĥ½": 6821,
      "æ¸¸æĪı": 6822,
      "ä½Ļé¢Ŀ": 6823,
      "74": 6824,
      "Ġä»¥åıĬ": 6825,
      "Ġä¸ŃåĽ½": 6826,
      "æĺ¯ä¸įæĺ¯": 6827,
      "ä¸įäººéģĵ": 6828,
      "å¸Ńä½į": 6829,
      "æĪĳå¾Ī": 6830,
      "åĩ¶": 6831,
      "çīµ": 6832,
      "ä¸¾è¡Įä¼ļè®®": 6833,
      "è½¬äº¤": 6834,
      "å¼±åĬ¿": 6835,
      "71": 6836,
      "eb": 6837,
      "åľ¨æīĢæľī": 6838,
      "èŃ¦å®ĺ": 6839,
      "æ¦Ĥè¿°": 6840,
      "è½¯ä»¶": 6841,
      "çº¯": 6842,
      "ĠæĪĳä»¬åľ¨": 6843,
      "å£«çĻ»": 6844,
      "æĳ§": 6845,
      "æķ¦å£«çĻ»": 6846,
      "çĸŁçĸ¾": 6847,
      "UN": 6848,
      "å¿ł": 6849,
      "å§Ķåĳĺä¼ļç¬¬": 6850,
      "çľŁçĽ¸": 6851,
      "å¿ħè¦ģæĹ¶": 6852,
      "Ġèĩ³äºİ": 6853,
      "åħ¬æ°ĳæĿĥåĪ©åĴĮæĶ¿æ²»æĿĥåĪ©åĽ½éĻħåħ¬çº¦": 6854,
      "åĪĹæĶ¯æķ¦å£«çĻ»": 6855,
      "åĬĽåĴĮ": 6856,
      "è´©è¿Ĳäººåı£": 6857,
      "................": 6858,
      "åīįåįĹæĸ¯æĭīå¤«çļĦé©¬åħ¶é¡¿åħ±åĴĮåĽ½": 6859,
      "ä¹Łåı¯ä»¥": 6860,
      "èĥĢ": 6861,
      "å®¢è§Ĥ": 6862,
      "ĠUn": 6863,
      "æ¶ĪéĻ¤å¯¹å¦ĩå¥³ä¸ĢåĪĩå½¢å¼ıæŃ§è§Ĩåħ¬çº¦": 6864,
      ":ãĢĬ": 6865,
      "ä¸ºæī§è¡Į": 6866,
      "èµĮ": 6867,
      "æĹ¶åĪ»": 6868,
      "ä½¿èĢħ": 6869,
      "å®ŀçİ°åįĥå¹´åıĳå±ķçĽ®æłĩ": 6870,
      "Ġåį³ä½¿": 6871,
      "æ¶ĪèĢĹ": 6872,
      "è¡¨ç¤ºæ¬¢è¿İ": 6873,
      ").": 6874,
      "Ġæ±Ĥ": 6875,
      "çļĦä½¿çĶ¨": 6876,
      "åĴĮä½¿çĶ¨": 6877,
      "ä¼ļæľī": 6878,
      "è¯ŀ": 6879,
      "éĽª": 6880,
      "ä¸ĸçķĮè´¸æĺĵ": 6881,
      "ç®¡çĲĨçļĦ": 6882,
      "çªĹ": 6883,
      "æĴŀ": 6884,
      "Ġwww": 6885,
      "Ġä¸İæŃ¤åĲĮæĹ¶": 6886,
      "çĻ»è®°åĨĮ": 6887,
      "ç²®é£Łè®¡åĪĴç½²": 6888,
      "oh": 6889,
      "ä¸Ģæ®µ": 6890,
      "å¹¶ä¸İ": 6891,
      "ç¦ģæŃ¢éħ·åĪĳ": 6892,
      "éĢĲæ¸Ĳ": 6893,
      "EP": 6894,
      "å±ł": 6895,
      "å¼Ģå¿ĥ": 6896,
      "ä¿ĥè¿Ľåıĳå±ķ": 6897,
      "Ġ59": 6898,
      "Ġä¸İä¼ļèĢħ": 6899,
      "åĩºå¸ŃäºĨ": 6900,
      "æ¯ĴåĵģåĴĮçĬ¯ç½ªéĹ®é¢ĺåĬŀäºĭå¤Ħ": 6901,
      "éĺ¿æĭīä¼¯åĪ©æ¯Ķäºļæ°ĳä¼ĹåĽ½": 6902,
      "ĠæĪĳåıª": 6903,
      "Ġä½łåĢĳ": 6904,
      "é«ĺçº§ä¸ĵåĳĺåĬŀäºĭå¤Ħ": 6905,
      "æĭĽåĭŁ": 6906,
      "æ»¡æĦıåľ°æ³¨æĦıåĪ°": 6907,
      "îĺ": 6908,
      "çļĦè®¤è¯Ĩ": 6909,
      "åĪ¶ä½ľ": 6910,
      "Ġç¬¬åĽĽ": 6911,
      "å®¡æŁ¥äºĨ": 6912,
      "Ġæ³ķå¾ĭ": 6913,
      "çļĦæł¸å¿ĥ": 6914,
      "åĴĮæĸĩåĮĸ": 6915,
      "æľīåĬĽçļĦ": 6916,
      "ç¬¬ä¹Ŀ": 6917,
      "åı¯æĢķ": 6918,
      "ç»ıç¤¾": 6919,
      "æľĢå¥½çļĦ": 6920,
      "åıĤçħ§": 6921,
      "ä¸īåĪĨ": 6922,
      "è®©äºº": 6923,
      "çķĻåľ¨": 6924,
      "éĺ¿æĭīä¼¯èģĶåĲĪ": 6925,
      "è´¢æĶ¿èµĦæºĲ": 6926,
      "å¤ĸåĽ½äºº": 6927,
      "åĽļçĬ¯": 6928,
      "çļĦåĴĮå¹³": 6929,
      "ä¾ĿéĿł": 6930,
      "åı·åĨ³è®®æīĢè®¾": 6931,
      "ĠåºĶå½ĵ": 6932,
      "äºĨä»ĸ": 6933,
      "åķı": 6934,
      "Ġ53": 6935,
      "åħħè¶³": 6936,
      "éĿ©åĳ½": 6937,
      "åĴ¨è¯¢æľºæŀĦ": 6938,
      "76": 6939,
      "ĠÙ": 6940,
      "æĹģ": 6941,
      "éĤ£æĺ¯": 6942,
      "çĹħæ¯Ĵ": 6943,
      "ç¨ĭåºıåĴĮ": 6944,
      "å»ºè®¾æĢ§": 6945,
      "çļĦäººåĳĺ": 6946,
      "çļĦæĻĤåĢĻ": 6947,
      "æľīçĿĢ": 6948,
      "æĪĸæĺ¯": 6949,
      "æ¯Ķå¦Ĥ": 6950,
      "æ´»åĬ¨åĴĮ": 6951,
      "ç»§æī¿": 6952,
      "èĢģé¾Ħ": 6953,
      "éĢłæĪĲäºĨ": 6954,
      "å·®åĪ«": 6955,
      "Ġright": 6956,
      "ä¸°å¯Į": 6957,
      "ç»ķ": 6958,
      "çĪ·": 6959,
      "æł¹æį®åħ¶": 6960,
      "éĢĻæ¨£": 6961,
      "é©»åľ°": 6962,
      "æī¹åĩĨäºĨ": 6963,
      "500": 6964,
      "ĠåħŃ": 6965,
      "Ġçķ¶": 6966,
      "ç»³": 6967,
      "è¢«æĭĺçķĻ": 6968,
      "åĩĨåħ¥": 6969,
      "ink": 6970,
      "çļĦåĲĦä¸ª": 6971,
      "äº§çĶŁäºĨ": 6972,
      "è´Ŀå°Ķ": 6973,
      "è®¡ç®Ĺæľº": 6974,
      "èļ": 6975,
      "ä¸ĢåĽ½": 6976,
      "åĳĨ": 6977,
      "æĥ¨": 6978,
      "æıĲä¾Ľåħ³äºİ": 6979,
      "è¿Ŀæ³ķ": 6980,
      "åĬ£": 6981,
      "æĸĲ": 6982,
      "èģª": 6983,
      "åĽłçī¹": 6984,
      "ä»£ä»·": 6985,
      "å¤ĸåĭ¤": 6986,
      "ern": 6987,
      "ence": 6988,
      "æµĭè¯ķ": 6989,
      "Ġåĵĩ": 6990,
      "212": 6991,
      "çļĦåŁ¹è®Ń": 6992,
      "åľ¨è¿Ļä¸ª": 6993,
      "äºĨä½ł": 6994,
      "å¹¶å°±": 6995,
      "æ±ĩçİĩ": 6996,
      "htm": 6997,
      "ĠæĿ¡": 6998,
      "Ġåı¯èĥ½": 6999,
      "çļĦæľĢåĲİ": 7000,
      "åĴĮæ³ķå¾ĭ": 7001,
      "ä¸Ģåľº": 7002,
      "ä¸įå®¹å¿į": 7003,
      "åĩŃ": 7004,
      "Ġè¿Ļä¸įæĺ¯": 7005,
      "æ¯ıä¸Ģä¸ª": 7006,
      "è¿Ľä¸ĢæŃ¥åĬłå¼º": 7007,
      "Ġä¸¤": 7008,
      "å®¿": 7009,
      "åľ¨è¿ĻäºĽ": 7010,
      "ä¸įè¡Į": 7011,
      "åĪĨæŃ§": 7012,
      "åħ¬å¼Ģä¼ļè®®": 7013,
      "79": 7014,
      "çļĦåıĤä¸İ": 7015,
      "å§ĳ": 7016,
      "åķ¥": 7017,
      "èŃ¦æĸ¹": 7018,
      "ç§»åĬ¨": 7019,
      "äºĭæķħ": 7020,
      "Ġä½łå°±": 7021,
      "çĽ®æłĩçļĦ": 7022,
      "çĶ³æĺİ": 7023,
      "æĿ¡çº¦çļĦ": 7024,
      "ç³Łç³ķ": 7025,
      "å°ĨçĶ±": 7026,
      "è¯´æ³ķ": 7027,
      "æ¯Ķçİĩ": 7028,
      "105": 7029,
      "çĭ¬çī¹": 7030,
      "CCC": 7031,
      "éªļæī°": 7032,
      "ä¹¦è®°å®ĺ": 7033,
      "300": 7034,
      "aåħĪçĶŁ": 7035,
      "åĽłä¸ºå®ĥ": 7036,
      "åıĳçĶŁåľ¨": 7037,
      "Ġæĭľæīĺ": 7038,
      "èĳ£äºĭä¼ļ": 7039,
      "Ġè´¸åıĳä¼ļè®®": 7040,
      "æĮĿ": 7041,
      "åĲĮçŃī": 7042,
      "åĨħæĸ¯": 7043,
      "æĶ¯æı´": 7044,
      "ĠæĹ¥æľ¬": 7045,
      "çļĦåį±éĻ©": 7046,
      "åĴĮæĶ¿æ²»": 7047,
      "æĪĳæľī": 7048,
      "æĪĲæķĪ": 7049,
      "ä¿ĥæĪĲ": 7050,
      "æĢ»åĢ¼": 7051,
      "int": 7052,
      "è´£ä»»çļĦ": 7053,
      "èĩªæ²»é¢ĨåľŁ": 7054,
      "Ġè¡¨ç¤º": 7055,
      "ĠæĹłè®º": 7056,
      "åĴĮäººæĿĥ": 7057,
      "åĽ½åĴĮ": 7058,
      "åľ°çļĦ": 7059,
      "æŁ¥éĺħ": 7060,
      "éĥ¨éĺŁæ´¾éģ£åĽ½": 7061,
      "ç¿»è¯ĳ": 7062,
      "Ġå®ŀéĻħä¸Ĭ": 7063,
      "ä¸ºæľŁ": 7064,
      "åħ¶å·¥ä½ľ": 7065,
      "åĳĬçŁ¥": 7066,
      "çĤ®": 7067,
      "è¨´": 7068,
      "éľĢè¦ģåľ¨": 7069,
      "åĭĥ": 7070,
      "ĠWhat": 7071,
      "éĹŃåĺ´": 7072,
      "è¿Ħä»Ĭä¸ºæŃ¢": 7073,
      "ook": 7074,
      "éķľ": 7075,
      "æİĴæĸ¥": 7076,
      "åĲīå¸ĥ": 7077,
      "åĩºçİ°äºĨ": 7078,
      "æĳĨèĦ±": 7079,
      "ug": 7080,
      "ĠåĮħæĭ¬": 7081,
      "çİ°åľº": 7082,
      "å¸¸ä¼ļ": 7083,
      "æīĢä½ľçļĦåĬªåĬĽ": 7084,
      "ä¸įæī©æķ£æł¸æŃ¦åĻ¨": 7085,
      "çĶŁæĢģç³»ç»Ł": 7086,
      "DA": 7087,
      "ho": 7088,
      "çļĦé¢Ħç®Ĺ": 7089,
      "åĽ½éĻħåĪĳäºĭæ³ķéĻ¢": 7090,
      "æĦıåĽ¾": 7091,
      "å¤ļæĸ¯": 7092,
      "é¢Ĩè¢ĸ": 7093,
      "åı·åĨ³è®®åĴĮ": 7094,
      "ç¨ĭåºıçļĦ": 7095,
      "å¡ĶåĪ©": 7096,
      "ç»ĦæĪĲçļĦ": 7097,
      "86": 7098,
      "îľĩ": 7099,
      "åĬ¨åĳĺ": 7100,
      "å°Ĩä¸º": 7101,
      "çī©çļĦ": 7102,
      "èĪĴ": 7103,
      "ç¦ģè¿Ĳ": 7104,
      "åĽ½åĨħæ³ķ": 7105,
      "äººå±ħç½²": 7106,
      "åĽ¾ä¹¦é¦Ĩ": 7107,
      "(ãĢĬ": 7108,
      "83": 7109,
      "ĠåĽŀ": 7110,
      "ĠéĢīä¸¾": 7111,
      "Ġus": 7112,
      "Ġéļ¾éģĵ": 7113,
      "æĺ¯ä¸Ģé¡¹": 7114,
      "åĵŃ": 7115,
      "éĥ½èĥ½": 7116,
      "éĩįè¦ģæĢ§": 7117,
      "ĠéĤ£å°±": 7118,
      "åįıè°ĥä¸Ģèĩ´": 7119,
      "å¤ªå¤ª": 7120,
      "ç¬¬äºĮä¸ª": 7121,
      "éģ£éĺŁ": 7122,
      "ç§įæ¤į": 7123,
      "å¾·çıŃ": 7124,
      "æłĩåĩĨåĴĮ": 7125,
      "èī¯å¥½çļĦ": 7126,
      "åľĨæ¡Į": 7127,
      "82": 7128,
      "ç½ķ": 7129,
      "åħ¬è·¯": 7130,
      "åħ¶ä»ĸäºº": 7131,
      "æĬĬä»ĸ": 7132,
      "åħ±åĴĮåĽ½æĢ»ç»Ł": 7133,
      "))": 7134,
      "ĠåİŁ": 7135,
      "ĠéĻĦ": 7136,
      "çļĦæľī": 7137,
      "èĥ½åĲ¦": 7138,
      "æıĲäº¤ä¸Ģä»½": 7139,
      "åįıè°ĥå§Ķåĳĺä¼ļ": 7140,
      "å¼Ģå±ķäºĨ": 7141,
      "åħ·ä½ĵçļĦ": 7142,
      "ä¸ªåĳĺé¢Ŀ": 7143,
      "éĥ½æ²¡": 7144,
      "éĢĻåĢĭ": 7145,
      "èħ¿": 7146,
      "ä¸ĸçķĮäººæĿĥå®£è¨Ģ": 7147,
      "84": 7148,
      "çļĦéľĢæ±Ĥ": 7149,
      "åĲ¹": 7150,
      "æĸ¯ç§ĳ": 7151,
      "è¯¥é¡¹çĽ®": 7152,
      "è¥¿æĸ¹": 7153,
      "ork": 7154,
      "åİŁåĪĻåĴĮ": 7155,
      "åĴ¨è¯¢æľįåĬ¡": 7156,
      "é¦ĸèĦĳä¼ļè®®çļĦ": 7157,
      "ĠéĻ¤éĿŀ": 7158,
      "éĺ¿æĭīä¼¯èģĶåĲĪéħĭéķ¿": 7159,
      "çļĦè¯·æ±Ĥ": 7160,
      "å¹¶åĬłå¼º": 7161,
      "Ġ--": 7162,
      "éĥ½æĭīæĸ¯": 7163,
      "è§ģçļĦ": 7164,
      "Ġ300": 7165,
      "éļ¾æ°ĳäºĭåĬ¡": 7166,
      "lic": 7167,
      "Ġåģļ": 7168,
      "ä¹ĭå¤Ħ": 7169,
      "åĮºåŁŁçļĦ": 7170,
      "åĲ¦è®¤": 7171,
      "çĸĳéĹ®": 7172,
      "è¦ª": 7173,
      "åľ¨ä¸Ģä¸ª": 7174,
      "æ³½": 7175,
      "å¦Ļ": 7176,
      "å¤ļæ¬¡": 7177,
      "è§ģäºĨ": 7178,
      "ĠæĪĳä»¬å¸ĮæľĽ": 7179,
      "è¢«è¿«": 7180,
      "æŁ±": 7181,
      "æ¶ĪçģŃ": 7182,
      "åĪ¤å¤Ħ": 7183,
      "è½¬åıĺ": 7184,
      "ç¼Ķçº¦æĸ¹å¤§ä¼ļ": 7185,
      "çĭ¬ç«ĭçļĦ": 7186,
      "çī¹è®¾å§Ķåĳĺä¼ļ": 7187,
      "æ´ªéĥ½æĭīæĸ¯": 7188,
      "å®¶å±ŀ": 7189,
      "åĬłåħ±åĴĮåĽ½": 7190,
      "è¯¥åħ¬çº¦": 7191,
      "åŁºçĿ£": 7192,
      "çº§åĪ«": 7193,
      "æµ·ä¸Ĭ": 7194,
      "ç§»äº¤": 7195,
      "Ġwhat": 7196,
      "ĠâĢľ(": 7197,
      "æ¼«": 7198,
      "åĽłçī¹ç½ĳ": 7199,
      "½åŃĲ": 7200,
      "ä¸ºå®ŀçİ°": 7201,
      "ĠæĪĳéľĢè¦ģ": 7202,
      "ä¸»å¸ŃåħĪçĶŁ": 7203,
      "åĪĳäºĭæ³ķåºŃ": 7204,
      "çĿĢéĩįæĮĩåĩº": 7205,
      "é¦Ļæ¸¯": 7206,
      "ç»Ļç§ĺä¹¦éķ¿çļĦä¿¡": 7207,
      "å°¾": 7208,
      "éĥ½è¦ģ": 7209,
      "ç»Ļå®īåħ¨çĲĨäºĭä¼ļä¸»å¸ŃçļĦä¿¡": 7210,
      "éĺ¿å¸ĥ": 7211,
      "æı´å¼ķ": 7212,
      "åŁºéĩĳçļĦ": 7213,
      "å¡ĶåĲī": 7214,
      "ä¿Ŀåģ¥æľįåĬ¡": 7215,
      "åľ¨åĽ½å®¶ä¸Ģçº§": 7216,
      "ç»ıè´¹çļĦçŃ¹æİª": 7217,
      "la": 7218,
      "ĠæĪĳæĿ¥": 7219,
      "æ°ĳåħµ": 7220,
      "çĪ¾": 7221,
      "ä¼¦æķ¦": 7222,
      "å¸¸é©»ä»£è¡¨": 7223,
      "æ¸©å®¤": 7224,
      "å°ģéĶģ": 7225,
      "çļĦäººæ°ĳ": 7226,
      "åĨľæĿĳåľ°åĮº": 7227,
      "æ¡£æ¡Ī": 7228,
      "ei": 7229,
      "Ġe": 7230,
      "ä¸įç¬¦åĲĪ": 7231,
      "å·¡": 7232,
      "å¯¹è¿Ļä¸Ģ": 7233,
      "åľ°ä¸ĭ": 7234,
      "ç»Ļä»ĸ": 7235,
      "Ġè¿ĺæĺ¯": 7236,
      "åįĩçº§": 7237,
      "çŃ¾ç½²äºĨ": 7238,
      "ĠÂ·": 7239,
      "èģĶåĪļçī¹æ´¾åĽ¢": 7240,
      "æĦıå¤ĸ": 7241,
      "é¢Ĩåıĸ": 7242,
      "æ®µæīĢè¿°": 7243,
      "ĠHe": 7244,
      "çļĦä¸ĢèĪ¬æĢ§": 7245,
      "é¥¥é¥¿": 7246,
      "Ġæİ¥": 7247,
      "è¿Ļæĸ¹éĿ¢": 7248,
      "åħ¬è®¤": 7249,
      "æ»ĳ": 7250,
      "åįıè°ĥåĴĮ": 7251,
      "ham": 7252,
      "åĴĮåĲĦ": 7253,
      "åĴĮè¡ĮæĶ¿": 7254,
      "éĥ½å¿ħé¡»": 7255,
      "è§ģéĻĦä»¶": 7256,
      "å¸ĥé²ģ": 7257,
      "çļĦäººä»¬": 7258,
      "çĶµä¿¡": 7259,
      "2015": 7260,
      "èŀįåĲĪ": 7261,
      "Ġåı¯æĺ¯": 7262,
      "çļĦå®ŀéĻħ": 7263,
      "ä¹ĺ": 7264,
      "ä¸įéĻĲæĪĲåĳĺåĲįé¢Ŀ": 7265,
      "å¹¶å¼ºè°ĥ": 7266,
      "å¾Ĺä¸įåĪ°": 7267,
      "æľ¬æĿ¥": 7268,
      "ç§įç§į": 7269,
      "æŁĲä¸ª": 7270,
      "Ġab": 7271,
      "ç»ĵæĿŁåĲİ": 7272,
      "æĽ´å¤ļåľ°": 7273,
      "ä¸ŃéĹ´": 7274,
      "æĬ¥åĳĬåĴĮ": 7275,
      "åĮºåĪĨ": 7276,
      "ç³ĸ": 7277,
      "è¾¾åĬłæĸ¯": 7278,
      "åĮºåŁŁç»Ħç»ĩ": 7279,
      "çłĶæīĢ": 7280,
      "èī²æĥħ": 7281,
      "æĸ¹éĿ¢çļĦä½ľçĶ¨": 7282,
      "Ġå°±è¿Ļæł·": 7283,
      "åºŁéĻ¤": 7284,
      "îĵĩ": 7285,
      "ue": 7286,
      "åħ¶å¯¹": 7287,
      "è¿Ľåº¦": 7288,
      "åı¯æĺ¯": 7289,
      "æĹ¥åħ³äºİ": 7290,
      "è¿ĩåº¦": 7291,
      "æĸ½åĬł": 7292,
      "ç½Ĺå§Ĩ": 7293,
      "æĸĩä»¶çļĦ": 7294,
      "å°½æĹ©": 7295,
      "ä¹ĭéĹ´çļĦåĲĪä½ľ": 7296,
      "åĲīæĸ¯": 7297,
      "åĩºçİ°çļĦ": 7298,
      "æĳ§æ¯ģ": 7299,
      "ĠéļıçĿĢ": 7300,
      "æľĪèĩ³": 7301,
      "å¼ºåĮĸ": 7302,
      "åĵģç¼ĸåı·": 7303,
      "Ġ63": 7304,
      "ĠæĪĳæĺ¯è¯´": 7305,
      "Ġall": 7306,
      "åĴĮæľī": 7307,
      "å¹´ä¸ĸçķĮ": 7308,
      "æĸ¹ä¾¿": 7309,
      "å®ļäºĨ": 7310,
      "éĿŀèĩªæ²»é¢ĨåľŁ": 7311,
      "æĺİç¡®çļĦ": 7312,
      "ä¼ĳæģ¯": 7313,
      "çºłæŃ£": 7314,
      "è¾¾åĬłæĸ¯åĬł": 7315,
      "åĽ½å®¶åħĥé¦ĸ": 7316,
      "å®ŀæĸ½çļĦ": 7317,
      "æĮĩå¯¼æĸ¹éĴĪ": 7318,
      ".,": 7319,
      "pr": 7320,
      "çļĦé£İéĻ©": 7321,
      "ç»ıåĲĪ": 7322,
      "å·¥ä½ľèĢħ": 7323,
      "å¤ļä¹ħ": 7324,
      "åĴĮå¹³åĪ©çĶ¨": 7325,
      "æĪĲåĳĺåĽ½çļĦ": 7326,
      "é¦ĸå¸Ń": 7327,
      "ä¸ĩäºº": 7328,
      "èĬĤçĽ®": 7329,
      "ä»ĸåĢĳçļĦ": 7330,
      "å¡ĶåĪ©çıŃ": 7331,
      "bl": 7332,
      "ä¸įç»ĵçĽŁ": 7333,
      "éĹ®é¢ĺå·¥ä½ľç»Ħ": 7334,
      "çĬ¯ä¸ĭ": 7335,
      "æ¶Īå¤±": 7336,
      "è´ŁåĢº": 7337,
      "æīĢéľĢç»ıè´¹": 7338,
      "ç§ĳç´¢æ²ĥçī¹æ´¾åĽ¢": 7339,
      "åıĳè¡¨çļĦ": 7340,
      "èĵ¬": 7341,
      "Ġä¼Ļè®¡": 7342,
      "çļĦåĪ©çĽĬ": 7343,
      "å¥ĳ": 7344,
      "æĿ¡åĴĮç¬¬": 7345,
      "æĮĩç§°": 7346,
      "åĪĳç½ļ": 7347,
      "å¿«ä¹Ĳ": 7348,
      "è§Ĥæµĭ": 7349,
      "å¸®å¿Ļ": 7350,
      "æħ°": 7351,
      "åĤ¨å¤ĩ": 7352,
      "åĲīå¸ĥæıĲ": 7353,
      "Ġåħ¨çĲĥ": 7354,
      "Ġæ·±": 7355,
      "çļĦåĲĹ": 7356,
      "åĳĬè¨´": 7357,
      "ä¹ĭåĨħ": 7358,
      "æŃ¤é¡¹": 7359,
      "å¤Ħç½®": 7360,
      "å¤±æľĽ": 7361,
      "åħħæ»¡": 7362,
      "è±ª": 7363,
      "æĢİä¹ĪäºĨ": 7364,
      "åħħåĪĨæī§è¡Į": 7365,
      "åħ¬åħ±éĥ¨éĹ¨": 7366,
      "ĠåĬłæĭ¿å¤§": 7367,
      "Ġex": 7368,
      "Ġè¿Ļæ¬¡": 7369,
      "åħ¥åŃ¦": 7370,
      "é©¾": 7371,
      "çī©ä½ĵ": 7372,
      "å®¡è®®å¤§ä¼ļ": 7373,
      "é¢ĨåľŁå®Įæķ´": 7374,
      "è·Ŀç¦»": 7375,
      "éłŃ": 7376,
      "åĨħéĥ¨çĽĳçĿ£äºĭåĬ¡åİħ": 7377,
      "Ġåı«": 7378,
      "åĨľæ°ĳ": 7379,
      "ä¼ĺæĥł": 7380,
      "çĶŁäº§åĴĮ": 7381,
      "çºªå¾ĭ": 7382,
      "å½©": 7383,
      "æľĪçļĦ": 7384,
      "æ¯ĶèµĽ": 7385,
      "é¢ĦèŃ¦": 7386,
      "æĻ¤": 7387,
      "æī¿è¿Ĳäºº": 7388,
      "ç»§ç»Ńåľ¨": 7389,
      "äººåı£çļĦ": 7390,
      "å®īçĲĨä¼ļæĪĲåĳĺ": 7391,
      "æīĺåħĭ": 7392,
      "und": 7393,
      "å¼ĥæĿĥ": 7394,
      "åĴĮåı¯": 7395,
      "åıĬå¤ªå¹³æ´ĭ": 7396,
      "å»ī": 7397,
      "å·´æŀĹ": 7398,
      "æ¶Īæŀģ": 7399,
      "æĦŁåĪ°åħ³åĪĩ": 7400,
      "éĻ·åħ¥": 7401,
      "çļĦè®¡åĪĴ": 7402,
      "æĹ¥åŃĲ": 7403,
      "çī©èµĦ": 7404,
      "è¡Įä¸ºèĢħ": 7405,
      "Ġ400": 7406,
      "150": 7407,
      "è·Łè¸ª": 7408,
      "81": 7409,
      "ĠæĽ´": 7410,
      "Ġåıį": 7411,
      "èĩ£": 7412,
      "è¯¥åĨ³è®®èįīæ¡Ī": 7413,
      "å·´æĭīåľŃ": 7414,
      "å°ıåŃ¦": 7415,
      "ĠAm": 7416,
      "ç¾İåĽ½çļĦ": 7417,
      "å¡Ķå°¼äºļ": 7418,
      "èıľ": 7419,
      "èĩ³åħ³éĩįè¦ģçļĦ": 7420,
      "èĥĮæĻ¯ä¸ĭ": 7421,
      "å°±å¿ħé¡»": 7422,
      "å°ıå¿ĥ": 7423,
      "å±Ĭä¼ļè®®ä¸Ĭ": 7424,
      "éĿŀæ´²çļĦ": 7425,
      "ä½ľåĩºåĬªåĬĽ": 7426,
      "ç©ºä¸Ń": 7427,
      "èµ°åĲ§": 7428,
      "ç¡®å®ļäºĨ": 7429,
      "æīĵåĩ»è·¨åĽ½æľīç»Ħç»ĩçĬ¯ç½ª": 7430,
      "åīĬå¼±": 7431,
      "åľĭ": 7432,
      "äººæĪĸ": 7433,
      "æĹĹ": 7434,
      "æĭĨ": 7435,
      "å¹¶åºĶ": 7436,
      "1980": 7437,
      "Ġæĺ¯æĪĳ": 7438,
      "å¤ĸäº¤éĥ¨": 7439,
      "æĿ¡æ¬¾èįīæ¡Ī": 7440,
      "æĿĥåĬĽæľºæŀĦ": 7441,
      "å¿ĺè®°": 7442,
      "æıĲè¯·æ³¨æĦı": 7443,
      "å³°": 7444,
      "åĩıè´«æĪĺçķ¥": 7445,
      "å©´åĦ¿": 7446,
      "ire": 7447,
      "Ġè¦ģæ±Ĥ": 7448,
      "äººä¸º": 7449,
      "è¯¥å§Ķåĳĺä¼ļ": 7450,
      "å·´å¤ļæĸ¯": 7451,
      "ç§ĺä¹¦éķ¿çī¹åĪ«ä»£è¡¨": 7452,
      "çĵ¦çº³": 7453,
      "åľ°ä½įçļĦ": 7454,
      "åĩĢé¢Ŀ": 7455,
      "%)": 7456,
      "**": 7457,
      "ĠZ": 7458,
      "ä¼ļè°Ī": 7459,
      "ä¹³": 7460,
      "ä¸įèī¯": 7461,
      "ä½łå¥½": 7462,
      "ä½ľä¸ļ": 7463,
      "çĶ¨ä»¥": 7464,
      "æ¯Ķé¢Ŀ": 7465,
      "åĴĮå¹³åįıå®ļ": 7466,
      "Ġ2009": 7467,
      "ç»Īäºİ": 7468,
      "ç§¯æŀģçļĦ": 7469,
      "è·¨çķĮ": 7470,
      "æĵįä½ľ": 7471,
      "æĪĸæľīè¾±äºº": 7472,
      "åºĨç¥Ŀ": 7473,
      "éĢ²": 7474,
      "Ġ62": 7475,
      "éħįåĲĪ": 7476,
      "åľŁèĳĹæ°ĳæĹı": 7477,
      "Ġ1998": 7478,
      "æııè¿°": 7479,
      "è¿Ļåľº": 7480,
      "ä½łæľī": 7481,
      "çĲ³": 7482,
      "å¹¶ä½¿": 7483,
      "ä»»ä½ķåħ¶ä»ĸ": 7484,
      "å²ģä»¥ä¸ĭ": 7485,
      "çļĦæľĢä½³": 7486,
      "æĶ¿æĿĥ": 7487,
      "çĶ¨åĵģ": 7488,
      "109": 7489,
      "èİ·æĤī": 7490,
      "ä»½é¢Ŀ": 7491,
      "æ°´åĴĮ": 7492,
      "Ġä¸ĢåĪĩ": 7493,
      "æİ¢ç´¢": 7494,
      "æĴ¤éĶĢ": 7495,
      "ä¸¾åĬŀäºĨ": 7496,
      "æĿĢä¼¤äººåĳĺ": 7497,
      "å§Ķåĳĺä¼ļå»ºè®®": 7498,
      "æĹ¶çļĦ": 7499,
      "æĹ¶éĻĲ": 7500,
      "æĮģæľī": 7501,
      "ç§ĺä¹¦éķ¿çļĦ": 7502,
      "èįīç¨¿": 7503,
      "ä¿ĿæĬ¤å¹³æ°ĳ": 7504,
      "ç¥¸": 7505,
      "çħ§æĸĻ": 7506,
      "çıį": 7507,
      "æģ°å½ĵ": 7508,
      "Ġå¹²": 7509,
      "çļĦæĶ¿åºľ": 7510,
      "å®¶éĩĮ": 7511,
      "çĲĨæĥ³": 7512,
      "æıĲä¾ĽæľįåĬ¡": 7513,
      "æľīåħ³çļĦéĹ®é¢ĺ": 7514,
      "ĠAn": 7515,
      "åıĸå¾ĹæĪĲåĬŁ": 7516,
      "Ġsh": 7517,
      "çļĦç¬¬ä¸ī": 7518,
      "å¾ªçİ¯": 7519,
      "æĿĢä¼¤äººåĳĺåľ°éĽ·": 7520,
      "æŃ¤å¤ĸ": 7521,
      "åīįæĻ¯": 7522,
      "æĢ»å¹²äºĭ": 7523,
      "çłĶç©¶æĬ¥åĳĬ": 7524,
      "é¢Ħç®Ĺå¤ĸ": 7525,
      "åĪĳäºĭè¯īè®¼": 7526,
      "åĩºåĶ®åĵģç¼ĸåı·": 7527,
      "ä»¥æ³ķè¯Ńåıĳè¨Ģ": 7528,
      "æ¸©å®¤æ°Ķä½ĵ": 7529,
      "han": 7530,
      "åĽ½çİĭ": 7531,
      "æĺ¥": 7532,
      "æıĲèµ·": 7533,
      "çİ°çĬ¶": 7534,
      "å¤ŁäºĨ": 7535,
      "å¯Įæľī": 7536,
      "ast": 7537,
      "å¸¸è§ĦæŃ¦åĻ¨": 7538,
      "æł¼æŀĹçº³": 7539,
      "éļ¶": 7540,
      "å·²è¢«": 7541,
      "çĻĮ": 7542,
      "è¯Ħæ³¨": 7543,
      "Ġå¥½åĲĹ": 7544,
      "Ġpara": 7545,
      "äºļæ´²åıĬå¤ªå¹³æ´ĭ": 7546,
      "Ġåľ¨ç¬¬": 7547,
      "âĢĿ;": 7548,
      "è¿Ļç§įæĥħåĨµä¸ĭ": 7549,
      "èĴĻçī¹éĽ·": 7550,
      "éĤ®ä»¶": 7551,
      "¯æķĳ": 7552,
      "æĺ¯æĪĳçļĦ": 7553,
      "æĭ¯æķĳ": 7554,
      "å°Ĩæľ¬": 7555,
      "åĨħæĶ¿": 7556,
      "Ġåľ¨è¿Ļä¸Ģ": 7557,
      "Ġä¸įèĥ½": 7558,
      "æıĲäº¤äººçļĦ": 7559,
      "æ¼ı": 7560,
      "åģĩè®¾": 7561,
      "åįİçĽĽ": 7562,
      "è´§å¸ģåŁºéĩĳç»Ħç»ĩ": 7563,
      "Ġä¸»è¦ģ": 7564,
      "Ġå¸¦": 7565,
      "ä¼¸": 7566,
      "åĴĮä¸Ń": 7567,
      "ä½łè¯´": 7568,
      "Ġä½łä¸įèĥ½": 7569,
      "éĤ£ç§į": 7570,
      "ç»Łæ²»": 7571,
      "åĨĽçģ«": 7572,
      "èĲ¨æĳ©": 7573,
      "ame": 7574,
      "èĦ±ç¦»": 7575,
      "è¶ĬæĿ¥è¶Ĭå¤ļ": 7576,
      "èģªæĺİ": 7577,
      "oy": 7578,
      "ä¸¦": 7579,
      "åĴĮä»ĸ": 7580,
      "åĴĮåİŁåĪĻ": 7581,
      "æĪĳåİ»": 7582,
      "æ°Ľ": 7583,
      "æĿĥè¯ģä¹¦": 7584,
      "ä¿Ŀå®ī": 7585,
      "åĴĮå¹³è§£åĨ³": 7586,
      "èĥŀ": 7587,
      "oun": 7588,
      "æĹ¶éĹ´è¡¨": 7589,
      "æĪĲæŀľçļĦ": 7590,
      "è¿Ļä¹Īåģļ": 7591,
      "åĪĨéħįç»Ļ": 7592,
      "å¡ĶåĲīåħĭæĸ¯åĿ¦": 7593,
      "åįİçĽĽé¡¿": 7594,
      "ss": 7595,
      "ĠåĦ¿ç«¥åŁºéĩĳä¼ļ": 7596,
      "åħ³èģĶ": 7597,
      "éĩįå¤§çļĦ": 7598,
      "æĹłè¾ľ": 7599,
      "éĶĻäºĨ": 7600,
      "åĢ¡å¯¼": 7601,
      "æ²¿æµ·": 7602,
      "å·¦åı³": 7603,
      "ĠçĽ®å½ķ": 7604,
      "èĲ¨æĳ©äºļ": 7605,
      "å®«": 7606,
      "åĴĮæĶ¿çŃĸ": 7607,
      "æĿ¥åĪ°": 7608,
      "äººæĿĥåĪ©": 7609,
      "çŃ¾åŃĹ": 7610,
      "åłĨ": 7611,
      "çĽ¸å½ĵäºİ": 7612,
      "Ġåħ¶å®ŀ": 7613,
      "å´ĩæĭľ": 7614,
      "ä¸įæī©æķ£æł¸æŃ¦åĻ¨æĿ¡çº¦": 7615,
      "å¼¥": 7616,
      "åĽ½éĻħä¼ļè®®": 7617,
      "å·¥ä½ľåľ°çĤ¹": 7618,
      "é¢Ĩç©º": 7619,
      "åįģäºĮ": 7620,
      "çĽ¸ä¿¡æĪĳ": 7621,
      "1989": 7622,
      "å¼ķèµ·çļĦ": 7623,
      "æĸĲæµİ": 7624,
      "çļĦå®ŀæĸ½": 7625,
      "çİ°å·²": 7626,
      "åĽŀè¿Ķ": 7627,
      "è®¨åİĮ": 7628,
      "æ³ķéĻ¢çļĦ": 7629,
      "æĻ®åıĬ": 7630,
      "æīĢè½½çļĦ": 7631,
      "çº¦ç¿°åĨħæĸ¯": 7632,
      "åįĹåįĹåĲĪä½ľ": 7633,
      "Ġä¼Ĭæĭīåħĭ": 7634,
      "åı¶": 7635,
      "ĠæĪĳåĸľæ¬¢": 7636,
      "åŁĭ": 7637,
      "æ¶¨": 7638,
      "ä¸ľéĥ¨": 7639,
      "åĩłä¸ªæľĪ": 7640,
      "ĠWe": 7641,
      "ç»©æķĪ": 7642,
      "å¡«è¡¥": 7643,
      "æĬ«éľ²": 7644,
      "Al": 7645,
      "ç»ª": 7646,
      "ä¸Ģå¥Ĺ": 7647,
      "æĥ³åĪ°": 7648,
      "ä½ıåľ¨": 7649,
      "ä»įæľī": 7650,
      "çļĦæľĢæĸ°": 7651,
      "Ġç»ıæµİåıĬç¤¾ä¼ļçĲĨäºĭä¼ļ": 7652,
      "æľīæľº": 7653,
      "æıĴ": 7654,
      "ç¥Ī": 7655,
      "è¿ĳå¹´æĿ¥": 7656,
      "Ġ77": 7657,
      "å¸ĲæĪ·": 7658,
      "çļĦåľ°åĮº": 7659,
      "çļĦè¿Ľç¨ĭ": 7660,
      "ä¼ļè´¹": 7661,
      "è¯¥ç»Ħç»ĩ": 7662,
      "è¨ĺ": 7663,
      "æ¶¦": 7664,
      "è¡ĮæĶ¿é¦ĸéķ¿": 7665,
      "è¿½è¸ª": 7666,
      "æİĴæĶ¾éĩı": 7667,
      "éĿŀæ´²åıĳå±ķæĸ°ä¼Ļä¼´åħ³ç³»": 7668,
      "îĤ": 7669,
      "Ġæ²Ĵ": 7670,
      "çļĦåı¯": 7671,
      "ä½łåı¯ä»¥": 7672,
      "æī¿åıĹ": 7673,
      "å¸¦æĿ¥äºĨ": 7674,
      "ĠMr": 7675,
      "äºĴèģĶç½ĳ": 7676,
      "æĲº": 7677,
      "åĩĨå¤ĩå¥½": 7678,
      "ĠçľŁæĺ¯": 7679,
      "çº¦ç¿°åĨħæĸ¯åł¡": 7680,
      "åĴĮåĦ¿ç«¥": 7681,
      "åľ¨æĪĳä»¬": 7682,
      "ä¸įå¤ª": 7683,
      "éĢ¼": 7684,
      "ä¼ļè®®äºĭè§ĦåĪĻ": 7685,
      "æ®º": 7686,
      "æ¶²": 7687,
      "çĶµèĦĳ": 7688,
      "æģĲæĢĸä¸»ä¹īè¡Įä¸º": 7689,
      "Ġè¿Ļæĺ¯ä¸Ģä¸ª": 7690,
      "è¡ĮåĬ¨çº²è¦ģ": 7691,
      "ĠåĳĬè¯īæĪĳ": 7692,
      "ä¼ļæĻ¤": 7693,
      "ä¸ºèį·": 7694,
      "åħ³ç¨İ": 7695,
      "å¤§åľ°": 7696,
      "è¿ĩçļĦ": 7697,
      "åĽ½éĻħè´¸æĺĵ": 7698,
      "åĪĹåĩº": 7699,
      "æ³¨åĨĮ": 7700,
      "one": 7701,
      "åł±": 7702,
      "æĹħè´¹": 7703,
      "Ġæ³ķ": 7704,
      "æĸĩèģĮ": 7705,
      "åĲĳåħ¶": 7706,
      "è¿ĲçĶ¨": 7707,
      "ĠMar": 7708,
      "å±łæĿĢ": 7709,
      "af": 7710,
      "ç·": 7711,
      "ĠåŃ©åŃĲ": 7712,
      "Ġup": 7713,
      "ç»¿": 7714,
      "ä¸įå¤ļ": 7715,
      "æĹ¥ç»ĪäºĨ": 7716,
      "å·¥ä½ľä¸Ń": 7717,
      "è®¾ç½®": 7718,
      "å¤§ä¼ļç¬¬äºĮåįģ": 7719,
      "éĺ¿æĭīä¼¯èģĶåĲĪéħĭéķ¿åĽ½": 7720,
      "åľ¨åħ¨çĲĥ": 7721,
      "æĪĳèĥ½": 7722,
      "çĶľ": 7723,
      "æıĲä¾ĽæĬĢæľ¯æı´åĬ©": 7724,
      "å¢ŀç¼ĸ": 7725,
      "æĮĩå¯¼åİŁåĪĻ": 7726,
      "Ġèĭ¥": 7727,
      "åºĶä»¥": 7728,
      "æīĢæľīä¼ļåĳĺåĽ½": 7729,
      "çħ½": 7730,
      "æĢĿèĢĥ": 7731,
      "éĽĩä½£": 7732,
      "Ġjust": 7733,
      "åĲīå°ĶåĲīæĸ¯": 7734,
      "è°Īä¼ļ": 7735,
      "åĥµ": 7736,
      "ç±³å°Ķ": 7737,
      "ç»Łè®¡æķ°æį®": 7738,
      "æ¯«ä¸į": 7739,
      "é¸Ł": 7740,
      "93": 7741,
      "åĳĪ": 7742,
      "ä¸»æĦı": 7743,
      "å§Ķåĳĺä¼ļè®¤ä¸º": 7744,
      "å¤ĸç©º": 7745,
      "æµ·äºĭ": 7746,
      "æĶ¾å°Ħ": 7747,
      "äºĴçĽ¸": 7748,
      "æĲŃ": 7749,
      "å°±ä¸ļæľºä¼ļ": 7750,
      "äººåĬĽèµĦæºĲç®¡çĲĨ": 7751,
      "æ¯ĴåĵģåĴĮçĬ¯ç½ªéĹ®é¢ĺåĬŀåħ¬å®¤": 7752,
      "ĠæĪĳçľĭ": 7753,
      "çī¹éģ£éĺŁ": 7754,
      "ä¹Łå°Ĩ": 7755,
      "å°ıçļĦ": 7756,
      "è¥¿å²¸": 7757,
      "ç¼Ķçº¦åĽ½ä¼ļè®®": 7758,
      "åĲĪçĲĨçļĦ": 7759,
      "å¿ĨåıĬ": 7760,
      "WP": 7761,
      "Ġäºİ": 7762,
      "Ġout": 7763,
      "èģĶå¡ŀ": 7764,
      "å§Ķåĳĺä¼ļåħ³äºİ": 7765,
      "å¿«çĤ¹": 7766,
      "æİ¨è¡Į": 7767,
      "æľºåĪ¶çļĦ": 7768,
      "Ġ800": 7769,
      "ä»·åĢ¼è§Ĥ": 7770,
      "æĴ¤åĽŀ": 7771,
      "åĢŁæŃ¤": 7772,
      "94": 7773,
      "ä¸Ģå±Ĭ": 7774,
      "éĹ´çļĦ": 7775,
      "å¼Ģå±ķçļĦæ´»åĬ¨": 7776,
      "ç¼ºéĻ·": 7777,
      "åĨ·éĿĻ": 7778,
      "é«ĺåħ´åľ°": 7779,
      "å°¼æĹ¥å°Ķ": 7780,
      "å®ıè§Ĥç»ıæµİ": 7781,
      "az": 7782,
      "ef": 7783,
      "ä¸ªäººçļĦ": 7784,
      "å®ļç½ª": 7785,
      "åĲĮäºĭ": 7786,
      "èģĶåĲĪåĽ½åĩºçīĪçī©": 7787,
      "å®ĥåľ¨": 7788,
      "åħ³ç³»çļĦ": 7789,
      "ç§įæĹıçģŃç»Ŀ": 7790,
      "Ġå®ĥè¿ĺ": 7791,
      "ç¯ĩ": 7792,
      "æł¼çļĦå¾ħéģĩ": 7793,
      "å¤ļç±³å°¼åĬłåħ±åĴĮåĽ½": 7794,
      "çļĦç»Ħç»ĩ": 7795,
      "å°º": 7796,
      "éĢĬ": 7797,
      "Ġä¸įè¡Į": 7798,
      "æı´åĬ©åĽ¢": 7799,
      "å¤ªéĺ³": 7800,
      "Ġå¤§ä¼ļç¬¬": 7801,
      "åľĪ": 7802,
      "ä¸ĭè¿°": 7803,
      "æł¼å¼ı": 7804,
      "è°ĪåĪ°": 7805,
      "æ¸ħéĻ¤": 7806,
      "èĢģæĮĿ": 7807,
      "ä¹łä¿Ĺ": 7808,
      "çµķ": 7809,
      "Ġîľĩ": 7810,
      "ä¸įäººéģĵæĪĸæľīè¾±äºº": 7811,
      "è¦ģåİ»": 7812,
      "æıŃ": 7813,
      "å¯¹ä»ĸ": 7814,
      "å¥½å¥½": 7815,
      "æį®ç§°": 7816,
      "ä»¥åıĬä¸İ": 7817,
      "æĢ»ç»ĵ": 7818,
      "æ°´èµĦæºĲ": 7819,
      "è´ŁéĿ¢": 7820,
      "éĥ¨éĺŁçļĦ": 7821,
      "250": 7822,
      "èĮ¨çĵ¦çº³": 7823,
      "æ¯Ķé¢Ŀè¡¨": 7824,
      "iåħĪçĶŁ": 7825,
      "çļĦæľºåĪ¶": 7826,
      "è¡Įå¾Ħ": 7827,
      "ä½łå°±": 7828,
      "Ġ61": 7829,
      "æ¨ª": 7830,
      "èĩªæĦ¿æįĲæ¬¾": 7831,
      "age": 7832,
      "æ¸¯åı£": 7833,
      "æ§": 7834,
      "çļĦçĬ¯ç½ª": 7835,
      "ç¤¾ä¼ļä¿Ŀéļľ": 7836,
      "ç¼ĸè¾ĳ": 7837,
      "éħįåģ¶": 7838,
      "æĺ¨æĻļ": 7839,
      "æµģè¡ĮçĹħ": 7840,
      "BE": 7841,
      "io": 7842,
      "åĽ½å¤ĸ": 7843,
      "ç»ıæµİåĲĪä½ľ": 7844,
      "ank": 7845,
      "å±ĢéĿ¢": 7846,
      "å¹²æ¶ī": 7847,
      "Ġ600": 7848,
      "åı¦æľī": 7849,
      "ase": 7850,
      "åĲĮæł·çļĦ": 7851,
      "éĩįçĤ¹æĺ¯": 7852,
      "åĲ¬åıĸäºĨ": 7853,
      "Ġä¼Ĭ": 7854,
      "éĹľ": 7855,
      "åĬłç´§": 7856,
      "æıĲä¾ĽèµĦæĸĻ": 7857,
      "çŁ¥çļĦ": 7858,
      "åĨįçĶŁ": 7859,
      "åıĺéĿ©": 7860,
      "åºıè¨Ģ": 7861,
      "ç²ī": 7862,
      "å®ĮæĪĲäºĨ": 7863,
      "uman": 7864,
      "åĲ»": 7865,
      "å·¥ä½ľè®¡åĪĴ": 7866,
      "åħ¥å¢ĥ": 7867,
      "ish": 7868,
      "æĿĢäºº": 7869,
      "ä¹ĭéĹ´çļĦèģĶç³»": 7870,
      "åįļèĮ¨çĵ¦çº³": 7871,
      "å®£è¨ĢåĴĮè¡ĮåĬ¨çº²é¢Ĩ": 7872,
      "Ġæĭī": 7873,
      "çļĦä¸¥éĩį": 7874,
      "æĺ¯æĪĳä»¬": 7875,
      "çº·": 7876,
      "åĲĪéĢĤ": 7877,
      "æľ¬äºº": 7878,
      "å£ģ": 7879,
      "æģĲæĥ§": 7880,
      "æī©å±ķ": 7881,
      "æĹ©æľŁ": 7882,
      "çļĦä¸Ģä¸ªéĩįè¦ģ": 7883,
      "æĶ¿åºľéĹ´ç»Ħç»ĩ": 7884,
      "çħ½åĬ¨": 7885,
      "æĪĳåı¯ä»¥": 7886,
      "æľīè´£ä»»": 7887,
      "æīĢåģļçļĦ": 7888,
      "æĪĲäºĨ": 7889,
      "äº§å¦ĩ": 7890,
      "å¸ĥå°Ķ": 7891,
      "åĴ¨åķĨ": 7892,
      "åŁºæľ¬ä¸Ĭ": 7893,
      "çļĦä¿ĿæĬ¤": 7894,
      "ä»ģ": 7895,
      "åĴĮçĽĳæµĭ": 7896,
      "åľ¨çº½çº¦": 7897,
      "å°Ĩä½¿": 7898,
      "å¹³åı°": 7899,
      "æľĢå¤ļ": 7900,
      "ç³Ĭ": 7901,
      "è¡ĮåĬ¨èĢħ": 7902,
      "åŃ¦ä¼ļ": 7903,
      "é©¬è¾¾åĬłæĸ¯åĬł": 7904,
      "ç©¶ç«Ł": 7905,
      "Ġget": 7906,
      "ä¸įå®ī": 7907,
      "åĽ½éĻħæģĲæĢĸä¸»ä¹ī": 7908,
      "æıĲä¾Ľæľīåħ³": 7909,
      "éĩĳé¢Ŀ": 7910,
      "åħ¬çº¦èįīæ¡Ī": 7911,
      "Ġ70": 7912,
      "åĳ¨åĽ´": 7913,
      "æĳ©çº³": 7914,
      "å¸¸é©»ä»£è¡¨åĽ¢": 7915,
      "ĠåĿĲ": 7916,
      "åĴĮåĨ³å®ļ": 7917,
      "ä¸Ģå®¶": 7918,
      "ä¸»å¯¼": 7919,
      "ä¸İåĴĮå¹³": 7920,
      "çļĦæĬ¥åĳĬä¸Ń": 7921,
      "åı¬å¼ĢçļĦ": 7922,
      "çĪĨåıĳ": 7923,
      "æ¯ĽéĩĮå¡Ķå°¼äºļ": 7924,
      "ä»Ķç»Ĩ": 7925,
      "å®ĩ": 7926,
      "è¡°": 7927,
      "æĹ¥å¸¸": 7928,
      "åºĶæĶ¶": 7929,
      "è®©ä»ĸä»¬": 7930,
      "ç»§ç»Ńå®¡è®®": 7931,
      "åŁ¹åħ»": 7932,
      "ç»ĨèĬĤ": 7933,
      "å¸¸é©»èģĶåĲĪåĽ½ä»£è¡¨åĽ¢": 7934,
      "è«ĭ": 7935,
      "è¿«åĪĩéľĢè¦ģ": 7936,
      "å¯¹æīĢæľī": 7937,
      "å¤ĦçļĦ": 7938,
      "éĽ¢": 7939,
      "å¾Īå¤§çļĦ": 7940,
      "è¥¿æ´ĭ": 7941,
      "ans": 7942,
      "æ·»": 7943,
      "å¢ŀåĬłåĪ°": 7944,
      "åĬłæ²Ļåľ°å¸¦": 7945,
      "å°Ŀè¯ķ": 7946,
      "å¹¶å°±æŃ¤": 7947,
      "æĸ½æĶ¿": 7948,
      "èĩ³ç¬¬": 7949,
      "è´¢å¯Į": 7950,
      "çĥĤ": 7951,
      "åħ»æĬ¤": 7952,
      "ç®ĢåĮĸ": 7953,
      "ä¸ļåĬ¡æ´»åĬ¨": 7954,
      "æĳ©çº³åĵ¥": 7955,
      "Ġè°¨": 7956,
      "åħ¶å®ŀ": 7957,
      "çī¹ä½¿": 7958,
      "æĪĸä¸į": 7959,
      "åı·æĿ¥æĸĩ": 7960,
      "æ´»çĿĢ": 7961,
      "åĭķ": 7962,
      "éªĳ": 7963,
      "é©¬æĭīç»´": 7964,
      "å¼ºåĪ¶æĢ§": 7965,
      "Ġle": 7966,
      "çļĦæĢ§è´¨": 7967,
      "åħĳ": 7968,
      "ä¸įå¦¨": 7969,
      "æŃ¡": 7970,
      "æĥľ": 7971,
      "éķ·": 7972,
      "æĪĳä»¬å¯¹": 7973,
      "åĲĳä½ł": 7974,
      "âĢĿ)": 7975,
      "æ±Ĥä½ł": 7976,
      "å¾Īéĩįè¦ģ": 7977,
      "æľªæĪĲ": 7978,
      "åı¯æĮģç»ŃæĢ§": 7979,
      "ich": 7980,
      "å¹´è½»äºº": 7981,
      "Ġå°ıç»Ħå§Ķåĳĺä¼ļ": 7982,
      "çļĦé¢ĨåŁŁ": 7983,
      "ä½łåİ»": 7984,
      "å°±åľ¨": 7985,
      "æľºåĻ¨": 7986,
      "åĮħæĭ¬éĢļè¿ĩ": 7987,
      "Ġä¸įçŁ¥éģĵ": 7988,
      "éĻ¤å¤ĸ": 7989,
      "åı¯æĮģç»ŃçļĦ": 7990,
      "åª½": 7991,
      "åĪºæ¿Ģ": 7992,
      "Ġå®¡è®®": 7993,
      "çļĦæīĭæ®µ": 7994,
      "æľ±": 7995,
      "è¯±": 7996,
      "åĨĪ": 7997,
      "ä¿Ŀç½Ĺ": 7998,
      "èģĶåĲĪåĽ½æľºæŀĦ": 7999,
      "ç®¡çĲĨåĽ½": 8000,
      "Ġæĺ¯ä¸įæĺ¯": 8001,
      "ç¬¬äºĮç«ł": 8002,
      "Ġ700": 8003,
      "åıĳæĮ¥ä½ľçĶ¨": 8004,
      "å®ļå±ħçĤ¹": 8005,
      "ä¸ĢèĪ¬äºĭåĬ¡äººåĳĺ": 8006,
      "ĠåħĪ": 8007,
      "èģĶåĲĪåĽ½å¼Ģåıĳè®¡åĪĴç½²": 8008,
      "è¿ĺéľĢè¦ģ": 8009,
      "å·´å·´å¤ļæĸ¯": 8010,
      "æŁı": 8011,
      "åįĹæĸ¹": 8012,
      "èº²": 8013,
      "åĩıå°ĳäºĨ": 8014,
      "Ġpr": 8015,
      "åıĮéĩį": 8016,
      "éĿŀæ³ķè´¸æĺĵ": 8017,
      "éĮ¯": 8018,
      "è¢«åįłé¢ĨåľŁ": 8019,
      ")}": 8020,
      "çļĦéĿŀ": 8021,
      "çļĦæķĻèĤ²": 8022,
      "åĲµ": 8023,
      "ä¸ĢåįĬ": 8024,
      "ä»¥ä¸ĬçļĦ": 8025,
      "è¾Ĳ": 8026,
      "åĽ½éĻħæĸĩä¹¦": 8027,
      "å¼Ģæŀª": 8028,
      "æĸ¹éĿ¢åıĸå¾ĹçļĦè¿Ľå±ķ": 8029,
      "åĽĽå¹´": 8030,
      "åĩıåħį": 8031,
      "Ġ64": 8032,
      "èµĦæĸĻæĿ¥æºĲ": 8033,
      "åĿĩè¡¡": 8034,
      "ç»ĵæĿŁäºĨ": 8035,
      "ä¸Ģå®ļè¦ģ": 8036,
      "Ġçī¹åĪ«æĺ¯": 8037,
      "Ġå°į": 8038,
      "çļĦå®¶åºŃ": 8039,
      "çļĦæ¦Ĥå¿µ": 8040,
      "åĴĮéĿŀæĶ¿åºľç»Ħç»ĩ": 8041,
      "ä¸Ģæĸ¹": 8042,
      "ç§Ĵ": 8043,
      "å§Ķæīĺ": 8044,
      "å°ıæŃ¦åĻ¨": 8045,
      "è¿Ľè¡Įå®¡æŁ¥": 8046,
      "æ²¡æľīäºº": 8047,
      "ç©ºæ°Ķ": 8048,
      "è¡¨ç¤ºåħ³æ³¨": 8049,
      "çĶŁäº§æĢ»åĢ¼": 8050,
      "éŃĤ": 8051,
      "ç¼ĵè§£": 8052,
      "Ġæĺİå¤©": 8053,
      "çļĦåĶ¯ä¸Ģ": 8054,
      "ä¼ļæľŁéĹ´": 8055,
      "æĢľ": 8056,
      "åĲĦä»£è¡¨åĽ¢": 8057,
      "è¿ĻäºĽäºº": 8058,
      "äººæĿĥéĹ®é¢ĺ": 8059,
      "Ġch": 8060,
      "ĠOh": 8061,
      "å¤įåĳĺåĴĮéĩįè¿Ķç¤¾ä¼ļ": 8062,
      "åĪ©çĽĬæĶ¸åħ³æĸ¹": 8063,
      "èķ": 8064,
      "Ġè¥¿": 8065,
      "çļĦç«ĭæ³ķ": 8066,
      "åħ¶ä»»åĬ¡": 8067,
      "åĩºæĿ¥çļĦ": 8068,
      "äººæ°ĳæ°ĳä¸»åħ±åĴĮåĽ½": 8069,
      "ĠæīĢéľĢ": 8070,
      "288": 8071,
      "å®ŀè´¨æĢ§ä¼ļè®®": 8072,
      "ç¬¬åħ«": 8073,
      "ä¿Ŀå¯Ĩ": 8074,
      "å¤ļåĵ¥": 8075,
      "è®¤æįĲ": 8076,
      "å¦ĩåıĳåŁºéĩĳ": 8077,
      "å¹²æĹ±": 8078,
      "å¼Ģå±ķåĲĪä½ľ": 8079,
      "æłĩåĩĨçļĦ": 8080,
      "æ¶īåıĬåĪ°": 8081,
      "îħħ": 8082,
      "çļĦå½¢å¼ı": 8083,
      "åĪ©å°Ķ": 8084,
      "æłĩå¿Ĺ": 8085,
      "ond": 8086,
      "äººæĿĥäºĭåĬ¡å§Ķåĳĺä¼ļ": 8087,
      "Ġæĸ¹æ¡Ī": 8088,
      "çļĦè¿Ľå±ķ": 8089,
      "ä¿¡å¿ĥ": 8090,
      "é«ĺäºİ": 8091,
      "å°ıåŀĭ": 8092,
      "ĠæĪĳä»¬åı¯ä»¥": 8093,
      "æ¬§å®ī": 8094,
      "åıĬåħ¶å¯¹": 8095,
      "å¸ĤåľºçļĦ": 8096,
      "æķĳæµİå·¥ç¨ĭå¤Ħ": 8097,
      "åĴ±ä»¬": 8098,
      "Ġå¥¥": 8099,
      "ç®Ń": 8100,
      "ä»¥åıĬä¸º": 8101,
      "å®ĥæĺ¯": 8102,
      "æº´": 8103,
      "Ġç¬¬åħŃåįģ": 8104,
      "åıĭå¥½": 8105,
      "èģĮæĿĥèĮĥåĽ´": 8106,
      "åĪ·": 8107,
      "è¿Ļä¸¤": 8108,
      "æĬļ": 8109,
      "èµļ": 8110,
      "éĤ£è¾¹": 8111,
      "æīĵå¼Ģ": 8112,
      "æĪĺçķ¥è®¡åĪĴ": 8113,
      "åħ±åĲĮåĬªåĬĽ": 8114,
      "æ¶ĪéĻ¤å¯¹å¦ĩå¥³æŃ§è§Ĩ": 8115,
      "æĹłæł¸æŃ¦åĻ¨åĮº": 8116,
      "è·¯çº¿åĽ¾": 8117,
      "ĠæĪĸè®¸": 8118,
      "æĪĳäºĨ": 8119,
      "äºĨåľ¨": 8120,
      "ä¸įåŃĺåľ¨": 8121,
      "æĦĪ": 8122,
      "æĪĸå¤Ħç½ļ": 8123,
      "ä¹Łæ²¡": 8124,
      "éļ¾æ°ĳèĲ¥": 8125,
      "Ġhere": 8126,
      "æľĢä¸įåıĳè¾¾åĽ½å®¶çļĦ": 8127,
      "cHFFFF": 8128,
      "è°ħè§£å¤ĩå¿ĺå½ķ": 8129,
      "åĴĮåŁ¹è®Ń": 8130,
      "ä¸įéľĢè¦ģ": 8131,
      "ä¸įåºĶè¯¥": 8132,
      "ç¬¨": 8133,
      "å¯¹æĬĹ": 8134,
      "åı¯åĲ¦": 8135,
      "æµĵ": 8136,
      "çľ¾": 8137,
      "åıĳå±ķæĿĥ": 8138,
      "åĸĤ": 8139,
      "èĢģå¹´": 8140,
      "æī¾åĪ°äºĨ": 8141,
      "ç¬¬åįģåĽĽ": 8142,
      "ä»£çĲĨä¸»å¸Ń": 8143,
      "cHFFFFFF": 8144,
      "92": 8145,
      "ear": 8146,
      "Ġä¹Ķ": 8147,
      "æĢĴ": 8148,
      "æ¡¥": 8149,
      "ä¹ĭæĹ¶": 8150,
      "å·²æĪĲä¸º": 8151,
      "æµ·å¤ĸ": 8152,
      "åį³ä¾¿": 8153,
      "èī²çļĦ": 8154,
      "ç»´æĮģåĴĮå¹³çī¹æ´¾åĽ¢": 8155,
      "æİĪäºĪ": 8156,
      "Ġå°ıå¿ĥ": 8157,
      "æĩīçķ¶": 8158,
      "æ¬ºè¯Ī": 8159,
      "ne": 8160,
      "åĪĹä¸º": 8161,
      "è¿Ļä¸ĢåĪĩ": 8162,
      "ä¸ľæ¬§": 8163,
      "èĢģå¹´äºº": 8164,
      "662": 8165,
      "Ġå·¥ä½ľ": 8166,
      "åħ©": 8167,
      "ä½Ĳ": 8168,
      "æĺ¯æĮĩ": 8169,
      "æĪĳä»¬åı¯ä»¥": 8170,
      "æł¸å®ļ": 8171,
      "æ°´å±Ĥ": 8172,
      "æĳĩ": 8173,
      "æĢİä¹ĪåĽŀäºĭ": 8174,
      "æĤ¬": 8175,
      "éĢĢåĮĸ": 8176,
      "æĢ§åĪ«è§ĤçĤ¹çº³åħ¥": 8177,
      "ä¾§éĩįäºİ": 8178,
      "è¿ĳä¸ľæķĳæµİå·¥ç¨ĭå¤Ħ": 8179,
      "(âĢľ": 8180,
      "çļĦçĽ®çļĦæĺ¯": 8181,
      "è®Ĭ": 8182,
      "åĴĮä¸ŃåĽ½": 8183,
      "æ³ķåĴĮ": 8184,
      "éĽ»": 8185,
      "æł·åŃĲ": 8186,
      "è§£åĨ³åĨ²çªģ": 8187,
      "Ġ66": 8188,
      "åıĳå±ķä¸ŃåĽ½å®¶åĴĮ": 8189,
      "åĪĽå»º": 8190,
      "æįĲåĬ©æĸ¹": 8191,
      "èĪ¹åıª": 8192,
      "Ġä¸Ĭå¸Ŀ": 8193,
      "å¹¸ç¦ı": 8194,
      "ĠæĪĳçľŁçļĦ": 8195,
      "å¦ĵ": 8196,
      "æ¡Īæĥħ": 8197,
      "çĦ¦": 8198,
      "è®°ä½ı": 8199,
      "oug": 8200,
      "æĪĺçķ¥åĴĮ": 8201,
      "éĿŀæĶ¿åºľç»Ħç»ĩåĴĮ": 8202,
      "1988": 8203,
      "æķħæĦı": 8204,
      "91": 8205,
      "ä¸įç¨³å®ļ": 8206,
      "æİ©": 8207,
      "åħ±äº«": 8208,
      "è¿ĻäºĽæİªæĸ½": 8209,
      "ç«¥å·¥": 8210,
      "è¯ģä»¶": 8211,
      "èĩªçĶ±åĮĸ": 8212,
      "è¾ĥä½İ": 8213,
      "åı¥è¯Ŀ": 8214,
      "çļĦåĴĮ": 8215,
      "çļĦçī¹åĪ«": 8216,
      "çļĦè´¡çĮ®": 8217,
      "çļĦæķ°é¢Ŀ": 8218,
      "ä¼ļåľ¨": 8219,
      "ä¸įç½ļ": 8220,
      "æįŀ": 8221,
      "å¼Ģçİ©ç¬ĳ": 8222,
      "åĮĸç¢³": 8223,
      "è¢«å®³": 8224,
      "å¨ģå£«": 8225,
      "éº½": 8226,
      "è¶³ä»¥": 8227,
      "ä¼Ĭæĸ¯åħ°åĽ½å®¶": 8228,
      "çĿ¡è§ī": 8229,
      "é©³åĽŀ": 8230,
      "æīĵåĩ»è·¨åĽ½æľīç»Ħç»ĩçĬ¯ç½ªåħ¬çº¦": 8231,
      "ĠéĤĦ": 8232,
      "åĮ¹": 8233,
      "åĬ¨æľº": 8234,
      "æĿ¡åĴĮ": 8235,
      "è§ģS": 8236,
      "å¤§ä¼ļä¸»å¸Ń": 8237,
      "æĹłæķĪ": 8238,
      "çĽĳæĬ¤": 8239,
      "çŁĽ": 8240,
      "ç»ĵæĿŁæĹ¶": 8241,
      "çŃĶæ¡Ī": 8242,
      "ç©·äºº": 8243,
      "åı¯æĮģç»Ńåıĳå±ķéĹ®é¢ĺä¸ĸçķĮé¦ĸèĦĳä¼ļè®®": 8244,
      "çĻ¾åĪĨæ¯Ķ": 8245,
      "'ll": 8246,
      "çļĦçľĭæ³ķ": 8247,
      "å¸¶": 8248,
      "æīĢæıĲä¾ĽçļĦ": 8249,
      "Ġä½łçľŁ": 8250,
      "è¯¥ç¼Ķçº¦åĽ½": 8251,
      "æĪĸåĬłåħ¥": 8252,
      "æıĲä¾Ľå¿ħè¦ģçļĦ": 8253,
      "å°¼è¾¾": 8254,
      "ina": 8255,
      "åĽ½éĻħç¤¾ä¼ļçļĦ": 8256,
      "éĿŀæ³ķè´©è¿Ĳ": 8257,
      "åºĵåŃĺ": 8258,
      "åĽºå®ļ": 8259,
      "Ġæķĳ": 8260,
      "åĪĨæĭħ": 8261,
      "ç¤¾ä¼ļç»ıæµİ": 8262,
      "æĥ³è±¡": 8263,
      "ç»ıæµİå§Ķåĳĺä¼ļ": 8264,
      "æĶ¯æĮģåĴĮ": 8265,
      "Ġä½Ĩä½ł": 8266,
      "ä½ľåĩºçļĦåĬªåĬĽ": 8267,
      "ä¸ĵå®¶ä¼ļè®®": 8268,
      "Ġwant": 8269,
      "æŃ£å¼ıè¯Ńæĸĩ": 8270,
      "ĠåĽłä¸ºæĪĳ": 8271,
      "èµĶåģ¿è´£ä»»": 8272,
      "ç¤¾ä¼ļåĴĮç»ıæµİ": 8273,
      "ä½ľçī©": 8274,
      "ä»ĸå¦Ī": 8275,
      "æľĢä¸º": 8276,
      "èĭĹ": 8277,
      "è¿Ĳè¡Į": 8278,
      "ç½ĳåĿĢ": 8279,
      "åĩĨåĪĻèįīæ¡Ī": 8280,
      "éŀĭ": 8281,
      "black": 8282,
      "çĶŁçļĦ": 8283,
      "åı¸éķ¿": 8284,
      "èĥĨ": 8285,
      "é¦ĸéĥ½": 8286,
      "å°½åĬĽ": 8287,
      "é»ĳä½ĵ": 8288,
      "Ġä»¥ä¸ĭ": 8289,
      "å¹´ä¸º": 8290,
      "æĿĥå¨ģ": 8291,
      "åĿİ": 8292,
      "åīįæıĲ": 8293,
      "ĠæĪĳä»¬ä¹Ł": 8294,
      "arial": 8295,
      "ĠAb": 8296,
      "å·´åĭĴæĸ¯åĿ¦éļ¾æ°ĳ": 8297,
      "åħįçĸ«": 8298,
      "éĢĤå½ĵæİªæĸ½": 8299,
      "èģĶåĲĪåĽ½ç³»ç»ŁåĨħ": 8300,
      "åĢºåĬ¡äºº": 8301,
      "fnarial": 8302,
      "çĪĨçĤ¸çī©": 8303,
      "blackfs": 8304,
      "fnarialblackfs": 8305,
      "å¤§è¥¿æ´ĭ": 8306,
      "äºļéĤ£": 8307,
      "æĪĳä»¬å°Ĩ": 8308,
      "åĳ½è¿Ĳ": 8309,
      "æ¸ħçĲĨ": 8310,
      "ç¾İåĽ½åĴĮ": 8311,
      "åĸĦæĶ¿": 8312,
      "ild": 8313,
      "èĿ": 8314,
      "Ġä»ĬæĻļ": 8315,
      "çļĦç«ĭåľº": 8316,
      "æĺ¯ä»¥": 8317,
      "ç»ıåħ±ä½ĵ": 8318,
      "ç»ĻæĪĳä»¬": 8319,
      "åĵįåºĶ": 8320,
      "åĬłå¼ºèģĶåĲĪåĽ½": 8321,
      "Ġ69": 8322,
      "å¦ĩå¥³åĴĮå¥³åŃ©": 8323,
      "æĮ¯åħ´": 8324,
      "son": 8325,
      "çļĦåĨĽäºĭ": 8326,
      "çļĦçİ°è±¡": 8327,
      "åĴĮä¿¡æģ¯": 8328,
      "æīĶ": 8329,
      "Ġè¿Ļä¹Ī": 8330,
      "Ġåľ¨è¿ĩåİ»": 8331,
      "çŁ¥æĥħ": 8332,
      "ç»§ç»Ńè¿Ľè¡Į": 8333,
      "Ġä¸Ģå®ļ": 8334,
      "æī¹è¯Ħ": 8335,
      "ä¹°åįĸ": 8336,
      "ç¬¬åįģäºĮ": 8337,
      "ĠçŃīä¸Ģä¸ĭ": 8338,
      "ally": 8339,
      "è½¨éģĵ": 8340,
      "ĠØ": 8341,
      "Ġå®Ŀè´Ŀ": 8342,
      "åĴĮæĢ§": 8343,
      "ä¸ºä½ł": 8344,
      "æĬĽ": 8345,
      "çºµ": 8346,
      "æĶ¯æŁ±": 8347,
      "éĢīåĩº": 8348,
      "arl": 8349,
      "ç¡®ä¿Ŀåľ¨": 8350,
      "å®Įç¾İ": 8351,
      "ç«ŀäºīåĬĽ": 8352,
      "æĴ¤åĩº": 8353,
      "åľŃäºļéĤ£": 8354,
      "è¾Ĳå°Ħ": 8355,
      "è¼": 8356,
      "ĠæĪĸ": 8357,
      "Ġè¿ĩæĿ¥": 8358,
      "åĴĮåı¸æ³ķ": 8359,
      "ä»¥æĶ¯æĮģ": 8360,
      "åĩºåıĳ": 8361,
      "åĪ¶çº¦": 8362,
      "å°Ĩè¿ĻäºĽ": 8363,
      "çĦ¶èĢĮ": 8364,
      "å¸ĥéĽ·": 8365,
      "æ¯ıä¸ªäºº": 8366,
      "å¼ºè°ĥæĮĩåĩº": 8367,
      "èµŀåĬ©": 8368,
      "ĠEn": 8369,
      "ace": 8370,
      "ç¬¬äºĶåįģä¸ĥå±Ĭä¼ļè®®": 8371,
      "è¯¦æĥħ": 8372,
      "è°ĭæ±Ĥ": 8373,
      "èĴĻçī¹åĪ©å°Ķ": 8374,
      "çļĦå¿ħè¦ģæĢ§": 8375,
      "å¤§å¹ħåº¦": 8376,
      "ĠåĮºåŁŁ": 8377,
      "ĠäººæĿĥå§Ķåĳĺä¼ļ": 8378,
      "åĽ½åĪ«": 8379,
      "æıĲåĪ°äºĨ": 8380,
      "çī¹ç«ĭ": 8381,
      "å¹¶æł¹æį®": 8382,
      "çī¹åĪ«æ³¨æĦı": 8383,
      "æľīåħ³åĲĦæĸ¹": 8384,
      "ç¾İåħĥçļĦ": 8385,
      "ä¼Ĺå¤ļ": 8386,
      "ç¬¬äºĶåįģä¹Ŀå±Ĭä¼ļè®®": 8387,
      "åĲ«æ°´å±Ĥ": 8388,
      "çĤ¸å¼¹": 8389,
      "æĥ©æ²»": 8390,
      "æĶ¿çŃĸåĴĮæĸ¹æ¡Ī": 8391,
      "ĠåĸĶ": 8392,
      "CRP": 8393,
      "åļ": 8394,
      "ĠçĪ±": 8395,
      "åĮĻ": 8396,
      "éģı": 8397,
      "è¿ĩåĪĨ": 8398,
      "åħ¬çº¦çļĦ": 8399,
      "èĲ¬": 8400,
      "ä¸¥éĩįè¿Ŀåıį": 8401,
      "æķ£åıĳ": 8402,
      "æľīç½ªä¸įç½ļ": 8403,
      "çļĦè®°å½ķ": 8404,
      "å¹´åĪĿ": 8405,
      "èĥ½åľ¨": 8406,
      "ä»Ģä¹ĪæĹ¶åĢĻ": 8407,
      "å¤įåİŁ": 8408,
      "åħįåıĹ": 8409,
      "æĬķèµĦèĢħ": 8410,
      "éĥ¨éķ¿çº§ä¼ļè®®": 8411,
      "HP": 8412,
      "Ġåĩ¯": 8413,
      "å¹»": 8414,
      "å¥Ī": 8415,
      "äºĽä»Ģä¹Ī": 8416,
      "æĪĳä»¬å°±": 8417,
      "ä»¥åıĬåħ³äºİ": 8418,
      "åĽ¢éķ¿": 8419,
      "åĮħæĭ¬å¯¹": 8420,
      "åĬłå¼ºäºĨ": 8421,
      "æĹıå¡ŀ": 8422,
      "èĲ¥åľ°": 8423,
      "ç¬¬äºĶå§Ķåĳĺä¼ļ": 8424,
      "å±¥è¡ĮæľºæŀĦ": 8425,
      "å²ģçļĦ": 8426,
      "ç´§æĢ¥æĥħåĨµ": 8427,
      "å¾ĴåĪĳ": 8428,
      "è¢«åįłé¢Ĩå·´åĭĴæĸ¯åĿ¦é¢ĨåľŁ": 8429,
      "èĨ¨": 8430,
      "åĢ¾åĲĳ": 8431,
      "æĳ©å°Ķå¤ļçĵ¦åħ±åĴĮåĽ½": 8432,
      "HRC": 8433,
      "Ġåı¤å·´": 8434,
      "çļĦæĪĲæŀľ": 8435,
      "æĺ¯éĢļè¿ĩ": 8436,
      "åħ¨æ°ĳ": 8437,
      "éĥİ": 8438,
      "å°ĶåħĪçĶŁ": 8439,
      "å·´åĵ¥": 8440,
      "æīĢæľīè¿ĻäºĽ": 8441,
      "ä¸ľèĢ¶è·¯æĴĴåĨ·": 8442,
      "å·²ç»ıåľ¨": 8443,
      "ç²¹": 8444,
      "è¡¨ç¤ºæĦŁè°¢": 8445,
      "ited": 8446,
      "Ġby": 8447,
      "æľĢè¿ĳçļĦ": 8448,
      "Ġlike": 8449,
      "æ¯Ľé¢Ŀ": 8450,
      "åĲĪæ³ķæĢ§": 8451,
      "æīĢæĮĩ": 8452,
      "å¤§åŀĭ": 8453,
      "ç«Ń": 8454,
      "äººæĿĥæĥħåĨµ": 8455,
      "åĲįç§°": 8456,
      "åĽŀæĿ¥äºĨ": 8457,
      "120": 8458,
      "åħŃä¸ªæľĪ": 8459,
      "Ġ1997": 8460,
      "åħģè®¸æĪĳ": 8461,
      "COP": 8462,
      "æĮĩæĮ¥å®ĺ": 8463,
      "è¨Ģè®ºèĩªçĶ±": 8464,
      "é»ĳä½ĵfs": 8465,
      "çļĦæľįåĬ¡": 8466,
      "çĶŁæĦı": 8467,
      "éĥ¨èĲ½": 8468,
      "æĢ§æĦıè§ģ": 8469,
      "æī§è¡Įè®¡åĪĴ": 8470,
      "çĹħäºº": 8471,
      "æļĸ": 8472,
      "èĥ½åĬĽåĴĮ": 8473,
      "è¿Ľç¨ĭä¸Ń": 8474,
      "è¶ħè¶Ĭ": 8475,
      "ĠçľĭæĿ¥": 8476,
      "fné»ĳä½ĵfs": 8477,
      "å¢ŀè¿ĽåĴĮä¿ĿæĬ¤äººæĿĥ": 8478,
      "æµªè´¹": 8479,
      "ĠæŁ¥": 8480,
      "åľ¾": 8481,
      "ä¸įä¿¡éģĵ": 8482,
      "å¯¿": 8483,
      "è¿ĺæ²¡": 8484,
      "å½ĵä¸Ń": 8485,
      "çĶ±æŃ¤": 8486,
      "çŃīéĹ®é¢ĺ": 8487,
      "æłĩé¢ĺ": 8488,
      "è£ģè°Īä¼ļ": 8489,
      "æ·¡": 8490,
      "æ°Ķæ°Ľ": 8491,
      "é«ĺçº§ä»£è¡¨": 8492,
      "ç½®äºİ": 8493,
      "eth": 8494,
      "éĺ¶å±Ĥ": 8495,
      "ĠæīĢä»¥æĪĳ": 8496,
      "æ½®": 8497,
      "çŃ¹å¤ĩå·¥ä½ľ": 8498,
      "Ġèĩªä»İ": 8499,
      "aHBE": 8500,
      "808080": 8501,
      "åĴĮå¤ļå·´åĵ¥": 8502,
      "çī¹ç«ĭå°¼è¾¾": 8503,
      "åľ¨ä½ł": 8504,
      "åĬĽæ±Ĥ": 8505,
      "Ġä½łä¸įæĺ¯": 8506,
      "æ±ł": 8507,
      "æĶ¯éħį": 8508,
      "é¡¾åıĬ": 8509,
      "Ġfrom": 8510,
      "åºĵæĽ¼": 8511,
      "ä¸įä»ħä»ħ": 8512,
      "%)ãĢĤ": 8513,
      "åĴĮåĪĨæŀĲ": 8514,
      "æľīå¤ļ": 8515,
      "çī¹åĪ«ä¼ļè®®çļĦ": 8516,
      "æł¸å®ŀ": 8517,
      "ç¦»å©ļ": 8518,
      "ç¨İæĶ¶": 8519,
      "ç£¨": 8520,
      "çĶµåŃĲåķĨåĬ¡": 8521,
      "åŁºäºİæĢ§åĪ«": 8522,
      "ĥåľ¾": 8523,
      "çļĦçŃĶå¤į": 8524,
      "æĥ¡": 8525,
      "å±ķç¤º": 8526,
      "Ġä½łå¾Ĺ": 8527,
      "éĤ£åĦ¿": 8528,
      "æīĭæľº": 8529,
      "åĪĨåıĳä¸ºèį·": 8530,
      "æ¶Īè´¹èĢħ": 8531,
      "ç»´åĴĮè¡ĮåĬ¨": 8532,
      "è»Ĭ": 8533,
      "èĨ¨èĥĢ": 8534,
      "Ã³": 8535,
      "îľ": 8536,
      "Ġåľ£": 8537,
      "äºĨä¸Ģä»½": 8538,
      "æ°Ł": 8539,
      "åľ°éĿ¢": 8540,
      "å¹¶ä¿ĥè¿Ľ": 8541,
      "åı·æ³ķä»¤": 8542,
      "å£¤": 8543,
      "åľŁåºĵæĽ¼": 8544,
      "è®ŃçłĶæīĢ": 8545,
      "æĪĲä¸ºä¸Ģä¸ª": 8546,
      "ention": 8547,
      "ult": 8548,
      "aj": 8549,
      "ç°": 8550,
      "ĠæĶ¯æĮģ": 8551,
      "è¡·": 8552,
      "å¹¶äºİ": 8553,
      "åŁºåĽł": 8554,
      "ä¹Łåı¯": 8555,
      "æıĲä¾Ľç»Ļ": 8556,
      "æ²¡æľīå¾ĹåĪ°": 8557,
      "åı£è¯ĳ": 8558,
      "Ġæĺ¯ä½ł": 8559,
      "åĩłå¤©": 8560,
      "åĪ¶å®ļçļĦ": 8561,
      "çļĦç¬¬ä¸Ģ": 8562,
      "è¿½æ±Ĥ": 8563,
      "DAW": 8564,
      "îŀ": 8565,
      "çļĦéĻĲåĪ¶": 8566,
      "å¥ł": 8567,
      "åıĳèªĵ": 8568,
      "ound": 8569,
      "åŁ¹è®ŃçıŃ": 8570,
      "éļ¾æ°ĳåĴĮ": 8571,
      "ash": 8572,
      "è¾¾æĪĲåįıè®®": 8573,
      "ime": 8574,
      "çĸ¯äºĨ": 8575,
      "Ġä¸´æĹ¶è®®ç¨ĭ": 8576,
      "ä¼ļåĦ¿": 8577,
      "ãĢģâĢľ": 8578,
      "éĹ®ä½ł": 8579,
      "åĽ½å®¶åıĳå±ķ": 8580,
      "åĩĨè®¸": 8581,
      "æ³ķå¾ĭæı´åĬ©": 8582,
      "æ³ķå¾ĭæĸĩä¹¦": 8583,
      "çĽĳè§Ĩ": 8584,
      "çħ§ä¼ļ": 8585,
      "è¡Įä¸ºè´Łè´£": 8586,
      "ç«łç¨ĭ": 8587,
      "æĻ®æŁ¥": 8588,
      "ä»ĩæģ¨": 8589,
      "åī©ä½Ļ": 8590,
      "ĠçĽ´åĪ°": 8591,
      "çļĦå±ĢåĬ¿": 8592,
      "åĬłå·¥": 8593,
      "èĢĮéĿŀ": 8594,
      "ç»Ħç»ĩåľ¨": 8595,
      "ç¡®ä¿¡": 8596,
      "å°Ķå¾·": 8597,
      "ark": 8598,
      "Ġ67": 8599,
      "æī¾åĩº": 8600,
      "çĮ«": 8601,
      "éĿŀå¸¸éĩįè¦ģ": 8602,
      "å¸ĤåľºåĩĨåħ¥": 8603,
      "ç¼´æ¬¾": 8604,
      "ç§ĳæĬĢåĴ¨è¯¢æľºæŀĦ": 8605,
      "IV": 8606,
      "æľīä»»ä½ķ": 8607,
      "ä»¥å®ŀçİ°": 8608,
      "åĪ©çİĩ": 8609,
      "ä¹ĭæĹ¥": 8610,
      "æĸ¹éĿ¢åıĸå¾ĹäºĨ": 8611,
      "æĺĵåıĹ": 8612,
      "åĵ¥åĵ¥": 8613,
      "èİ·å¾ĹçļĦ": 8614,
      "åľ°æĸ¹å½ĵå±Ģ": 8615,
      "æĪ¿åľ°": 8616,
      "äºĨä¸Ģç³»åĪĹ": 8617,
      "åĲīå°ĶåĲīæĸ¯æĸ¯åĿ¦": 8618,
      "Ġçī¹åĪ«å§Ķåĳĺä¼ļ": 8619,
      "æĿ±": 8620,
      "äººèº«": 8621,
      "æĪĸåħ¶": 8622,
      "ä¹Łå°±æĺ¯": 8623,
      "Ġä¸įå¥½": 8624,
      "çĵ¶": 8625,
      "åħ¨çĲĥç»ıæµİ": 8626,
      "æĪ¿å±ĭ": 8627,
      "è¿ľè¿ľ": 8628,
      "çĸ¯çĭĤ": 8629,
      "å¥´éļ¶": 8630,
      "çŁĽçĽ¾": 8631,
      "çļĦæĶ¹éĿ©": 8632,
      "åħ³æĬ¼": 8633,
      "åĪ°è¾¾": 8634,
      "ä¸»çļĦ": 8635,
      "æĦļ": 8636,
      "æĹ¥éĢļè¿ĩçļĦ": 8637,
      "è¾Ī": 8638,
      "æ±ŀ": 8639,
      "å°ıåŃ©": 8640,
      "è£ı": 8641,
      "èĤ¥": 8642,
      "å¸¸ä»»": 8643,
      "è¡¨ç¤ºèµŀèµı": 8644,
      "åı«æĪĳ": 8645,
      "æĬµæĬĹ": 8646,
      "æŃ£ç¡®çļĦ": 8647,
      "çĽĳå¯Łåĳĺ": 8648,
      "ĠåĨ³è®®èįīæ¡ĪA": 8649,
      "æīĢéĢłæĪĲçļĦ": 8650,
      "çĶ¨ä½ľ": 8651,
      "åĪ«çļĦ": 8652,
      "ç¡Ĥ": 8653,
      "æİ¥æĶ¶": 8654,
      "çģ°": 8655,
      "èĥ½åĬĽçļĦ": 8656,
      "ç´¢æīĺ": 8657,
      "æıĲé«ĺè®¤è¯Ĩ": 8658,
      "æ³ķåºŃçļĦ": 8659,
      "è¿Ļæĺ¯ä¸Ģä¸ª": 8660,
      "åĪĨæŀĲåĴĮ": 8661,
      "ç±»ä¼¼çļĦ": 8662,
      "èµłæ¬¾": 8663,
      "ä¸įäººéģĵæĪĸæľīè¾±äººæł¼çļĦå¾ħéģĩ": 8664,
      "eed": 8665,
      "Î¤": 8666,
      "Ġå»ºç«ĭ": 8667,
      "Ġä»£çĲĨä¸»å¸Ń": 8668,
      "åıł": 8669,
      "ä»»çĶ¨": 8670,
      "éĩĳå±ŀ": 8671,
      "æİªè¾ŀ": 8672,
      "å®ĮåĸĦ": 8673,
      "åĲ¦åĨ³": 8674,
      "æ¨Ĥ": 8675,
      "æł¸æŃ¦åĻ¨åĽ½å®¶": 8676,
      "ach": 8677,
      "æīĢéľĢèµĦæºĲ": 8678,
      "ĠUN": 8679,
      "èĩŃæ°§": 8680,
      "Ġå§Ķåĳĺä¼ļå»ºè®®ç¼Ķçº¦åĽ½": 8681,
      "çī¹ç«ĭå°¼è¾¾åĴĮå¤ļå·´åĵ¥": 8682,
      "Ġor": 8683,
      "Ġæ³ķåĽ½": 8684,
      "ä¸ŃçŃī": 8685,
      "æĿĥéĻĲ": 8686,
      "åĪĨå¸ĥ": 8687,
      "éĤ£æľ«": 8688,
      "ĠæĪĳä»¬éľĢè¦ģ": 8689,
      "éĢīæ°ĳ": 8690,
      "å®ĮäºĨ": 8691,
      "æľīæķĪæī§è¡Į": 8692,
      "åį¡æĭī": 8693,
      "åŁ¹è®Ńæĸ¹æ¡Ī": 8694,
      "éĿ¢ä¸´çĿĢ": 8695,
      "æ®ĸæ°ĳåľ°": 8696,
      "Ġabout": 8697,
      "ID": 8698,
      "çļĦçĬ¶åĨµ": 8699,
      "å¹«": 8700,
      "éĻĢ": 8701,
      "è¯¥åĽ½çļĦ": 8702,
      "éķ¿æĹ¶éĹ´": 8703,
      "å¦Ĥä»Ĭ": 8704,
      "è¿Ľè¡Įè°ĥæŁ¥": 8705,
      "åıĺåĬ¨": 8706,
      "ä¿®å»º": 8707,
      "æ¡Īä»¶ä¸Ń": 8708,
      "å¾ģæ±Ĥ": 8709,
      "æ¸ħæ¥ļåľ°": 8710,
      "èį£å¹¸": 8711,
      "01": 8712,
      "Ġç»ĵæŀľ": 8713,
      "æ¡Īä¸Ń": 8714,
      "è¿Ļä¸ĢçĽ®æłĩ": 8715,
      "ç®¡çĲĨäººåĳĺ": 8716,
      "æµ·çīĻ": 8717,
      "Ġpro": 8718,
      "èĪ¹èĪ": 8719,
      "è´¯å½»": 8720,
      "sh": 8721,
      "åľ¨ä¿ĥè¿Ľ": 8722,
      "æĪĳè®¤ä¸º": 8723,
      "æ³ķçļĦ": 8724,
      "åĽ½å®¶åĴĮåĽ½éĻħ": 8725,
      "ç½°": 8726,
      "ä¸ĭéĿ¢": 8727,
      "è¯¥æĸ¹æ¡Ī": 8728,
      "åīįéĿ¢": 8729,
      "ä»£è¡¨åĽ¢è®¤ä¸º": 8730,
      "ä»ĺè¯¸": 8731,
      "è¯´æĺİäºĨ": 8732,
      "ä¸ªäººåĴĮ": 8733,
      "åĳ¼åĲ¸": 8734,
      "cc": 8735,
      "ĠæĪĳä»¥ä¸º": 8736,
      "åħ¨æĿĥè¯ģä¹¦": 8737,
      "éĩįç»Ħ": 8738,
      "åĲĦæľºæŀĦ": 8739,
      "åĲĦç¼Ķçº¦åĽ½": 8740,
      "ä»¥åıĬèģĶåĲĪåĽ½": 8741,
      "ĠæĪĳä»¬æĺ¯": 8742,
      "æ²»å®ī": 8743,
      "æľªåĨ³": 8744,
      "ä¼¯çī¹": 8745,
      "Ġå¦ĤæŀľæĪĳ": 8746,
      "ĠWh": 8747,
      "æĭŁè®®æĸ¹æ¡Īé¢Ħç®Ĺ": 8748,
      "å¤ļæł·åĮĸ": 8749,
      "æ¤įçī©": 8750,
      "ç¸": 8751,
      "Ġæ¬¡": 8752,
      "ä»¿": 8753,
      "åľ¨æŁĲäºĽ": 8754,
      "æ³ķæĸĩ": 8755,
      "Ġä½łä¹Ł": 8756,
      "éĿ¢ç§¯": 8757,
      "å¾Ĺè§Ĵ": 8758,
      "åĪĨè£Ĥ": 8759,
      "æ°ĳèŃ¦": 8760,
      "åĲĳå¤§ä¼ļç¬¬åħŃåįģ": 8761,
      "çŃīäºº": 8762,
      "æ´»åĬ¨ä¸Ń": 8763,
      "ä¸ľçĽŁ": 8764,
      "æĹ©å°±": 8765,
      "ä¸¤å¹´æľŁæĸ¹æ¡Īé¢Ħç®Ĺ": 8766,
      "ä½Ľå¾Ĺè§Ĵ": 8767,
      "äºļå¤ªç»ıç¤¾ä¼ļ": 8768,
      "å°¸ä½ĵ": 8769,
      "NA": 8770,
      "uk": 8771,
      "Ġå¹¶ä¸Ķ": 8772,
      "æ³¡": 8773,
      "ĠæĪĳåı¯": 8774,
      "éĩĮçº¦": 8775,
      "æľįåĬ¡åĴĮ": 8776,
      "æ¯ıæľĪ": 8777,
      "æĤĶ": 8778,
      "çĮª": 8779,
      "é¢Ħéĺ²åĨ²çªģ": 8780,
      "å·¥ä¸ļåıĳå±ķ": 8781,
      "åįģåĪĨéĩįè¦ģ": 8782,
      "][": 8783,
      "Ġæĸ¯": 8784,
      "è®®éĻ¢": 8785,
      "çĶŁè®¡": 8786,
      "åĽ½å®¶å®īåħ¨": 8787,
      "èĩªæĿĢ": 8788,
      "æ²¡äºº": 8789,
      "é¡¹çĽ®åİħ": 8790,
      "æĬĢæľ¯çļĦ": 8791,
      "reat": 8792,
      "å½Ĵè¿ĺ": 8793,
      "çİĽä¸½": 8794,
      "ä¸įæ³ķ": 8795,
      "æ¡ĪåŃĲ": 8796,
      "æ°ĳçĶ¨": 8797,
      "åĨ³å®ļå°Ĩ": 8798,
      "Ġä»ĸä¼ļ": 8799,
      "å»ºç«ĭçļĦ": 8800,
      "omp": 8801,
      "åıĹå®³èĢħçļĦ": 8802,
      "ost": 8803,
      "éĩįçĤ¹æĶ¾åľ¨": 8804,
      "æĹ¢çĦ¶": 8805,
      "æļ´åĬĽä¾µå®³å¦ĩå¥³": 8806,
      "å¾Ĺå¾Ī": 8807,
      "ä½¿åĳ½": 8808,
      "å·´é©¬": 8809,
      "éĺ¿åįľ": 8810,
      "é¦¬": 8811,
      "ç¦»èģĮ": 8812,
      "åģ¥åħ¨": 8813,
      "çŃĶåºĶ": 8814,
      "Ġæ²¡ä»Ģä¹Ī": 8815,
      "çŁŃç¼º": 8816,
      "ç»Ħç»ĩåĴĮéĿŀæĶ¿åºľç»Ħç»ĩ": 8817,
      "SB": 8818,
      "Ġæ¬§çĽŁ": 8819,
      "Ġéķ¿å®ĺ": 8820,
      "ç§Ģ": 8821,
      "å¹¶è¦ģæ±Ĥ": 8822,
      "åĲįæĪĲåĳĺ": 8823,
      "è°Īè®º": 8824,
      "ret": 8825,
      "æĿĳåºĦ": 8826,
      "act": 8827,
      "ç¼©å°ı": 8828,
      "æīĺåħĭåĬ³": 8829,
      "Ġåį°åº¦": 8830,
      "Ġä¸ĭåĪĹ": 8831,
      "ĠåĪ¥": 8832,
      "äº¨": 8833,
      "åĴĮåįłé¢Ĩ": 8834,
      "åĩĮ": 8835,
      "é¢Ĺ": 8836,
      "åħ¬éĩĮ": 8837,
      "å¼Ģéĩĩ": 8838,
      "å¡ĳ": 8839,
      "Ġéº¦": 8840,
      "çļĦæļ´åĬĽè¡Įä¸º": 8841,
      "åľ¨å¯¹": 8842,
      "å°ĸ": 8843,
      "åŃ¸": 8844,
      "éĢļè´§": 8845,
      "æľ¬ç»Ħç»ĩçļĦ": 8846,
      "è¿ĺæĮĩåĩº": 8847,
      "ä¹ŁåºĶ": 8848,
      "æł·çļĦ": 8849,
      "Ġ68": 8850,
      "è®°å½ķè¡¨åĨ³": 8851,
      "å¦ĩå¥³åĴĮå¥³ç«¥": 8852,
      "æĹħæ¸¸ä¸ļ": 8853,
      "ä¸»å¸ŃåĽ¢æĪĲåĳĺ": 8854,
      "è½¬åŀĭæľŁ": 8855,
      "åľŁåºĵæĽ¼æĸ¯åĿ¦": 8856,
      "ail": 8857,
      "ÙĦ": 8858,
      "ĠéļıåĲİ": 8859,
      "æľĪåºķ": 8860,
      "ĠAr": 8861,
      "æĴ°": 8862,
      "è´¢æĶ¿æľŁéĹ´": 8863,
      "å¢ŀéķ¿çİĩ": 8864,
      "ç«ŀèµĽ": 8865,
      "Ġæ²¡æľīäºº": 8866,
      "ĠOr": 8867,
      "ä¸ĸçºªè®®ç¨ĭ": 8868,
      "å§ĳå¨ĺ": 8869,
      "Ġéĺ¿å¯Įæ±Ĺ": 8870,
      "çļĦéĥ¨åĪĨ": 8871,
      "çļĦä¼ļåĳĺåĽ½": 8872,
      "çļĦè°ĪåĪ¤": 8873,
      "åĽ½åĬ¡": 8874,
      "åľ¨ä»ĸ": 8875,
      "å¯¹çŃĸ": 8876,
      "å°ĨåĨĽ": 8877,
      "å·²ç¶ĵ": 8878,
      "çĲĨäºĭåĽ½": 8879,
      "éĺ¿æĽ¼": 8880,
      "æĭħå¿§": 8881,
      "ä¸ŃçļĦä½ľçĶ¨": 8882,
      "åĲĮæĹ¶èĢĥèĻĳåĪ°": 8883,
      "Ġso": 8884,
      "ä½łåĢĳçļĦ": 8885,
      "çĶŁæ®ĸåģ¥åº·": 8886,
      "Sub": 8887,
      "Ġèµŀèµıåľ°æ³¨æĦıåĪ°": 8888,
      "åĬ²": 8889,
      "æĺ¯è¦ģ": 8890,
      "æĺ¯æľĢ": 8891,
      "ä¸ŃåŃ¦": 8892,
      "çĶ¨æ°´": 8893,
      "åħ¨ç³»ç»Ł": 8894,
      "éĥ½åı¯ä»¥": 8895,
      "Ġä¸įä¼ļ": 8896,
      "ens": 8897,
      "æĬķè¯ī": 8898,
      "çļĦä¸»é¢ĺ": 8899,
      "æ²¡äºĭåĲ§": 8900,
      "æīĢè°ĵçļĦ": 8901,
      "åĴĮä¼ļè®®": 8902,
      "æŀļ": 8903,
      "åĪĨåī²": 8904,
      "è¿ĺå¿ħé¡»": 8905,
      "ç¾Ĭ": 8906,
      "ä»£è¡¨æ¬§æ´²èģĶçĽŁ": 8907,
      "å·´å¡ŀå°Ķ": 8908,
      "æĹłåħ³": 8909,
      "è¿Ļä¸Ģè¿Ľç¨ĭ": 8910,
      "ç¼Ķçº¦åĽ½çļĦ": 8911,
      "arr": 8912,
      "Ġæľīä»Ģä¹Ī": 8913,
      "èİ·å¾ĹäºĨ": 8914,
      "æŃ£åľ¨è¿Ľè¡Į": 8915,
      "çŃ¾ç½²çļĦ": 8916,
      "éº»éĨīèį¯åĵģ": 8917,
      "çļĦç²¾ç¥ŀ": 8918,
      "å¯º": 8919,
      "ç»ĦåĲĪ": 8920,
      "è¡¨æ¼Ķ": 8921,
      "å°Ķæĳ©": 8922,
      "åİ»æī¾": 8923,
      "çĬ¯ç½ªè¡Įä¸º": 8924,
      "Ġè¿Ļæĺ¯æĪĳ": 8925,
      "åĳĬè¯īä»ĸ": 8926,
      "æĢ§åĪ«å¹³çŃī": 8927,
      "æĻļå®ī": 8928,
      "è§ĦåĪĴåĴĮ": 8929,
      "ĠåĲĦä½į": 8930,
      "ä¸ĳ": 8931,
      "ä¸Ģè´¯": 8932,
      "ä¸ĭæ¬¡": 8933,
      "æŀĹä¸ļ": 8934,
      "ç¬¬ä¸īæĸ¹": 8935,
      "çº¦æĿŁåĬĽçļĦ": 8936,
      "é«ĺçŃīæķĻèĤ²": 8937,
      "ean": 8938,
      "Ġä½¿": 8939,
      "Ġå®¡è®®äºĨ": 8940,
      "å¹¶åĳ¼åĲģ": 8941,
      "å½ĵä»Ĭ": 8942,
      "æĶ¿åºľå¯¹": 8943,
      "æĽ´æľī": 8944,
      "å¦ĩå¥³åıĤä¸İ": 8945,
      "è®¡åĪĴåĴĮ": 8946,
      "çĬ¯æľī": 8947,
      "ç¥·": 8948,
      "Ġå¦ĤæŀľæĪĳä»¬": 8949,
      "ä½İæĶ¶åħ¥": 8950,
      "çŃ¾è¯ģ": 8951,
      "è´Ńç½®": 8952,
      "æĿ¡ä¾ĭåĴĮ": 8953,
      "çİ»åĪ©çĵ¦å°Ķ": 8954,
      "å½¼å¾Ĺ": 8955,
      "éļĶç¦»å¢Ļ": 8956,
      "ĠåıĤåĬł": 8957,
      "Ġèĩ³å°ĳ": 8958,
      "çļĦä»·åĢ¼": 8959,
      "ä¸įäºĪ": 8960,
      "æĹ¥çĶŁæķĪ": 8961,
      "å¹¶æĶ¯æĮģ": 8962,
      "åºĶå°Ĩ": 8963,
      "çĶ±èģĶåĲĪåĽ½": 8964,
      "åħ±è®¡": 8965,
      "å°ıåŃĲ": 8966,
      "çľĭçĿĢ": 8967,
      "åŀĥåľ¾": 8968,
      "Ġè¿Ļæĺ¯ä»Ģä¹Ī": 8969,
      "åĪ©çĽĬæľīåħ³": 8970,
      "own": 8971,
      "ood": 8972,
      "Ġä»£è¡¨": 8973,
      "Ġç»ıæµİ": 8974,
      "Ġæ¾³å¤§åĪ©äºļ": 8975,
      "çļĦç¨ĭåº¦": 8976,
      "ĠæĪĳçĽ¸ä¿¡": 8977,
      "åħ¬èģĮ": 8978,
      "åĪ¶åĵģ": 8979,
      "èĢĮè¢«": 8980,
      "å¤©çĦ¶": 8981,
      "Ġå½ĵæĹ¶": 8982,
      "ĠåıĪåĽŀé¡¾": 8983,
      "èĥľåĪ©": 8984,
      "åĢŁæŃ¤æľºä¼ļ": 8985,
      "åĨįçĶŁèĥ½æºĲ": 8986,
      ")/": 8987,
      "ver": 8988,
      "Ġåĵª": 8989,
      "ĠæĺİçĻ½": 8990,
      "çļĦæı´åĬ©": 8991,
      "çļĦå®¡æŁ¥": 8992,
      "åľ¨ä¸į": 8993,
      "å°¿": 8994,
      "è¿Ļä»½": 8995,
      "è¿Ļå°±æĺ¯": 8996,
      "ä»¥æıĲé«ĺ": 8997,
      "æ³ķå¤ĸ": 8998,
      "åħ¶ä½Ļ": 8999,
      "åľ°ä¸Ń": 9000,
      "æĸ°åħ´": 9001,
      "å¾Īé«ĺ": 9002,
      "ä¸¤çº§": 9003,
      "èĥ¸": 9004,
      "Ġ73": 9005,
      "æħ¨": 9006,
      "åĮĹçº¦": 9007,
      "çļĦæĿĥåĪ©åĴĮ": 9008,
      "æ¢¯": 9009,
      "å´©": 9010,
      "ç»ıåĲĪç»Ħç»ĩ": 9011,
      "èĢģæĮĿäººæ°ĳæ°ĳä¸»åħ±åĴĮåĽ½": 9012,
      "AT": 9013,
      "ĠåĲī": 9014,
      "Ġéĥ½æĺ¯": 9015,
      "Ġåģĩ": 9016,
      "çļĦåıĺåĮĸ": 9017,
      "çļĦæķ°éĩı": 9018,
      "äºĨæĪĳçļĦ": 9019,
      "åĬłèĵ¬": 9020,
      "è¡ĮåĬ¨æĸ¹æ¡Ī": 9021,
      "ç»ĵæł¸": 9022,
      "æıĲåĩºçļĦéĹ®é¢ĺ": 9023,
      "éħ¸": 9024,
      "éĴ¥": 9025,
      "æŁ¯": 9026,
      "éĥ¨éĹ¨åĴĮ": 9027,
      "æĢİä¹Īåģļ": 9028,
      "éĺµçº¿": 9029,
      "æ¸ħæ´ģåıĳå±ķ": 9030,
      "ºçī²": 9031,
      "ĠåŁĥ": 9032,
      "Ġqu": 9033,
      "çļĦè®¸å¤ļ": 9034,
      "çīºçī²": 9035,
      "ãĢĭ)": 9036,
      "ä¿¡çĶ¨": 9037,
      "éĢļè¿ĩä¸Ģé¡¹": 9038,
      "åĮºåŁŁä¸Ńå¿ĥ": 9039,
      "èĪĩ": 9040,
      "éĴ©": 9041,
      "ä¸ľåįĹäºļ": 9042,
      "äººéģĵä¸»ä¹īäºĭåĬ¡": 9043,
      "ä¹ĭä¸Ģæĺ¯": 9044,
      "æ¬£è§ģ": 9045,
      "Ġåģľ": 9046,
      "çļĦè¯ģæį®": 9047,
      "æľīæĭħä¿Ŀ": 9048,
      "å¤§äºĨ": 9049,
      "ç½¢": 9050,
      "æ²¡ä»Ģä¹Ī": 9051,
      "åıªä¼ļ": 9052,
      "åİŁä»¶": 9053,
      "è¯ģåĪ¸": 9054,
      "æł¸èĥ½": 9055,
      "é¼ł": 9056,
      "éĢļè¿ĩçļĦåĨ³è®®": 9057,
      "Ġhim": 9058,
      "ç¼ĸåĨĻçļĦ": 9059,
      "æįķæįŀ": 9060,
      "é»ĺå¾·": 9061,
      "ĠâĻ": 9062,
      "èĪ¹èĪ¶": 9063,
      "XV": 9064,
      "çļĦæĶ¯åĬ©": 9065,
      "è½°": 9066,
      "æī§è¡Įç§ĺä¹¦": 9067,
      "ous": 9068,
      "å¤ªå¤ļ": 9069,
      "Ġå§Ķåĳĺä¼ļåľ¨": 9070,
      "è¡¨ç¤ºæĶ¯æĮģ": 9071,
      "çŃ¹éĽĨ": 9072,
[...]
